<unk>	0
<pad>	0
<s>	0
</s>	0
00	-0
基金	-1
10	-2
。”	-3
中国	-4
市场	-5
20	-6
一个	-7
公司	-8
200	-9
时间	-10
记者	-11
自己	-12
我们	-13
表示	-14
没有	-15
考生	-16
比赛	-17
11	-18
投资	-19
已经	-20
可以	-21
北京	-22
新浪	-23
:“	-24
今年	-25
目前	-26
进行	-27
考试	-28
价格	-29
他们	-30
大学	-31
12	-32
可能	-33
方面	-34
,“	-35
高考	-36
学生	-37
产品	-38
信息	-39
期货	-40
专业	-41
美元	-42
现在	-43
▁新浪	-44
开始	-45
对于	-46
工作	-47
因为	-48
招生	-49
交易	-50
”,	-51
同时	-52
50	-53
第一	-54
美国	-55
..	-56
不过	-57
如果	-58
30	-59
认为	-60
问题	-61
情况	-62
这个	-63
就是	-64
成为	-65
教育	-66
%,	-67
表现	-68
录取	-69
到了	-70
球队	-71
还是	-72
消息	-73
非常	-74
体育	-75
由于	-76
球员	-77
以及	-78
in	-79
的是	-80
通过	-81
”。	-82
不是	-83
的一	-84
计划	-85
显示	-86
出现	-87
15	-88
之后	-89
学校	-90
手机	-91
▁“	-92
世界	-93
1.	-94
16	-95
但是	-96
2.	-97
大的	-98
其中	-99
19	-100
国家	-101
赛季	-102
媒体	-103
▁(	-104
国内	-105
影响	-106
选择	-107
国际	-108
部分	-109
成绩	-110
%。	-111
希望	-112
这样	-113
电视	-114
18	-115
自己的	-116
上海	-117
银行	-118
管理	-119
经济	-120
on	-121
获得	-122
上涨	-123
14	-124
提供	-125
很多	-126
用户	-127
了一	-128
需要	-129
虽然	-130
数据	-131
13	-132
技术	-133
去年	-134
报道	-135
也是	-136
100	-137
主要	-138
2010	-139
网络	-140
发展	-141
参加	-142
什么	-143
一直	-144
研究	-145
公布	-146
他的	-147
时候	-148
er	-149
娱乐	-150
最后	-151
作为	-152
▁北京	-153
一些	-154
企业	-155
这一	-156
第二	-157
2009	-158
拍摄	-159
机会	-160
不会	-161
继续	-162
0.	-163
采用	-164
所有	-165
▁据	-166
支持	-167
▁在	-168
了解	-169
微博	-170
要求	-171
25	-172
关注	-173
昨日	-174
中的	-175
增长	-176
好的	-177
服务	-178
80	-179
更多	-180
这些	-181
重要	-182
以来	-183
调整	-184
17	-185
特别	-186
还有	-187
进入	-188
相关	-189
3.	-190
发布	-191
分析	-192
人士	-193
所以	-194
场比赛	-195
香港	-196
大家	-197
能力	-198
60	-199
人的	-200
指数	-201
能够	-202
。“	-203
今天	-204
投资者	-205
因此	-206
志愿	-207
都是	-208
冠军	-209
年的	-210
行业	-211
分钟	-212
全球	-213
现场	-214
设计	-215
一定	-216
正式	-217
比较	-218
结束	-219
透露	-220
机构	-221
电影	-222
收益	-223
24	-224
增加	-225
活动	-226
不能	-227
报名	-228
下跌	-229
包括	-230
。(	-231
经理	-232
▁本	-233
an	-234
其他	-235
高校	-236
朋友	-237
26	-238
使用	-239
消费	-240
股票	-241
上的	-242
商品	-243
根据	-244
系统	-245
之前	-246
),	-247
生活	-248
网站	-249
不同	-250
的人	-251
28	-252
合约	-253
基本	-254
达到	-255
这是	-256
2008	-257
超过	-258
000	-259
接受	-260
——	-261
孩子	-262
月份	-263
部门	-264
▁北京时间	-265
功能	-266
99	-267
推出	-268
而且	-269
全国	-270
学院	-271
不断	-272
政策	-273
拥有	-274
需求	-275
▁新浪体育	-276
23	-277
业务	-278
第三	-279
个人	-280
来说	-281
方式	-282
▁新浪体育讯	-283
申请	-284
火箭	-285
资金	-286
亿元	-287
为了	-288
不少	-289
变化	-290
分别	-291
网上	-292
基金公司	-293
来的	-294
最终	-295
2011	-296
只有	-297
应该	-298
昨天	-299
知道	-300
移动	-301
季度	-302
处理	-303
90	-304
学习	-305
训练	-306
40	-307
准备	-308
证券	-309
▁t	-310
像素	-311
合作	-312
教练	-313
来看	-314
规模	-315
最高	-316
参考	-317
个月	-318
并不	-319
ar	-320
中心	-321
对手	-322
上市	-323
除了	-324
新的	-325
联赛	-326
原因	-327
结果	-328
的时候	-329
水平	-330
院校	-331
▁新浪娱乐	-332
只是	-333
人员	-334
正在	-335
一次	-336
俱乐	-337
27	-338
俱乐部	-339
▁新浪娱乐讯	-340
风险	-341
发行	-342
相机	-343
这种	-344
是否	-345
电话	-346
科技	-347
报讯	-348
队的	-349
那么	-350
....	-351
此外	-352
另外	-353
完成	-354
万元	-355
日本	-356
评论	-357
介绍	-358
大幅	-359
4.	-360
黄金	-361
甚至	-362
一起	-363
得到	-364
优势	-365
连续	-366
明星	-367
有关	-368
出了	-369
21	-370
压力	-371
or	-372
这样的	-373
必须	-374
资产	-375
是一	-376
随着	-377
社会	-378
两个	-379
负责	-380
将在	-381
近期	-382
提高	-383
发现	-384
喜欢	-385
尽管	-386
22	-387
阶段	-388
明显	-389
未来	-390
这次	-391
日前	-392
金融	-393
en	-394
老师	-395
上周	-396
内容	-397
销售	-398
决定	-399
其实	-400
看到	-401
标准	-402
)、	-403
考虑	-404
游戏	-405
艺术	-406
最近	-407
具有	-408
本科	-409
状态	-410
配置	-411
排名	-412
保持	-413
型基金	-414
70	-415
净值	-416
取得	-417
视频	-418
分数	-419
此前	-420
一步	-421
我的	-422
平均	-423
普通	-424
行情	-425
毕业	-426
不仅	-427
人民	-428
音乐	-429
mm	-430
觉得	-431
操作	-432
职业	-433
5.	-434
es	-435
举行	-436
成功	-437
决赛	-438
下降	-439
近日	-440
的新	-441
整体	-442
论坛	-443
帮助	-444
报价	-445
镜头	-446
代表	-447
说明	-448
再次	-449
参与	-450
电子	-451
报记者	-452
29	-453
系列	-454
的情况	-455
主力	-456
一样	-457
网友	-458
历史	-459
直接	-460
也有	-461
球迷	-462
债券	-463
预计	-464
高中	-465
的比赛	-466
基础	-467
预期	-468
过程	-469
完全	-470
统计	-471
时尚	-472
实现	-473
500	-474
》,	-475
政府	-476
以上	-477
原油	-478
报考	-479
300	-480
的大	-481
左右	-482
观众	-483
首次	-484
ro	-485
之间	-486
两人	-487
此次	-488
面对	-489
家长	-490
规定	-491
依然	-492
市场的	-493
节目	-494
英寸	-495
▁记者	-496
it	-497
采访	-498
发生	-499
业绩	-500
无法	-501
le	-502
更加	-503
不错	-504
任何	-505
保险	-506
机身	-507
相比	-508
持续	-509
演员	-510
期间	-511
基金的	-512
万吨	-513
突破	-514
公布的	-515
如何	-516
一位	-517
目标	-518
▁中	-519
如此	-520
下午	-521
客户	-522
II	-523
奥运	-524
成交	-525
he	-526
模式	-527
专家	-528
十分	-529
截至	-530
联系	-531
英语	-532
关系	-533
6.	-534
领先	-535
之一	-536
存在	-537
并且	-538
最大	-539
半年	-540
带来	-541
反弹	-542
大利	-543
!”	-544
因素	-545
有限	-546
TF	-547
笔记	-548
at	-549
韩国	-550
安排	-551
公开	-552
同样	-553
受到	-554
进攻	-555
减少	-556
当时	-557
有些	-558
项目	-559
▁4	-560
▁S	-561
品牌	-562
地区	-563
防守	-564
这款	-565
ou	-566
互联	-567
姚明	-568
感觉	-569
也不	-570
演唱	-571
考研	-572
注意	-573
的高	-574
▁3	-575
过去	-576
▁[	-577
宣布	-578
建议	-579
提前	-580
来自	-581
一般	-582
位置	-583
比例	-584
重点	-585
▁高考	-586
进一步	-587
确定	-588
BA	-589
报告	-590
资格	-591
ad	-592
▁《	-593
告诉	-594
的考生	-595
竞争	-596
调查	-597
篮板	-598
有效	-599
相当	-600
足球	-601
ic	-602
仍然	-603
新闻	-604
涨幅	-605
起来	-606
is	-607
博客	-608
是在	-609
移民	-610
产业	-611
笔记本	-612
al	-613
一下	-614
关键	-615
内地	-616
全部	-617
的事	-618
访问	-619
导致	-620
持有	-621
推荐	-622
库存	-623
最新	-624
导演	-625
综合	-626
将于	-627
7.	-628
有所	-629
相对	-630
45	-631
万像素	-632
随后	-633
按照	-634
购买	-635
测试	-636
稳定	-637
运动	-638
更是	-639
el	-640
▁本报讯	-641
或者	-642
效果	-643
不要	-644
当然	-645
基金经理	-646
实际	-647
英国	-648
控制	-649
价值	-650
出色	-651
om	-652
台湾	-653
对此	-654
集团	-655
)。	-656
CD	-657
值得	-658
文化	-659
事件	-660
35	-661
电脑	-662
照片	-663
ETF	-664
互联网	-665
今日	-666
成立	-667
主场	-668
填报	-669
品种	-670
成了	-671
指出	-672
频道	-673
性能	-674
电信	-675
是一个	-676
索尼	-677
理财	-678
相信	-679
三分	-680
的话	-681
双方	-682
安全	-683
条件	-684
▁M	-685
经过	-686
日消息	-687
环境	-688
短期	-689
速度	-690
第四	-691
88	-692
后的	-693
出的	-694
▁C	-695
数码	-696
得分	-697
成本	-698
一年	-699
液晶	-700
份额	-701
处于	-702
走势	-703
实力	-704
成长	-705
肯定	-706
咨询	-707
行为	-708
世界杯	-709
组织	-710
运营	-711
震荡	-712
利用	-713
选手	-714
下的	-715
另一	-716
米兰	-717
负责人	-718
数据显示	-719
具体	-720
货币	-721
最低	-722
金属	-723
身份	-724
小时	-725
主持	-726
对方	-727
广告	-728
积极	-729
范围	-730
id	-731
平台	-732
年轻	-733
空间	-734
接口	-735
复习	-736
多的	-737
广东	-738
one	-739
尤其	-740
人民币	-741
留学	-742
8.	-743
的朋友	-744
,《	-745
不得	-746
解决	-747
55	-748
他在	-749
危机	-750
知识	-751
并没有	-752
只要	-753
研究生	-754
iP	-755
硕士	-756
角色	-757
lo	-758
只能	-759
经验	-760
▁b	-761
应用	-762
33	-763
几乎	-764
经历	-765
许多	-766
兴趣	-767
整个	-768
努力	-769
队员	-770
的表现	-771
as	-772
家庭	-773
欧洲	-774
中学	-775
苹果	-776
针对	-777
自然	-778
通知	-779
屏幕	-780
提供的	-781
出来	-782
9.	-783
保证	-784
华夏	-785
改变	-786
31	-787
国家队	-788
不到	-789
出席	-790
吸引	-791
现货	-792
都有	-793
业内	-794
明年	-795
▁A	-796
将会	-797
当地	-798
提升	-799
软件	-800
re	-801
城市	-802
处理器	-803
46	-804
创新	-805
收入	-806
计算	-807
消费者	-808
▁T	-809
会上	-810
怎么	-811
的问题	-812
全面	-813
年度	-814
程度	-815
即将	-816
外观	-817
无线	-818
深圳	-819
自主	-820
重新	-821
上升	-822
的时间	-823
高清	-824
亿美元	-825
分析师	-826
一场	-827
最大的	-828
经纪	-829
确认	-830
2007	-831
ac	-832
发挥	-833
多数	-834
关于	-835
曾经	-836
跌幅	-837
中国队	-838
越来	-839
产生	-840
地方	-841
我国	-842
权威	-843
▁从	-844
湖人	-845
电视剧	-846
越来越	-847
▁H	-848
▁新	-849
--	-850
亚洲	-851
女儿	-852
进行了	-853
佳能	-854
股市	-855
名单	-856
这位	-857
作用	-858
趋势	-859
使得	-860
让人	-861
产量	-862
编辑	-863
天津	-864
组合	-865
这么	-866
进球	-867
优秀	-868
法国	-869
该机	-870
都会	-871
36	-872
图片	-873
而在	-874
高的	-875
合同	-876
最佳	-877
命中	-878
上午	-879
以下	-880
结婚	-881
传统	-882
商业	-883
▁张	-884
收购	-885
智能	-886
ing	-887
同学	-888
他们的	-889
欢迎	-890
长期	-891
他说	-892
加上	-893
阵容	-894
各方面	-895
%;	-896
无论	-897
我们的	-898
ww	-899
之外	-900
开放	-901
才能	-902
有的	-903
监管	-904
离开	-905
支撑	-906
▁对于	-907
人数	-908
助攻	-909
工程	-910
......	-911
发表	-912
媒体报道	-913
风格	-914
hone	-915
单位	-916
后卫	-917
出场	-918
▁I	-919
新浪网	-920
尼康	-921
自动	-922
采用了	-923
主题	-924
岁的	-925
面临	-926
的不断	-927
▁L	-928
宣传	-929
真正	-930
下来	-931
都在	-932
为准	-933
形成	-934
的基金	-935
的学生	-936
建设	-937
策略	-938
oo	-939
本赛季	-940
人们	-941
斯特	-942
有一	-943
私募	-944
三星	-945
持仓	-946
篮网	-947
办法	-948
听歌	-949
德国	-950
责任	-951
38	-952
中小	-953
具备	-954
生产	-955
真的	-956
il	-957
数量	-958
广州	-959
敬请	-960
演唱会	-961
山东	-962
心理	-963
方案	-964
维持	-965
造成	-966
09	-967
76	-968
GB	-969
▁P	-970
仅供	-971
分红	-972
各种	-973
监会	-974
先生	-975
▁s	-976
主帅	-977
令人	-978
曼联	-979
理科	-980
刚刚	-981
性的	-982
西班	-983
仅供参考	-984
收盘	-985
评价	-986
西班牙	-987
▁G	-988
恢复	-989
有限公司	-990
半场	-991
材料	-992
在这	-993
容易	-994
挑战	-995
首发	-996
75	-997
开发	-998
提醒	-999
US	-1000
似乎	-1001
担任	-1002
数学	-1003
▁中国	-1004
▁李	-1005
就业	-1006
胜利	-1007
分数线	-1008
信心	-1009
而是	-1010
感到	-1011
担心	-1012
旗下	-1013
ind	-1014
简单	-1015
高达	-1016
考试信息	-1017
不可	-1018
进口	-1019
▁特别	-1020
万美元	-1021
▁D	-1022
低于	-1023
曝光	-1024
至于	-1025
总经理	-1026
大豆	-1027
摄像	-1028
申购	-1029
领域	-1030
110	-1031
▁今年	-1032
ow	-1033
方向	-1034
QD	-1035
▁【	-1036
本周	-1037
有可能	-1038
所提供的	-1039
32	-1040
作文	-1041
一名	-1042
儿子	-1043
属于	-1044
巴萨	-1045
绝对	-1046
交易所	-1047
▁我	-1048
前的	-1049
国外	-1050
期待	-1051
股指	-1052
还要	-1053
方法	-1054
终于	-1055
表演	-1056
证明	-1057
▁更多	-1058
34	-1059
严重	-1060
中考	-1061
也在	-1062
年来	-1063
考生以	-1064
公告	-1065
时代	-1066
核心	-1067
率为	-1068
资料	-1069
赎回	-1070
事实	-1071
她的	-1072
形象	-1073
主动	-1074
快速	-1075
科比	-1076
资源	-1077
权威部门	-1078
再度	-1079
如今	-1080
很大	-1081
拿下	-1082
》、	-1083
商务	-1084
QDII	-1085
信息为准	-1086
然而	-1087
与变化	-1088
毕业生	-1089
仓位	-1090
故事	-1091
查询	-1092
▁the	-1093
▁特别说明	-1094
公布的正式	-1095
▁7	-1096
不足	-1097
商家	-1098
谷歌	-1099
请访问	-1100
各方面情况	-1101
敬请考生以	-1102
的不断调整	-1103
所提供的所有	-1104
由于各方面情况	-1105
的不断调整与变化	-1106
考试信息仅供参考	-1107
公布的正式信息为准	-1108
敬请考生以权威部门	-1109
新浪网所提供的所有	-1110
由于各方面情况的不断调整与变化	-1111
37	-1112
比如	-1113
实施	-1114
明确	-1115
同比	-1116
海外	-1117
48	-1118
考场	-1119
的情况下	-1120
信息请访问	-1121
结构	-1122
博客圈	-1123
第一次	-1124
▁王	-1125
启动	-1126
log	-1127
江苏	-1128
而言	-1129
光学	-1130
售价	-1131
然后	-1132
目的	-1133
更多的	-1134
举办	-1135
会议	-1136
利率	-1137
加强	-1138
紧张	-1139
了一个	-1140
只基金	-1141
文章	-1142
首先	-1143
供应	-1144
培养	-1145
降低	-1146
ch	-1147
▁5	-1148
上述	-1149
我省	-1150
纪录	-1151
足协	-1152
就会	-1153
独立	-1154
?”	-1155
一家	-1156
文科	-1157
配备	-1158
▁B	-1159
联盟	-1160
制作	-1161
很难	-1162
演的	-1163
66	-1164
克斯	-1165
适合	-1166
一度	-1167
也会	-1168
NBA	-1169
过程中	-1170
▁2	-1171
、“	-1172
法律	-1173
个篮板	-1174
每天	-1175
纽约	-1176
重庆	-1177
比分	-1178
课程	-1179
数字	-1180
身体	-1181
公司的	-1182
意味	-1183
点评	-1184
联想	-1185
的一个	-1186
85	-1187
坚持	-1188
正常	-1189
统一	-1190
队友	-1191
OS	-1192
看来	-1193
科学	-1194
段时间	-1195
加盟	-1196
姆斯	-1197
有了	-1198
前锋	-1199
确实	-1200
设备	-1201
ion	-1202
08	-1203
客场	-1204
推动	-1205
400	-1206
奥运会	-1207
▁新浪科技	-1208
为主	-1209
利润	-1210
同期	-1211
招办	-1212
董事	-1213
ay	-1214
精神	-1215
联合	-1216
费用	-1217
尤其是	-1218
的影响	-1219
招生计划	-1220
分辨	-1221
即使	-1222
巴西	-1223
皇马	-1224
裁判	-1225
语言	-1226
在北京	-1227
nd	-1228
健康	-1229
已有	-1230
邀请	-1231
难以	-1232
▁据悉	-1233
以后	-1234
保护	-1235
普遍	-1236
阅读	-1237
的价格	-1238
专辑	-1239
回应	-1240
遭遇	-1241
面试	-1242
com	-1243
▁w	-1244
方便	-1245
显得	-1246
证监会	-1247
亮相	-1248
人才	-1249
内的	-1250
地产	-1251
态度	-1252
支付	-1253
转会	-1254
工作人员	-1255
▁新浪科技讯	-1256
42	-1257
MA	-1258
▁-	-1259
出口	-1260
满足	-1261
iPhone	-1262
ed	-1263
▁1	-1264
专科	-1265
众多	-1266
作者	-1267
大量	-1268
正是	-1269
著名	-1270
那些	-1271
制造	-1272
加入	-1273
卫视	-1274
采取	-1275
升级	-1276
变焦	-1277
开心	-1278
有人	-1279
了解到	-1280
1000	-1281
上网	-1282
的小	-1283
纷纷	-1284
至少	-1285
场上	-1286
主教练	-1287
获悉	-1288
较大	-1289
意大利	-1290
上证	-1291
妈妈	-1292
接近	-1293
阿联	-1294
800	-1295
人物	-1296
官方	-1297
质量	-1298
较为	-1299
▁昨日	-1300
▁编辑	-1301
ED	-1302
显然	-1303
作品	-1304
协会	-1305
意见	-1306
替补	-1307
欧元	-1308
也将	-1309
有望	-1310
理解	-1311
粉丝	-1312
自由	-1313
》、《	-1314
幅度	-1315
艺人	-1316
一种	-1317
尔特	-1318
扩大	-1319
柏芝	-1320
精彩	-1321
阿里	-1322
两年	-1323
保障	-1324
观点	-1325
采访时	-1326
展开	-1327
年底	-1328
集中	-1329
业内人士	-1330
唯一	-1331
▁不过	-1332
大盘	-1333
承认	-1334
符合	-1335
经营	-1336
轻松	-1337
配合	-1338
▁陈	-1339
愿意	-1340
成都	-1341
是个	-1342
机型	-1343
逐渐	-1344
都不	-1345
教育部	-1346
意外	-1347
找到	-1348
有着	-1349
油价	-1350
锦赛	-1351
面的	-1352
享受	-1353
状况	-1354
距离	-1355
里斯	-1356
比赛中	-1357
的球员	-1358
am	-1359
放弃	-1360
意味着	-1361
还没有	-1362
免费	-1363
现象	-1364
▁而	-1365
▁o	-1366
困难	-1367
当天	-1368
背景	-1369
限制	-1370
收益率	-1371
的同时	-1372
点击	-1373
笔者	-1374
清华	-1375
迅速	-1376
运营商	-1377
一旦	-1378
一点	-1379
回到	-1380
形式	-1381
影片	-1382
每个	-1383
的前	-1384
钢材	-1385
市场上	-1386
▁6	-1387
▁W	-1388
一款	-1389
事业	-1390
据悉	-1391
考点	-1392
高等	-1393
坦言	-1394
强调	-1395
酒店	-1396
49	-1397
▁f	-1398
赢得	-1399
大利亚	-1400
的机会	-1401
经纪人	-1402
2000	-1403
出版	-1404
特点	-1405
可能会	-1406
澳大利亚	-1407
动作	-1408
体验	-1409
渠道	-1410
赛后	-1411
创造	-1412
微软	-1413
歌手	-1414
男篮	-1415
结合	-1416
考试院	-1417
募集	-1418
特尔	-1419
玉米	-1420
生的	-1421
经常	-1422
罗斯	-1423
解释	-1424
利亚	-1425
在中国	-1426
的投资	-1427
股指期货	-1428
休息	-1429
很好	-1430
日至	-1431
经典	-1432
能源	-1433
通胀	-1434
不再	-1435
协议	-1436
学位	-1437
当前	-1438
感情	-1439
战胜	-1440
股份	-1441
us	-1442
三个	-1443
下滑	-1444
理工	-1445
答案	-1446
单反	-1447
累计	-1448
目前的	-1449
充分	-1450
就在	-1451
日晚	-1452
大部分	-1453
日的	-1454
起了	-1455
”、“	-1456
重要的	-1457
▁据了解	-1458
▁F	-1459
共同	-1460
延续	-1461
本次	-1462
还在	-1463
▁此外	-1464
加拿	-1465
提出	-1466
黑色	-1467
并不是	-1468
▁周	-1469
意义	-1470
知名	-1471
的事情	-1472
▁R	-1473
东方	-1474
及时	-1475
夺冠	-1476
搭载	-1477
造型	-1478
TD	-1479
制度	-1480
对焦	-1481
拿到	-1482
本人	-1483
:00	-1484
ht	-1485
▁一	-1486
总裁	-1487
或许	-1488
斯科	-1489
联通	-1490
东西	-1491
场的	-1492
时刻	-1493
,3	-1494
et	-1495
▁刘	-1496
亏损	-1497
内部	-1498
冲击	-1499
剧中	-1500
受伤	-1501
强的	-1502
落后	-1503
是因为	-1504
,”	-1505
年前	-1506
球队的	-1507
事情	-1508
几个	-1509
情绪	-1510
歌迷	-1511
HD	-1512
难度	-1513
会有	-1514
内线	-1515
反映	-1516
资本	-1517
自主招生	-1518
主席	-1519
内置	-1520
击败	-1521
团队	-1522
执行	-1523
改革	-1524
注册	-1525
生涯	-1526
设置	-1527
告诉记者	-1528
39	-1529
ol	-1530
则是	-1531
父亲	-1532
男友	-1533
达到了	-1534
47	-1535
AC	-1536
两位	-1537
在线	-1538
无疑	-1539
新基金	-1540
86	-1541
歌曲	-1542
演出	-1543
爱情	-1544
犯规	-1545
的热	-1546
顺利	-1547
今年的	-1548
电视台	-1549
信用	-1550
办理	-1551
四川	-1552
大宗	-1553
招收	-1554
根本	-1555
自考	-1556
该校	-1557
上半年	-1558
出现在	-1559
IS	-1560
做出	-1561
凭借	-1562
力的	-1563
德里	-1564
股东	-1565
▁p	-1566
传媒	-1567
投入	-1568
指导	-1569
精选	-1570
最后一	-1571
2006	-1572
56	-1573
你们	-1574
委员	-1575
小组	-1576
教学	-1577
来了	-1578
角度	-1579
贡献	-1580
还将	-1581
▁10	-1582
产品的	-1583
共有	-1584
呈现	-1585
并未	-1586
批次	-1587
武汉	-1588
给了	-1589
and	-1590
上赛季	-1591
一切	-1592
中超	-1593
前期	-1594
加大	-1595
工业	-1596
并非	-1597
运行	-1598
棉花	-1599
上了	-1600
也许	-1601
月底	-1602
橡胶	-1603
iv	-1604
丰富	-1605
更为	-1606
真实	-1607
行动	-1608
的主要	-1609
定位	-1610
未能	-1611
来到	-1612
中国移动	-1613
TC	-1614
cn	-1615
否认	-1616
尔夫	-1617
当年	-1618
摄影	-1619
199	-1620
教师	-1621
账户	-1622
那样	-1623
▁我要	-1624
▁a	-1625
▁m	-1626
交流	-1627
每年	-1628
加拿大	-1629
▁我要评论	-1630
播放	-1631
组图	-1632
43	-1633
CE	-1634
从而	-1635
以前	-1636
基亚	-1637
所在	-1638
新增	-1639
细节	-1640
预测	-1641
这也是	-1642
下了	-1643
培训	-1644
尺寸	-1645
很快	-1646
避免	-1647
之间的	-1648
出现了	-1649
日下午	-1650
主角	-1651
回答	-1652
完美	-1653
投档	-1654
满意	-1655
热火	-1656
得到了	-1657
的原因	-1658
液晶电视	-1659
TA	-1660
▁E	-1661
▁华	-1662
合理	-1663
回落	-1664
好友	-1665
小幅	-1666
建立	-1667
措施	-1668
格兰	-1669
流动	-1670
老板	-1671
ter	-1672
▁of	-1673
一定要	-1674
Wind	-1675
本场比赛	-1676
做好	-1677
板块	-1678
涉及	-1679
以往	-1680
南方	-1681
清楚	-1682
球场	-1683
依旧	-1684
封闭	-1685
引发	-1686
杂志	-1687
阿尔	-1688
的可能	-1689
57	-1690
失误	-1691
实行	-1692
差距	-1693
44	-1694
不好	-1695
两次	-1696
婚礼	-1697
很有	-1698
通信	-1699
力量	-1700
强势	-1701
白糖	-1702
的成绩	-1703
roid	-1704
1-	-1705
女子	-1706
实验	-1707
政治	-1708
不同的	-1709
不知道	-1710
一周	-1711
体现	-1712
电池	-1713
财经	-1714
学生的	-1715
诺基亚	-1716
本报记者	-1717
89	-1718
▁与	-1719
主任	-1720
体系	-1721
动力	-1722
南京	-1723
国安	-1724
突然	-1725
今年以来	-1726
乐观	-1727
区域	-1728
周期	-1729
影像	-1730
总体	-1731
摩托	-1732
收视	-1733
时的	-1734
程序	-1735
主持人	-1736
事实上	-1737
英特尔	-1738
65	-1739
但在	-1740
全场	-1741
增强	-1742
打造	-1743
自身	-1744
身上	-1745
传闻	-1746
收于	-1747
提供了	-1748
多少	-1749
大赛	-1750
的中	-1751
类似	-1752
逐步	-1753
金额	-1754
高兴	-1755
交易日	-1756
的消息	-1757
充满	-1758
央行	-1759
附近	-1760
▁2.	-1761
该基金	-1762
52	-1763
之中	-1764
争夺	-1765
估值	-1766
保本	-1767
掌握	-1768
日电	-1769
理想	-1770
等待	-1771
特别是	-1772
大宗商品	-1773
仅仅	-1774
切尔	-1775
尼奥	-1776
物浦	-1777
百度	-1778
也没有	-1779
▁2010	-1780
▁8	-1781
幸福	-1782
打出	-1783
概念	-1784
高位	-1785
120	-1786
▁目前	-1787
利物浦	-1788
张柏芝	-1789
光学变焦	-1790
优惠	-1791
沪深	-1792
里的	-1793
▁根据	-1794
上一	-1795
不久	-1796
加坡	-1797
开展	-1798
发布会	-1799
最好的	-1800
的方式	-1801
获得了	-1802
你的	-1803
投篮	-1804
母亲	-1805
>>	-1806
IP	-1807
下一	-1808
买入	-1809
办公	-1810
女生	-1811
至今	-1812
认识	-1813
雅思	-1814
▁c	-1815
会在	-1816
兄弟	-1817
员工	-1818
季后	-1819
搜索	-1820
浙江	-1821
讨论	-1822
通讯	-1823
魔术	-1824
多次	-1825
定的	-1826
把握	-1827
汽车	-1828
申花	-1829
选拔	-1830
切尔西	-1831
的重要	-1832
詹姆斯	-1833
▁这	-1834
万人	-1835
她说	-1836
小姐	-1837
看看	-1838
遗憾	-1839
厂商	-1840
取消	-1841
拒绝	-1842
毕竟	-1843
表达	-1844
▁虽然	-1845
也很	-1846
对象	-1847
律师	-1848
考生的	-1849
87	-1850
判断	-1851
学科	-1852
贷款	-1853
期货市场	-1854
Hz	-1855
一天	-1856
信托	-1857
成熟	-1858
我想	-1859
领导	-1860
季后赛	-1861
结束后	-1862
3000	-1863
但他	-1864
局面	-1865
搭配	-1866
最好	-1867
禁区	-1868
能否	-1869
让他	-1870
那个	-1871
高于	-1872
记录	-1873
▁图片	-1874
我觉得	-1875
59	-1876
任务	-1877
伦敦	-1878
素质	-1879
罗拉	-1880
主要是	-1881
日起	-1882
And	-1883
%、	-1884
三年	-1885
分为	-1886
北大	-1887
在于	-1888
收费	-1889
旅游	-1890
百分	-1891
石油	-1892
这也	-1893
感兴趣	-1894
1/	-1895
将是	-1896
尝试	-1897
战略	-1898
现实	-1899
▁上海	-1900
在接受	-1901
高尔夫	-1902
IT	-1903
地址	-1904
少年	-1905
形势	-1906
现身	-1907
生源	-1908
股价	-1909
多头	-1910
易建	-1911
股权	-1912
高职	-1913
ent	-1914
现在的	-1915
教育考试院	-1916
,6	-1917
入学	-1918
创业	-1919
力度	-1920
声明	-1921
影视	-1922
灵活	-1923
重视	-1924
颁奖	-1925
▁有	-1926
不大	-1927
分的	-1928
刺激	-1929
华德	-1930
父母	-1931
谨慎	-1932
中国的	-1933
大多数	-1934
易建联	-1935
▁0	-1936
▁国	-1937
三大	-1938
召开	-1939
各地	-1940
女友	-1941
当中	-1942
成人	-1943
战术	-1944
指标	-1945
新生	-1946
热门	-1947
贸易	-1948
参考价格	-1949
央视	-1950
波动	-1951
给予	-1952
贴吧	-1953
hin	-1954
方面的	-1955
指数基金	-1956
数码相机	-1957
一对	-1958
复出	-1959
想要	-1960
斯的	-1961
ook	-1962
日上午	-1963
▁编辑点评	-1964
ME	-1965
回报	-1966
强劲	-1967
损失	-1968
的外	-1969
舞台	-1970
式基金	-1971
摄像头	-1972
次助攻	-1973
上场	-1974
回归	-1975
晚上	-1976
表明	-1977
这两	-1978
钢铁	-1979
题目	-1980
im	-1981
》。	-1982
交通	-1983
先后	-1984
去了	-1985
后者	-1986
LED	-1987
ows	-1988
www	-1989
他表示	-1990
▁blog	-1991
SD	-1992
ir	-1993
习惯	-1994
心态	-1995
松下	-1996
科目	-1997
足够	-1998
比赛的	-1999
摩托罗拉	-2000
//	-2001
CO	-2002
ob	-2003
亿份	-2004
医院	-2005
后来	-2006
始终	-2007
就能	-2008
篮球	-2009
色彩	-2010
西亚	-2011
证书	-2012
身边	-2013
▁另外	-2014
身份证	-2015
分享	-2016
剧组	-2017
印象	-2018
地位	-2019
太阳	-2020
清晰	-2021
环保	-2022
类型	-2023
警方	-2024
为什么	-2025
,2010	-2026
3-	-2027
▁d	-2028
可谓	-2029
家人	-2030
追求	-2031
都要	-2032
第一个	-2033
不妨	-2034
到底	-2035
参赛	-2036
棋手	-2037
签约	-2038
该公司	-2039
中场	-2040
偏股	-2041
偶像	-2042
各大	-2043
展示	-2044
平板	-2045
广角	-2046
德华	-2047
总是	-2048
披露	-2049
有点	-2050
约翰	-2051
这部	-2052
适应	-2053
600	-2054
,5	-2055
不想	-2056
主流	-2057
年初	-2058
感光	-2059
更好	-2060
特色	-2061
该剧	-2062
就可以	-2063
不够	-2064
前往	-2065
可是	-2066
等多	-2067
都很	-2068
不错的	-2069
分辨率	-2070
▁大	-2071
后市	-2072
后期	-2073
感谢	-2074
成员	-2075
熟悉	-2076
盈利	-2077
分别为	-2078
股票型基金	-2079
,7	-2080
UN	-2081
促销	-2082
合格	-2083
实习	-2084
往往	-2085
方达	-2086
此后	-2087
法院	-2088
新赛季	-2089
良好的	-2090
大型	-2091
存款	-2092
总监	-2093
才是	-2094
看好	-2095
支球队	-2096
新加坡	-2097
显示屏	-2098
2012	-2099
68	-2100
世纪	-2101
代言	-2102
位于	-2103
出手	-2104
占据	-2105
反应	-2106
版本	-2107
男子	-2108
的首	-2109
荷兰	-2110
重量	-2111
陆续	-2112
易方达	-2113
,1	-2114
创作	-2115
嘉宾	-2116
布朗	-2117
必要	-2118
杰克	-2119
校长	-2120
用于	-2121
队在	-2122
阿泰	-2123
集体	-2124
委员会	-2125
的产品	-2126
基金管理	-2127
操作系统	-2128
传感	-2129
出台	-2130
变得	-2131
焦点	-2132
相应	-2133
美术	-2134
▁to	-2135
▁作者	-2136
▁昨天	-2137
也可以	-2138
凯尔特	-2139
基本面	-2140
》(	-2141
就要	-2142
教授	-2143
文件	-2144
沈阳	-2145
特殊	-2146
答题	-2147
考证	-2148
认可	-2149
证实	-2150
马刺	-2151
▁9	-2152
中央	-2153
地震	-2154
外界	-2155
平时	-2156
日在	-2157
激烈	-2158
矿石	-2159
的球队	-2160
另一方面	-2161
67	-2162
AT	-2163
PE	-2164
传球	-2165
参数	-2166
富士	-2167
射门	-2168
放在	-2169
网民	-2170
Windows	-2171
上演	-2172
之下	-2173
公益	-2174
名字	-2175
夏天	-2176
存储	-2177
开户	-2178
男人	-2179
缺乏	-2180
营销	-2181
规范	-2182
质疑	-2183
饰演	-2184
10-	-2185
实际上	-2186
有机会	-2187
4-	-2188
82	-2189
严格	-2190
做到	-2191
心情	-2192
时期	-2193
规则	-2194
超级	-2195
主力合约	-2196
发表评论	-2197
VC	-2198
▁h	-2199
主办	-2200
凌晨	-2201
性价	-2202
慈善	-2203
月的	-2204
根廷	-2205
签证	-2206
阿森	-2207
马上	-2208
不得不	-2209
传感器	-2210
阿根廷	-2211
73	-2212
全新	-2213
公安	-2214
农业	-2215
周一	-2216
对比	-2217
对阵	-2218
开盘	-2219
引进	-2220
登录	-2221
营业	-2222
连胜	-2223
下半年	-2224
Android	-2225
95	-2226
们的	-2227
太多	-2228
引起	-2229
快乐	-2230
格局	-2231
正确	-2232
淘汰	-2233
硬盘	-2234
阳光	-2235
世锦赛	-2236
准考证	-2237
北京市	-2238
很好的	-2239
阿森纳	-2240
,2009	-2241
eb	-2242
tp	-2243
▁但	-2244
下调	-2245
公募	-2246
内存	-2247
几天	-2248
十年	-2249
尚未	-2250
日报	-2251
行的	-2252
规划	-2253
成为了	-2254
净值增长	-2255
st	-2256
攻击	-2257
民族	-2258
沪铜	-2259
生物	-2260
短信	-2261
维奇	-2262
▁11	-2263
CDMA	-2264
http	-2265
倍光学变焦	-2266
不管	-2267
听力	-2268
图像	-2269
本山	-2270
爆发	-2271
画面	-2272
3.5	-2273
在美国	-2274
增加了	-2275
的中国	-2276
▁2009	-2277
83	-2278
ag	-2279
利益	-2280
广大	-2281
最为	-2282
有利	-2283
检查	-2284
湖南	-2285
的女	-2286
稳健	-2287
▁由于	-2288
一定的	-2289
计算机	-2290
2-	-2291
PS	-2292
不了	-2293
专门	-2294
想到	-2295
新高	-2296
混合	-2297
环节	-2298
英雄	-2299
150	-2300
▁论坛	-2301
在今年	-2302
带来的	-2303
很多人	-2304
几年	-2305
国奥	-2306
打算	-2307
暂时	-2308
沟通	-2309
突出	-2310
终端	-2311
运会	-2312
▁12	-2313
性价比	-2314
艺术类	-2315
▁三	-2316
一致	-2317
万手	-2318
人气	-2319
场景	-2320
天气	-2321
担忧	-2322
显卡	-2323
融资	-2324
试题	-2325
USB	-2326
很大的	-2327
期货公司	-2328
刘翔	-2329
发言	-2330
就有	-2331
惠普	-2332
确保	-2333
辽宁	-2334
金牌	-2335
农产品	-2336
流动性	-2337
新浪高考	-2338
▁更多信息请访问	-2339
伊朗	-2340
工具	-2341
年龄	-2342
怎样	-2343
春节	-2344
赛前	-2345
://	-2346
一代	-2347
上调	-2348
他是	-2349
他还	-2350
大会	-2351
福建	-2352
红利	-2353
组成	-2354
能在	-2355
认真	-2356
迎来	-2357
霆锋	-2358
青年	-2359
麦蒂	-2360
英格兰	-2361
新浪高考频道	-2362
TV	-2363
原本	-2364
就像	-2365
带着	-2366
覆盖	-2367
也就是	-2368
比去年	-2369
,4	-2370
一本	-2371
仅为	-2372
仪式	-2373
分配	-2374
原则	-2375
收到	-2376
暂停	-2377
杭州	-2378
见面	-2379
Pad	-2380
▁尽管	-2381
▁欢迎	-2382
铁矿石	-2383
智能手机	-2384
98	-2385
ig	-2386
▁自	-2387
总结	-2388
推广	-2389
本身	-2390
让我	-2391
问到	-2392
,2	-2393
77	-2394
也要	-2395
出演	-2396
别人	-2397
寻找	-2398
展现	-2399
想法	-2400
打得	-2401
播出	-2402
晋级	-2403
芯片	-2404
观看	-2405
谈到	-2406
豆粕	-2407
陷入	-2408
取得了	-2409
5000	-2410
券商	-2411
建筑	-2412
河南	-2413
练习	-2414
英超	-2415
面积	-2416
CEO	-2417
在一起	-2418
总决赛	-2419
房地产	-2420
的基础	-2421
▁更多高考	-2422
▁高考论坛	-2423
▁高考贴吧	-2424
▁高考博客圈	-2425
▁欢迎发表评论	-2426
▁更多高考信息请访问	-2427
.5	-2428
ab	-2429
ce	-2430
▁文	-2431
巨大	-2432
接触	-2433
的发展	-2434
的第一	-2435
un	-2436
做的	-2437
安东	-2438
感受	-2439
截止	-2440
所谓	-2441
昨晚	-2442
炒作	-2443
详细	-2444
说法	-2445
遇到	-2446
ISO	-2447
▁近日	-2448
的需求	-2449
董事长	-2450
人生	-2451
传出	-2452
低调	-2453
加分	-2454
安德	-2455
对抗	-2456
试卷	-2457
辅导	-2458
▁索尼	-2459
大学生	-2460
留学生	-2461
网上报名	-2462
72	-2463
为此	-2464
公平	-2465
印度	-2466
多年	-2467
女排	-2468
实在	-2469
小的	-2470
生日	-2471
的确	-2472
离婚	-2473
观察	-2474
走出	-2475
进步	-2476
银河	-2477
雷斯	-2478
▁1.	-2479
不可能	-2480
专业的	-2481
GA	-2482
更有	-2483
淘宝	-2484
还会	-2485
高级	-2486
:30	-2487
有一个	-2488
运动员	-2489
保险公司	-2490
41	-2491
PC	-2492
ot	-2493
场均	-2494
手段	-2495
手续	-2496
机制	-2497
梦想	-2498
银华	-2499
高端	-2500
高速	-2501
三季度	-2502
时间为	-2503
的市场	-2504
MB	-2505
▁□	-2506
一路	-2507
外援	-2508
女士	-2509
承诺	-2510
拍戏	-2511
格式	-2512
现代	-2513
绯闻	-2514
赛事	-2515
错误	-2516
门将	-2517
2.0	-2518
发布的	-2519
杰克逊	-2520
理财产品	-2521
一线	-2522
不知	-2523
两天	-2524
关心	-2525
减仓	-2526
各类	-2527
地说	-2528
意识	-2529
扮演	-2530
曼城	-2531
率先	-2532
的好	-2533
直播	-2534
违规	-2535
ess	-2536
▁考研	-2537
可以说	-2538
据了解	-2539
97	-2540
不用	-2541
个性	-2542
于是	-2543
化学	-2544
唱片	-2545
布鲁	-2546
性感	-2547
意思	-2548
输入	-2549
▁th	-2550
拉斯	-2551
提交	-2552
模特	-2553
▁佳能	-2554
更好的	-2555
的地方	-2556
个股	-2557
互动	-2558
债务	-2559
元的	-2560
卡特	-2561
外国	-2562
届时	-2563
新疆	-2564
服装	-2565
老公	-2566
都能	-2567
鼓励	-2568
▁尼康	-2569
价格的	-2570
2005	-2571
凯尔特人	-2572
▁N	-2573
兴奋	-2574
前景	-2575
命题	-2576
并在	-2577
思想	-2578
月中	-2579
查看	-2580
理念	-2581
豆油	-2582
▁美国	-2583
是一款	-2584
原油期货	-2585
这场比赛	-2586
69	-2587
▁小	-2588
不太	-2589
但我	-2590
出国	-2591
嘉实	-2592
复试	-2593
效率	-2594
新兴	-2595
现金	-2596
行政	-2597
这里	-2598
酷睿	-2599
一直在	-2600
出色的	-2601
,9	-2602
54	-2603
专户	-2604
今后	-2605
名校	-2606
基于	-2607
她们	-2608
结算	-2609
英镑	-2610
记忆	-2611
重大	-2612
防抖	-2613
面向	-2614
▁作为	-2615
赵本山	-2616
都没有	-2617
债券基金	-2618
58	-2619
IA	-2620
In	-2621
不多	-2622
从来	-2623
例如	-2624
债基	-2625
允许	-2626
化的	-2627
周二	-2628
在此	-2629
子的	-2630
学历	-2631
师范	-2632
开拓	-2633
强烈	-2634
手术	-2635
湖北	-2636
留在	-2637
量的	-2638
据香港	-2639
是不是	-2640
还可以	-2641
78	-2642
MI	-2643
也能	-2644
出售	-2645
固定	-2646
大连	-2647
对外	-2648
用的	-2649
相同	-2650
研发	-2651
维斯	-2652
者的	-2653
话题	-2654
阅卷	-2655
面前	-2656
的工作	-2657
▁当	-2658
以为	-2659
做了	-2660
写作	-2661
卡片	-2662
尔顿	-2663
星期	-2664
称为	-2665
观望	-2666
语文	-2667
一方面	-2668
将继续	-2669
中有	-2670
争取	-2671
其余	-2672
完善	-2673
应对	-2674
浏览	-2675
章子	-2676
良好	-2677
运作	-2678
金价	-2679
麦克	-2680
180	-2681
俄罗斯	-2682
关注的	-2683
接下来	-2684
公众	-2685
复旦	-2686
学费	-2687
拍照	-2688
掘金	-2689
热情	-2690
直到	-2691
的要求	-2692
填报志愿	-2693
不如	-2694
休斯	-2695
各个	-2696
宏观	-2697
最多	-2698
爸爸	-2699
节奏	-2700
队长	-2701
公布了	-2702
无论是	-2703
火箭队	-2704
百分点	-2705
的位置	-2706
程度上	-2707
万像素的	-2708
的可能性	-2709
DV	-2710
▁第	-2711
万股	-2712
下载	-2713
到期	-2714
女人	-2715
打击	-2716
月初	-2717
期价	-2718
队伍	-2719
下半场	-2720
大学的	-2721
此同时	-2722
62	-2723
▁前	-2724
丁俊	-2725
克尔	-2726
到来	-2727
动态	-2728
区间	-2729
声音	-2730
处罚	-2731
外语	-2732
少数	-2733
活跃	-2734
画质	-2735
考查	-2736
触摸	-2737
赵薇	-2738
▁in	-2739
丁俊晖	-2740
刘德华	-2741
安东尼	-2742
最高的	-2743
考生可	-2744
国际米兰	-2745
的比赛中	-2746
64	-2747
上看	-2748
二级	-2749
传奇	-2750
农村	-2751
多家	-2752
威胁	-2753
它的	-2754
富国	-2755
接到	-2756
穆里	-2757
▁中新	-2758
最新的	-2759
短期内	-2760
个百分点	-2761
分析人士	-2762
高考成绩	-2763
74	-2764
IX	-2765
▁高	-2766
在场	-2767
地点	-2768
年内	-2769
建仓	-2770
新人	-2771
状元	-2772
以上的	-2773
可能是	-2774
在上海	-2775
章子怡	-2776
考虑到	-2777
谢霆锋	-2778
有效像素	-2779
▁V	-2780
会员	-2781
全线	-2782
其次	-2783
没能	-2784
理由	-2785
设立	-2786
这对	-2787
迹象	-2788
首席	-2789
一季度	-2790
斯科拉	-2791
▁杨	-2792
位的	-2793
保罗	-2794
团购	-2795
战绩	-2796
打了	-2797
打进	-2798
批准	-2799
摩根	-2800
的两	-2801
92	-2802
IC	-2803
▁黄	-2804
全景	-2805
单独	-2806
博士	-2807
反而	-2808
尼尔	-2809
扩展	-2810
漂亮	-2811
球星	-2812
球的	-2813
登记	-2814
积分	-2815
转换	-2816
骑士	-2817
另一个	-2818
在香港	-2819
娱乐圈	-2820
尼克斯	-2821
情况下	-2822
考生在	-2823
下游	-2824
为何	-2825
伤病	-2826
准确	-2827
增持	-2828
总分	-2829
梅西	-2830
白色	-2831
成交量	-2832
53	-2833
63	-2834
二人	-2835
储备	-2836
发放	-2837
学术	-2838
携带	-2839
此时	-2840
油脂	-2841
治疗	-2842
演绎	-2843
独特	-2844
糖价	-2845
考察	-2846
舞蹈	-2847
办公室	-2848
金融危机	-2849
,2008	-2850
封闭式基金	-2851
”(	-2852
一份	-2853
不满	-2854
估计	-2855
兴业	-2856
分手	-2857
及其	-2858
句话	-2859
回来	-2860
富通	-2861
收获	-2862
曾在	-2863
本届	-2864
调控	-2865
重仓	-2866
传言	-2867
公牛	-2868
出战	-2869
医生	-2870
十足	-2871
华谊	-2872
原来	-2873
可见	-2874
合适	-2875
大纲	-2876
奇才	-2877
布斯	-2878
明天	-2879
澳洲	-2880
这场	-2881
键盘	-2882
马克	-2883
700	-2884
推出了	-2885
债券型基金	-2886
不但	-2887
作出	-2888
便携	-2889
国足	-2890
圣诞	-2891
复杂	-2892
往年	-2893
得了	-2894
打破	-2895
执教	-2896
爱的	-2897
瑞和	-2898
谈判	-2899
较高	-2900
还能	-2901
释放	-2902
长焦	-2903
雅虎	-2904
art	-2905
▁基金	-2906
▁已有	-2907
一个人	-2908
▁2011	-2909
up	-2910
名为	-2911
周三	-2912
复苏	-2913
学金	-2914
工商	-2915
广西	-2916
应届	-2917
线上	-2918
过了	-2919
通常	-2920
10.	-2921
720	-2922
一个月	-2923
可以在	-2924
命中率	-2925
而不是	-2926
据香港媒体报道	-2927
▁O	-2928
亲自	-2929
他也	-2930
优先	-2931
减产	-2932
制定	-2933
即便	-2934
大陆	-2935
妻子	-2936
年代	-2937
彻底	-2938
提到	-2939
效力	-2940
文学	-2941
校园	-2942
每日	-2943
洪波	-2944
深入	-2945
约为	-2946
螺纹	-2947
贝尔	-2948
达成	-2949
随时	-2950
将成为	-2951
推出的	-2952
选择了	-2953
▁and	-2954
一段时间	-2955
证券投资	-2956
,2011	-2957
84	-2958
ec	-2959
em	-2960
ur	-2961
大跌	-2962
女孩	-2963
女星	-2964
承担	-2965
每次	-2966
看出	-2967
美分	-2968
CBA	-2969
UNT	-2970
三分球	-2971
记者从	-2972
hink	-2973
COUNT	-2974
ly	-2975
下去	-2976
云南	-2977
尤文	-2978
尽快	-2979
层次	-2980
平衡	-2981
开通	-2982
我是	-2983
此事	-2984
爆料	-2985
特长	-2986
葡萄	-2987
颜色	-2988
▁听歌	-2989
▁报价	-2990
上半场	-2991
学校的	-2992
让我们	-2993
普通高校	-2994
阿泰斯特	-2995
一是	-2996
即可	-2997
名人	-2998
思路	-2999
文字	-3000
杉矶	-3001
热身	-3002
留下	-3003
盘中	-3004
站在	-3005
统考	-3006
走高	-3007
销量	-3008
鲁能	-3009
洛杉矶	-3010
仅有	-3011
依据	-3012
信号	-3013
全队	-3014
名的	-3015
名称	-3016
外形	-3017
多个	-3018
布莱	-3019
弱势	-3020
性格	-3021
整理	-3022
无奈	-3023
澳门	-3024
腾讯	-3025
西部	-3026
说的	-3027
赛中	-3028
举行的	-3029
一边	-3030
不住	-3031
不在	-3032
争议	-3033
失望	-3034
威廉	-3035
情感	-3036
我会	-3037
早已	-3038
晓明	-3039
欧冠	-3040
焦炭	-3041
竟然	-3042
给他	-3043
财政	-3044
首轮	-3045
职业生涯	-3046
51	-3047
71	-3048
79	-3049
av	-3050
嘉欣	-3051
回升	-3052
成龙	-3053
绿色	-3054
转型	-3055
迎战	-3056
了很多	-3057
半决赛	-3058
▁中新网	-3059
当地时间	-3060
,8	-3061
一部	-3062
万桶	-3063
上映	-3064
不利	-3065
二是	-3066
多种	-3067
带领	-3068
录制	-3069
恋情	-3070
折价	-3071
招考	-3072
讲述	-3073
身材	-3074
车队	-3075
郑州	-3076
销商	-3077
长的	-3078
3.0	-3079
ore	-3080
。”(	-3081
最后的	-3082
较大的	-3083
上市公司	-3084
的朋友不妨	-3085
IF	-3086
ul	-3087
两名	-3088
临时	-3089
台北	-3090
家的	-3091
广发	-3092
本市	-3093
本来	-3094
青睐	-3095
13.	-3096
ity	-3097
全新的	-3098
分别是	-3099
的内容	-3100
近年来	-3101
场比赛中	-3102
主义	-3103
其它	-3104
千万	-3105
备受	-3106
她在	-3107
婚姻	-3108
尊重	-3109
常规	-3110
征集	-3111
流通	-3112
祝福	-3113
等等	-3114
足联	-3115
了一些	-3116
__	-3117
▁吴	-3118
上去	-3119
保留	-3120
修改	-3121
全力	-3122
封基	-3123
得手	-3124
权益	-3125
爱心	-3126
环比	-3127
超越	-3128
跌破	-3129
降至	-3130
IXUS	-3131
ut	-3132
一张	-3133
世博	-3134
中信	-3135
中期	-3136
中锋	-3137
主演	-3138
别的	-3139
双核	-3140
发出	-3141
备战	-3142
女性	-3143
尴尬	-3144
得知	-3145
搭档	-3146
本月	-3147
疯狂	-3148
看法	-3149
究竟	-3150
美丽	-3151
过的	-3152
韦德	-3153
999	-3154
在内的	-3155
据国外	-3156
有很多	-3157
未来的	-3158
的手机	-3159
第二次	-3160
CM	-3161
上篮	-3162
关村	-3163
初中	-3164
可惜	-3165
平安	-3166
度的	-3167
技巧	-3168
拉开	-3169
招商	-3170
改善	-3171
教材	-3172
秒时	-3173
较低	-3174
过后	-3175
ers	-3176
配备了	-3177
94	-3178
下挫	-3179
中文	-3180
从事	-3181
低迷	-3182
入门	-3183
四个	-3184
大战	-3185
小麦	-3186
我在	-3187
推进	-3188
男生	-3189
神秘	-3190
运用	-3191
进了	-3192
,10	-3193
▁除了	-3194
巨大的	-3195
一事	-3196
供需	-3197
助理	-3198
塞尔	-3199
密码	-3200
情人	-3201
拍卖	-3202
老鹰	-3203
资讯	-3204
15.	-3205
了不少	-3206
商品市场	-3207
ation	-3208
07	-3209
SP	-3210
uc	-3211
博时	-3212
多名	-3213
春晚	-3214
的日	-3215
红色	-3216
西安	-3217
触控	-3218
过于	-3219
青岛	-3220
18-	-3221
也表示	-3222
强大的	-3223
所有的	-3224
上扬	-3225
人都	-3226
会计	-3227
商城	-3228
尽量	-3229
广泛	-3230
当日	-3231
永远	-3232
猜测	-3233
空头	-3234
纪念	-3235
纳斯	-3236
考核	-3237
这项	-3238
铜价	-3239
14.	-3240
our	-3241
他们在	-3242
发展的	-3243
开拓者	-3244
球员的	-3245
的专业	-3246
1,	-3247
也被	-3248
保送	-3249
剧本	-3250
各自	-3251
外盘	-3252
大大	-3253
实践	-3254
成像	-3255
打开	-3256
是不	-3257
的三	-3258
美女	-3259
蓝筹	-3260
高分	-3261
1.5	-3262
550	-3263
之所以	-3264
在这个	-3265
应该是	-3266
我希望	-3267
的机身	-3268
葡萄牙	-3269
螺纹钢	-3270
穆里尼奥	-3271
AM	-3272
Sa	-3273
ev	-3274
ex	-3275
▁孙	-3276
交所	-3277
小学	-3278
工艺	-3279
庆祝	-3280
引擎	-3281
态势	-3282
放松	-3283
河北	-3284
注重	-3285
生命	-3286
立信	-3287
罚球	-3288
股的	-3289
轻薄	-3290
马丁	-3291
▁如果	-3292
▁相关	-3293
发布了	-3294
第三节	-3295
2004	-3296
中华	-3297
为止	-3298
入选	-3299
分类	-3300
塑料	-3301
大涨	-3302
尼亚	-3303
开幕	-3304
我和	-3305
我很	-3306
气质	-3307
题材	-3308
高开	-3309
▁上周	-3310
以来的	-3311
值得一	-3312
消息称	-3313
的目标	-3314
第四节	-3315
两大	-3316
国王	-3317
失败	-3318
将来	-3319
感动	-3320
我也	-3321
我就	-3322
手中	-3323
泰达	-3324
照顾	-3325
立即	-3326
第五	-3327
都将	-3328
VGA	-3329
爱立信	-3330
的一些	-3331
这一点	-3332
第一时间	-3333
写真	-3334
号码	-3335
回调	-3336
大多	-3337
暴跌	-3338
机关	-3339
笔试	-3340
说道	-3341
龙江	-3342
▁点击	-3343
奖学金	-3344
的设计	-3345
经销商	-3346
青少年	-3347
同比增长	-3348
注意的是	-3349
MV	-3350
ap	-3351
一轮	-3352
不变	-3353
业界	-3354
体检	-3355
六级	-3356
化工	-3357
哪些	-3358
大师	-3359
天的	-3360
客观	-3361
排在	-3362
排除	-3363
汇率	-3364
监督	-3365
算是	-3366
缺席	-3367
考验	-3368
赛的	-3369
还没	-3370
背景下	-3371
中国电信	-3372
平板电脑	-3373
▁2008	-3374
亚军	-3375
促进	-3376
公务	-3377
公斤	-3378
受益	-3379
审查	-3380
征求	-3381
数的	-3382
演艺	-3383
煤炭	-3384
物理	-3385
特征	-3386
理论	-3387
网游	-3388
试点	-3389
购物	-3390
身高	-3391
退出	-3392
适当	-3393
逆转	-3394
邮件	-3395
350	-3396
之前的	-3397
再加上	-3398
月中旬	-3399
华夏基金	-3400
hinkPad	-3401
不及	-3402
仍有	-3403
信任	-3404
冰冰	-3405
变成	-3406
奖项	-3407
排行	-3408
时报	-3409
案件	-3410
禁止	-3411
长城	-3412
高层	-3413
▁随着	-3414
克里斯	-3415
参加了	-3416
约翰逊	-3417
独立显卡	-3418
硕士研究生	-3419
05	-3420
op	-3421
两种	-3422
十大	-3423
域名	-3424
基地	-3425
外线	-3426
宽松	-3427
将有	-3428
平稳	-3429
打球	-3430
按键	-3431
标志	-3432
登陆	-3433
纳尔	-3434
背后	-3435
自学	-3436
营收	-3437
识别	-3438
360	-3439
50%	-3440
▁3.	-3441
▁日前	-3442
他认为	-3443
行业的	-3444
了自己的	-3445
值得一提	-3446
研究中心	-3447
考试成绩	-3448
货币政策	-3449
高等教育	-3450
CP	-3451
▁对	-3452
一段	-3453
代理	-3454
依靠	-3455
全省	-3456
加息	-3457
加速	-3458
周杰	-3459
回家	-3460
完整	-3461
很少	-3462
手感	-3463
整机	-3464
斯塔	-3465
时机	-3466
有多	-3467
欣赏	-3468
沪胶	-3469
独家	-3470
真是	-3471
续约	-3472
远远	-3473
采购	-3474
10%	-3475
20%	-3476
▁4.	-3477
很可能	-3478
打电话	-3479
拍摄的	-3480
持仓量	-3481
04	-3482
ee	-3483
以外	-3484
勇士	-3485
医疗	-3486
卖出	-3487
可在	-3488
审核	-3489
来源	-3490
礼物	-3491
给我	-3492
跟踪	-3493
锦标	-3494
▁13	-3495
一定会	-3496
公务员	-3497
开户数	-3498
第二节	-3499
这一次	-3500
iPad	-3501
分辨率为	-3502
统计显示	-3503
91	-3504
▁为	-3505
▁四	-3506
▁该	-3507
。《	-3508
万户	-3509
中间	-3510
低价	-3511
儿童	-3512
公共	-3513
周四	-3514
好好	-3515
委会	-3516
小将	-3517
带动	-3518
惊喜	-3519
抢断	-3520
的不	-3521
立刻	-3522
缓解	-3523
过来	-3524
进展	-3525
CCD	-3526
也不会	-3527
出来的	-3528
是什么	-3529
机构的	-3530
的态度	-3531
的感觉	-3532
全球经济	-3533
电子商务	-3534
GS	-3535
ie	-3536
一块	-3537
不上	-3538
主管	-3539
交割	-3540
出线	-3541
分化	-3542
品质	-3543
环球	-3544
跌停	-3545
高出	-3546
GHz	-3547
▁is	-3548
已经在	-3549
感光度	-3550
我认为	-3551
英寸的	-3552
邓华德	-3553
od	-3554
▁⊙	-3555
▁每	-3556
▁马	-3557
一人	-3558
下面	-3559
不停	-3560
减持	-3561
区的	-3562
反击	-3563
均为	-3564
尔的	-3565
巨头	-3566
得很	-3567
心里	-3568
思维	-3569
托管	-3570
旗舰	-3571
榨季	-3572
流畅	-3573
盛大	-3574
评估	-3575
说到	-3576
阿德	-3577
面板	-3578
有没有	-3579
看起来	-3580
1500	-3581
▁本报记者	-3582
值得一提的是	-3583
DC	-3584
也没	-3585
产能	-3586
低开	-3587
却是	-3588
否则	-3589
在家	-3590
填写	-3591
大约	-3592
头球	-3593
巴斯	-3594
强化	-3595
成就	-3596
拉德	-3597
本节	-3598
爵士	-3599
秘密	-3600
自我	-3601
评委	-3602
顶级	-3603
预选	-3604
在国内	-3605
海富通	-3606
的信息	-3607
的生活	-3608
1200	-3609
HDMI	-3610
联系方式	-3611
96	-3612
▁二	-3613
中等	-3614
前三	-3615
发自	-3616
变动	-3617
周末	-3618
学业	-3619
布局	-3620
并将	-3621
我不	-3622
效应	-3623
早在	-3624
有色	-3625
本土	-3626
检测	-3627
深刻	-3628
的全	-3629
诸多	-3630
零售	-3631
企业的	-3632
受到了	-3633
基本上	-3634
我们在	-3635
手机的	-3636
的数据	-3637
问题的	-3638
资产管理	-3639
的朋友可以	-3640
ff	-3641
▁林	-3642
今晚	-3643
会的	-3644
名额	-3645
听到	-3646
增仓	-3647
备考	-3648
夫妇	-3649
夺得	-3650
套机	-3651
定期	-3652
怀孕	-3653
总额	-3654
想象	-3655
本地	-3656
毫不	-3657
涨停	-3658
矛盾	-3659
美联	-3660
财务	-3661
赛车	-3662
门槛	-3663
顾问	-3664
高点	-3665
11.	-3666
▁19	-3667
出版社	-3668
总冠军	-3669
报价为	-3670
考试的	-3671
饰演的	-3672
与此同时	-3673
师范大学	-3674
时报记者	-3675
、1	-3676
上下	-3677
从未	-3678
初步	-3679
同意	-3680
图文	-3681
基准	-3682
容量	-3683
差异	-3684
接着	-3685
早前	-3686
格里	-3687
牛市	-3688
由此	-3689
看着	-3690
破门	-3691
穿着	-3692
赛场	-3693
通道	-3694
历史上	-3695
最重要	-3696
有利于	-3697
的训练	-3698
股市场	-3699
黑龙江	-3700
Tw	-3701
Wi	-3702
ge	-3703
▁J	-3704
▁金	-3705
上线	-3706
亮点	-3707
优质	-3708
优选	-3709
但这	-3710
分级	-3711
天然	-3712
官员	-3713
将球	-3714
开场	-3715
提示	-3716
构成	-3717
比亚	-3718
气氛	-3719
流行	-3720
潜力	-3721
热点	-3722
等人	-3723
糟糕	-3724
纳入	-3725
要在	-3726
亚洲杯	-3727
交易的	-3728
媒体的	-3729
日凌晨	-3730
相当于	-3731
普通高中	-3732
清华大学	-3733
网络游戏	-3734
据国外媒体报道	-3735
▁U	-3736
丈夫	-3737
也就	-3738
发的	-3739
多了	-3740
如下	-3741
尔斯	-3742
市值	-3743
开局	-3744
心的	-3745
或是	-3746
战争	-3747
投诉	-3748
新华	-3749
本报	-3750
获利	-3751
获取	-3752
足以	-3753
连败	-3754
▁三星	-3755
▁证券	-3756
上海市	-3757
但由于	-3758
将比分	-3759
长时间	-3760
aceb	-3761
偏股型基金	-3762
acebook	-3763
临近	-3764
件事	-3765
八一	-3766
出去	-3767
到场	-3768
取景	-3769
喜剧	-3770
安徽	-3771
必然	-3772
机器	-3773
材质	-3774
模拟	-3775
民生	-3776
火爆	-3777
篮下	-3778
约合	-3779
自从	-3780
认购	-3781
走向	-3782
转移	-3783
选项	-3784
面上	-3785
320	-3786
ile	-3787
一对多	-3788
中关村	-3789
发言人	-3790
大家都	-3791
带来了	-3792
AA	-3793
QF	-3794
▁l	-3795
一支	-3796
上行	-3797
个别	-3798
卫冕	-3799
周五	-3800
型号	-3801
增值	-3802
定制	-3803
将对	-3804
投机	-3805
提问	-3806
新品	-3807
片中	-3808
的她	-3809
相似	-3810
美的	-3811
补充	-3812
违法	-3813
2.8	-3814
900	-3815
有什么	-3816
用户的	-3817
类专业	-3818
阿里扎	-3819
4000	-3820
QFII	-3821
RE	-3822
▁X	-3823
东莞	-3824
也让	-3825
人在	-3826
全文	-3827
利空	-3828
单词	-3829
大使	-3830
奥林	-3831
子女	-3832
小刚	-3833
小孩	-3834
山西	-3835
巴黎	-3836
异常	-3837
当晚	-3838
收报	-3839
新秀	-3840
每桶	-3841
版权	-3842
硬件	-3843
网吧	-3844
词汇	-3845
财富	-3846
频频	-3847
高度	-3848
ill	-3849
tel	-3850
▁国内	-3851
女主角	-3852
工作的	-3853
投资的	-3854
月以来	-3855
进行的	-3856
高洪波	-3857
一批	-3858
予以	-3859
仍在	-3860
传中	-3861
传播	-3862
停止	-3863
创下	-3864
医药	-3865
取胜	-3866
大奖	-3867
思考	-3868
批评	-3869
是最	-3870
正面	-3871
每月	-3872
百万	-3873
罗德	-3874
返回	-3875
还不	-3876
30%	-3877
▁be	-3878
▁同时	-3879
两个月	-3880
会不会	-3881
价格上涨	-3882
北京时间	-3883
私募基金	-3884
股票基金	-3885
itter	-3886
负责人表示	-3887
TE	-3888
iz	-3889
制片	-3890
加快	-3891
哈维	-3892
场面	-3893
增幅	-3894
大小	-3895
失去	-3896
女足	-3897
将与	-3898
师大	-3899
幸运	-3900
明白	-3901
期望	-3902
格斯	-3903
这类	-3904
退役	-3905
亚运会	-3906
信用卡	-3907
向记者	-3908
和家长	-3909
日开始	-3910
湖人队	-3911
的照片	-3912
的状态	-3913
罗纳尔	-3914
较高的	-3915
通知书	-3916
Ch	-3917
MP	-3918
▁阿	-3919
下行	-3920
亚冠	-3921
光圈	-3922
光大	-3923
农民	-3924
出任	-3925
占比	-3926
夫妻	-3927
好了	-3928
密切	-3929
山猫	-3930
巡回	-3931
强大	-3932
快门	-3933
总统	-3934
持平	-3935
日常	-3936
粮食	-3937
老将	-3938
自信	-3939
自行	-3940
预估	-3941
马拉	-3942
160	-3943
2.5	-3944
一直是	-3945
为大家	-3946
所高校	-3947
的压力	-3948
知识点	-3949
结束了	-3950
人士透露	-3951
已经开始	-3952
志愿填报	-3953
自动对焦	-3954
):	-3955
势头	-3956
反对	-3957
垃圾	-3958
复制	-3959
天王	-3960
季报	-3961
小牛	-3962
当初	-3963
才会	-3964
整合	-3965
日期	-3966
最快	-3967
每吨	-3968
皮球	-3969
询问	-3970
食品	-3971
HTC	-3972
微博上	-3973
搭载了	-3974
旗下的	-3975
明显的	-3976
的一次	-3977
发布会上	-3978
期货价格	-3979
家基金公司	-3980
81	-3981
?)	-3982
▁郑	-3983
一波	-3984
不佳	-3985
东芝	-3986
九段	-3987
仍是	-3988
优雅	-3989
出发	-3990
功夫	-3991
医学	-3992
南非	-3993
多元	-3994
多单	-3995
工资	-3996
市民	-3997
徕卡	-3998
恐怕	-3999
机械	-4000
的主	-4001
盎司	-4002
等级	-4003
融合	-4004
评卷	-4005
赚钱	-4006
输给	-4007
锁定	-4008
错过	-4009
ina	-4010
上周五	-4011
在这里	-4012
完成了	-4013
已经是	-4014
每个人	-4015
的最新	-4016
银行的	-4017
锦标赛	-4018
CMOS	-4019
▁据介绍	-4020
关注一下	-4021
基金份额	-4022
01	-4023
’,	-4024
▁y	-4025
上方	-4026
不敌	-4027
伊布	-4028
伊能	-4029
做法	-4030
出炉	-4031
创意	-4032
十二	-4033
卡卡	-4034
回忆	-4035
堪称	-4036
扣篮	-4037
氛围	-4038
海南	-4039
省市	-4040
票房	-4041
私人	-4042
缩小	-4043
罗马	-4044
见到	-4045
规律	-4046
那里	-4047
都市	-4048
陕西	-4049
频繁	-4050
首度	-4051
马斯	-4052
est	-4053
ive	-4054
一开始	-4055
伊能静	-4056
持有人	-4057
的拍摄	-4058
----	-4059
1080	-4060
ia	-4061
▁K	-4062
业余	-4063
失利	-4064
对他	-4065
将为	-4066
承受	-4067
文史	-4068
旅行	-4069
有意	-4070
有过	-4071
毫无	-4072
节能	-4073
遭到	-4074
降价	-4075
12.	-4076
的优势	-4077
的用户	-4078
东北	-4079
之内	-4080
介入	-4081
价位	-4082
便宜	-4083
冲刺	-4084
出道	-4085
十一	-4086
反复	-4087
合并	-4088
围绕	-4089
多人	-4090
学会	-4091
弗格	-4092
的他	-4093
社交	-4094
翻译	-4095
转债	-4096
重组	-4097
钢厂	-4098
食糖	-4099
马来	-4100
黑莓	-4101
ard	-4102
her	-4103
弗格森	-4104
托雷斯	-4105
经历了	-4106
中国足球	-4107
公募基金	-4108
Facebook	-4109
06	-4110
DR	-4111
IG	-4112
▁上	-4113
优异	-4114
原装	-4115
又是	-4116
呼吁	-4117
国庆	-4118
导师	-4119
开工	-4120
我校	-4121
是对	-4122
晚会	-4123
激动	-4124
灾区	-4125
相反	-4126
科特	-4127
竞技	-4128
而已	-4129
联接	-4130
身价	-4131
进的	-4132
PVC	-4133
不低于	-4134
创业板	-4135
哈里斯	-4136
教练组	-4137
时间内	-4138
的关系	-4139
-5	-4140
93	-4141
IM	-4142
▁n	-4143
不起	-4144
之旅	-4145
五年	-4146
全市	-4147
加试	-4148
区别	-4149
国泰	-4150
大众	-4151
太大	-4152
奕迅	-4153
巨星	-4154
底部	-4155
显著	-4156
最受	-4157
本轮	-4158
澄清	-4159
留言	-4160
直言	-4161
祖儿	-4162
福州	-4163
空调	-4164
联考	-4165
表态	-4166
要想	-4167
评级	-4168
调剂	-4169
转变	-4170
选秀	-4171
ark	-4172
▁此前	-4173
一系列	-4174
全景网	-4175
地区的	-4176
没想到	-4177
第二轮	-4178
还表示	-4179
6000	-4180
7000	-4181
人士表示	-4182
科技大学	-4183
61	-4184
St	-4185
TO	-4186
]:	-4187
三位	-4188
他和	-4189
任意	-4190
保值	-4191
入围	-4192
全年	-4193
利好	-4194
史上	-4195
各国	-4196
同一	-4197
哪里	-4198
围棋	-4199
奖金	-4200
录音	-4201
微笑	-4202
戴尔	-4203
放缓	-4204
新股	-4205
期市	-4206
涉嫌	-4207
英文	-4208
超出	-4209
进取	-4210
道歉	-4211
▁今天	-4212
▁今日	-4213
▁其实	-4214
▁新华	-4215
▁组图	-4216
公开赛	-4217
净申购	-4218
副总裁	-4219
四季度	-4220
在网上	-4221
实习生	-4222
录取的	-4223
是一种	-4224
第一批	-4225
证券投资基金	-4226
▁证券时报记者	-4227
os	-4228
▁徐	-4229
一身	-4230
信贷	-4231
其后	-4232
加剧	-4233
加索	-4234
在了	-4235
在前	-4236
它们	-4237
对其	-4238
投影	-4239
抵达	-4240
提振	-4241
早盘	-4242
短短	-4243
示范	-4244
背光	-4245
获批	-4246
问及	-4247
防线	-4248
除此	-4249
高三	-4250
黎明	-4251
PTA	-4252
▁去年	-4253
中小盘	-4254
,	-4255
的	-4256
▁	-4257
。	-4258
0	-4259
一	-4260
1	-4261
在	-4262
是	-4263
2	-4264
有	-4265
了	-4266
不	-4267
中	-4268
、	-4269
大	-4270
上	-4271
人	-4272
为	-4273
国	-4274
年	-4275
“	-4276
”	-4277
3	-4278
时	-4279
生	-4280
5	-4281
这	-4282
分	-4283
考	-4284
金	-4285
出	-4286
和	-4287
场	-4288
以	-4289
个	-4290
学	-4291
对	-4292
到	-4293
.	-4294
日	-4295
高	-4296
4	-4297
会	-4298
他	-4299
8	-4300
能	-4301
新	-4302
来	-4303
后	-4304
基	-4305
6	-4306
我	-4307
9	-4308
前	-4309
:	-4310
下	-4311
成	-4312
行	-4313
于	-4314
)	-4315
业	-4316
(	-4317
也	-4318
要	-4319
月	-4320
7	-4321
多	-4322
现	-4323
可	-4324
比	-4325
赛	-4326
球	-4327
将	-4328
本	-4329
市	-4330
过	-4331
经	-4332
发	-4333
得	-4334
最	-4335
e	-4336
自	-4337
公	-4338
期	-4339
机	-4340
家	-4341
而	-4342
者	-4343
报	-4344
们	-4345
方	-4346
用	-4347
元	-4348
作	-4349
开	-4350
就	-4351
队	-4352
进	-4353
表	-4354
-	-4355
价	-4356
还	-4357
网	-4358
面	-4359
主	-4360
理	-4361
o	-4362
与	-4363
说	-4364
但	-4365
资	-4366
i	-4367
体	-4368
加	-4369
之	-4370
内	-4371
全	-4372
天	-4373
都	-4374
手	-4375
力	-4376
数	-4377
次	-4378
同	-4379
a	-4380
名	-4381
动	-4382
外	-4383
其	-4384
间	-4385
地	-4386
美	-4387
部	-4388
合	-4389
电	-4390
定	-4391
所	-4392
好	-4393
n	-4394
小	-4395
度	-4396
第	-4397
此	-4398
点	-4399
很	-4400
已	-4401
示	-4402
%	-4403
产	-4404
信	-4405
相	-4406
实	-4407
斯	-4408
情	-4409
目	-4410
格	-4411
位	-4412
等	-4413
三	-4414
利	-4415
投	-4416
品	-4417
》	-4418
关	-4419
明	-4420
《	-4421
看	-4422
重	-4423
因	-4424
记	-4425
当	-4426
长	-4427
特	-4428
今	-4429
更	-4430
然	-4431
并	-4432
通	-4433
据	-4434
心	-4435
如	-4436
万	-4437
没	-4438
子	-4439
两	-4440
t	-4441
员	-4442
计	-4443
入	-4444
文	-4445
从	-4446
试	-4447
只	-4448
r	-4449
提	-4450
持	-4451
联	-4452
校	-4453
科	-4454
尔	-4455
司	-4456
C	-4457
工	-4458
收	-4459
A	-4460
息	-4461
布	-4462
道	-4463
股	-4464
及	-4465
事	-4466
S	-4467
交	-4468
法	-4469
正	-4470
专	-4471
被	-4472
题	-4473
商	-4474
周	-4475
北	-4476
意	-4477
去	-4478
性	-4479
保	-4480
身	-4481
D	-4482
s	-4483
选	-4484
取	-4485
至	-4486
影	-4487
演	-4488
平	-4489
着	-4490
打	-4491
接	-4492
教	-4493
近	-4494
里	-4495
己	-4496
视	-4497
受	-4498
应	-4499
T	-4500
京	-4501
果	-4502
线	-4503
式	-4504
l	-4505
乐	-4506
该	-4507
她	-4508
达	-4509
问	-4510
证	-4511
回	-4512
I	-4513
些	-4514
认	-4515
起	-4516
海	-4517
华	-4518
由	-4519
量	-4520
德	-4521
增	-4522
无	-4523
招	-4524
强	-4525
育	-4526
;	-4527
女	-4528
讯	-4529
感	-4530
货	-4531
P	-4532
调	-4533
结	-4534
门	-4535
样	-4536
显	-4537
/	-4538
首	-4539
指	-4540
季	-4541
西	-4542
易	-4543
化	-4544
续	-4545
让	-4546
常	-4547
M	-4548
安	-4549
务	-4550
总	-4551
制	-4552
浪	-4553
想	-4554
m	-4555
较	-4556
约	-4557
参	-4558
单	-4559
?	-4560
别	-4561
系	-4562
费	-4563
d	-4564
管	-4565
张	-4566
种	-4567
少	-4568
二	-4569
战	-4570
解	-4571
消	-4572
h	-4573
录	-4574
向	-4575
东	-4576
做	-4577
马	-4578
原	-4579
克	-4580
英	-4581
传	-4582
再	-4583
给	-4584
率	-4585
整	-4586
友	-4587
亚	-4588
E	-4589
户	-4590
B	-4591
求	-4592
直	-4593
变	-4594
低	-4595
份	-4596
c	-4597
区	-4598
势	-4599
士	-4600
非	-4601
么	-4602
院	-4603
那	-4604
头	-4605
节	-4606
各	-4607
拉	-4608
术	-4609
称	-4610
涨	-4611
型	-4612
G	-4613
像	-4614
需	-4615
色	-4616
展	-4617
超	-4618
片	-4619
台	-4620
老	-4621
准	-4622
知	-4623
运	-4624
博	-4625
观	-4626
规	-4627
拍	-4628
获	-4629
组	-4630
支	-4631
任	-4632
先	-4633
卡	-4634
类	-4635
民	-4636
足	-4637
王	-4638
阿	-4639
望	-4640
每	-4641
活	-4642
师	-4643
星	-4644
程	-4645
推	-4646
世	-4647
光	-4648
备	-4649
建	-4650
论	-4651
值	-4652
统	-4653
未	-4654
广	-4655
四	-4656
级	-4657
代	-4658
使	-4659
技	-4660
件	-4661
处	-4662
设	-4663
银	-4664
供	-4665
评	-4666
仅	-4667
跌	-4668
风	-4669
幅	-4670
连	-4671
反	-4672
复	-4673
尼	-4674
图	-4675
放	-4676
始	-4677
口	-4678
请	-4679
F	-4680
预	-4681
罗	-4682
u	-4683
或	-4684
注	-4685
话	-4686
完	-4687
款	-4688
立	-4689
采	-4690
李	-4691
研	-4692
盘	-4693
界	-4694
剧	-4695
则	-4696
走	-4697
告	-4698
带	-4699
绩	-4700
转	-4701
确	-4702
办	-4703
难	-4704
况	-4705
决	-4706
优	-4707
导	-4708
昨	-4709
标	-4710
排	-4711
你	-4712
政	-4713
配	-4714
歌	-4715
亿	-4716
几	-4717
购	-4718
热	-4719
才	-4720
十	-4721
南	-4722
言	-4723
容	-4724
际	-4725
均	-4726
升	-4727
集	-4728
练	-4729
段	-4730
存	-4731
军	-4732
具	-4733
客	-4734
真	-4735
水	-4736
语	-4737
志	-4738
巴	-4739
O	-4740
快	-4741
L	-4742
模	-4743
油	-4744
划	-4745
功	-4746
爱	-4747
又	-4748
奥	-4749
何	-4750
—	-4751
篮	-4752
随	-4753
清	-4754
流	-4755
查	-4756
局	-4757
半	-4758
助	-4759
创	-4760
置	-4761
物	-4762
微	-4763
g	-4764
服	-4765
且	-4766
终	-4767
希	-4768
步	-4769
胜	-4770
领	-4771
红	-4772
习	-4773
险	-4774
空	-4775
维	-4776
省	-4777
摄	-4778
益	-4779
照	-4780
N	-4781
男	-4782
火	-4783
黄	-4784
板	-4785
形	-4786
普	-4787
太	-4788
米	-4789
媒	-4790
冠	-4791
响	-4792
林	-4793
即	-4794
权	-4795
深	-4796
素	-4797
造	-4798
站	-4799
陈	-4800
仍	-4801
兰	-4802
气	-4803
质	-4804
效	-4805
根	-4806
把	-4807
引	-4808
车	-4809
票	-4810
曾	-4811
戏	-4812
p	-4813
申	-4814
继	-4815
却	-4816
愿	-4817
态	-4818
H	-4819
售	-4820
y	-4821
包	-4822
见	-4823
择	-4824
号	-4825
频	-4826
留	-4827
路	-4828
港	-4829
w	-4830
失	-4831
游	-4832
!	-4833
券	-4834
除	-4835
众	-4836
双	-4837
城	-4838
项	-4839
吨	-4840
移	-4841
买	-4842
降	-4843
b	-4844
断	-4845
销	-4846
职	-4847
改	-4848
角	-4849
速	-4850
另	-4851
济	-4852
构	-4853
山	-4854
晚	-4855
V	-4856
艺	-4857
仓	-4858
举	-4859
精	-4860
露	-4861
击	-4862
攻	-4863
虽	-4864
儿	-4865
什	-4866
究	-4867
算	-4868
议	-4869
够	-4870
许	-4871
企	-4872
营	-4873
限	-4874
越	-4875
底	-4876
批	-4877
满	-4878
历	-4879
额	-4880
争	-4881
婚	-4882
音	-4883
牌	-4884
候	-4885
书	-4886
债	-4887
短	-4888
兴	-4889
减	-4890
器	-4891
R	-4892
必	-4893
否	-4894
离	-4895
料	-4896
象	-4897
波	-4898
访	-4899
尽	-4900
觉	-4901
防	-4902
刘	-4903
纳	-4904
佳	-4905
团	-4906
破	-4907
刚	-4908
共	-4909
依	-4910
策	-4911
拿	-4912
五	-4913
欧	-4914
花	-4915
负	-4916
奖	-4917
络	-4918
早	-4919
案	-4920
州	-4921
版	-4922
便	-4923
往	-4924
范	-4925
监	-4926
笔	-4927
测	-4928
喜	-4929
托	-4930
财	-4931
香	-4932
卫	-4933
唱	-4934
初	-4935
娱	-4936
迷	-4937
W	-4938
轮	-4939
透	-4940
列	-4941
富	-4942
夫	-4943
白	-4944
听	-4945
思	-4946
致	-4947
钟	-4948
声	-4949
社	-4950
压	-4951
江	-4952
欢	-4953
景	-4954
奇	-4955
训	-4956
控	-4957
轻	-4958
环	-4959
突	-4960
远	-4961
孩	-4962
纪	-4963
属	-4964
极	-4965
净	-4966
错	-4967
材	-4968
边	-4969
席	-4970
责	-4971
切	-4972
析	-4973
福	-4974
读	-4975
稳	-4976
源	-4977
协	-4978
验	-4979
担	-4980
焦	-4981
条	-4982
状	-4983
围	-4984
落	-4985
午	-4986
百	-4987
伤	-4988
字	-4989
索	-4990
按	-4991
黑	-4992
k	-4993
史	-4994
X	-4995
杯	-4996
差	-4997
播	-4998
雷	-4999
班	-5000
装	-5001
钢	-5002
跟	-5003
亲	-5004
宝	-5005
融	-5006
送	-5007
韩	-5008
f	-5009
写	-5010
宣	-5011
束	-5012
威	-5013
独	-5014
例	-5015
闻	-5016
洲	-5017
屏	-5018
笑	-5019
命	-5020
悉	-5021
康	-5022
待	-5023
神	-5024
尚	-5025
识	-5026
补	-5027
介	-5028
紧	-5029
币	-5030
积	-5031
答	-5032
谈	-5033
朋	-5034
青	-5035
括	-5036
适	-5037
占	-5038
令	-5039
曼	-5040
诺	-5041
停	-5042
杰	-5043
眼	-5044
U	-5045
秀	-5046
左	-5047
换	-5048
码	-5049
拥	-5050
森	-5051
绝	-5052
夏	-5053
寸	-5054
签	-5055
岁	-5056
阵	-5057
右	-5058
湖	-5059
亮	-5060
互	-5061
伊	-5062
毕	-5063
锋	-5064
课	-5065
镜	-5066
判	-5067
它	-5068
找	-5069
幕	-5070
密	-5071
诉	-5072
糖	-5073
须	-5074
松	-5075
v	-5076
房	-5077
龙	-5078
豆	-5079
套	-5080
帮	-5081
背	-5082
竞	-5083
核	-5084
卖	-5085
六	-5086
伦	-5087
钱	-5088
泰	-5089
·	-5090
免	-5091
施	-5092
略	-5093
智	-5094
震	-5095
承	-5096
春	-5097
杨	-5098
阳	-5099
箭	-5100
圈	-5101
住	-5102
募	-5103
守	-5104
届	-5105
谢	-5106
严	-5107
充	-5108
坛	-5109
询	-5110
乎	-5111
追	-5112
库	-5113
庆	-5114
操	-5115
境	-5116
农	-5117
迎	-5118
止	-5119
编	-5120
[	-5121
]	-5122
苏	-5123
石	-5124
端	-5125
萨	-5126
冲	-5127
官	-5128
临	-5129
似	-5130
软	-5131
甚	-5132
健	-5133
医	-5134
登	-5135
俱	-5136
嘉	-5137
细	-5138
键	-5139
Q	-5140
夺	-5141
余	-5142
店	-5143
麦	-5144
缺	-5145
档	-5146
疑	-5147
沪	-5148
委	-5149
律	-5150
简	-5151
截	-5152
云	-5153
绍	-5154
输	-5155
虑	-5156
礼	-5157
汉	-5158
层	-5159
姆	-5160
某	-5161
帅	-5162
洛	-5163
赵	-5164
静	-5165
吧	-5166
章	-5167
辑	-5168
孙	-5169
彩	-5170
私	-5171
治	-5172
K	-5173
爆	-5174
遇	-5175
姚	-5176
义	-5177
填	-5178
蒂	-5179
败	-5180
哈	-5181
阶	-5182
铁	-5183
莱	-5184
激	-5185
卷	-5186
巨	-5187
念	-5188
瑞	-5189
雅	-5190
汇	-5191
曲	-5192
晶	-5193
飞	-5194
假	-5195
养	-5196
弹	-5197
印	-5198
千	-5199
域	-5200
征	-5201
裁	-5202
棋	-5203
伟	-5204
温	-5205
画	-5206
付	-5207
刻	-5208
鲁	-5209
迪	-5210
宁	-5211
倍	-5212
盛	-5213
吴	-5214
尤	-5215
般	-5216
晓	-5217
休	-5218
偏	-5219
执	-5220
铜	-5221
退	-5222
良	-5223
贝	-5224
封	-5225
罚	-5226
室	-5227
综	-5228
述	-5229
脑	-5230
坚	-5231
牛	-5232
储	-5233
搭	-5234
顿	-5235
典	-5236
居	-5237
护	-5238
菲	-5239
盟	-5240
遭	-5241
丽	-5242
逐	-5243
陆	-5244
舞	-5245
郑	-5246
审	-5247
恩	-5248
借	-5249
澳	-5250
干	-5251
讲	-5252
善	-5253
弱	-5254
妈	-5255
旗	-5256
故	-5257
府	-5258
估	-5259
武	-5260
抢	-5261
吸	-5262
央	-5263
姐	-5264
肯	-5265
纷	-5266
误	-5267
+	-5268
久	-5269
距	-5270
触	-5271
扩	-5272
厂	-5273
庭	-5274
赢	-5275
检	-5276
射	-5277
J	-5278
趣	-5279
顺	-5280
牙	-5281
脚	-5282
酒	-5283
八	-5284
玉	-5285
盖	-5286
胶	-5287
块	-5288
母	-5289
玩	-5290
塞	-5291
础	-5292
河	-5293
病	-5294
荡	-5295
享	-5296
郭	-5297
启	-5298
惊	-5299
损	-5300
硕	-5301
味	-5302
秒	-5303
丹	-5304
佩	-5305
培	-5306
古	-5307
词	-5308
载	-5309
延	-5310
替	-5311
梅	-5312
顶	-5313
峰	-5314
敬	-5315
丁	-5316
谷	-5317
×	-5318
怎	-5319
危	-5320
跳	-5321
吃	-5322
刺	-5323
惠	-5324
末	-5325
贴	-5326
挑	-5327
竟	-5328
朗	-5329
z	-5330
警	-5331
湾	-5332
修	-5333
蓝	-5334
顾	-5335
杆	-5336
父	-5337
丝	-5338
丰	-5339
派	-5340
宽	-5341
烈	-5342
跑	-5343
靠	-5344
熟	-5345
凯	-5346
衣	-5347
莫	-5348
暂	-5349
宏	-5350
累	-5351
异	-5352
趋	-5353
食	-5354
副	-5355
哥	-5356
阅	-5357
旧	-5358
避	-5359
折	-5360
’	-5361
灵	-5362
织	-5363
晨	-5364
徐	-5365
映	-5366
荐	-5367
杀	-5368
冰	-5369
榜	-5370
永	-5371
挥	-5372
群	-5373
穿	-5374
困	-5375
弗	-5376
针	-5377
曝	-5378
著	-5379
旦	-5380
缩	-5381
归	-5382
皇	-5383
摩	-5384
液	-5385
七	-5386
吉	-5387
迅	-5388
棉	-5389
皮	-5390
俊	-5391
暴	-5392
释	-5393
宗	-5394
旅	-5395
禁	-5396
硬	-5397
附	-5398
x	-5399
坦	-5400
犯	-5401
倒	-5402
琳	-5403
贵	-5404
探	-5405
握	-5406
急	-5407
塔	-5408
怀	-5409
滑	-5410
恋	-5411
锦	-5412
幸	-5413
润	-5414
哪	-5415
涉	-5416
勒	-5417
川	-5418
津	-5419
予	-5420
苦	-5421
芝	-5422
董	-5423
含	-5424
戴	-5425
座	-5426
渐	-5427
‘	-5428
扬	-5429
柏	-5430
醒	-5431
饰	-5432
谁	-5433
唯	-5434
欣	-5435
呢	-5436
若	-5437
馆	-5438
弟	-5439
携	-5440
努	-5441
咨	-5442
沙	-5443
夜	-5444
梦	-5445
豪	-5446
九	-5447
粉	-5448
埃	-5449
朱	-5450
村	-5451
航	-5452
邀	-5453
齐	-5454
察	-5455
苹	-5456
胡	-5457
序	-5458
撑	-5459
翻	-5460
园	-5461
鹏	-5462
献	-5463
田	-5464
勇	-5465
遍	-5466
楼	-5467
_	-5468
句	-5469
促	-5470
死	-5471
洋	-5472
讨	-5473
叫	-5474
掌	-5475
坐	-5476
账	-5477
邓	-5478
宾	-5479
族	-5480
赞	-5481
劲	-5482
杂	-5483
违	-5484
抗	-5485
缓	-5486
梁	-5487
凭	-5488
酷	-5489
伯	-5490
怕	-5491
概	-5492
赶	-5493
逊	-5494
筹	-5495
闭	-5496
盈	-5497
霍	-5498
弃	-5499
圳	-5500
冷	-5501
土	-5502
掉	-5503
杜	-5504
秘	-5505
纽	-5506
>	-5507
订	-5508
甲	-5509
障	-5510
仪	-5511
贷	-5512
吗	-5513
娜	-5514
固	-5515
邮	-5516
雪	-5517
隆	-5518
劳	-5519
巧	-5520
魔	-5521
雨	-5522
遗	-5523
泽	-5524
毫	-5525
Y	-5526
剩	-5527
雄	-5528
寻	-5529
赎	-5530
楚	-5531
亏	-5532
害	-5533
【	-5534
】	-5535
革	-5536
扣	-5537
潮	-5538
童	-5539
荣	-5540
谓	-5541
Z	-5542
呼	-5543
唐	-5544
淘	-5545
沈	-5546
既	-5547
符	-5548
帕	-5549
搜	-5550
灾	-5551
税	-5552
绿	-5553
聚	-5554
脸	-5555
薪	-5556
祝	-5557
零	-5558
授	-5559
圣	-5560
矿	-5561
慢	-5562
呈	-5563
默	-5564
药	-5565
恢	-5566
散	-5567
救	-5568
祖	-5569
拟	-5570
蒙	-5571
忙	-5572
纯	-5573
诚	-5574
援	-5575
宇	-5576
混	-5577
侧	-5578
妻	-5579
虎	-5580
浦	-5581
扎	-5582
乔	-5583
厚	-5584
狂	-5585
鲜	-5586
薄	-5587
餐	-5588
淡	-5589
辨	-5590
桶	-5591
毒	-5592
您	-5593
敏	-5594
爸	-5595
兼	-5596
伴	-5597
潜	-5598
艾	-5599
冯	-5600
叶	-5601
尺	-5602
耳	-5603
兵	-5604
胀	-5605
拔	-5606
扮	-5607
斗	-5608
跃	-5609
挂	-5610
黎	-5611
堂	-5612
忧	-5613
洪	-5614
韦	-5615
措	-5616
沃	-5617
晋	-5618
伍	-5619
舒	-5620
册	-5621
拜	-5622
衡	-5623
瓦	-5624
翔	-5625
凌	-5626
召	-5627
颖	-5628
厅	-5629
返	-5630
添	-5631
藏	-5632
迹	-5633
励	-5634
振	-5635
亦	-5636
冬	-5637
熊	-5638
缘	-5639
踢	-5640
迈	-5641
霆	-5642
址	-5643
秋	-5644
忘	-5645
朝	-5646
诗	-5647
恐	-5648
腾	-5649
尾	-5650
拒	-5651
妹	-5652
畅	-5653
颁	-5654
奋	-5655
摆	-5656
乏	-5657
岛	-5658
巡	-5659
辛	-5660
县	-5661
慧	-5662
仔	-5663
穆	-5664
洁	-5665
疗	-5666
纲	-5667
贾	-5668
鼓	-5669
戈	-5670
毛	-5671
脱	-5672
途	-5673
鱼	-5674
陷	-5675
忆	-5676
圆	-5677
宜	-5678
拓	-5679
辉	-5680
偶	-5681
抱	-5682
血	-5683
汽	-5684
街	-5685
饭	-5686
拼	-5687
敦	-5688
贸	-5689
猫	-5690
绪	-5691
颇	-5692
妇	-5693
廷	-5694
慎	-5695
怡	-5696
池	-5697
涯	-5698
乱	-5699
惜	-5700
搞	-5701
炒	-5702
迟	-5703
渠	-5704
署	-5705
木	-5706
橡	-5707
暖	-5708
赴	-5709
艳	-5710
薇	-5711
暗	-5712
陪	-5713
凡	-5714
籍	-5715
蔡	-5716
跨	-5717
抛	-5718
朴	-5719
浙	-5720
隐	-5721
宋	-5722
纹	-5723
菜	-5724
惯	-5725
架	-5726
漫	-5727
荷	-5728
詹	-5729
恶	-5730
抓	-5731
猛	-5732
芯	-5733
龄	-5734
挺	-5735
闪	-5736
塑	-5737
拖	-5738
兄	-5739
辅	-5740
炭	-5741
详	-5742
贡	-5743
坡	-5744
敢	-5745
敌	-5746
佛	-5747
婆	-5748
翰	-5749
尝	-5750
赫	-5751
卢	-5752
甘	-5753
锌	-5754
览	-5755
摸	-5756
赏	-5757
啊	-5758
番	-5759
乡	-5760
玲	-5761
痛	-5762
铝	-5763
兹	-5764
赔	-5765
仁	-5766
沉	-5767
聘	-5768
赚	-5769
扰	-5770
谨	-5771
灯	-5772
祥	-5773
耀	-5774
披	-5775
捷	-5776
揭	-5777
雯	-5778
页	-5779
彻	-5780
抵	-5781
捐	-5782
旬	-5783
曹	-5784
鹰	-5785
尊	-5786
洗	-5787
君	-5788
慈	-5789
船	-5790
递	-5791
坏	-5792
捧	-5793
覆	-5794
刊	-5795
树	-5796
野	-5797
乌	-5798
懂	-5799
粮	-5800
迫	-5801
侯	-5802
奕	-5803
罪	-5804
阻	-5805
掘	-5806
憾	-5807
横	-5808
潘	-5809
桑	-5810
燃	-5811
纸	-5812
缴	-5813
寒	-5814
肉	-5815
俄	-5816
恰	-5817
燕	-5818
猜	-5819
睿	-5820
虚	-5821
诞	-5822
殊	-5823
妮	-5824
稍	-5825
篇	-5826
栏	-5827
誉	-5828
诸	-5829
怪	-5830
汪	-5831
挫	-5832
辽	-5833
逼	-5834
炼	-5835
珠	-5836
哲	-5837
爷	-5838
抽	-5839
谊	-5840
奏	-5841
晰	-5842
稿	-5843
蕾	-5844
洞	-5845
骗	-5846
疆	-5847
伙	-5848
宴	-5849
莉	-5850
奔	-5851
冒	-5852
妨	-5853
役	-5854
欲	-5855
锁	-5856
疲	-5857
耐	-5858
草	-5859
骑	-5860
偿	-5861
译	-5862
孔	-5863
甜	-5864
链	-5865
侵	-5866
廉	-5867
妙	-5868
氛	-5869
泛	-5870
颜	-5871
灰	-5872
逆	-5873
逾	-5874
抖	-5875
悦	-5876
旺	-5877
姜	-5878
尖	-5879
悬	-5880
沟	-5881
镇	-5882
吕	-5883
植	-5884
踪	-5885
俗	-5886
嫌	-5887
筑	-5888
茨	-5889
邦	-5890
隔	-5891
拨	-5892
箱	-5893
割	-5894
奈	-5895
径	-5896
羽	-5897
煤	-5898
瓜	-5899
奶	-5900
徒	-5901
插	-5902
患	-5903
磨	-5904
聊	-5905
卓	-5906
麻	-5907
倾	-5908
鉴	-5909
枚	-5910
汤	-5911
浮	-5912
涛	-5913
忠	-5914
恒	-5915
租	-5916
帝	-5917
珍	-5918
芬	-5919
刀	-5920
攀	-5921
晖	-5922
仿	-5923
堪	-5924
芳	-5925
乘	-5926
允	-5927
烦	-5928
磊	-5929
骨	-5930
俐	-5931
娘	-5932
忽	-5933
刑	-5934
哭	-5935
赌	-5936
扫	-5937
昌	-5938
汰	-5939
粕	-5940
毅	-5941
滨	-5942
鹿	-5943
党	-5944
娇	-5945
浩	-5946
肖	-5947
镑	-5948
厦	-5949
描	-5950
旭	-5951
棒	-5952
贺	-5953
泉	-5954
繁	-5955
丢	-5956
涵	-5957
睡	-5958
杭	-5959
酬	-5960
愈	-5961
郎	-5962
剂	-5963
墨	-5964
疯	-5965
翼	-5966
赠	-5967
饮	-5968
亨	-5969
旁	-5970
枪	-5971
榨	-5972
贯	-5973
琴	-5974
绕	-5975
泪	-5976
驾	-5977
剑	-5978
寿	-5979
澄	-5980
烟	-5981
耗	-5982
泡	-5983
悲	-5984
艰	-5985
斤	-5986
玛	-5987
督	-5988
腰	-5989
鸿	-5990
耶	-5991
姓	-5992
怒	-5993
撞	-5994
昆	-5995
摇	-5996
舍	-5997
忍	-5998
残	-5999
溢	-6000
蜂	-6001
勤	-6002
漂	-6003
漏	-6004
蛋	-6005
j	-6006
□	-6007
乒	-6008
绯	-6009
浓	-6010
琼	-6011
糕	-6012
脂	-6013
昂	-6014
琪	-6015
锐	-6016
惨	-6017
桥	-6018
~	-6019
喝	-6020
裸	-6021
蹈	-6022
孕	-6023
庄	-6024
爵	-6025
凤	-6026
碰	-6027
姿	-6028
杉	-6029
谋	-6030
兑	-6031
嫁	-6032
拆	-6033
浏	-6034
莎	-6035
葡	-6036
闹	-6037
嘴	-6038
牵	-6039
铅	-6040
阴	-6041
斌	-6042
犹	-6043
腿	-6044
袁	-6045
帽	-6046
柔	-6047
盗	-6048
刷	-6049
胁	-6050
螺	-6051
辈	-6052
逢	-6053
鞋	-6054
楠	-6055
裙	-6056
谭	-6057
闲	-6058
炮	-6059
稻	-6060
绎	-6061
袋	-6062
寄	-6063
框	-6064
纠	-6065
肩	-6066
胎	-6067
偷	-6068
叹	-6069
柱	-6070
秦	-6071
邵	-6072
陶	-6073
颗	-6074
侠	-6075
岗	-6076
挡	-6077
抑	-6078
谱	-6079
辞	-6080
炉	-6081
蒋	-6082
辆	-6083
床	-6084
鼠	-6085
宿	-6086
崔	-6087
欠	-6088
衔	-6089
赖	-6090
伏	-6091
咏	-6092
昊	-6093
烧	-6094
邱	-6095
窗	-6096
膜	-6097
逃	-6098
扑	-6099
染	-6100
紫	-6101
坤	-6102
姻	-6103
歉	-6104
矶	-6105
萄	-6106
踏	-6107
遥	-6108
岩	-6109
肥	-6110
契	-6111
帖	-6112
怨	-6113
盾	-6114
舰	-6115
驱	-6116
妆	-6117
宫	-6118
睐	-6119
彭	-6120
泳	-6121
驰	-6122
魏	-6123
旋	-6124
聪	-6125
弄	-6126
纵	-6127
轩	-6128
鬼	-6129
孟	-6130
屡	-6131
擎	-6132
尬	-6133
尴	-6134
涂	-6135
徽	-6136
狼	-6137
蜜	-6138
袭	-6139
践	-6140
轰	-6141
滚	-6142
疾	-6143
驻	-6144
厉	-6145
屋	-6146
碍	-6147
铺	-6148
裕	-6149
鑫	-6150
冕	-6151
婷	-6152
糟	-6153
靓	-6154
鼎	-6155
幻	-6156
牢	-6157
贤	-6158
鸟	-6159
丈	-6160
吹	-6161
夸	-6162
庞	-6163
沿	-6164
胸	-6165
骂	-6166
俩	-6167
狱	-6168
矛	-6169
胆	-6170
钻	-6171
井	-6172
吻	-6173
坎	-6174
悄	-6175
惑	-6176
挖	-6177
苗	-6178
傅	-6179
捕	-6180
戒	-6181
斥	-6182
郁	-6183
飙	-6184
壳	-6185
摘	-6186
纱	-6187
喊	-6188
岸	-6189
槛	-6190
泄	-6191
诱	-6192
循	-6193
症	-6194
铭	-6195
尘	-6196
虹	-6197
霸	-6198
熙	-6199
肃	-6200
霞	-6201
魅	-6202
q	-6203
⊙	-6204
巩	-6205
狗	-6206
串	-6207
弊	-6208
暑	-6209
羊	-6210
豫	-6211
骏	-6212
啦	-6213
奎	-6214
扭	-6215
械	-6216
扳	-6217
玮	-6218
稀	-6219
莞	-6220
逸	-6221
"	-6222
乃	-6223
奢	-6224
彼	-6225
闵	-6226
倩	-6227
傲	-6228
兆	-6229
吁	-6230
殷	-6231
猪	-6232
貌	-6233
闯	-6234
媛	-6235
搬	-6236
柯	-6237
皆	-6238
舟	-6239
擅	-6240
歧	-6241
滕	-6242
闷	-6243
陕	-6244
宅	-6245
淇	-6246
睛	-6247
莓	-6248
鲍	-6249
鸣	-6250
宠	-6251
彦	-6252
亡	-6253
抄	-6254
碟	-6255
诊	-6256
～	-6257
粗	-6258
辣	-6259
弥	-6260
拳	-6261
狠	-6262
盎	-6263
荧	-6264
萧	-6265
倪	-6266
奉	-6267
徕	-6268
涌	-6269
诈	-6270
圾	-6271
垃	-6272
慰	-6273
珊	-6274
瑶	-6275
胞	-6276
伸	-6277
匹	-6278
壮	-6279
桌	-6280
炫	-6281
瞬	-6282
垫	-6283
媳	-6284
幽	-6285
撤	-6286
袖	-6287
锡	-6288
锻	-6289
噪	-6290
杠	-6291
渡	-6292
臣	-6293
丧	-6294
坞	-6295
棕	-6296
滞	-6297
飘	-6298
驶	-6299
挤	-6300
柳	-6301
盲	-6302
讼	-6303
辩	-6304
兽	-6305
堡	-6306
巢	-6307
旱	-6308
磅	-6309
谦	-6310
饱	-6311
麟	-6312
峻	-6313
烨	-6314
砍	-6315
腊	-6316
乙	-6317
孝	-6318
掀	-6319
揽	-6320
衷	-6321
迁	-6322
侣	-6323
娃	-6324
敲	-6325
湘	-6326
窄	-6327
孤	-6328
遵	-6329
丑	-6330
墙	-6331
壁	-6332
尹	-6333
桂	-6334
赋	-6335
■	-6336
莲	-6337
轨	-6338
&	-6339
'	-6340
槽	-6341
涅	-6342
肌	-6343
*	-6344
吓	-6345
悍	-6346
愤	-6347
掩	-6348
栋	-6349
★	-6350
夹	-6351
瓶	-6352
郅	-6353
慕	-6354
拘	-6355
旨	-6356
碧	-6357
衍	-6358
兔	-6359
冻	-6360
屈	-6361
惹	-6362
琦	-6363
霜	-6364
姑	-6365
幼	-6366
废	-6367
悠	-6368
瘦	-6369
肤	-6370
腻	-6371
薛	-6372
侦	-6373
氏	-6374
葛	-6375
劣	-6376
桃	-6377
碑	-6378
纤	-6379
黛	-6380
崇	-6381
庚	-6382
泥	-6383
罢	-6384
脉	-6385
阔	-6386
恨	-6387
惧	-6388
煌	-6389
衰	-6390
谐	-6391
仙	-6392
忌	-6393
慌	-6394
昔	-6395
榈	-6396
爽	-6397
狄	-6398
鸡	-6399
削	-6400
膝	-6401
匆	-6402
垄	-6403
岭	-6404
御	-6405
抬	-6406
擦	-6407
梯	-6408
欺	-6409
渴	-6410
澜	-6411
瘾	-6412
籼	-6413
翁	-6414
赤	-6415
逛	-6416
镁	-6417
仇	-6418
夕	-6419
寓	-6420
悔	-6421
沫	-6422
甄	-6423
腹	-6424
萌	-6425
馨	-6426
傻	-6427
凸	-6428
吊	-6429
庾	-6430
斜	-6431
糊	-6432
逻	-6433
伐	-6434
堵	-6435
宪	-6436
恼	-6437
朔	-6438
缠	-6439
谍	-6440
函	-6441
堆	-6442
撰	-6443
浅	-6444
盯	-6445
穷	-6446
荒	-6447
蔗	-6448
贫	-6449
伪	-6450
巾	-6451
彰	-6452
扶	-6453
淀	-6454
狐	-6455
盼	-6456
萍	-6457
裂	-6458
讶	-6459
铃	-6460
韵	-6461
剪	-6462
岳	-6463
炸	-6464
粒	-6465
轴	-6466
删	-6467
吐	-6468
墅	-6469
婉	-6470
汀	-6471
瑟	-6472
粤	-6473
绘	-6474
蒿	-6475
霄	-6476
哨	-6477
璇	-6478
莹	-6479
蓉	-6480
骄	-6481
寨	-6482
弯	-6483
磁	-6484
缝	-6485
羡	-6486
脏	-6487
佘	-6488
侃	-6489
勾	-6490
慨	-6491
晴	-6492
茅	-6493
蓄	-6494
凑	-6495
押	-6496
挣	-6497
挪	-6498
罕	-6499
舆	-6500
蝶	-6501
裤	-6502
趁	-6503
酸	-6504
锂	-6505
骤	-6506
乓	-6507
厨	-6508
圭	-6509
娟	-6510
悟	-6511
沸	-6512
炎	-6513
烂	-6514
雇	-6515
佐	-6516
侨	-6517
叔	-6518
坊	-6519
埋	-6520
挽	-6521
捉	-6522
眉	-6523
祸	-6524
腕	-6525
臂	-6526
骚	-6527
俞	-6528
履	-6529
茶	-6530
贬	-6531
仰	-6532
催	-6533
冉	-6534
劝	-6535
砸	-6536
纺	-6537
胖	-6538
@	-6539
倡	-6540
呀	-6541
妍	-6542
嫩	-6543
汗	-6544
玻	-6545
萎	-6546
=	-6547
岑	-6548
盒	-6549
罩	-6550
脆	-6551
郝	-6552
喻	-6553
帆	-6554
晃	-6555
渝	-6556
疼	-6557
迭	-6558
邻	-6559
馈	-6560
垂	-6561
晒	-6562
柴	-6563
毁	-6564
碎	-6565
喷	-6566
宥	-6567
惩	-6568
扇	-6569
斑	-6570
楷	-6571
烤	-6572
灭	-6573
皓	-6574
窝	-6575
筐	-6576
醉	-6577
颠	-6578
饼	-6579
俏	-6580
劫	-6581
勿	-6582
囊	-6583
弘	-6584
弧	-6585
撼	-6586
枝	-6587
烯	-6588
猴	-6589
蔚	-6590
辰	-6591
雕	-6592
饲	-6593
凉	-6594
妥	-6595
恭	-6596
惟	-6597
牲	-6598
璃	-6599
肚	-6600
衫	-6601
裔	-6602
谣	-6603
躁	-6604
陌	-6605
魂	-6606
凶	-6607
呆	-6608
呵	-6609
嘛	-6610
彤	-6611
桐	-6612
泼	-6613
漆	-6614
甩	-6615
祭	-6616
膨	-6617
躲	-6618
厌	-6619
唤	-6620
彬	-6621
毯	-6622
潇	-6623
炜	-6624
牺	-6625
仕	-6626
侈	-6627
垒	-6628
崩	-6629
柜	-6630
瞩	-6631
藤	-6632
踝	-6633
钩	-6634
勋	-6635
歇	-6636
粹	-6637
绑	-6638
蒲	-6639
跻	-6640
逝	-6641
锅	-6642
愉	-6643
撒	-6644
玫	-6645
逗	-6646
遮	-6647
酿	-6648
僵	-6649
勃	-6650
婕	-6651
斩	-6652
眠	-6653
臧	-6654
踩	-6655
辖	-6656
辱	-6657
阪	-6658
∶	-6659
仑	-6660
叙	-6661
搏	-6662
湿	-6663
疏	-6664
秩	-6665
竹	-6666
腐	-6667
迄	-6668
嘲	-6669
廖	-6670
朵	-6671
洽	-6672
籽	-6673
肿	-6674
仗	-6675
凳	-6676
婧	-6677
弈	-6678
拐	-6679
狮	-6680
肢	-6681
芒	-6682
芸	-6683
钰	-6684
乳	-6685
佣	-6686
叠	-6687
啸	-6688
婴	-6689
寂	-6690
巅	-6691
杏	-6692
溃	-6693
滩	-6694
熬	-6695
耍	-6696
聂	-6697
诵	-6698
谅	-6699
霖	-6700
韧	-6701
颈	-6702
乖	-6703
乾	-6704
怜	-6705
暨	-6706
棚	-6707
滋	-6708
滤	-6709
矩	-6710
菁	-6711
袍	-6712
谎	-6713
钦	-6714
驳	-6715
剔	-6716
昕	-6717
爬	-6718
痴	-6719
砂	-6720
秉	-6721
萃	-6722
讽	-6723
辟	-6724
○	-6725
●	-6726
冈	-6727
帷	-6728
愁	-6729
拦	-6730
淑	-6731
渤	-6732
璐	-6733
癌	-6734
茂	-6735
萱	-6736
誓	-6737
诀	-6738
鄂	-6739
顽	-6740
宛	-6741
岚	-6742
彪	-6743
徊	-6744
徘	-6745
怖	-6746
恤	-6747
摔	-6748
畏	-6749
痕	-6750
碳	-6751
蔓	-6752
诠	-6753
铲	-6754
龚	-6755
冶	-6756
凰	-6757
嫂	-6758
崛	-6759
抹	-6760
枫	-6761
淫	-6762
纶	-6763
膀	-6764
茜	-6765
郜	-6766
闸	-6767
阮	-6768
鲨	-6769
°	-6770
仲	-6771
卧	-6772
厄	-6773
咬	-6774
姥	-6775
愧	-6776
拯	-6777
撕	-6778
梓	-6779
浸	-6780
窃	-6781
筒	-6782
腔	-6783
苑	-6784
酋	-6785
闫	-6786
鼻	-6787
庸	-6788
扔	-6789
扯	-6790
昏	-6791
滴	-6792
碌	-6793
舜	-6794
铮	-6795
锣	-6796
•	-6797
亩	-6798
匪	-6799
妃	-6800
惕	-6801
拾	-6802
摊	-6803
桓	-6804
污	-6805
灌	-6806
衬	-6807
镐	-6808
冤	-6809
奠	-6810
婿	-6811
媚	-6812
崎	-6813
抚	-6814
舌	-6815
芭	-6816
蓬	-6817
虫	-6818
隋	-6819
叉	-6820
吵	-6821
咪	-6822
帐	-6823
愚	-6824
汶	-6825
渗	-6826
灿	-6827
雾	-6828
鹤	-6829
勉	-6830
卸	-6831
吞	-6832
巍	-6833
殿	-6834
珞	-6835
瑜	-6836
笼	-6837
钮	-6838
啥	-6839
喔	-6840
嘘	-6841
幂	-6842
殖	-6843
氧	-6844
瑰	-6845
耿	-6846
饶	-6847
椅	-6848
牧	-6849
缆	-6850
翠	-6851
耻	-6852
酝	-6853
靡	-6854
儒	-6855
剖	-6856
娶	-6857
帧	-6858
懈	-6859
柄	-6860
浒	-6861
涩	-6862
溯	-6863
甸	-6864
絮	-6865
绳	-6866
袂	-6867
贪	-6868
靴	-6869
吼	-6870
喀	-6871
妖	-6872
弦	-6873
昭	-6874
梳	-6875
瘤	-6876
筛	-6877
羞	-6878
脾	-6879
裹	-6880
轶	-6881
哄	-6882
哑	-6883
嗓	-6884
宵	-6885
曦	-6886
榄	-6887
橄	-6888
渊	-6889
溜	-6890
滥	-6891
蒸	-6892
蕴	-6893
魁	-6894
☆	-6895
佼	-6896
厘	-6897
寥	-6898
浑	-6899
湛	-6900
疫	-6901
瞄	-6902
竭	-6903
绵	-6904
肆	-6905
菊	-6906
蔬	-6907
虐	-6908
蛮	-6909
贞	-6910
遏	-6911
邹	-6912
丘	-6913
卦	-6914
哀	-6915
哦	-6916
娴	-6917
屠	-6918
懒	-6919
栩	-6920
橙	-6921
漠	-6922
犀	-6923
琢	-6924
瓒	-6925
瞻	-6926
觅	-6927
跪	-6928
阱	-6929
陵	-6930
鞍	-6931
#	-6932
啡	-6933
峡	-6934
拭	-6935
浴	-6936
玄	-6937
睢	-6938
睹	-6939
瞒	-6940
翟	-6941
胃	-6942
茫	-6943
遂	-6944
雀	-6945
凝	-6946
刮	-6947
吾	-6948
唇	-6949
噗	-6950
宙	-6951
巷	-6952
洒	-6953
浚	-6954
淳	-6955
炳	-6956
碗	-6957
艇	-6958
逮	-6959
颓	-6960
刃	-6961
卜	-6962
厕	-6963
咖	-6964
坑	-6965
婶	-6966
掷	-6967
殴	-6968
煮	-6969
祺	-6970
稽	-6971
肋	-6972
葬	-6973
蝉	-6974
贿	-6975
遣	-6976
咕	-6977
奸	-6978
惫	-6979
戛	-6980
株	-6981
沛	-6982
瘫	-6983
矢	-6984
秽	-6985
蔽	-6986
蠢	-6987
讳	-6988
◆	-6989
咱	-6990
囤	-6991
坠	-6992
姨	-6993
捏	-6994
掏	-6995
曙	-6996
泣	-6997
溪	-6998
熠	-6999
粘	-7000
绮	-7001
肇	-7002
肠	-7003
脖	-7004
茆	-7005
茵	-7006
蓓	-7007
辙	-7008
靖	-7009
颐	-7010
佑	-7011
俪	-7012
嘱	-7013
岂	-7014
抒	-7015
棠	-7016
汹	-7017
沾	-7018
狭	-7019
猎	-7020
硒	-7021
筋	-7022
簿	-7023
豹	-7024
邢	-7025
钉	-7026
隙	-7027
韬	-7028
齿	-7029
|	-7030
佟	-7031
寞	-7032
尧	-7033
戚	-7034
晕	-7035
沧	-7036
涤	-7037
瓣	-7038
耽	-7039
苛	-7040
黯	-7041
亥	-7042
叛	-7043
喘	-7044
嘟	-7045
垮	-7046
沦	-7047
洙	-7048
淮	-7049
狙	-7050
砖	-7051
禹	-7052
绚	-7053
翩	-7054
苍	-7055
蹄	-7056
郊	-7057
钓	-7058
锈	-7059
镀	-7060
霏	-7061
鞠	-7062
颂	-7063
魄	-7064
麒	-7065
丫	-7066
佬	-7067
兜	-7068
咽	-7069
夷	-7070
奴	-7071
尸	-7072
尿	-7073
揣	-7074
汝	-7075
淋	-7076
牟	-7077
痊	-7078
荃	-7079
阐	-7080
隶	-7081
俨	-7082
兮	-7083
喉	-7084
寡	-7085
嵌	-7086
懿	-7087
挚	-7088
敛	-7089
敞	-7090
歆	-7091
泊	-7092
灶	-7093
猩	-7094
矫	-7095
藻	-7096
阎	-7097
鸭	-7098
卑	-7099
娥	-7100
寝	-7101
扛	-7102
泻	-7103
涡	-7104
瀚	-7105
焱	-7106
犬	-7107
珀	-7108
瓷	-7109
甫	-7110
荆	-7111
菱	-7112
虞	-7113
轧	-7114
钊	-7115
铎	-7116
镖	-7117
闺	-7118
$	-7119
姗	-7120
嫣	-7121
宸	-7122
抉	-7123
斐	-7124
暇	-7125
汁	-7126
渣	-7127
澎	-7128
炙	-7129
瑾	-7130
皱	-7131
祈	-7132
禅	-7133
穴	-7134
绊	-7135
耕	-7136
聿	-7137
肾	-7138
裴	-7139
邪	-7140
邬	-7141
霉	-7142
鞭	-7143
髓	-7144
亭	-7145
傍	-7146
噱	-7147
坝	-7148
壹	-7149
姊	-7150
媲	-7151
寺	-7152
恳	-7153
拢	-7154
敖	-7155
榻	-7156
煎	-7157
琅	-7158
缔	-7159
脊	-7160
蹭	-7161
辜	-7162
郡	-7163
匿	-7164
咒	-7165
捞	-7166
擂	-7167
毋	-7168
漾	-7169
盆	-7170
睁	-7171
禾	-7172
绰	-7173
翘	-7174
肺	-7175
芊	-7176
茹	-7177
钧	-7178
颤	-7179
伺	-7180
倚	-7181
倦	-7182
姬	-7183
崭	-7184
嵩	-7185
帜	-7186
搁	-7187
枭	-7188
淼	-7189
煞	-7190
瞎	-7191
穗	-7192
窥	-7193
笃	-7194
藉	-7195
谜	-7196
阁	-7197
飚	-7198
驴	-7199
丸	-7200
伞	-7201
卵	-7202
卿	-7203
哇	-7204
哉	-7205
噩	-7206
坪	-7207
壶	-7208
宕	-7209
慷	-7210
桩	-7211
棱	-7212
樱	-7213
沮	-7214
潭	-7215
炬	-7216
煜	-7217
畔	-7218
畴	-7219
盐	-7220
笨	-7221
绽	-7222
缪	-7223
舵	-7224
蝴	-7225
贱	-7226
跷	-7227
踊	-7228
躬	-7229
醇	-7230
隽	-7231
鹅	-7232
丛	-7233
匀	-7234
叮	-7235
埔	-7236
墓	-7237
恺	-7238
挨	-7239
捡	-7240
昧	-7241
棵	-7242
渔	-7243
烹	-7244
焰	-7245
瑛	-7246
矮	-7247
祁	-7248
竖	-7249
绒	-7250
缀	-7251
肘	-7252
诫	-7253
酯	-7254
钗	-7255
咋	-7256
嘎	-7257
孰	-7258
巫	-7259
帼	-7260
拇	-7261
捆	-7262
晟	-7263
枢	-7264
浆	-7265
淆	-7266
澡	-7267
烽	-7268
痪	-7269
芹	-7270
蕙	-7271
蚁	-7272
袜	-7273
蹿	-7274
闽	-7275
饪	-7276
饽	-7277
骆	-7278
乍	-7279
僧	-7280
冀	-7281
匠	-7282
哒	-7283
嚣	-7284
妩	-7285
娆	-7286
庐	-7287
悚	-7288
悼	-7289
撇	-7290
攒	-7291
枕	-7292
栽	-7293
梨	-7294
梭	-7295
玟	-7296
硅	-7297
磕	-7298
筱	-7299
缉	-7300
荼	-7301
蛇	-7302
蜕	-7303
蜗	-7304
躺	-7305
迥	-7306
丙	-7307
凹	-7308
剃	-7309
哗	-7310
喂	-7311
壤	-7312
寇	-7313
岬	-7314
崖	-7315
憋	-7316
戟	-7317
扼	-7318
昱	-7319
晤	-7320
柬	-7321
棍	-7322
殡	-7323
滔	-7324
漩	-7325
濠	-7326
熄	-7327
璧	-7328
痒	-7329
禄	-7330
窦	-7331
纬	-7332
绅	-7333
翅	-7334
肝	-7335
腥	-7336
臻	-7337
舅	-7338
芙	-7339
荔	-7340
菌	-7341
蚀	-7342
蚕	-7343
袱	-7344
诡	-7345
趟	-7346
蹦	-7347
鄢	-7348
钞	-7349
馏	-7350
鸽	-7351
\	-7352
伽	-7353
侥	-7354
俘	-7355
刁	-7356
剥	-7357
劈	-7358
咳	-7359
哽	-7360
啤	-7361
塌	-7362
妄	-7363
娲	-7364
宰	-7365
屿	-7366
挠	-7367
捍	-7368
搀	-7369
搅	-7370
晏	-7371
暧	-7372
灞	-7373
炯	-7374
燥	-7375
爹	-7376
琛	-7377
硝	-7378
筝	-7379
翡	-7380
胚	-7381
萦	-7382
蜡	-7383
铂	-7384
鲸	-7385
μ	-7386
俭	-7387
俯	-7388
兢	-7389
娓	-7390
嫔	-7391
屁	-7392
岌	-7393
怠	-7394
怯	-7395
憧	-7396
憬	-7397
枯	-7398
栗	-7399
潍	-7400
炀	-7401
炅	-7402
焕	-7403
猕	-7404
痞	-7405
砝	-7406
窍	-7407
绣	-7408
绸	-7409
腺	-7410
诟	-7411
贼	-7412
蹲	-7413
辐	-7414
醋	-7415
釜	-7416
陋	-7417
霾	-7418
顷	-7419
飓	-7420
乞	-7421
侮	-7422
刹	-7423
匮	-7424
咸	-7425
娅	-7426
屹	-7427
彝	-7428
忐	-7429
忑	-7430
慑	-7431
憨	-7432
抨	-7433
掺	-7434
摧	-7435
桦	-7436
椎	-7437
槟	-7438
沂	-7439
溶	-7440
漓	-7441
熹	-7442
璨	-7443
睫	-7444
禽	-7445
窒	-7446
窘	-7447
笈	-7448
绷	-7449
聆	-7450
膊	-7451
臭	-7452
蔷	-7453
褒	-7454
襟	-7455
譬	-7456
貂	-7457
贩	-7458
赁	-7459
赈	-7460
赐	-7461
踹	-7462
遐	-7463
镶	-7464
陡	-7465
饥	-7466
龟	-7467
é	-7468
亟	-7469
勘	-7470
厢	-7471
嗽	-7472
囚	-7473
堕	-7474
塾	-7475
岙	-7476
廊	-7477
廓	-7478
忡	-7479
捣	-7480
揪	-7481
樊	-7482
歹	-7483
毓	-7484
沽	-7485
漕	-7486
瞠	-7487
瞧	-7488
禧	-7489
窜	-7490
篡	-7491
缅	-7492
缇	-7493
缚	-7494
羲	-7495
膏	-7496
茱	-7497
荫	-7498
蚌	-7499
蜀	-7500
诛	-7501
蹊	-7502
酌	-7503
钥	-7504
锤	-7505
骁	-7506
麾	-7507
丞	-7508
凄	-7509
匡	-7510
卉	-7511
呕	-7512
呛	-7513
喧	-7514
坷	-7515
埠	-7516
寰	-7517
庙	-7518
弓	-7519
惋	-7520
拷	-7521
挟	-7522
撮	-7523
敷	-7524
楂	-7525
歪	-7526
渺	-7527
烙	-7528
烛	-7529
牡	-7530
狡	-7531
猾	-7532
癖	-7533
癫	-7534
睦	-7535
硫	-7536
稚	-7537
笛	-7538
紊	-7539
罄	-7540
羁	-7541
胳	-7542
腩	-7543
舱	-7544
茧	-7545
蟹	-7546
衅	-7547
褪	-7548
诙	-7549
诧	-7550
谙	-7551
豁	-7552
酱	-7553
铸	-7554
锵	-7555
饺	-7556
〈	-7557
侍	-7558
倔	-7559
倘	-7560
偕	-7561
凿	-7562
匈	-7563
匙	-7564
卒	-7565
厮	-7566
叱	-7567
吆	-7568
吟	-7569
呐	-7570
咤	-7571
哼	-7572
喇	-7573
喋	-7574
堤	-7575
塘	-7576
墉	-7577
娄	-7578
悴	-7579
憔	-7580
拽	-7581
搡	-7582
攘	-7583
昵	-7584
橱	-7585
沐	-7586
涝	-7587
漪	-7588
濒	-7589
瑕	-7590
眷	-7591
瞑	-7592
瞿	-7593
碱	-7594
磋	-7595
祷	-7596
缭	-7597
膳	-7598
芦	-7599
苟	-7600
荟	-7601
蚂	-7602
诋	-7603
逅	-7604
邂	-7605
锯	-7606
黏	-7607
亢	-7608
伎	-7609
匾	-7610
卞	-7611
叨	-7612
叭	-7613
咀	-7614
咫	-7615
哎	-7616
孵	-7617
屯	-7618
忻	-7619
恍	-7620
愣	-7621
拎	-7622
拙	-7623
捂	-7624
捅	-7625
搂	-7626
擒	-7627
暮	-7628
梧	-7629
殆	-7630
毙	-7631
汲	-7632
洼	-7633
浇	-7634
浔	-7635
淅	-7636
烘	-7637
煲	-7638
煽	-7639
珑	-7640
琐	-7641
璀	-7642
疚	-7643
疵	-7644
眨	-7645
缕	-7646
虾	-7647
蛛	-7648
蝙	-7649
蝠	-7650
觑	-7651
讧	-7652
谌	-7653
轿	-7654
辄	-7655
酣	-7656
钵	-7657
镍	-7658
隧	-7659
霁	-7660
饿	-7661
馅	-7662
骅	-7663
髦	-7664
鳄	-7665
▲	-7666
侗	-7667
剿	-7668
咔	-7669
哮	-7670
啪	-7671
啼	-7672
嘿	-7673
噬	-7674
墟	-7675
奚	-7676
屑	-7677
岐	-7678
弛	-7679
忱	-7680
愕	-7681
愫	-7682
拗	-7683
挝	-7684
揍	-7685
晔	-7686
柒	-7687
栓	-7688
氙	-7689
湃	-7690
澈	-7691
烁	-7692
烫	-7693
焚	-7694
熏	-7695
猝	-7696
玺	-7697
篑	-7698
籁	-7699
糙	-7700
艘	-7701
苯	-7702
葱	-7703
蛊	-7704
蛰	-7705
蝇	-7706
诣	-7707
诽	-7708
谤	-7709
谴	-7710
赘	-7711
趴	-7712
躯	-7713
辫	-7714
迸	-7715
邸	-7716
铨	-7717
雁	-7718
雍	-7719
驭	-7720
鸦	-7721
〉	-7722
俺	-7723
僻	-7724
叁	-7725
咎	-7726
咧	-7727
唏	-7728
嗅	-7729
嗣	-7730
嗷	-7731
圻	-7732
坂	-7733
夯	-7734
妒	-7735
娩	-7736
孀	-7737
幌	-7738
幢	-7739
惬	-7740
懵	-7741
戳	-7742
扁	-7743
抠	-7744
捺	-7745
揉	-7746
曰	-7747
枉	-7748
栈	-7749
榴	-7750
氟	-7751
淹	-7752
渲	-7753
燮	-7754
町	-7755
疮	-7756
眩	-7757
祀	-7758
祚	-7759
筵	-7760
箍	-7761
簧	-7762
粥	-7763
绞	-7764
缄	-7765
腆	-7766
腼	-7767
膺	-7768
舶	-7769
芜	-7770
莠	-7771
葫	-7772
蔼	-7773
薰	-7774
覃	-7775
讥	-7776
豌	-7777
跆	-7778
辗	-7779
遴	-7780
铐	-7781
锏	-7782
阀	-7783
靳	-7784
骥	-7785
鸯	-7786
鸳	-7787
^	-7788
α	-7789
′	-7790
イ	-7791
伶	-7792
侬	-7793
冥	-7794
吝	-7795
咆	-7796
咯	-7797
啃	-7798
嘶	-7799
嘻	-7800
嚼	-7801
圃	-7802
坯	-7803
奂	-7804
姣	-7805
娣	-7806
嫉	-7807
嬉	-7808
孽	-7809
寅	-7810
寐	-7811
岔	-7812
峙	-7813
峥	-7814
帘	-7815
庶	-7816
彷	-7817
忏	-7818
懊	-7819
扉	-7820
扒	-7821
掐	-7822
掰	-7823
撬	-7824
昙	-7825
暄	-7826
榕	-7827
榷	-7828
槌	-7829
殃	-7830
泓	-7831
渥	-7832
漳	-7833
澍	-7834
灏	-7835
灼	-7836
炽	-7837
熔	-7838
狸	-7839
甥	-7840
畜	-7841
痹	-7842
瘸	-7843
皎	-7844
眈	-7845
矣	-7846
祯	-7847
秃	-7848
竿	-7849
纫	-7850
缤	-7851
罐	-7852
罹	-7853
胰	-7854
茄	-7855
茏	-7856
菠	-7857
葆	-7858
蜘	-7859
襄	-7860
讹	-7861
豚	-7862
贻	-7863
踵	-7864
迢	-7865
鄙	-7866
鏖	-7867
钛	-7868
铉	-7869
锟	-7870
阑	-7871
陀	-7872
颊	-7873
骋	-7874
骞	-7875
鳌	-7876
鹃	-7877
麓	-7878
黔	-7879
<	-7880
│	-7881
仆	-7882
仨	-7883
匣	-7884
呜	-7885
咐	-7886
唠	-7887
嘀	-7888
噎	-7889
妓	-7890
婵	-7891
屎	-7892
嵘	-7893
帚	-7894
庇	-7895
恬	-7896
惰	-7897
拣	-7898
拧	-7899
掠	-7900
掣	-7901
摒	-7902
斟	-7903
栖	-7904
棘	-7905
檀	-7906
汛	-7907
泌	-7908
泗	-7909
浃	-7910
涕	-7911
溏	-7912
溱	-7913
溺	-7914
滢	-7915
焊	-7916
珂	-7917
珈	-7918
皋	-7919
瞅	-7920
瞪	-7921
砺	-7922
稠	-7923
篷	-7924
粳	-7925
翌	-7926
耘	-7927
聋	-7928
肮	-7929
腱	-7930
臃	-7931
苓	-7932
莽	-7933
蒜	-7934
蕊	-7935
虔	-7936
蛙	-7937
蜚	-7938
裘	-7939
觊	-7940
觎	-7941
讪	-7942
赡	-7943
趸	-7944
趾	-7945
跋	-7946
蹶	-7947
轲	-7948
辍	-7949
逞	-7950
邃	-7951
邡	-7952
酗	-7953
钇	-7954
钙	-7955
钯	-7956
阚	-7957
韶	-7958
鹭	-7959
è	-7960
丐	-7961
剌	-7962
吒	-7963
咄	-7964
咙	-7965
唉	-7966
嗯	-7967
堰	-7968
妤	-7969
尉	-7970
峪	-7971
怵	-7972
恪	-7973
惘	-7974
惭	-7975
惮	-7976
惺	-7977
憎	-7978
戮	-7979
拌	-7980
拱	-7981
挛	-7982
摁	-7983
攥	-7984
於	-7985
晦	-7986
朦	-7987
札	-7988
柁	-7989
棺	-7990
樟	-7991
氓	-7992
汐	-7993
汕	-7994
沁	-7995
