<unk>	0
<pad>	0
<s>	0
</s>	0
,	-2.58414
。	-3.58974
的	-3.72599
▁	-3.99913
、	-4.67412
在	-4.97136
和	-5.15412
“	-5.28808
)	-5.4163
”	-5.50492
了	-5.52583
(	-5.61512
:	-5.67016
月	-5.7101
是	-5.72322
中	-5.91317
为	-5.93814
年	-5.94943
-	-6.00046
与	-6.03129
有	-6.05115
日	-6.09884
他	-6.10621
。”	-6.11521
》	-6.12778
3	-6.14538
对	-6.15408
而	-6.15696
《	-6.17529
将	-6.2071
也	-6.21248
上	-6.25009
1	-6.25805
但	-6.29112
2	-6.34483
人	-6.36791
分	-6.36887
后	-6.37846
等	-6.42538
5	-6.44983
4	-6.45727
时	-6.49802
大	-6.50263
不	-6.50264
我	-6.50347
以	-6.53745
元	-6.5539
;	-6.57042
6	-6.5893
到	-6.59325
说	-6.60092
从	-6.6095
7	-6.63609
:“	-6.65598
10	-6.65663
就	-6.659
8	-6.68775
?	-6.72768
/	-6.73218
被	-6.76045
表示	-6.78968
9	-6.83939
都	-6.84204
市场	-6.85122
一	-6.87634
要	-6.89771
我们	-6.89993
她	-6.90534
会	-6.92166
并	-6.93333
中国	-6.95098
基金	-6.98638
来	-7.00611
进行	-7.02224
还	-7.03033
这	-7.04374
已经	-7.0564
目前	-7.07194
.	-7.0767
地	-7.11054
他们	-7.12403
没有	-7.134
自己	-7.1357
小	-7.14624
一个	-7.1613
其	-7.1664
新	-7.1737
12	-7.18718
11	-7.19288
公司	-7.20354
前	-7.21099
多	-7.21255
点	-7.21484
比	-7.2325
及	-7.23935
考生	-7.24626
个	-7.25247
可	-7.25269
今年	-7.25746
下	-7.27377
以及	-7.28241
可以	-7.29337
20	-7.29877
过	-7.29969
用	-7.30146
让	-7.30811
记者	-7.31064
之后	-7.34574
向	-7.35613
好	-7.35962
更	-7.36673
讯	-7.38118
已	-7.38653
高	-7.38707
于	-7.38708
不过	-7.39908
只	-7.40937
,“	-7.41275
还是	-7.41437
因为	-7.4218
对于	-7.42428
又	-7.42545
这个	-7.43336
或	-7.43581
能	-7.44697
称	-7.45183
去	-7.45762
▁“	-7.46689
”。	-7.47066
出	-7.47224
其中	-7.47638
最	-7.47712
由	-7.48001
所	-7.48874
你	-7.50394
时间	-7.50443
如果	-7.5087
却	-7.51729
通过	-7.51984
则	-7.53312
着	-7.53519
但是	-7.53529
成为	-7.53703
30	-7.53981
开始	-7.54057
同时	-7.54182
方面	-7.54912
”,	-7.55754
价格	-7.56259
再	-7.56305
美国	-7.56499
现在	-7.5663
至	-7.5678
里	-7.5741
A	-7.57786
就是	-7.58857
工作	-7.58916
美元	-7.59052
很	-7.594
▁(	-7.59621
看	-7.59637
15	-7.59746
三	-7.59963
C	-7.60511
名	-7.61517
认为	-7.61849
一些	-7.62135
专业	-7.62186
给	-7.62328
该	-7.62845
得	-7.62948
家	-7.6358
性	-7.63945
万	-7.64516
学生	-7.64595
信息	-7.64773
把	-7.65103
虽然	-7.65697
天	-7.65827
文	-7.66761
问题	-7.66773
做	-7.66782
外	-7.67162
2010	-7.67229
投资	-7.67547
打	-7.6895
队	-7.69142
比赛	-7.69154
选择	-7.69228
!	-7.70528
由于	-7.70549
学校	-7.70787
产品	-7.71181
球队	-7.71464
国内	-7.71513
当	-7.71826
D	-7.74092
出现	-7.74201
作为	-7.74599
因此	-7.74823
第	-7.75124
2009	-7.7546
G	-7.75535
需要	-7.75708
16	-7.76896
球员	-7.772
可能	-7.775
这些	-7.77806
图	-7.78949
之	-7.79145
非常	-7.79188
要求	-7.79474
因	-7.79715
计划	-7.79967
手	-7.80473
获得	-7.80881
手机	-7.82047
技术	-7.82223
者	-7.82367
S	-7.82698
参加	-7.83006
金	-7.83391
考试	-7.83701
18	-7.83713
支持	-7.8432
成	-7.84419
希望	-7.84504
球	-7.8502
▁北京时间	-7.85196
微博	-7.85225
14	-7.85786
子	-7.86147
分钟	-7.86828
也是	-7.87804
张	-7.88374
▁新浪体育	-7.88487
报道	-7.89228
想	-7.89361
上涨	-7.89586
能够	-7.89615
服务	-7.89853
北京	-7.90329
部分	-7.90805
大学	-7.90854
s	-7.91177
都是	-7.91222
13	-7.92236
所以	-7.92375
进入	-7.92509
自	-7.9258
生	-7.93158
交易	-7.93367
内	-7.93398
用户	-7.93646
吨	-7.93668
·	-7.93737
网络	-7.94238
表现	-7.94515
继续	-7.94579
50	-7.94688
之前	-7.95251
两	-7.95455
19	-7.95563
如	-7.96279
还有	-7.97448
包括	-7.97574
高考	-7.97641
网	-7.98533
本	-7.98639
而且	-7.99317
无	-7.99489
长	-7.9959
很多	-7.99651
的时候	-7.99678
自己的	-8.00512
企业	-8.00682
17	-8.00822
25	-8.00997
拍摄	-8.01589
拥有	-8.02749
。(	-8.02922
使用	-8.02978
起	-8.03084
只有	-8.03159
位	-8.03215
100	-8.03224
昨日	-8.03232
录取	-8.03424
今天	-8.03425
▁新浪娱乐讯	-8.04261
月份	-8.04268
头	-8.04556
活动	-8.04728
次	-8.04737
才	-8.0475
达到	-8.04864
亿元	-8.05347
。“	-8.0554
王	-8.05608
开	-8.05641
上海	-8.06731
发展	-8.07021
学	-8.07037
近	-8.07091
国际	-8.07186
最终	-8.07314
其他	-8.07366
国家	-8.07886
李	-8.08196
卡	-8.0836
透露	-8.08791
正	-8.09059
]	-8.09477
曾	-8.09729
号	-8.09982
业务	-8.10067
变化	-8.1016
28	-8.10254
B	-8.10478
发	-8.10538
不是	-8.11032
行业	-8.1108
24	-8.11405
一直	-8.11575
21	-8.11582
——	-8.11643
全球	-8.11677
影响	-8.11693
23	-8.11731
场	-8.11738
老	-8.11863
心	-8.12907
媒体	-8.1339
成绩	-8.13407
功能	-8.13538
投资者	-8.13539
他的	-8.13578
来说	-8.13587
下跌	-8.1359
马	-8.13902
达	-8.14266
现场	-8.14346
能力	-8.14778
教育	-8.1482
强	-8.14882
资金	-8.15423
学习	-8.1567
这一	-8.15722
期	-8.15775
26	-8.15981
这样	-8.16493
报	-8.16543
除了	-8.16603
i	-8.16824
那么	-8.17227
银行	-8.17683
类	-8.17991
斯	-8.18244
增加	-8.18275
调整	-8.18303
市	-8.18444
系统	-8.18505
的是	-8.18641
22	-8.18662
网站	-8.18905
四	-8.19103
不能	-8.19418
提供	-8.19669
▁在	-8.19713
采用	-8.19863
主要	-8.20101
约	-8.20138
均	-8.20161
这种	-8.20185
得到	-8.20245
比较	-8.2028
全	-8.20475
爱	-8.20847
没	-8.21271
2008	-8.21326
线	-8.21808
俱乐部	-8.22006
各	-8.2221
根据	-8.22425
华	-8.22564
这是	-8.22642
设计	-8.2282
数据	-8.22828
去年	-8.23298
那	-8.23365
走	-8.23666
甚至	-8.23707
电影	-8.23741
2011	-8.23989
机会	-8.24156
管理	-8.24282
受	-8.24313
招生	-8.24372
正在	-8.24523
再次	-8.24829
世界	-8.25763
拉	-8.25807
连续	-8.26145
个人	-8.26303
火箭	-8.26303
情况	-8.26327
0	-8.26384
40	-8.26414
这次	-8.26437
关注	-8.26838
跟	-8.2762
同	-8.27873
需求	-8.28718
全国	-8.28905
香港	-8.29069
德	-8.29116
生活	-8.29386
像	-8.29394
第一	-8.29542
万元	-8.29661
二	-8.29689
预计	-8.29695
日本	-8.297
超过	-8.29811
重	-8.30261
mm	-8.30417
T	-8.30432
美	-8.30724
两人	-8.31128
大家	-8.31236
力	-8.31524
新浪	-8.31628
60	-8.31925
直接	-8.32052
据	-8.32412
仅	-8.32576
数	-8.32606
这样的	-8.32972
不同	-8.32975
300	-8.33509
机构	-8.33571
申请	-8.33667
为了	-8.33695
M	-8.33748
具有	-8.339
近期	-8.33994
难	-8.33997
最后	-8.33999
)、	-8.34005
增长	-8.34105
车	-8.34357
区	-8.34719
即	-8.34838
结果	-8.35208
昨天	-8.35469
老师	-8.35489
道	-8.35931
所有	-8.36009
机	-8.36516
提高	-8.36566
只是	-8.367
!”	-8.36773
应	-8.371
太	-8.37156
不会	-8.37214
女	-8.37229
合作	-8.37299
应该	-8.37334
冠军	-8.37434
万吨	-8.37458
日前	-8.37554
先	-8.37887
考	-8.3846
是否	-8.38759
周	-8.38874
P	-8.39039
完成	-8.39044
决定	-8.39067
战	-8.39233
推出	-8.3924
罗	-8.39271
看到	-8.39423
另外	-8.39433
总	-8.39487
带	-8.39775
并且	-8.4001
当时	-8.40113
加	-8.40175
法	-8.40358
仍	-8.40392
经济	-8.40409
超	-8.40652
一起	-8.40944
双	-8.41182
特	-8.41222
此次	-8.41396
每	-8.41419
什么	-8.41457
对手	-8.41603
来看	-8.41953
最近	-8.42228
事	-8.42306
未来	-8.42431
▁[	-8.42457
帮助	-8.42571
陈	-8.42651
平	-8.42871
不少	-8.42909
使	-8.43045
们	-8.43169
股	-8.43618
显示	-8.43926
27	-8.43996
准备	-8.44108
孩子	-8.44353
黄金	-8.4438
海	-8.44458
+	-8.44477
尽管	-8.44541
相关	-8.44612
一样	-8.44735
此外	-8.44757
红	-8.44769
部	-8.44799
首次	-8.44881
政策	-8.44983
化	-8.45006
它	-8.45237
接受	-8.45285
拍	-8.45361
时尚	-8.4541
突破	-8.45509
进	-8.45695
面对	-8.46084
水平	-8.46234
方式	-8.46341
29	-8.46379
未	-8.46549
明显	-8.46691
连	-8.47075
一位	-8.47283
F	-8.47295
无法	-8.47312
台	-8.47409
报考	-8.47422
其实	-8.47482
90	-8.47581
压力	-8.47736
量	-8.4781
▁高考	-8.47816
随着	-8.47972
路	-8.48221
依然	-8.48258
林	-8.48282
十分	-8.48503
基金公司	-8.48701
必须	-8.48736
非	-8.48805
训练	-8.48935
回	-8.48967
版	-8.48986
占	-8.49184
到了	-8.49219
组	-8.49221
国	-8.49262
相比	-8.49481
80	-8.49792
明星	-8.49957
E	-8.49991
▁本报讯	-8.50123
并不	-8.50151
特别	-8.50477
介绍	-8.50783
期货	-8.50797
有些	-8.50822
更是	-8.51051
成功	-8.51089
姚明	-8.51437
水	-8.51533
行	-8.51601
光	-8.51951
五	-8.52053
米	-8.52289
单	-8.52485
N	-8.52631
优势	-8.52671
整体	-8.52781
音乐	-8.5279
花	-8.52812
气	-8.53071
ETF	-8.53116
报名	-8.53274
发现	-8.53491
站	-8.53513
如何	-8.5352
以上	-8.53594
指数	-8.53642
刘	-8.53709
的表现	-8.53788
球迷	-8.53849
项目	-8.53918
实现	-8.53938
合约	-8.53945
有关	-8.53981
规模	-8.54007
销售	-8.5422
全部	-8.54255
门	-8.54272
利	-8.54437
公布	-8.54601
分别	-8.54603
钱	-8.54771
情	-8.54806
之一	-8.54918
近日	-8.5497
更加	-8.55239
此前	-8.5528
购买	-8.55557
令	-8.5563
品牌	-8.55642
社会	-8.55746
宣布	-8.55776
参与	-8.5584
不断	-8.55933
科	-8.56013
日消息	-8.56606
胜	-8.56931
英寸	-8.56954
山	-8.57076
岁	-8.57097
高校	-8.57155
行情	-8.57491
局	-8.5759
期间	-8.57621
同样	-8.57636
来自	-8.5789
发行	-8.57891
处	-8.58012
共	-8.58017
受到	-8.58141
消息	-8.58325
内容	-8.58379
将在	-8.58656
导演	-8.58685
测试	-8.58915
转	-8.59087
500	-8.59105
了解	-8.59109
政府	-8.59145
较	-8.59196
事件	-8.59349
如此	-8.59555
导致	-8.59621
低	-8.59814
且	-8.59815
持续	-8.59961
分析	-8.59966
研究	-8.60096
模式	-8.60151
镜头	-8.60223
选	-8.60238
度	-8.60323
呢	-8.60329
方	-8.60385
双方	-8.6066
阶段	-8.61064
客户	-8.61103
亿	-8.6121
入	-8.61213
200	-8.61336
代表	-8.61756
费	-8.61863
此	-8.61867
状态	-8.61964
‘	-8.61987
结束	-8.62019
克	-8.62281
不仅	-8.62522
▁《	-8.62548
经过	-8.62881
戏	-8.63028
提前	-8.63097
按	-8.63101
按照	-8.6315
上市	-8.63227
一次	-8.63276
两个	-8.63307
的人	-8.63449
风	-8.63887
取得	-8.63975
买	-8.63995
发布	-8.64248
K	-8.64309
领先	-8.64343
韩国	-8.64446
或者	-8.64447
体育	-8.64644
院校	-8.64683
问	-8.65006
’	-8.65259
观众	-8.65296
随后	-8.65357
吧	-8.65497
基本	-8.65533
完全	-8.65692
正式	-8.65715
31	-8.66002
中的	-8.66076
进行了	-8.66356
第二	-8.66411
建议	-8.66462
一般	-8.66553
任何	-8.66658
面	-8.66916
仍然	-8.67023
的比赛	-8.67093
存在	-8.67197
中心	-8.67345
某	-8.67398
左右	-8.67499
便	-8.67819
标准	-8.67854
明	-8.67887
安	-8.67926
首	-8.67949
风险	-8.68204
只要	-8.68453
消费	-8.68655
听	-8.68669
作	-8.68698
以来	-8.69236
最高	-8.69378
业绩	-8.69411
进一步	-8.69455
安排	-8.69475
原	-8.70207
白	-8.70709
进攻	-8.71
家长	-8.71021
英语	-8.71052
身	-8.71786
保持	-8.71823
截至	-8.7184
▁据	-8.71995
送	-8.7203
广告	-8.72045
赛	-8.72066
书	-8.72073
带来	-8.72127
秒	-8.72575
级	-8.72629
当然	-8.72686
减少	-8.72742
家庭	-8.72931
少	-8.73003
业	-8.73284
并没有	-8.73336
杨	-8.73382
六	-8.7339
演员	-8.73483
喜欢	-8.73578
e	-8.73752
考虑	-8.73761
飞	-8.73892
这位	-8.73987
下降	-8.7425
网上	-8.74422
之间	-8.74538
利用	-8.75038
足球	-8.75145
内地	-8.75189
班	-8.7523
公开	-8.75283
联赛	-8.75372
空	-8.75471
一场	-8.75583
目标	-8.75748
请	-8.7581
对此	-8.76106
相信	-8.7621
节目	-8.76469
全面	-8.7674
中国队	-8.76745
▁记者	-8.76963
国家队	-8.77097
尔	-8.7737
g	-8.77402
对方	-8.77481
只能	-8.77553
价	-8.77635
上周	-8.77754
不要	-8.77776
型	-8.77836
软件	-8.77982
朋友	-8.78398
投	-8.78448
安全	-8.78461
见	-8.78462
西	-8.78502
的话	-8.78544
指出	-8.78623
收益	-8.78653
更多	-8.78714
主	-8.79154
写	-8.79206
视频	-8.79445
快	-8.7953
题	-8.7984
t	-8.79844
的考生	-8.79855
处理	-8.79895
】	-8.79956
游戏	-8.80098
有所	-8.80223
的问题	-8.80323
70	-8.80377
品种	-8.80571
学院	-8.80781
防守	-8.80821
股票	-8.80859
真	-8.80914
举行	-8.81035
系列	-8.8109
我国	-8.81183
2007	-8.81228
吗	-8.81329
w	-8.81369
主力	-8.81467
重点	-8.8153
倍	-8.81888
重新	-8.81996
电视	-8.8213
阿	-8.82139
英国	-8.82161
省	-8.82268
赛季	-8.82368
岁的	-8.8258
电话	-8.82701
专家	-8.83112
他说	-8.83124
相	-8.83167
努力	-8.83197
人员	-8.83272
将于	-8.83304
曾经	-8.83306
也有	-8.83482
笔记本	-8.83519
女儿	-8.83533
式	-8.83542
结婚	-8.8359
H	-8.84028
率	-8.84071
起来	-8.84288
预期	-8.8439
刚	-8.84459
反弹	-8.84552
经	-8.84695
相机	-8.84769
离开	-8.84786
接口	-8.84798
定	-8.84803
的不断	-8.8488
价值	-8.84941
发生	-8.85111
一下	-8.85153
是一个	-8.8517
论坛	-8.8518
仅供参考	-8.85186
关于	-8.85231
才能	-8.85363
文化	-8.85495
轮	-8.85504
成本	-8.85523
库存	-8.8558
积极	-8.86022
人们	-8.86114
今日	-8.86124
黑	-8.86255
相对	-8.86343
R	-8.86452
组合	-8.86626
平台	-8.86799
整个	-8.86906
形成	-8.86916
32	-8.86996
关系	-8.87054
商品	-8.87091
跌	-8.8711
吃	-8.87298
处理器	-8.87467
通	-8.87552
GB	-8.87615
高达	-8.87696
集团	-8.87745
L	-8.87814
东	-8.88025
确定	-8.88127
年度	-8.88139
的学生	-8.88194
除	-8.882
即将	-8.88232
敬请	-8.88242
稳定	-8.88244
45	-8.88311
网友	-8.88343
互联网	-8.88392
条件	-8.88751
感觉	-8.88832
基金经理	-8.8886
过去	-8.88909
主帅	-8.88991
演	-8.89032
变	-8.89114
最大的	-8.89169
半	-8.89187
调查	-8.89197
亿美元	-8.89451
复习	-8.89525
▁对于	-8.89537
▁【	-8.89674
黄	-8.89766
巴萨	-8.89972
信	-8.89996
产生	-8.9003
相当	-8.90109
远	-8.90176
片	-8.90307
终于	-8.90414
苹果	-8.90499
教练	-8.90711
35	-8.90901
几乎	-8.90942
历史	-8.91123
星	-8.91153
热	-8.91325
得分	-8.91439
考生以	-8.91541
声	-8.91572
移动	-8.91581
放	-8.9174
▁the	-8.91751
明年	-8.91756
机身	-8.91757
面情况	-8.91772
权威部门	-8.91946
组织	-8.91967
指	-8.92233
再度	-8.92287
科比	-8.92295
留学	-8.92311
艺术	-8.9241
QDII	-8.92442
信息为准	-8.9245
剧	-8.92488
使得	-8.92492
收	-8.92537
o	-8.92557
龙	-8.92573
若	-8.92672
特别说明	-8.92712
的所有考试	-8.92955
公布的正式	-8.92958
由于各方	-8.92965
网所提供	-8.93048
环境	-8.93267
而是	-8.93312
请访问	-8.93434
新的	-8.93559
调整与	-8.93593
许多	-8.9361
招	-8.93738
针对	-8.93898
排名	-8.93933
改变	-8.93948
本赛季	-8.94017
深	-8.94081
自然	-8.94118
负	-8.94147
年的	-8.94213
操作	-8.94236
新闻	-8.94462
玩	-8.94553
数学	-8.94559
电	-8.94668
n	-8.94688
博客圈	-8.94732
采用了	-8.94836
曼联	-8.94935
担任	-8.95016
具体	-8.95047
奖	-8.95122
数据显示	-8.95178
谁	-8.95333
持有	-8.9535
获	-8.95496
让人	-8.95738
将会	-8.95801
的情况下	-8.95872
效果	-8.95877
清	-8.95926
支撑	-8.9598
教	-8.96181
规定	-8.96191
动	-8.963
包	-8.96338
重要	-8.96435
创新	-8.96574
台湾	-8.96811
控制	-8.96848
第一次	-8.96866
意	-8.96894
盘	-8.97165
收购	-8.97302
出来	-8.97429
反	-8.97469
挑战	-8.97479
平均	-8.97851
城	-8.97935
出席	-8.98081
感	-8.98082
金融	-8.98084
_	-8.98106
杆	-8.98116
p	-8.98131
拿	-8.98162
交	-8.98366
担心	-8.98409
解决	-8.98474
我的	-8.98503
实施	-8.98648
NBA	-8.98655
一名	-8.98692
行为	-8.98715
W	-8.98789
中学	-8.98903
短期	-8.99167
比如	-8.99231
各种	-8.99236
以后	-8.99268
几	-8.99317
雷	-8.99374
最大	-8.99389
欧洲	-8.99486
传	-8.99569
而言	-8.99597
属于	-8.99634
成长	-8.99639
讲	-8.99665
▁从	-8.99711
地区	-8.99778
推荐	-8.99928
恢复	-8.99937
米兰	-8.99961
建设	-9.00087
接	-9.0017
合同	-9.0078
......	-9.0085
移民	-9.00893
觉得	-9.00917
军	-9.00946
读	-9.01024
加盟	-9.01091
世界杯	-9.01238
尤其是	-9.01344
咨询	-9.01383
综合	-9.01626
唱	-9.01725
奇	-9.01901
篮网	-9.01996
职业	-9.02015
卖	-9.02052
J	-9.02105
宣传	-9.02147
谈	-9.02154
提升	-9.02297
▁新浪科技	-9.02349
一年	-9.02356
志愿	-9.02362
如今	-9.02407
数量	-9.02633
1000	-9.02693
差	-9.02788
资产	-9.02856
之外	-9.029
间	-9.02942
制	-9.02997
口	-9.03078
应用	-9.0308
y	-9.03378
流	-9.03488
因素	-9.03497
坚持	-9.03581
一家	-9.03733
最低	-9.03775
股市	-9.03777
格	-9.03891
产业	-9.03956
X	-9.04204
肯定	-9.04235
×	-9.04491
选手	-9.04528
都会	-9.04661
紧张	-9.0472
基础	-9.04833
最新	-9.04868
城市	-9.04886
系	-9.04994
iPhone	-9.04994
电视剧	-9.05035
课程	-9.05108
索尼	-9.05151
边	-9.05275
▁据悉	-9.05286
运动	-9.0545
处于	-9.05664
范围	-9.05853
生产	-9.0598
报告	-9.06068
还要	-9.06143
u	-9.06215
建	-9.06215
实力	-9.06313
有望	-9.06332
神	-9.06363
曝光	-9.06371
一定	-9.06373
七	-9.06433
阿联	-9.06513
亚	-9.06706
刚刚	-9.0674
净值	-9.06753
消费者	-9.06814
收入	-9.06844
然后	-9.0688
现	-9.06978
方案	-9.07212
乐	-9.07226
都有	-9.07311
高中	-9.07327
a	-9.07383
联系	-9.07412
笑	-9.07459
难以	-9.07486
名单	-9.07553
似乎	-9.07764
皇马	-9.07841
46	-9.07879
经验	-9.08059
娱乐	-9.0811
》、《	-9.08213
▁4	-9.08357
上升	-9.0836
伤	-9.08397
的球员	-9.08398
住	-9.08599
话	-9.086
配置	-9.08628
法国	-9.08815
走势	-9.08911
儿子	-9.08955
很难	-9.08961
面试	-9.09057
队员	-9.09076
产量	-9.09101
字	-9.09141
真正	-9.09164
装	-9.09174
空间	-9.09247
部门	-9.09373
任	-9.09389
blog	-9.09652
歌	-9.09886
亮相	-9.09938
的机会	-9.09946
立	-9.10018
速度	-9.10088
造成	-9.10089
09	-9.10118
然而	-9.10151
确认	-9.10227
原因	-9.1025
个月	-9.10397
长期	-9.10406
不足	-9.10428
的时间	-9.10497
权	-9.10575
校	-9.10575
有着	-9.10722
的情况	-9.1074
工程	-9.10823
时代	-9.1083
完	-9.10848
分析师	-9.10892
保险	-9.10903
款	-9.10947
也会	-9.10953
涨	-9.11017
谷歌	-9.11125
资源	-9.11247
无线	-9.11294
商	-9.11427
当前	-9.11521
资料	-9.11555
找	-9.11566
照片	-9.11611
为主	-9.11614
叫	-9.11643
据悉	-9.11754
保护	-9.11779
确实	-9.12022
一种	-9.12082
加上	-9.12099
评论	-9.12352
回应	-9.1242
一旦	-9.12679
评价	-9.12727
55	-9.12779
主场	-9.12893
那些	-9.12893
com	-9.12939
条	-9.13086
上述	-9.13242
眼	-9.13271
进球	-9.13371
位置	-9.13531
设备	-9.13592
角色	-9.13731
换	-9.1386
巴	-9.14076
知道	-9.1413
旗下	-9.14151
满	-9.14169
成立	-9.14185
取	-9.14185
个篮板	-9.14194
八	-9.1424
火	-9.14311
快速	-9.14317
V	-9.14331
板	-9.14419
不到	-9.14555
免费	-9.14576
理	-9.14596
严重	-9.14697
I	-9.14763
c	-9.1492
2000	-9.14968
人才	-9.14971
表	-9.15409
博	-9.1545
就会	-9.15465
接近	-9.15794
色	-9.15806
推动	-9.16015
纷纷	-9.16229
脚	-9.16237
众多	-9.16378
?”	-9.16492
演唱会	-9.16513
艺人	-9.16576
33	-9.16632
”、“	-9.16857
令人	-9.16877
湖人	-9.16889
发挥	-9.16967
培养	-9.17049
频道	-9.17068
每天	-9.17112
性能	-9.1719
比例	-9.17203
万美元	-9.17207
较为	-9.17277
更多的	-9.17386
第三	-9.17396
维	-9.17491
电脑	-9.17649
一度	-9.17669
领域	-9.17745
德国	-9.17758
TD	-9.17863
大幅	-9.17901
主教练	-9.17909
感到	-9.17966
他在	-9.18095
工	-9.18112
语	-9.18144
42	-9.18203
抢	-9.18399
种	-9.18472
日至	-9.18485
就业	-9.18513
ing	-9.18527
靠	-9.18645
800	-9.18656
轻松	-9.18696
▁据了解	-9.18801
方法	-9.1885
主动	-9.18901
k	-9.18935
提出	-9.18944
我省	-9.19063
明确	-9.19137
原油	-9.1921
涨幅	-9.1924
跌幅	-9.19258
拿到	-9.19269
遭遇	-9.1929
十	-9.19294
强调	-9.19298
AC	-9.19309
死	-9.19318
分红	-9.1933
m	-9.19345
店	-9.19355
照	-9.19458
的影响	-9.19564
启动	-9.1957
万像素	-9.19592
的事情	-9.19613
决赛	-9.19689
佳能	-9.19855
然	-9.19952
看来	-9.19959
别	-9.20022
余	-9.20126
合	-9.2016
大豆	-9.20197
百	-9.20498
上的	-9.20657
考场	-9.20665
怎么	-9.20778
至于	-9.20858
至少	-9.20858
则是	-9.20988
迅速	-9.21009
广东	-9.21049
升级	-9.21134
队友	-9.2118
普通	-9.21265
体	-9.2133
34	-9.21385
西班牙	-9.21404
考研	-9.21405
拿下	-9.21444
体验	-9.21537
深圳	-9.21595
南	-9.21653
奥	-9.21674
州	-9.21813
报价	-9.21828
重庆	-9.21855
一款	-9.21856
留	-9.21859
男	-9.2188
布	-9.22045
有效	-9.22114
▁此外	-9.22276
阅读	-9.22331
逐渐	-9.22356
找到	-9.22374
首发	-9.22404
加强	-9.22468
联盟	-9.22598
云	-9.2261
人物	-9.2262
具备	-9.22657
一点	-9.22734
本科	-9.22778
38	-9.22782
早	-9.22804
材料	-9.22804
限制	-9.22861
尽	-9.22881
都在	-9.22935
该基金	-9.23089
而在	-9.23175
负责	-9.23189
享受	-9.23201
澳大利亚	-9.23323
提醒	-9.2339
妈妈	-9.2341
这款	-9.23491
经常	-9.23558
关键	-9.23623
经营	-9.2367
▁昨日	-9.23672
也将	-9.23696
啊	-9.23714
共同	-9.23752
普遍	-9.23781
演出	-9.23878
400	-9.24059
下午	-9.24166
说明	-9.24203
保证	-9.24249
方向	-9.24284
▁不过	-9.24393
累计	-9.24401
亦	-9.24511
期待	-9.24563
落	-9.2462
一份	-9.24727
统计	-9.24883
健康	-9.24945
宝	-9.24972
可能会	-9.25054
降低	-9.2507
市场的	-9.25089
该校	-9.25155
风格	-9.25277
三星	-9.25386
配合	-9.25434
l	-9.25443
节	-9.25508
36	-9.25656
基	-9.25665
大量	-9.25714
听歌	-9.2572
震荡	-9.25727
受伤	-9.25855
世	-9.26108
即使	-9.26137
当年	-9.26148
制度	-9.26149
你们	-9.26198
特别是	-9.26307
承认	-9.26311
屏幕	-9.2633
r	-9.2634
进口	-9.26357
▁7	-9.26372
展开	-9.26407
退	-9.26436
统一	-9.2647
证明	-9.265
获悉	-9.26593
趋势	-9.26663
2006	-9.26693
人士	-9.26745
儿	-9.26756
优秀	-9.26792
越	-9.26885
小时	-9.26888
理科	-9.2701
面临	-9.2706
当天	-9.27065
Z	-9.27155
尼	-9.2732
夺冠	-9.27337
及时	-9.2735
代	-9.27498
08	-9.27555
cn	-9.27608
的同时	-9.2765
该机	-9.27653
案	-9.2779
维持	-9.27799
房	-9.27932
过程中	-9.27963
中考	-9.27965
推	-9.28044
身上	-9.28045
纳	-9.28056
制作	-9.28059
今年以来	-9.28081
精神	-9.28103
er	-9.28147
做出	-9.28164
▁我要评论	-9.28273
告诉记者	-9.28304
办理	-9.28339
当地	-9.2841
波	-9.28458
本人	-9.28576
江	-9.28815
▁今年	-9.28947
广州	-9.28957
表演	-9.28978
细节	-9.28996
月底	-9.29002
渠道	-9.2901
办法	-9.29024
套	-9.29052
黑色	-9.29056
亚洲	-9.29113
中国移动	-9.29146
防	-9.29336
真的	-9.2944
联合	-9.29471
48	-9.29473
团队	-9.29721
预测	-9.29722
酒店	-9.29724
联	-9.29747
前期	-9.29822
竞争	-9.29882
显然	-9.29886
法律	-9.30086
调	-9.30119
底	-9.30144
每个	-9.3022
秀	-9.3025
北	-9.30252
何	-9.30258
吴	-9.30322
很大	-9.30361
大部分	-9.30423
高清	-9.3047
补	-9.30629
粉丝	-9.30633
资格	-9.30642
森	-9.30671
费用	-9.30727
传统	-9.30754
这也是	-9.30861
工作人员	-9.30908
证券	-9.3091
▁S	-9.3097
经历	-9.30985
品	-9.31001
穿	-9.31025
这么	-9.31029
37	-9.31087
通知	-9.31345
文章	-9.31413
持仓	-9.31421
铜	-9.3155
最佳	-9.31608
师	-9.31654
电子	-9.31692
符合	-9.31767
未能	-9.3195
尼康	-9.3196
电信	-9.32037
的消息	-9.32083
歌手	-9.32106
正是	-9.32153
掉	-9.32169
形象	-9.32239
届	-9.32249
初	-9.32276
微软	-9.32324
查询	-9.32343
产	-9.32378
记	-9.32464
言	-9.32551
巴西	-9.32553
改	-9.32582
教师	-9.32636
突然	-9.32693
他们的	-9.32933
春	-9.33084
下滑	-9.33127
注意	-9.33216
的一个	-9.33279
策略	-9.33296
d	-9.33309
油	-9.33313
干	-9.33352
影片	-9.33355
实际	-9.33357
还将	-9.3339
U	-9.33439
出场	-9.33486
动作	-9.3351
成了	-9.3354
结构	-9.33569
以前	-9.33632
出口	-9.33652
热火	-9.33824
核心	-9.33959
主持人	-9.34044
回到	-9.34091
年轻	-9.34165
首先	-9.3425
短	-9.34327
裁判	-9.34548
英	-9.34729
杰	-9.34783
伟	-9.34849
天津	-9.34926
会议	-9.34944
并不是	-9.35016
并未	-9.35027
继	-9.35028
不好	-9.35078
▁3	-9.35203
组图	-9.35259
语言	-9.35296
跑	-9.35391
张柏芝	-9.35463
值得	-9.35488
较大	-9.35707
交流	-9.35728
保	-9.35738
板块	-9.35806
3000	-9.35869
从而	-9.35869
提	-9.35885
意外	-9.35897
举办	-9.36008
采取	-9.3601
落后	-9.36031
亏损	-9.36099
掌握	-9.36111
往	-9.36143
老板	-9.36149
出现了	-9.36163
意大利	-9.36202
—	-9.36266
一切	-9.36352
日电	-9.36463
距离	-9.36484
票	-9.36485
利物浦	-9.36503
吸引	-9.36518
算	-9.36611
困难	-9.3662
团	-9.36625
的价格	-9.36726
一定要	-9.37074
b	-9.3709
杯	-9.3709
来到	-9.37107
证	-9.3715
获得了	-9.37185
赎回	-9.37217
只基金	-9.37232
求	-9.37499
有人	-9.37712
放弃	-9.37717
等待	-9.37783
单位	-9.3779
升	-9.3779
液晶电视	-9.37818
有了	-9.37888
员工	-9.38069
本报记者	-9.38132
冲	-9.38156
直	-9.38213
更为	-9.38218
也在	-9.38255
病	-9.38263
支付	-9.38369
措施	-9.38435
开展	-9.38496
债券	-9.38605
也不	-9.38689
成交	-9.38721
破	-9.38739
倒	-9.38799
排	-9.38881
派	-9.3893
静	-9.38967
楼	-9.39018
加拿大	-9.3909
棉花	-9.39097
是个	-9.39158
是在	-9.39218
段	-9.39241
詹姆斯	-9.39269
答案	-9.3927
[	-9.39373
离	-9.39391
▁of	-9.39431
视	-9.39489
集中	-9.39522
凭借	-9.39653
讨论	-9.39672
断	-9.3969
集	-9.397
共有	-9.39772
关	-9.39811
玉米	-9.39864
满足	-9.39881
该公司	-9.40044
还没有	-9.4006
毕竟	-9.40073
切尔西	-9.40074
女生	-9.40086
教学	-9.40103
O	-9.40131
办	-9.40154
实	-9.40255
足协	-9.40388
设置	-9.40396
含	-9.40542
充分	-9.4072
还在	-9.4073
76	-9.40763
保障	-9.40864
查	-9.40966
600	-9.40989
能否	-9.41014
以下	-9.41029
不得	-9.41053
监管	-9.41053
邀请	-9.41074
青	-9.41121
海外	-9.41147
千	-9.41164
全场	-9.41419
en	-9.41442
铁	-9.41486
运营商	-9.41489
人民币	-9.41545
开放	-9.41557
考点	-9.41615
客场	-9.41616
室	-9.41623
失误	-9.41663
不错	-9.41692
运行	-9.41699
搭配	-9.41715
库	-9.41733
专科	-9.41817
战胜	-9.41885
观点	-9.41925
常	-9.41965
质量	-9.41992
牌	-9.42133
出了	-9.42232
前锋	-9.42235
至今	-9.42244
配	-9.42252
文科	-9.42258
比赛中	-9.42263
奥运	-9.42287
每年	-9.42361
本次	-9.42434
纪录	-9.42446
达到了	-9.42465
舞	-9.42514
现货	-9.42535
内线	-9.42622
行动	-9.42631
主持	-9.42705
三个	-9.42727
招收	-9.42739
地方	-9.42812
x	-9.42931
卷	-9.42951
同学	-9.43097
5000	-9.43138
提供了	-9.4314
解释	-9.43158
的成绩	-9.43164
在北京	-9.43179
齐	-9.43204
顺利	-9.43219
酒	-9.43304
万人	-9.43313
民	-9.43332
击败	-9.4336
记录	-9.43366
研究生	-9.43426
正常	-9.4343
两次	-9.43507
出现在	-9.43612
作品	-9.43638
注册	-9.43754
标	-9.43818
的原因	-9.43821
本场比赛	-9.43843
▁图片	-9.43982
增强	-9.43987
了一个	-9.44006
志	-9.44053
坦言	-9.44075
绝对	-9.44209
结合	-9.44221
阵容	-9.4425
理解	-9.4427
现身	-9.44287
父亲	-9.44318
歌迷	-9.44338
依旧	-9.44364
但他	-9.44372
著名	-9.44503
当中	-9.44509
她说	-9.44526
易建联	-9.44619
尝试	-9.44633
跳	-9.44804
状况	-9.44841
商业	-9.44869
坐	-9.44926
父母	-9.44931
管	-9.44963
作用	-9.45003
合理	-9.45006
女子	-9.45019
需	-9.45253
第四	-9.45337
季	-9.45387
了解到	-9.45531
解	-9.45564
联想	-9.45587
有可能	-9.45632
指导	-9.45642
复出	-9.45676
是因为	-9.45694
晓	-9.45739
故事	-9.45742
界	-9.45818
我觉得	-9.45853
账户	-9.45915
之中	-9.45916
并非	-9.45919
参考价格	-9.45969
基本面	-9.46014
方便	-9.46069
填报	-9.46083
她的	-9.46171
金属	-9.4619
我们的	-9.46199
人数	-9.46205
协议	-9.46207
责任	-9.46207
冷	-9.46255
雪	-9.46261
梅	-9.4627
科学	-9.4627
自动	-9.46306
贴吧	-9.46336
赛后	-9.46375
假	-9.46388
内置	-9.46395
主题	-9.46447
75	-9.46506
否认	-9.46624
让他	-9.46692
逐步	-9.467
▁编辑点评	-9.46758
此后	-9.46847
展	-9.4688
上赛季	-9.46902
厂商	-9.46969
打出	-9.46983
▁2010	-9.47028
招生计划	-9.47034
银	-9.4704
伊	-9.47056
股份	-9.47139
料	-9.47185
切	-9.47413
球场	-9.47425
篮球	-9.47447
年底	-9.47455
胜利	-9.47484
区域	-9.47579
回归	-9.47638
ww	-9.47638
表明	-9.47647
有机会	-9.47784
公告	-9.47787
总经理	-9.4783
情绪	-9.47848
知识	-9.47922
北大	-9.47926
程度	-9.47962
计算	-9.48059
多数	-9.48116
开发	-9.48117
突出	-9.48148
分数	-9.48201
实行	-9.48287
总是	-9.48314
本周	-9.48352
别人	-9.48355
得到了	-9.48361
丽	-9.4839
想要	-9.48427
先生	-9.48462
不再	-9.48511
冲击	-9.48517
份额	-9.48556
电视台	-9.48559
售价	-9.48596
奥运会	-9.48619
九	-9.48678
后者	-9.48816
成都	-9.48908
玉	-9.48916
足	-9.49019
亿份	-9.491
降	-9.49178
宏	-9.49276
内部	-9.49354
人生	-9.49369
汽车	-9.49381
的方式	-9.4941
追	-9.49451
剧组	-9.49501
▁根据	-9.49562
ar	-9.49567
形式	-9.49582
几个	-9.49692
公	-9.49695
自主招生	-9.49711
后来	-9.49769
杂志	-9.49789
亮	-9.49796
追求	-9.49837
支	-9.49963
投入	-9.50049
背	-9.50143
科技	-9.50192
显得	-9.50211
体系	-9.50237
迪	-9.5028
▁A	-9.5037
今年的	-9.50521
朱	-9.50651
晚	-9.50661
犯规	-9.50662
层	-9.5072
Windows	-9.50721
利率	-9.50771
糖	-9.50867
错	-9.51005
的基金	-9.5104
经纪人	-9.51081
休息	-9.51093
回落	-9.51165
Android	-9.51171
广	-9.51197
看好	-9.51211
夫	-9.51293
知名	-9.51305
签约	-9.51312
课	-9.51423
射	-9.51446
可是	-9.51503
一周	-9.51528
现象	-9.51586
或许	-9.51609
央行	-9.51631
刘翔	-9.51644
两位	-9.5165
物	-9.51702
力度	-9.51704
指数基金	-9.5174
很好	-9.5189
主要是	-9.51895
我想	-9.51912
前往	-9.52046
冰	-9.52073
油价	-9.52115
涉及	-9.52169
多头	-9.52175
步	-9.52212
项	-9.52219
多次	-9.52258
大型	-9.52308
县	-9.52315
拒绝	-9.52421
游	-9.52436
▁to	-9.52475
造型	-9.52634
很快	-9.52667
难度	-9.52717
开心	-9.52731
知	-9.52759
在线	-9.52843
易	-9.52919
零	-9.52949
不得不	-9.52956
助攻	-9.52983
作文	-9.52993
他表示	-9.53067
回答	-9.53124
▁虽然	-9.53223
杀	-9.53331
新增	-9.53337
适合	-9.53427
魔术	-9.53478
过程	-9.53491
您	-9.53589
画	-9.53634
看看	-9.53666
公布的	-9.53696
火箭队	-9.5371
恩	-9.53721
下来	-9.53731
亲	-9.53739
期货公司	-9.53829
供应	-9.53859
领	-9.53874
LED	-9.53906
幅度	-9.53923
先后	-9.54082
独	-9.54088
商家	-9.54093
之间的	-9.54155
季后赛	-9.5434
韩	-9.54362
执行	-9.54382
简单	-9.54414
有点	-9.5442
男子	-9.54435
47	-9.54452
沪深	-9.54455
力量	-9.54629
货币	-9.54673
教育部	-9.54743
完美	-9.54925
另一方面	-9.54937
700	-9.54987
身份	-9.55067
爱情	-9.55165
证监会	-9.55175
山东	-9.55261
39	-9.5539
华夏	-9.55403
福	-9.55407
呈现	-9.55414
建立	-9.55442
许	-9.5546
瑞	-9.55474
▁作者	-9.55512
次助攻	-9.55688
赵	-9.55732
英特尔	-9.55787
独立	-9.55787
旅游	-9.55793
参数	-9.558
协会	-9.55867
南京	-9.5587
外援	-9.55908
也许	-9.55955
99	-9.56021
创作	-9.56065
毕业	-9.56106
值	-9.56158
上场	-9.56196
徐	-9.56221
律师	-9.56262
缺乏	-9.56265
重视	-9.56288
特色	-9.56295
买入	-9.56397
事业	-9.56467
IT	-9.56481
的确	-9.56508
900	-9.56534
心理	-9.56549
题目	-9.56622
白糖	-9.56663
▁C	-9.56683
参考	-9.5669
发表评论	-9.56751
顶	-9.5677
不知道	-9.56786
在中国	-9.56807
日晚	-9.56811
引起	-9.56876
笔	-9.56879
▁张	-9.56919
该剧	-9.56945
理财	-9.56978
后卫	-9.57027
改革	-9.57033
待	-9.5706
反映	-9.57109
身体	-9.57154
暂时	-9.57158
▁2	-9.57168
把握	-9.57184
试	-9.57253
就能	-9.57273
刺激	-9.573
百度	-9.57309
机型	-9.57324
音	-9.57484
院	-9.57498
43	-9.57686
成熟	-9.57703
引进	-9.5781
越来越	-9.57845
遭	-9.57882
88	-9.58093
设	-9.58101
平时	-9.58124
股价	-9.5815
阿森纳	-9.58184
▁a	-9.58194
▁另外	-9.58212
论	-9.58261
▁B	-9.58393
现实	-9.58405
无论	-9.58512
新加坡	-9.58544
录	-9.58615
好友	-9.58643
66	-9.5865
婚礼	-9.58762
打造	-9.58784
客	-9.58817
偏	-9.58831
尚未	-9.5885
四川	-9.58869
三年	-9.58892
▁5	-9.58958
150	-9.58958
52	-9.58982
转会	-9.58985
自由	-9.5905
中超	-9.59055
江苏	-9.59102
http	-9.59156
认真	-9.59175
操作系统	-9.59228
莫	-9.59288
容易	-9.59298
汉	-9.59401
出演	-9.59422
兵	-9.59507
洋	-9.5959
申购	-9.59628
档	-9.59641
指标	-9.59641
制造	-9.59665
的球队	-9.59742
▁更多	-9.59754
乐观	-9.59806
晚上	-9.60016
救	-9.60073
圈	-9.60092
三大	-9.60131
武汉	-9.60136
1.5	-9.60139
数字	-9.60162
分享	-9.6021
f	-9.60227
男友	-9.60246
普	-9.6028
习惯	-9.60284
失	-9.60488
感谢	-9.60602
田	-9.60618
信心	-9.60824
播放	-9.60853
al	-9.60862
扩大	-9.60981
事情	-9.60995
笔者	-9.61073
运营	-9.61125
随	-9.61126
准	-9.61152
宁	-9.6117
回来	-9.61176
她们	-9.61177
警方	-9.61238
吉	-9.61294
更多信息	-9.61295
试题	-9.61335
友	-9.61352
2012	-9.61438
梦	-9.61537
这场比赛	-9.61557
CEO	-9.61631
USB	-9.61632
内存	-9.61633
牛	-9.617
借	-9.61704
披露	-9.61869
后期	-9.61873
质疑	-9.61889
谨慎	-9.61899
词	-9.61936
告诉	-9.61942
不可	-9.61946
停	-9.61955
中场	-9.62026
愿意	-9.62066
环保	-9.62131
终端	-9.62136
国外	-9.62179
峰	-9.62219
一天	-9.62224
尚	-9.62259
沟通	-9.62263
存	-9.62349
结	-9.6235
旧	-9.62415
领导	-9.62457
托	-9.62553
万手	-9.62599
://	-9.62646
44	-9.6267
在美国	-9.62734
人气	-9.62746
轻	-9.62758
v	-9.62761
打算	-9.62761
试卷	-9.62775
传闻	-9.62815
全新	-9.62922
日下午	-9.62948
6%	-9.62998
一部	-9.63046
新浪高考频道	-9.63148
申花	-9.63171
麦蒂	-9.63192
新基金	-9.63281
苦	-9.63298
也没有	-9.6331
加入	-9.63354
增加了	-9.63418
私募	-9.6347
68	-9.6353
良好的	-9.63548
培训	-9.63604
避免	-9.63639
检查	-9.63658
主席	-9.63667
影	-9.63717
色彩	-9.63744
各大	-9.63795
寻找	-9.63815
日起	-9.63832
49	-9.63838
那样	-9.63895
加大	-9.63905
保险公司	-9.63915
取得了	-9.63958
忙	-9.63979
0%	-9.64085
规范	-9.64091
有限公司	-9.64122
定位	-9.6414
收益率	-9.64197
延续	-9.64229
认识	-9.64378
已有	-9.64412
感情	-9.64486
73	-9.64498
须	-9.64521
新生	-9.64525
纽约	-9.64526
适应	-9.64536
▁论坛	-9.64617
目前的	-9.64652
员	-9.64655
菜	-9.6466
座	-9.64813
收到	-9.64851
上网	-9.64865
▁目前	-9.64917
唯一	-9.64937
成员	-9.65016
特点	-9.65037
最好	-9.65219
幸福	-9.65247
高考信息	-9.65369
仅仅	-9.65394
诺基亚	-9.65436
的新	-9.65464
遇到	-9.65564
政治	-9.65627
三分	-9.65707
▁欢迎	-9.65712
医院	-9.65732
像素	-9.65737
总结	-9.65737
原本	-9.65771
练习	-9.65808
签	-9.65894
仓位	-9.65973
流动性	-9.65984
配备	-9.66123
一致	-9.66125
官方	-9.66144
一线	-9.66149
故	-9.6622
赢得	-9.66259
源	-9.66294
出台	-9.66376
图片	-9.6641
带着	-9.66438
的朋友	-9.66478
股指期货	-9.66481
富	-9.66507
贝	-9.66538
智能	-9.6669
自身	-9.66707
利润	-9.6675
刘德华	-9.66775
详细	-9.66778
炒作	-9.66784
年前	-9.66797
减	-9.6686
专	-9.66867
件	-9.66875
孙	-9.66888
就在	-9.66925
养	-9.67014
不够	-9.67019
的需求	-9.67022
原来	-9.67052
最好的	-9.67071
博客	-9.6714
潮	-9.67185
热门	-9.67223
列	-9.67249
谢	-9.67344
给予	-9.67457
搜索	-9.67573
上演	-9.67649
主力合约	-9.67655
程	-9.67674
2.0	-9.67707
低调	-9.67716
位于	-9.67718
角	-9.67725
血	-9.67743
萨	-9.6776
石	-9.67773
酷	-9.67799
塔	-9.67825
集体	-9.67835
橡胶	-9.67836
ISO	-9.67845
无论是	-9.67874
世锦赛	-9.67923
哈	-9.68048
摩托罗拉	-9.68115
出手	-9.68139
3.5	-9.68188
服	-9.68211
专辑	-9.68233
的发展	-9.6831
的地方	-9.68314
香	-9.68317
学科	-9.68324
古	-9.68332
特殊	-9.68367
思	-9.68404
20%	-9.68489
不同的	-9.68521
多少	-9.68527
时期	-9.6857
数码	-9.68587
替补	-9.68606
怕	-9.6861
武	-9.68629
汇	-9.68691
帮	-9.68774
嘉宾	-9.68897
面前	-9.68911
陆续	-9.68997
低于	-9.69024
▁李	-9.69042
56	-9.69055
持	-9.69099
智能手机	-9.6912
做好	-9.69146
喜	-9.69213
》(	-9.69239
不可能	-9.69333
器	-9.69392
▁1	-9.69416
教授	-9.69434
女友	-9.69445
杰克逊	-9.69448
▁□	-9.69455
形	-9.69591
今后	-9.69617
文件	-9.69621
拍戏	-9.69686
市场上	-9.6969
周二	-9.69707
通胀	-9.69742
下调	-9.69813
阳	-9.69825
货	-9.69913
120	-9.69949
石油	-9.69991
曼城	-9.70005
推广	-9.70007
重大	-9.70009
以往	-9.70036
外观	-9.7007
都要	-9.70083
率先	-9.70134
归	-9.70198
两年	-9.70217
剧中	-9.70242
手段	-9.70304
股票型基金	-9.70348
债券基金	-9.70354
康	-9.7041
大盘	-9.70417
网民	-9.7044
效率	-9.70484
争夺	-9.70672
老公	-9.70732
智	-9.70756
艺	-9.70759
总体	-9.70823
规则	-9.70875
踢	-9.70896
▁F	-9.70982
54	-9.70983
程序	-9.71059
判断	-9.71066
经典	-9.711
母亲	-9.71156
根	-9.71189
上半年	-9.71232
危机	-9.71234
58	-9.71267
景	-9.71271
创造	-9.71358
练	-9.71404
场比赛	-9.71544
鼓励	-9.71639
英雄	-9.71642
环节	-9.71645
反而	-9.7168
击	-9.71713
引发	-9.71763
修	-9.71864
总决赛	-9.71872
胡	-9.71909
新赛季	-9.71949
计算机	-9.71957
▁6	-9.72084
联通	-9.72087
期货市场	-9.72115
于是	-9.7213
2005	-9.72168
贷款	-9.72199
版本	-9.72269
脸	-9.72306
接下来	-9.72329
莱	-9.72336
有一个	-9.72346
一路	-9.72401
最为	-9.72429
急	-9.72438
诺	-9.72445
分别为	-9.72479
85	-9.7252
端	-9.72547
整	-9.72561
▁近日	-9.72578
那个	-9.7258
为此	-9.72662
传出	-9.72682
让我	-9.72692
h	-9.72713
很有	-9.72717
但在	-9.72742
主流	-9.72746
硬盘	-9.72761
互动	-9.72762
兴	-9.72765
服装	-9.72768
年龄	-9.728
爆发	-9.72858
仅有	-9.72902
同期	-9.72938
始终	-9.73175
鲁	-9.7319
▁由于	-9.73193
的产品	-9.73232
马上	-9.73232
赛事	-9.73262
塞	-9.73275
一张	-9.73293
伦敦	-9.73315
▁而	-9.73336
份	-9.73354
65	-9.73366
批	-9.73514
纯	-9.73535
观察	-9.73695
规划	-9.73709
将是	-9.73732
大学生	-9.73764
写作	-9.7379
阿根廷	-9.73816
拟	-9.7383
蓝	-9.73862
承诺	-9.73882
例如	-9.739
基于	-9.73981
证实	-9.73985
永	-9.73992
周三	-9.74021
税	-9.74038
类似	-9.74062
360	-9.74079
准考证	-9.741
的事	-9.74103
意见	-9.74154
高端	-9.74179
▁佳能	-9.74205
收费	-9.74394
▁尼康	-9.74409
篮板	-9.74418
才是	-9.74565
工具	-9.746
不大	-9.7462
周一	-9.7463
上了	-9.74669
女性	-9.74697
是不是	-9.74741
的要求	-9.74784
直到	-9.74833
唐	-9.74848
赛前	-9.74858
泰	-9.74925
央视	-9.75004
▁北京	-9.7501
句	-9.75042
性感	-9.75164
评	-9.75291
威	-9.75332
不想	-9.75338
赢	-9.75389
▁2009	-9.75398
极	-9.75411
夜	-9.75473
女人	-9.75474
群	-9.7549
50%	-9.75503
演唱	-9.75521
售	-9.75568
活	-9.75581
郭	-9.75587
赵本山	-9.75594
语文	-9.75646
事实上	-9.75662
就有	-9.75668
争取	-9.75677
佳	-9.75708
摄影	-9.75731
550	-9.75738
其余	-9.75758
出色	-9.75767
就可以	-9.75793
▁尽管	-9.75842
遗憾	-9.75944
衣	-9.76004
~	-9.76057
苏	-9.76069
re	-9.76144
科目	-9.76154
传感器	-9.76163
输入	-9.76186
本身	-9.76186
访问	-9.76246
播出	-9.76295
翻	-9.76307
贡献	-9.76309
大宗商品	-9.76315
的工作	-9.76317
弱	-9.76341
运	-9.76366
180	-9.76381
绝	-9.76411
据了解	-9.76438
各类	-9.76442
促销	-9.76477
留下	-9.76537
也可以	-9.7656
化学	-9.76634
北京市	-9.76671
伤病	-9.7668
传媒	-9.76741
的感觉	-9.76747
个百分点	-9.76753
完善	-9.76762
确保	-9.76772
豆油	-9.76848
三季度	-9.76865
期价	-9.76876
天气	-9.76905
动力	-9.76916
推出的	-9.77006
职	-9.77017
能源	-9.77105
寸	-9.77143
迷	-9.77218
河	-9.77294
差距	-9.77315
晋级	-9.77334
仅为	-9.77385
的位置	-9.77416
国安	-9.77484
太多	-9.7762
歌曲	-9.77622
就像	-9.77663
92	-9.7768
二人	-9.77683
in	-9.77696
很好的	-9.77697
紧	-9.77738
年代	-9.77765
根本	-9.7778
强势	-9.77815
接到	-9.7789
另	-9.77904
▁P	-9.77927
丁俊晖	-9.77931
赵薇	-9.77934
股东	-9.77981
国际米兰	-9.78001
凯尔特人	-9.78037
对阵	-9.78049
Y	-9.78091
商务	-9.78092
球队的	-9.78105
清晰	-9.78112
就要	-9.78193
86	-9.78197
家人	-9.78261
▁10	-9.78332
负责人	-9.78333
棋	-9.78372
太阳	-9.7838
营销	-9.78394
还会	-9.78403
年内	-9.78464
72	-9.78486
CBA	-9.78519
宇	-9.78521
接触	-9.78523
曼	-9.78567
法院	-9.78622
态度	-9.78628
门将	-9.78657
MB	-9.78701
下载	-9.78703
万股	-9.78733
欧	-9.78754
NT	-9.78762
最高的	-9.78815
一块	-9.78817
户	-9.78833
马刺	-9.78864
免	-9.78907
PC	-9.78912
战略	-9.78918
居	-9.78954
年初	-9.78996
用于	-9.78999
增	-9.79027
理想	-9.79106
偶像	-9.79107
一段	-9.79115
到底	-9.79139
微	-9.79145
榜	-9.79159
分数线	-9.79176
在今年	-9.79232
帅	-9.79269
对象	-9.79278
为什么	-9.79426
通信	-9.79455
卡特	-9.79456
另一	-9.79464
离婚	-9.79545
发表	-9.79559
金牌	-9.79571
z	-9.79605
▁8	-9.79643
上半场	-9.79675
哪	-9.79676
活跃	-9.79718
分辨率	-9.79736
国足	-9.79808
做了	-9.79863
贵	-9.79928
此时	-9.79959
屏	-9.79961
数码相机	-9.79973
加分	-9.80006
收盘	-9.8005
Sa	-9.80056
章	-9.80072
取消	-9.80103
各地	-9.80186
覆盖	-9.80251
有很多	-9.80253
结束后	-9.80256
慢	-9.80262
现代	-9.8032
保罗	-9.80352
精彩	-9.80387
学费	-9.80401
棋手	-9.80442
1.1	-9.8046
新人	-9.80595
女星	-9.80606
大跌	-9.80612
丹	-9.80637
41	-9.80638
乱	-9.8066
身边	-9.80719
顺	-9.80752
▁昨天	-9.80796
委	-9.8084
-1	-9.80883
应对	-9.80905
OU	-9.80921
虽	-9.80938
谢霆锋	-9.80941
任务	-9.80942
医生	-9.80954
的比赛中	-9.80954
出售	-9.80962
往往	-9.81022
据香港媒体	-9.81031
有限	-9.81043
画面	-9.81071
110	-9.81097
给了	-9.8117
会有	-9.81207
房地产	-9.81264
压	-9.81323
凡	-9.8134
▁王	-9.81388
是一款	-9.81422
的优势	-9.81426
熟悉	-9.81431
背景	-9.81501
梁	-9.81528
梅西	-9.81555
的态度	-9.81555
打得	-9.81557
估值	-9.81614
硕士	-9.81727
▁索尼	-9.81768
既	-9.81789
届时	-9.81829
收视	-9.81892
兰	-9.81976
季度	-9.81996
没能	-9.82015
松	-9.82023
勇	-9.82037
的生活	-9.82076
郑	-9.82093
创	-9.82096
小姐	-9.82114
le	-9.82117
礼	-9.82149
▁M	-9.8215
收于	-9.82211
欢迎	-9.82257
外界	-9.82299
走出	-9.82357
回报	-9.8242
封	-9.82551
官	-9.82613
当日	-9.82685
提交	-9.82697
估计	-9.82765
考察	-9.82777
减仓	-9.82805
强劲	-9.82824
350	-9.82882
高层	-9.82885
采访	-9.8296
债	-9.8296
一个人	-9.83025
不满	-9.83053
这也	-9.8309
可谓	-9.83173
为何	-9.83186
成为了	-9.83225
杜	-9.8325
话题	-9.83253
息	-9.83275
钢铁	-9.83284
一直在	-9.83304
这里	-9.83353
融资	-9.83365
美分	-9.83369
竟	-9.83373
IXUS	-9.83386
登	-9.83388
众	-9.83389
也要	-9.8342
全队	-9.83453
雨	-9.83498
校长	-9.8357
10%	-9.83638
债基	-9.83642
来了	-9.83911
的目标	-9.83922
挺	-9.83959
俄罗斯	-9.8397
爸爸	-9.84
执教	-9.84013
雅虎	-9.84013
名校	-9.84016
机制	-9.84066
0.5	-9.84087
地说	-9.84117
热情	-9.8425
优惠	-9.84308
高考成绩	-9.84322
大赛	-9.84389
这场	-9.84396
推出了	-9.84432
顿	-9.84445
退出	-9.84499
不但	-9.84561
安东尼	-9.84611
信号	-9.8462
地址	-9.84631
欲	-9.84634
农	-9.84663
委员会	-9.84724
后市	-9.8483
还能	-9.84833
白色	-9.84834
出色的	-9.84839
小幅	-9.84853
狂	-9.849
3.0	-9.85035
供	-9.85082
超级	-9.85104
形势	-9.85125
投档	-9.85226
盖	-9.85242
高速	-9.8525
其它	-9.8526
投篮	-9.85271
彻底	-9.85271
治疗	-9.85278
运作	-9.85285
中国电信	-9.85345
一边	-9.8537
豆粕	-9.8538
队长	-9.854
中锋	-9.85406
快乐	-9.85413
意义	-9.85434
充满	-9.85493
64	-9.85563
59	-9.85578
影视	-9.85613
的大	-9.85616
经理	-9.85622
争	-9.85656
赴	-9.85663
显示屏	-9.85711
作出	-9.85758
▁and	-9.85764
男人	-9.85769
在香港	-9.859
高位	-9.85903
手术	-9.85906
澳洲	-9.85939
67	-9.85966
选拔	-9.86082
扬	-9.86118
而不是	-9.86135
减产	-9.86165
0.9	-9.86207
你的	-9.86306
还可以	-9.86309
▁已有	-9.8632
局面	-9.86336
对比	-9.86377
左	-9.86445
一是	-9.86469
挂	-9.86475
打了	-9.8654
总裁	-9.86543
阿泰斯特	-9.86549
谈判	-9.86556
印度	-9.86563
尽快	-9.86578
也很	-9.86609
不用	-9.86637
放在	-9.86639
提到	-9.86663
两大	-9.86711
东方	-9.86797
球星	-9.86818
暂停	-9.86869
灵	-9.86909
传球	-9.86911
义	-9.87004
上调	-9.87053
登录	-9.87078
凯	-9.87094
地位	-9.87175
在一起	-9.87175
舞蹈	-9.87184
月初	-9.8721
广西	-9.87218
商品市场	-9.87227
精选	-9.87237
打击	-9.87245
起了	-9.8736
亲自	-9.87387
第一个	-9.87466
在上海	-9.87487
最新的	-9.87535
一项	-9.87578
62	-9.87599
运动员	-9.87599
逾	-9.87676
索	-9.87729
命中	-9.87762
选择了	-9.87779
会员	-9.87791
参赛	-9.87799
暗	-9.87811
刀	-9.87841
举	-9.87892
2.5	-9.87895
南方	-9.87941
研发	-9.87986
Q	-9.8805
大多数	-9.88081
分为	-9.88118
皮	-9.88121
不了	-9.88176
公布了	-9.88176
准确	-9.88222
转换	-9.88234
发布的	-9.88272
的状态	-9.88286
券商	-9.88316
险	-9.88356
都能	-9.8836
都没有	-9.88362
丁	-9.88449
将继续	-9.88467
洛	-9.8847
稳健	-9.88477
他是	-9.88485
竟然	-9.88509
传奇	-9.88531
考虑到	-9.88628
较高	-9.88628
5%	-9.88671
即可	-9.88732
农产品	-9.88839
严格	-9.88904
场均	-9.88919
职业生涯	-9.88976
股市场	-9.89107
各个	-9.89112
▁中新网	-9.89156
释放	-9.89174
发出	-9.89211
业内	-9.8923
多种	-9.89231
成龙	-9.89265
上证	-9.89306
不太	-9.89365
易方达	-9.89487
波动	-9.89487
早已	-9.89533
湖	-9.89533
代言	-9.8959
这对	-9.89622
新品	-9.89637
本届	-9.89643
▁in	-9.8965
复	-9.8968
清华	-9.89712
心态	-9.89718
陷入	-9.8973
堂	-9.89735
川	-9.89777
69	-9.8978
盈利	-9.89804
的主要	-9.89841
云南	-9.89867
声明	-9.89879
男生	-9.89927
上映	-9.89965
▁听歌	-9.89987
的重要	-9.90018
日上午	-9.90054
二是	-9.90087
实际上	-9.90118
▁报价	-9.90125
散	-9.9015
▁上海	-9.90252
车队	-9.90272
兴趣	-9.90307
沪铜	-9.90313
更有	-9.9033
展示	-9.90338
在于	-9.90341
记者从	-9.90404
打球	-9.9044
攻击	-9.90461
手续	-9.90489
露	-9.90495
短信	-9.90503
分别是	-9.90519
发布会	-9.90586
限	-9.90604
下去	-9.90618
出战	-9.90729
广角	-9.90741
更好的	-9.90743
损失	-9.90794
募集	-9.90797
命题	-9.9083
政	-9.90859
2.7	-9.90888
哥	-9.90963
一方面	-9.91009
浙江	-9.91056
可能是	-9.91089
现在的	-9.91098
引	-9.91144
上市公司	-9.91154
对抗	-9.91157
通常	-9.91177
净	-9.91207
半年	-9.91281
的小	-9.91334
附近	-9.91336
最多	-9.91345
人的	-9.91352
中国的	-9.91478
的内容	-9.91541
他还	-9.91576
警	-9.91605
卫	-9.91625
很多人	-9.91665
on	-9.91667
巨大	-9.91687
个股	-9.91771
望	-9.91785
娜	-9.9179
伦	-9.91795
也能	-9.91807
违规	-9.91815
入学	-9.91885
跌破	-9.91907
事实	-9.91922
▁D	-9.91975
表达	-9.91981
昨晚	-9.9202
▁2.	-9.92024
英格兰	-9.92206
秒时	-9.92245
圆	-9.92253
认可	-9.92259
2004	-9.9229
都很	-9.92306
将成为	-9.92333
征	-9.92362
效力	-9.92463
记忆	-9.92509
搭档	-9.92515
尊重	-9.92517
促进	-9.92536
备战	-9.92538
增持	-9.92542
打进	-9.92685
错误	-9.92825
不错的	-9.92826
概念	-9.92852
大涨	-9.92942
ed	-9.92961
拍照	-9.9298
饰演	-9.92996
糖价	-9.92998
探	-9.93003
大战	-9.93019
蒂	-9.93019
精	-9.9312
不管	-9.93137
9%	-9.93172
教材	-9.932
出版	-9.93219
修改	-9.93224
万桶	-9.93235
转型	-9.93254
东西	-9.93274
▁刘	-9.93274
降至	-9.93283
发放	-9.93291
末	-9.93293
CCD	-9.93359
额	-9.93383
钢材	-9.93403
电池	-9.93496
宽	-9.93496
我也	-9.93515
▁2011	-9.9352
我会	-9.93552
良	-9.93554
一季度	-9.93603
的压力	-9.93609
公募基金	-9.93641
进步	-9.93675
劲	-9.93687
荷兰	-9.93711
注	-9.93718
范	-9.93828
锌	-9.93842
格式	-9.93876
董事长	-9.93877
韦德	-9.93893
股权	-9.93903
51	-9.93953
类型	-9.94065
57	-9.94079
运用	-9.9409
港	-9.94097
听力	-9.94101
反应	-9.94177
得知	-9.94215
an	-9.9422
曲	-9.94262
真是	-9.94349
角度	-9.94462
掘金	-9.94486
发布了	-9.94497
留学生	-9.94533
蒙	-9.94549
雅	-9.94551
疯狂	-9.94579
争议	-9.9458
复杂	-9.94583
依据	-9.94586
改善	-9.94605
▁1.	-9.94613
体现	-9.94623
4%	-9.94684
盛	-9.94758
性价比	-9.94778
罚	-9.94786
演绎	-9.94823
惠普	-9.94833
财	-9.94878
夏	-9.94925
两名	-9.94957
奇才	-9.94961
街	-9.94968
我是	-9.94969
站在	-9.95067
戴	-9.95103
医	-9.95124
79	-9.95165
它的	-9.95165
签证	-9.95181
大约	-9.95234
53	-9.95244
写真	-9.95245
连胜	-9.95258
目	-9.95286
题材	-9.95287
处罚	-9.95295
身材	-9.95297
果	-9.95325
温	-9.95406
利益	-9.95412
到期	-9.95425
输	-9.95433
网上报名	-9.95433
败	-9.95437
英超	-9.95467
国奥	-9.95532
兴奋	-9.95581
生物	-9.95592
了很多	-9.95607
主演	-9.9579
给他	-9.95823
不如	-9.95868
答题	-9.95881
守	-9.95907
高于	-9.95911
分配	-9.95971
贾	-9.95983
业内人士	-9.96001
铜价	-9.96018
占据	-9.96066
娱乐圈	-9.96133
回升	-9.96191
下半场	-9.96194
封闭式基金	-9.96194
地点	-9.96266
有利于	-9.96315
属	-9.96358
之所以	-9.96363
致	-9.96419
文字	-9.96499
战术	-9.96535
镜	-9.96553
抱	-9.96591
影像	-9.96593
灵活	-9.96621
的训练	-9.96649
计	-9.96664
泽	-9.96671
720	-9.96683
肉	-9.96693
穆里尼奥	-9.96698
批次	-9.96699
交通	-9.967
空头	-9.96711
史	-9.9674
丰富	-9.96758
婚姻	-9.96799
允许	-9.96836
应该是	-9.96897
工业	-9.96982
批准	-9.97095
8%	-9.9712
一事	-9.97167
成交量	-9.97175
的照片	-9.97187
必	-9.97194
历史上	-9.97266
在内的	-9.97274
所在	-9.97386
了不少	-9.97398
瓦	-9.97406
的作用	-9.97459
小学	-9.97465
拍卖	-9.97467
传言	-9.97502
1%	-9.97545
适当	-9.97553
小将	-9.97575
这项	-9.97615
哭	-9.97636
▁文	-9.97657
77	-9.97711
此事	-9.97878
打开	-9.97886
从事	-9.97915
承担	-9.9801
厚	-9.98034
感动	-9.98185
第二次	-9.98238
意味着	-9.9824
外语	-9.98241
本报	-9.98281
毕业生	-9.98299
or	-9.983
略	-9.98317
中期	-9.98356
1.8	-9.98357
0.8	-9.98384
久	-9.98408
每次	-9.98409
章子怡	-9.98429
年轻人	-9.98497
320	-9.98511
▁G	-9.98618
心情	-9.9866
之下	-9.98738
虎	-9.9878
金额	-9.98791
斯科拉	-9.98801
理财产品	-9.98806
农村	-9.98835
村	-9.98835
召开	-9.98837
庆祝	-9.98852
考查	-9.98852
高洪波	-9.98857
放松	-9.98882
配备了	-9.98933
往年	-9.98958
搞	-9.98988
射门	-9.98997
助	-9.99065
它们	-9.99103
分手	-9.99214
制定	-9.99228
高级	-9.9937
美女	-9.99448
藏	-9.99483
迎来	-9.995
航	-9.99503
严	-9.99511
组成	-9.99527
同比增长	-9.99646
大家都	-9.99661
暴跌	-9.99661
终	-9.99667
等等	-9.99668
2.8	-9.99685
命	-9.99706
清楚	-9.99729
一条	-9.99827
怀	-9.99834
▁T	-9.99838
目的	-9.99858
立即	-9.99867
抓	-9.99868
杭州	-9.99899
威胁	-9.9992
尤其	-9.99939
京	-9.99967
松下	-10.0001
1.3	-10.0009
一定会	-10.001
面向	-10.0013
生日	-10.0016
女孩	-10.0019
劳	-10.0026
恐	-10.0031
生涯	-10.0031
考验	-10.0033
身高	-10.0033
物理	-10.0033
秋	-10.0035
客观	-10.0035
建仓	-10.0036
凭	-10.0037
2.4	-10.004
湖人队	-10.004
3%	-10.0041
的可能性	-10.0044
些	-10.0054
巨大的	-10.0058
将来	-10.0061
麦	-10.0066
付	-10.0068
上扬	-10.0069
背后	-10.0073
篇	-10.0074
真实	-10.0084
专门	-10.0091
89	-10.0095
短期内	-10.0096
印	-10.0097
说道	-10.0103
树	-10.0104
腾讯	-10.0104
业界	-10.0104
月中旬	-10.0106
潜力	-10.0106
资本	-10.0107
GHz	-10.0107
两种	-10.0107
导	-10.0111
金价	-10.0116
试点	-10.0117
模特	-10.0118
再加上	-10.0118
自我	-10.0123
周期	-10.0134
贴	-10.014
曾在	-10.0145
编辑	-10.0146
的投资	-10.0147
的关系	-10.0148
高职	-10.0152
首轮	-10.0155
更好	-10.0165
图像	-10.0166
华夏基金	-10.0166
他认为	-10.0169
前景	-10.0172
骑士	-10.0175
招办	-10.0175
毛	-10.0178
让我们	-10.0179
独立显卡	-10.018
约翰逊	-10.0181
当地时间	-10.0181
备	-10.0182
自考	-10.0193
心里	-10.0204
造	-10.0207
并在	-10.0214
做到	-10.0216
跨	-10.0217
加速	-10.0218
恋	-10.0221
当晚	-10.0229
学生的	-10.0233
小麦	-10.0234
也表示	-10.0247
比赛的	-10.0248
开拓者	-10.0249
05	-10.025
1200	-10.0251
公牛	-10.0252
团购	-10.0254
可惜	-10.0254
复试	-10.0256
据国外媒体报道	-10.0256
平稳	-10.0257
清华大学	-10.026
中央	-10.0261
6000	-10.027
明天	-10.0272
布朗	-10.0274
还没	-10.0274
很可能	-10.028
设立	-10.0281
手感	-10.0282
剧本	-10.0284
450	-10.029
好的	-10.0297
变得	-10.0301
参加了	-10.0301
学术	-10.0311
带来的	-10.0318
铁矿石	-10.0323
沪胶	-10.0332
青岛	-10.0332
失败	-10.0332
依靠	-10.0332
逆转	-10.0332
奖项	-10.0334
at	-10.0335
时间为	-10.0341
照顾	-10.0343
仍将	-10.0351
激烈	-10.0352
的数据	-10.0357
十年	-10.0357
作者	-10.0359
举行的	-10.036
关心	-10.0361
一系列	-10.0362
5%。	-10.0365
收获	-10.0366
载	-10.0381
谈到	-10.0382
校园	-10.0388
ch	-10.039
公司的	-10.0391
却是	-10.0393
密	-10.0394
续约	-10.0402
草	-10.0402
持仓量	-10.0403
乔	-10.0405
希	-10.0405
直播	-10.0406
圣	-10.0407
神秘	-10.0408
iPad	-10.0409
0.3	-10.0411
尽量	-10.0411
健	-10.0411
兼	-10.0411
推进	-10.0413
案件	-10.0413
构成	-10.0413
欧冠	-10.0421
搭载	-10.0422
公众	-10.0431
颜色	-10.0436
感受	-10.0442
st	-10.0442
挑	-10.0448
多家	-10.045
良好	-10.0452
MP	-10.0453
的手机	-10.0454
过后	-10.0459
▁除了	-10.046
同意	-10.0465
赶	-10.0467
园	-10.0474
临时	-10.0476
冠	-10.0476
公益	-10.0478
彩	-10.0483
夺	-10.0484
高出	-10.0485
CMOS	-10.0485
电子商务	-10.0486
惊喜	-10.0486
多个	-10.0495
新高	-10.0495
都将	-10.0501
30%	-10.0514
的防守	-10.0514
看起来	-10.0521
日报	-10.0525
简	-10.0527
98	-10.0528
这一次	-10.053
见面	-10.0531
母	-10.0532
创下	-10.0533
脱	-10.0534
一支	-10.0536
平板电脑	-10.0538
同时也	-10.0538
手中	-10.0554
优	-10.0559
无奈	-10.0562
扣	-10.0562
邓华德	-10.0562
现金	-10.0562
尼克斯	-10.0562
大会	-10.0563
全新的	-10.0563
妻子	-10.0565
我就	-10.0569
74	-10.057
不敢	-10.0571
名为	-10.0574
慈善	-10.0606
场景	-10.0612
-5	-10.0615
考生的	-10.0616
一人	-10.0617
折	-10.0621
公平	-10.0622
个性	-10.0623
近年来	-10.0625
观看	-10.0627
很少	-10.0635
猜测	-10.0635
木	-10.0636
嘉	-10.0638
留在	-10.064
HDMI	-10.064
大连	-10.0641
立刻	-10.0641
本土	-10.0642
▁⊙	-10.0643
兄弟	-10.0643
整机	-10.0643
厂	-10.0644
1500	-10.0646
减持	-10.0649
听到	-10.0654
生命	-10.0662
顾	-10.0662
▁I	-10.0672
痛	-10.0675
画质	-10.0676
广大	-10.0679
信托	-10.0682
多年	-10.0684
与此同时	-10.0691
:1	-10.0694
▁is	-10.0695
周四	-10.0696
异	-10.0699
摆	-10.0702
节奏	-10.0706
钢	-10.0708
正面	-10.0708
销量	-10.071
食	-10.0714
78	-10.0716
动态	-10.0718
考生在	-10.0719
秘密	-10.0719
啦	-10.0719
儿童	-10.0719
否则	-10.072
携带	-10.0721
般	-10.0724
资讯	-10.0725
联系方式	-10.0725
里面	-10.0734
两队	-10.0734
早前	-10.0739
爱心	-10.0743
才会	-10.0745
格局	-10.0747
整理	-10.0749
强化	-10.0752
的东西	-10.0752
一只	-10.0759
1.2	-10.076
债券型基金	-10.0762
入选	-10.0763
聚	-10.0766
无疑	-10.077
申请人	-10.0778
97	-10.0781
倍光学变焦	-10.0782
本市	-10.0783
赫	-10.0788
▁12	-10.0789
一本	-10.0796
实践	-10.0796
60%	-10.0796
洪	-10.0797
低迷	-10.0799
扮演	-10.0799
布局	-10.0803
不知	-10.0804
今晚	-10.0804
也不会	-10.0804
回调	-10.0812
治	-10.0817
备考	-10.0823
评委	-10.0825
开场	-10.0826
附	-10.0831
价位	-10.0839
下半年	-10.0845
他也	-10.0846
一段时间	-10.0846
陪	-10.085
HD	-10.0853
男篮	-10.0854
▁11	-10.0854
半决赛	-10.0854
马克	-10.0855
另一个	-10.0861
区间	-10.0861
青年	-10.0862
纸	-10.0867
及其	-10.0869
均为	-10.087
07	-10.0872
建筑	-10.0873
1.4	-10.0874
辉	-10.0876
约为	-10.0877
门槛	-10.0878
"	-10.0878
怀孕	-10.0878
绿色	-10.0879
奖学金	-10.088
从未	-10.088
特征	-10.0881
增仓	-10.0882
夫妇	-10.0883
变成	-10.0883
仪式	-10.0886
拼	-10.0891
红色	-10.0892
单独	-10.0906
小组	-10.0908
te	-10.0919
名额	-10.0923
姚	-10.0924
总分	-10.093
月以来	-10.0932
上看	-10.0936
超越	-10.0936
▁作为	-10.0938
思路	-10.0939
西部	-10.0949
有没有	-10.095
炮	-10.0959
封基	-10.0959
71	-10.0959
审核	-10.0959
民族	-10.0959
赛场	-10.0959
体检	-10.0959
考核	-10.096
初步	-10.0962
带领	-10.0963
多了	-10.0979
怎样	-10.0986
▁9	-10.0986
单反	-10.0986
全文	-10.099
保留	-10.0994
但由于	-10.1
1.6	-10.1008
席	-10.1011
有什么	-10.1016
▁本报记者	-10.102
穿着	-10.1027
但我	-10.103
或是	-10.103
沈阳	-10.1032
绿	-10.1033
这一点	-10.1037
鱼	-10.104
女士	-10.1041
官员	-10.1041
域名	-10.1042
行政	-10.1045
83	-10.1048
学历	-10.1051
欧元	-10.1057
仍有	-10.106
速	-10.1061
是一种	-10.1061
相当于	-10.1065
相同	-10.1065
给我	-10.1072
淘宝	-10.1074
两天	-10.1076
DC	-10.1078
性的	-10.1086
▁中国	-10.1091
84	-10.1091
后面	-10.1093
盘中	-10.1096
仍是	-10.1099
94	-10.11
到场	-10.1104
。”(	-10.1106
这部	-10.1109
下面	-10.1112
梦想	-10.1116
万户	-10.1117
灯	-10.1117
毒	-10.1119
公斤	-10.1121
丈夫	-10.1122
君	-10.1122
外线	-10.1127
身份证	-10.1127
热点	-10.114
的故事	-10.1143
营收	-10.1146
87	-10.1146
永远	-10.1152
▁随着	-10.1152
将球	-10.1153
地震	-10.1156
担忧	-10.1161
三位	-10.1162
统计显示	-10.1167
个别	-10.1168
7000	-10.1168
1.7	-10.1171
阳光	-10.1172
在这里	-10.1173
会上	-10.1174
强大的	-10.1175
一批	-10.1175
陆	-10.1179
大多	-10.1191
走高	-10.1197
老鹰	-10.1197
密码	-10.1205
托雷斯	-10.1205
购	-10.1205
监督	-10.1205
PTA	-10.1207
火爆	-10.1207
临近	-10.1208
礼物	-10.1224
可以说	-10.1233
满意	-10.1235
在国内	-10.1243
中国足球	-10.1246
基地	-10.1252
多名	-10.1255
回家	-10.1256
说到	-10.1257
洞	-10.126
出去	-10.1262
似	-10.1267
等人	-10.1272
思想	-10.1276
的名字	-10.1276
爆料	-10.1284
嫁	-10.1285
党	-10.1287
QFII	-10.1288
阿里扎	-10.1288
采购	-10.1288
我认为	-10.129
相似	-10.129
PVC	-10.129
返回	-10.1294
▁日前	-10.1296
上午	-10.131
见到	-10.131
队伍	-10.1313
顶级	-10.1315
一片	-10.1317
自从	-10.1317
在网上	-10.1322
过来	-10.1326
▁H	-10.1327
证书	-10.1327
意识	-10.1333
人民	-10.1335
相应	-10.1336
全省	-10.1338
敏	-10.1344
的进攻	-10.1344
爆	-10.1346
搭载了	-10.1348
重量	-10.1349
诗	-10.1353
登陆	-10.1355
新版	-10.1355
告	-10.1359
之前的	-10.1364
震	-10.1364
犯	-10.1366
撞	-10.1369
副	-10.1369
技巧	-10.1372
交割	-10.1372
青少年	-10.1373
上下	-10.1373
停止	-10.1374
0.6	-10.1378
上周五	-10.1379
想象	-10.138
油脂	-10.1381
登场	-10.1382
战争	-10.1386
91	-10.1388
最重要的	-10.1394
队的	-10.1396
欣赏	-10.1397
0.1	-10.1397
本地	-10.1404
一半	-10.1414
按键	-10.142
取胜	-10.1421
桶	-10.1426
本月	-10.1429
艳	-10.1437
”(	-10.1439
平衡	-10.144
的基础上	-10.1441
镇	-10.1453
烟	-10.1456
纪念	-10.1456
Facebook	-10.1457
补充	-10.1457
批评	-10.1459
思考	-10.146
投诉	-10.1462
皮球	-10.1462
出发	-10.1464
获取	-10.1466
坏	-10.1467
国米	-10.1467
好好	-10.1487
控	-10.1497
稳	-10.1503
的角色	-10.1504
当初	-10.1506
希望能	-10.1508
这类	-10.1517
il	-10.1518
又是	-10.1522
HTC	-10.1528
总冠军	-10.1529
生源	-10.153
药	-10.1535
美术	-10.154
频频	-10.1543
▁2008	-10.1545
130	-10.1547
猛	-10.1548
积分	-10.155
加快	-10.1552
自信	-10.1552
SD	-10.1553
哈维	-10.1561
独家	-10.1566
早在	-10.1567
所有的	-10.1569
1.9	-10.1569
馆	-10.157
63	-10.1575
▁L	-10.1578
观	-10.1581
网游	-10.1591
打破	-10.1598
▁陈	-10.1607
罪	-10.1608
沙	-10.1611
的能力	-10.1612
赛车	-10.1614
es	-10.1621
比分	-10.1625
振	-10.1627
闹	-10.1627
喝	-10.1628
宫	-10.1628
爵士	-10.1629
认购	-10.1629
下行	-10.163
1.0	-10.1634
酷睿	-10.1636
疑	-10.1637
周五	-10.1643
失去	-10.1643
的第	-10.1645
尺寸	-10.1654
开通	-10.1655
下游	-10.1666
现货市场	-10.1669
如果你	-10.167
每月	-10.1677
老将	-10.1687
累	-10.1689
答	-10.1692
并将	-10.1698
鲁能	-10.17
怪	-10.1707
实验	-10.1711
尾	-10.1711
跟踪	-10.1715
经销商	-10.1716
戴尔	-10.1717
北京大学	-10.1723
高尔夫	-10.1727
进展	-10.1728
▁三星	-10.1733
80%	-10.1735
理念	-10.1735
势头	-10.1736
产品的	-10.1739
上行	-10.1746
2%	-10.1749
出任	-10.175
的第一	-10.1755
键盘	-10.1756
对外	-10.176
一身	-10.176
不敌	-10.1761
胶	-10.1762
一个月	-10.1762
签下	-10.1766
笔试	-10.1769
积	-10.177
最后的	-10.1777
都不	-10.1781
厅	-10.1785
沃	-10.1791
铝	-10.1796
it	-10.1798
朝	-10.18
私	-10.1803
即便	-10.1804
恐怕	-10.1804
占比	-10.1811
煤炭	-10.1813
没想到	-10.1815
过于	-10.1816
夺得	-10.1818
螺纹钢	-10.182
失望	-10.1827
辽宁	-10.1835
2.2	-10.1837
今	-10.1841
整合	-10.1843
250	-10.1844
最多的	-10.1854
填写	-10.1859
伯	-10.1861
功	-10.1862
场面	-10.1863
情感	-10.1866
我校	-10.1868
骂	-10.1874
卖出	-10.1876
卡卡	-10.1877
96	-10.188
层次	-10.1887
斗	-10.1887
弃	-10.1888
▁据介绍	-10.1888
效应	-10.189
氛围	-10.1892
规律	-10.1892
伊能静	-10.1892
斌	-10.1892
堪称	-10.1892
退役	-10.1892
出炉	-10.1893
询问	-10.1893
创意	-10.1894
婚	-10.1894
票房	-10.1894
信用卡	-10.1895
2%。	-10.1896
新秀	-10.1896
所谓	-10.1903
也让	-10.1905
日开始	-10.1912
强大	-10.1916
河南	-10.1918
本来	-10.1921
遭到	-10.1922
毫无	-10.1925
大陆	-10.1927
以为	-10.1932
输给	-10.1932
四个	-10.1933
英文	-10.1935
▁3.	-10.1937
大众	-10.1943
%;	-10.1944
82	-10.1948
完成了	-10.1952
湖北	-10.1952
8000	-10.1952
呈	-10.1959
160	-10.1962
看着	-10.1963
新专辑	-10.1966
善	-10.1967
高兴	-10.1968
埃	-10.1972
会不会	-10.1972
弄	-10.1973
贸易	-10.1974
资	-10.1976
真正的	-10.1976
0.7	-10.1977
莉	-10.1978
曹	-10.1979
调控	-10.198
Twitter	-10.1981
流畅	-10.1981
异常	-10.1982
创业	-10.1982
传播	-10.1984
降价	-10.1984
深入	-10.1985
马丁	-10.1985
LCD	-10.1987
失利	-10.1988
4000	-10.199
一向	-10.1997
个交易日	-10.2018
一大	-10.2024
3.2	-10.2027
填报志愿	-10.2036
舞台	-10.2038
市民	-10.2038
阅卷	-10.2048
究竟	-10.2051
环	-10.2052
反对	-10.2054
仍在	-10.2056
唱片	-10.2057
很大的	-10.2059
是否会	-10.2059
ST	-10.206
专户	-10.2061
定制	-10.2063
邓	-10.2067
宋	-10.2069
带来了	-10.2071
弗格森	-10.2071
凤	-10.2071
翻译	-10.2072
介入	-10.2072
反复	-10.2073
古力	-10.2075
首度	-10.208
播	-10.2088
钢厂	-10.2089
所高校	-10.2091
时机	-10.2091
ra	-10.2092
▁f	-10.2093
纳入	-10.2094
气质	-10.2097
一直是	-10.2105
外盘	-10.2106
澳门	-10.2111
随时	-10.2115
发起	-10.2129
4.5	-10.2131
人选	-10.2135
的关键	-10.2154
3.1	-10.2156
轻薄	-10.2157
广泛	-10.2158
储备	-10.216
沈	-10.2161
哈里斯	-10.2162
澄清	-10.2162
激动	-10.2163
反击	-10.2164
总额	-10.2164
暂	-10.2169
交易所	-10.2179
时候	-10.218
棉	-10.2182
会在	-10.2184
这款手机	-10.2189
～	-10.2198
雅思	-10.2198
利好	-10.2199
中间	-10.2199
来源	-10.2199
▁编辑	-10.2204
自主	-10.221
四年	-10.2213
转变	-10.2215
、1	-10.2216
的行为	-10.222
▁W	-10.2224
保本基金	-10.2224
本轮	-10.2226
合格	-10.2227
一套	-10.2229
连接	-10.223
豪	-10.2234
熟	-10.2234
变动	-10.2234
已经开始	-10.2234
实在	-10.2236
赚	-10.2241
菲	-10.2244
的结果	-10.2246
思维	-10.2248
新疆	-10.2249
叶	-10.2251
遍	-10.2252
马来西亚	-10.2253
显著	-10.2254
陈奕迅	-10.2254
表态	-10.2254
码	-10.2256
直言	-10.2256
预	-10.2259
重要的	-10.2259
达成	-10.2265
认	-10.2267
的实力	-10.2274
了自己的	-10.2274
导师	-10.2297
02	-10.2303
合并	-10.2307
味	-10.2318
要想	-10.2328
腿	-10.2328
ri	-10.233
截止	-10.2331
2.3	-10.2333
得了	-10.2333
千万	-10.234
小孩	-10.234
展现	-10.2341
护	-10.2342
吕	-10.2346
相反	-10.2346
呼吁	-10.2347
频繁	-10.2347
▁证券时报记者	-10.2347
检测	-10.2347
放缓	-10.2348
不一样	-10.2348
入围	-10.2348
0.4	-10.2349
财政	-10.2353
低价	-10.236
中国男篮	-10.2363
中国联通	-10.2368
高管	-10.2372
踢球	-10.2376
嘴	-10.2381
测	-10.2383
祝福	-10.239
右	-10.2393
的专业	-10.2393
协	-10.2393
帕	-10.2394
股票基金	-10.2397
在这	-10.2416
诸多	-10.2427
我和	-10.243
甚	-10.2431
荣	-10.2433
注重	-10.2434
睡	-10.2438
俊	-10.2438
芯片	-10.2438
在此	-10.244
周杰伦	-10.244
提振	-10.2441
净申购	-10.2441
抵达	-10.2441
留言	-10.2442
空调	-10.2444
期望	-10.2444
底部	-10.2444
评估	-10.2446
正确	-10.2446
工艺	-10.2447
各自	-10.2447
也被	-10.2448
带动	-10.2449
战绩	-10.245
林峰	-10.2452
的最新	-10.2458
结束了	-10.2459
更大	-10.2459
缘	-10.246
涨停	-10.2461
奖金	-10.2463
走强	-10.2465
套机	-10.2466
予以	-10.2472
基金的	-10.2474
受到了	-10.2475
拿下了	-10.2479
抛	-10.2482
硬	-10.2484
的设计	-10.2493
大小	-10.2494
这份	-10.2501
阵	-10.2504
是什么	-10.2505
枪	-10.2517
两周	-10.2518
由此	-10.2521
不变	-10.2528
跃	-10.253
优先	-10.2532
7%	-10.2533
办公室	-10.2534
筹备	-10.2534
霍华德	-10.2534
阿娇	-10.2535
高度	-10.2535
女主角	-10.2535
加息	-10.2536
吸引力	-10.254
不久	-10.2543
周末	-10.2546
的风险	-10.2548
国王	-10.255
私人	-10.2552
衣服	-10.257
增幅	-10.2571
如下	-10.2577
年来	-10.2578
进了	-10.2585
2.1	-10.2586
罗斯	-10.2594
走向	-10.2598
豆	-10.2599
腰	-10.2604
的预期	-10.2607
在接受	-10.2617
野	-10.262
有意	-10.2622
猫	-10.2624
缓解	-10.2625
戈	-10.2626
岛	-10.2626
里的	-10.2627
财务	-10.2629
2.6	-10.263
教练组	-10.263
韩寒	-10.2631
650	-10.2637
亚洲杯	-10.2641
开局	-10.2645
块	-10.2647
高点	-10.2647
———	-10.265
8%,	-10.2659
95	-10.2661
晚会	-10.2663
的信息	-10.2667
场上	-10.2675
实现了	-10.2682
经历了	-10.2685
获批	-10.2686
寻	-10.2693
罗马	-10.2693
随即	-10.2697
名称	-10.2701
透	-10.2702
上海市	-10.2704
焦点	-10.2706
施	-10.2708
多单	-10.2708
初中	-10.2709
基本上	-10.2709
架	-10.2715
出生	-10.2717
失去了	-10.2721
沉	-10.2722
的想法	-10.2722
幸运	-10.2723
是为了	-10.2724
丝	-10.2725
仔细	-10.2725
威廉姆斯	-10.2726
粮食	-10.2726
拓展	-10.2727
某些	-10.2728
公共	-10.273
聊天	-10.273
姐姐	-10.2731
元素	-10.2737
债务	-10.2738
也就是说	-10.2738
获胜	-10.274
打压	-10.274
这就是	-10.2742
不需要	-10.2742
的选择	-10.2744
第一时间	-10.2744
为例	-10.2749
年以来	-10.2749
的电影	-10.2752
洗	-10.2758
艺术类	-10.2765
谷	-10.2776
4%,	-10.2777
高分	-10.278
等方面	-10.278
钟	-10.2782
问到	-10.2784
具	-10.2788
录制	-10.2793
滑	-10.2793
面积	-10.2798
0.2	-10.2807
中有	-10.2809
2%,	-10.2809
拖	-10.2819
审查	-10.2822
加索尔	-10.2823
冯小刚	-10.2823
调研	-10.2823
创业板	-10.2824
评卷	-10.2824
伊布	-10.2825
中文	-10.2826
辅导	-10.2829
▁13	-10.2841
优秀的	-10.2842
的说法	-10.2849
总统	-10.2864
我希望	-10.2866
让她	-10.2867
70%	-10.2871
有一些	-10.2872
不低于	-10.2872
颇	-10.2875
摄像头	-10.2878
在去年	-10.2879
印象	-10.2881
点球	-10.2886
性格	-10.2894
缺	-10.2898
混	-10.2908
十一	-10.2908
模	-10.2915
淘汰	-10.2918
剑	-10.292
锻炼	-10.2921
'	-10.2921
麻烦	-10.2921
怀疑	-10.2921
套餐	-10.2921
黎明	-10.2922
之旅	-10.2922
既然	-10.2922
折价率	-10.2923
原则	-10.2923
万像素的	-10.2925
天胶	-10.2926
因为他	-10.2928
普通高中	-10.2928
弗	-10.293
04	-10.2931
前晚	-10.2937
一代	-10.2938
遇	-10.294
的孩子	-10.2942
鞋	-10.2942
这个问题	-10.2943
点评	-10.2944
应当	-10.2945
明白	-10.2946
敏感	-10.2948
抑制	-10.295
她表示	-10.2952
小牛	-10.2953
对焦	-10.2953
消	-10.2955
移	-10.2959
名人	-10.296
开盘	-10.2963
的过程	-10.2964
地产	-10.2967
被动	-10.2967
期限	-10.2971
▁HD	-10.2978
巨	-10.2979
最后一	-10.2979
第五	-10.298
>	-10.2981
竞争力	-10.2994
保本	-10.3001
填	-10.3007
素质	-10.3008
足够	-10.3009
命中率	-10.3009
联手	-10.3013
一同	-10.3014
春晚	-10.3015
勤	-10.3019
优质	-10.302
功夫	-10.3021
相继	-10.3022
赚钱	-10.3022
TVB	-10.3022
昨	-10.3022
无缘	-10.3023
首批	-10.3023
喜剧	-10.3025
缺少	-10.3028
锁定	-10.3033
2003	-10.304
万英镑	-10.3045
金融危机	-10.3046
而已	-10.3047
伊朗	-10.3048
互	-10.305
划	-10.3053
1600	-10.3053
还表示	-10.3054
一番	-10.3055
样	-10.3057
东莞	-10.3059
饰演的	-10.3064
之内	-10.3067
▁E	-10.3068
大方	-10.3074
可见	-10.3074
的最大	-10.3078
打电话	-10.3079
分辨率为	-10.3082
日期	-10.3082
迹象	-10.3088
的变化	-10.3092
简单的	-10.3093
鹏	-10.3095
容量	-10.3102
el	-10.3109
孩子们	-10.311
也就	-10.3112
旗舰	-10.3118
罗纳尔多	-10.312
夫妻	-10.312
引导	-10.312
中小板	-10.3121
强烈	-10.3121
孙悦	-10.3121
▁图文	-10.3121
携手	-10.3123
破门	-10.3125
开设	-10.3126
周刊	-10.3127
分化	-10.3128
就此	-10.313
编剧	-10.3133
高潮	-10.3133
偏股型基金	-10.3134
成立的	-10.3134
这让	-10.3145
弱势	-10.3148
th	-10.3157
号码	-10.3157
几天	-10.3172
篮下	-10.3177
球员们	-10.3177
底线	-10.3177
够	-10.3177
▁考研	-10.3184
可以在	-10.3189
两个月	-10.3191
▁be	-10.3193
天后	-10.3194
都可以	-10.3194
包含	-10.3197
理论	-10.3198
赌	-10.3213
好转	-10.3213
ro	-10.3215
一对多	-10.3219
供需	-10.322
心中	-10.322
芳	-10.3221
巴塞罗那	-10.3221
史密斯	-10.3221
巨星	-10.3221
资助	-10.3221
主办方	-10.3221
维护	-10.3222
资深	-10.3222
吃饭	-10.3223
全市	-10.3223
坐在	-10.3223
收视率	-10.3223
差异	-10.3229
在场上	-10.3232
一定的	-10.3236
的交易	-10.3242
90%	-10.325
惊	-10.3251
哪些	-10.3256
称为	-10.3266
办学	-10.3275
佩	-10.3285
新片	-10.3288
的特点	-10.3293
提示	-10.3299
在其	-10.3301
▁X	-10.3302
以内	-10.3305
弹	-10.3305
幕	-10.3305
品质	-10.3306
庆	-10.3307
键	-10.3309
能在	-10.3312
的身份	-10.3314
存储	-10.3314
检	-10.3317
出来的	-10.3318
耳	-10.332
惠	-10.332
美丽	-10.332
Intel	-10.3321
医疗	-10.3322
词汇	-10.3322
摸	-10.3322
鬼	-10.3322
巴蒂尔	-10.3323
禁止	-10.3323
观望	-10.3324
便宜	-10.3324
回暖	-10.3325
区别	-10.3325
高等教育	-10.3327
录像	-10.3329
去了	-10.333
没有任何	-10.3334
态势	-10.3335
看上去	-10.3335
,2011	-10.3335
信用	-10.3342
主导	-10.3347
东北	-10.3349
?)	-10.3354
成就	-10.3357
肯定会	-10.3363
理由	-10.337
必然	-10.3371
回忆	-10.3371
微笑	-10.3371
上线	-10.3373
的比例	-10.3391
也都	-10.3391
河北	-10.3397
伊朗队	-10.3398
的学习	-10.34
原油期货	-10.3401
的关注	-10.3405
ly	-10.3409
VGA	-10.3412
机器	-10.3412
饭	-10.3413
发售	-10.3413
在剧中	-10.3414
偷	-10.3418
这款产品	-10.3419
雄	-10.3419
的走势	-10.3424
矛盾	-10.3425
灾区	-10.3426
困扰	-10.3426
涉嫌	-10.3426
预估	-10.3427
病毒	-10.3427
黄晓明	-10.3427
青春	-10.3428
61	-10.3429
林丹	-10.343
亚运会	-10.3432
进军	-10.3434
太大	-10.3434
五年	-10.3438
7%。	-10.3439
ThinkPad	-10.3448
澳	-10.3453
三分球	-10.3457
,2008	-10.3461
显	-10.3466
上面	-10.3466
短线	-10.3466
本场	-10.347
中证	-10.3473
没有什么	-10.3479
休	-10.3481
船	-10.3493
走了	-10.3498
旗下的	-10.3507
走低	-10.3507
▁IS	-10.3508
ic	-10.3508
发生了	-10.3509
提问	-10.3512
81	-10.3513
新一代	-10.3514
喊	-10.3515
拨打	-10.3515
......”	-10.3517
超出	-10.3522
洁	-10.3526
官网	-10.3528
浏览	-10.3529
潘	-10.353
安德森	-10.353
除此之外	-10.353
重返	-10.3532
承受	-10.3532
6.5	-10.3533
▁第	-10.3533
DVD	-10.3534
内心	-10.3535
那种	-10.3539
材质	-10.354
赞	-10.3544
IS	-10.3547
我现在	-10.3551
可爱	-10.3555
等级	-10.3556
盛大	-10.3558
太太	-10.3562
青睐	-10.3565
4.3	-10.3567
▁美国	-10.3568
年高考	-10.3573
00	-10.3574
▁其实	-10.3575
英寸的	-10.3577
模拟	-10.3579
打入	-10.3582
▁松下	-10.3583
相应的	-10.3586
▁上周	-10.3588
投机	-10.3588
独特的	-10.3588
斯特	-10.3591
霍	-10.3595
获利	-10.3596
3.4	-10.3601
让他们	-10.3605
燕	-10.3608
姆	-10.3617
西安	-10.3617
北京时间	-10.3618
仅售	-10.3619
小组赛	-10.362
想买	-10.3621
那就是	-10.3622
就读	-10.3623
世界冠军	-10.3628
冬	-10.3629
丰	-10.363
仔	-10.3631
黑龙江	-10.3634
积累	-10.3634
锦标赛	-10.3635
登记	-10.3635
分歧	-10.3635
欧佩克	-10.3636
李嘉欣	-10.3636
融合	-10.3637
执法	-10.3637
矿	-10.3638
场地	-10.3639
收取	-10.364
加油	-10.3641
读书	-10.3642
境	-10.3642
位列	-10.3643
93	-10.3646
其中包括	-10.3652
比去年	-10.3654
卫视	-10.3655
流行	-10.3665
此类	-10.367
恋情	-10.3672
管理的	-10.3672
is	-10.3675
研	-10.3676
以外	-10.3681
3%。	-10.3689
加入了	-10.3691
最快	-10.3695
的支持	-10.3696
选项	-10.3697
在内地	-10.37
未来的	-10.3707
得很	-10.371
较高的	-10.371
大纲	-10.3712
细	-10.3712
人群	-10.3712
勒	-10.3715
有过	-10.3722
郎	-10.3729
扩展	-10.3731
软	-10.3733
聊	-10.3734
100%	-10.3735
山猫	-10.3735
炒	-10.3738
郑州	-10.3738
钢价	-10.374
他就	-10.374
肩	-10.374
贝尼特斯	-10.3742
阿隆索	-10.3742
怡	-10.3742
危险	-10.3742
关闭	-10.3742
杠杆	-10.3742
审批	-10.3742
]:	-10.3743
告别	-10.3743
领取	-10.3744
商业银行	-10.3747
引入	-10.3747
罗伊	-10.3747
▁you	-10.3754
族	-10.3764
挑选	-10.3765
开机	-10.3774
出国	-10.3777
的标准	-10.3778
一举	-10.3779
现场确认	-10.3782
付出	-10.3784
满分	-10.3788
资本市场	-10.3791
围	-10.3802
短短	-10.3805
起到	-10.3809
us	-10.3809
层面	-10.381
足以	-10.3812
攻	-10.3815
何时	-10.3818
非常好	-10.3819
私募基金	-10.382
▁s	-10.3822
替	-10.3827
说话	-10.3829
牛市	-10.3831
重组	-10.3835
第四节	-10.3837
得手	-10.3838
涛	-10.3843
粉	-10.3847
道歉	-10.3848
但她	-10.3848
玲	-10.3849
美联储	-10.385
下挫	-10.385
陆毅	-10.385
保送生	-10.385
热播	-10.3851
专业的	-10.3857
更新	-10.3858
财产	-10.3858
新股	-10.3859
博士	-10.3862
少年	-10.3864
▁事实上	-10.3869
日讯	-10.3871
亚军	-10.3873
▁二	-10.3877
博时	-10.3891
较大的	-10.3897
诚	-10.3899
乡	-10.3901
之上	-10.3908
搭	-10.3908
美元指数	-10.3909
塑料	-10.391
花费	-10.3911
该片	-10.3914
其次	-10.392
质	-10.3935
辛	-10.3939
销	-10.3944
联考	-10.3949
第三季度	-10.3951
锋	-10.3952
的机身	-10.3952
艾	-10.3953
高三	-10.3953
来讲	-10.3953
就算	-10.3955
机械	-10.3957
嘉实	-10.3958
李世石	-10.3958
洛佩斯	-10.3958
邵佳一	-10.3958
奥尼尔	-10.3958
雷霆	-10.3958
优雅	-10.3959
缩水	-10.3959
互相	-10.396
QQ	-10.396
合计	-10.3961
单词	-10.3962
经纪公司	-10.3962
境外	-10.3963
点击	-10.3964
同学们	-10.3966
试图	-10.3967
货币政策	-10.3967
国脚	-10.3968
势	-10.397
对其	-10.397
06	-10.3972
1%,	-10.3973
这意味着	-10.3974
在场	-10.3977
务	-10.398
▁一	-10.398
的现象	-10.398
举办的	-10.3982
投放	-10.3983
考前	-10.3985
海南	-10.3985
刻	-10.399
袋	-10.3991
四大	-10.3993
大大	-10.3996
在比赛中	-10.3999
双核	-10.3999
与其	-10.4
统考	-10.4006
文学	-10.4008
跟随	-10.4011
也不是	-10.4012
▁此前	-10.4014
第二轮	-10.403
投资人	-10.4033
沪	-10.4034
总监	-10.4036
路线	-10.4036
各国	-10.4038
又有	-10.4039
士	-10.4045
算是	-10.4047
合适的	-10.4048
信任	-10.4049
学校的	-10.4052
薄	-10.4057
影响力	-10.406
湖南	-10.4063
表面	-10.4065
悬念	-10.4068
艰难	-10.4068
夏普	-10.4068
昆明	-10.4069
温格	-10.4069
快船	-10.4069
社区	-10.4069
山西	-10.407
早盘	-10.407
解读	-10.4072
她在	-10.4074
通道	-10.4077
每一个	-10.4077
理工类	-10.4077
丢	-10.4082
.8%	-10.4087
福建	-10.409
父	-10.4091
考生可	-10.4092
之处	-10.4096
接受了	-10.41
理性	-10.4105
作家	-10.4107
大幅上涨	-10.4108
一波	-10.4109
中国足协	-10.4109
名字	-10.4114
日常	-10.4115
有一定	-10.412
亚冠	-10.4122
籍	-10.4122
拿出	-10.4125
同比	-10.4126
姐	-10.4128
世纪	-10.4129
3.7	-10.413
低位	-10.413
脑	-10.4132
来的	-10.4133
高中生	-10.4153
类别	-10.4159
传统的	-10.4164
的局面	-10.4167
饰	-10.4171
公务员	-10.4172
懂	-10.4172
珠	-10.4175
暖	-10.4176
盎司	-10.4177
阴	-10.4177
秦	-10.4178
亚锦赛	-10.4179
有助于	-10.4179
彭	-10.4179
录音	-10.418
寻求	-10.418
财富	-10.418
破坏	-10.418
评测	-10.4181
将有	-10.4181
就已经	-10.419
漂亮	-10.4191
证据	-10.4191
小巧	-10.4192
例	-10.4194
对他	-10.4199
国际油价	-10.42
面板	-10.4202
职位	-10.4212
跌停	-10.4215
现货价格	-10.4219
的合同	-10.4224
那里	-10.4226
想法	-10.4227
稍	-10.4234
交给	-10.4236
就开始	-10.4239
也就是	-10.4241
的球迷	-10.4242
学会	-10.4243
题型	-10.4243
首个	-10.4247
将与	-10.4248
同一	-10.4251
在这个	-10.4252
LG	-10.4255
打印	-10.4255
高招	-10.4255
▁杨	-10.4255
网络游戏	-10.4259
原因是	-10.4259
加剧	-10.4261
基金净值	-10.4266
市值	-10.4269
此举	-10.4274
巧	-10.4277
上市的	-10.4277
排行榜	-10.428
黄蜂	-10.4285
玩家	-10.4287
安徽	-10.429
蔡	-10.4291
漏	-10.4291
幽默	-10.4291
巴黎	-10.4292
捐款	-10.4292
激情	-10.4292
id	-10.4292
郑智	-10.4292
慢慢	-10.4293
网页	-10.4293
帕克	-10.4294
优化	-10.4295
老婆	-10.4295
条评论	-10.4295
水准	-10.4296
媒体报道	-10.4297
有时	-10.43
长沙	-10.4303
家里	-10.4303
▁新	-10.4303
无数	-10.4304
球手	-10.4309
SP	-10.4313
▁同时	-10.4314
这两	-10.4323
SL	-10.4324
受理	-10.4325
假期	-10.433
抗	-10.4331
旅行	-10.4337
相互	-10.4339
个小时	-10.4342
入场	-10.4343
两场	-10.4345
对待	-10.4349
长焦	-10.4353
声音	-10.4353
车手	-10.4358
缺席	-10.4359
乐队	-10.4364
赢得了	-10.4365
▁c	-10.4367
朗	-10.4368
横	-10.4369
名将	-10.4372
华为	-10.4372
还未	-10.4381
一枚	-10.4383
接着	-10.4385
备受	-10.4386
不多	-10.4387
220	-10.4388
平安	-10.4388
侧	-10.439
排在	-10.4391
下赛季	-10.4393
灾	-10.4395
裙	-10.4397
CDMA	-10.4399
无限	-10.4399
翔	-10.44
稿	-10.44
前场	-10.4401
冯	-10.4403
到位	-10.4403
雄鹿	-10.4405
不愿意	-10.4405
LTE	-10.4406
起诉	-10.4407
白银	-10.4409
尤文	-10.4409
但这	-10.441
认定	-10.4412
利空	-10.4412
不愿	-10.4413
差不多	-10.4419
总量	-10.4421
全世界	-10.4427
先是	-10.4427
商品价格	-10.4427
临	-10.4448
的合作	-10.445
有消息称	-10.4452
支球队	-10.4455
开幕	-10.4455
葡萄牙	-10.4458
更高	-10.4459
评选	-10.4462
食糖	-10.4462
容	-10.4467
迎战	-10.4471
发行的	-10.4481
也对	-10.4481
全年	-10.4481
的意见	-10.4486
招聘	-10.449
硬件	-10.4494
拍摄的	-10.4496
则表示	-10.4498
鉴于	-10.4501
姜	-10.4505
j	-10.4513
桑	-10.4517
慧	-10.4519
汤	-10.4519
郭德纲	-10.452
仁	-10.452
CPI	-10.452
收储	-10.452
济南	-10.452
精致	-10.452
代码	-10.4521
耐心	-10.4521
2002	-10.4522
小说	-10.4522
权威	-10.4524
168	-10.4524
发言人	-10.4528
约合	-10.4529
中国女排	-10.453
年薪	-10.4532
亮点	-10.4533
低点	-10.4534
工资	-10.4536
人口	-10.4537
网吧	-10.4539
前来	-10.4539
做多	-10.454
产能	-10.454
▁■	-10.4554
不算	-10.4556
全程	-10.4562
录取分数线	-10.4562
2.9	-10.4563
还需要	-10.457
机构投资者	-10.457
吹	-10.4571
前面	-10.4572
原油价格	-10.4574
便携	-10.4579
觉	-10.4584
这名	-10.4585
甘	-10.4589
插	-10.4591
已经成为	-10.4593
期货价格	-10.4598
分类	-10.4601
3.3	-10.4603
日凌晨	-10.4604
顾问	-10.4605
是我	-10.4608
闻	-10.4612
逼	-10.4613
考试时间	-10.4615
眼睛	-10.4617
环比	-10.4617
隆	-10.4617
吸引了	-10.4622
频	-10.4627
携	-10.4627
冒	-10.4628
围绕	-10.4631
购物	-10.4632
寒	-10.4632
肖	-10.4632
凌	-10.4634
几次	-10.4634
鼓	-10.4635
蛋	-10.4635
价格上涨	-10.4636
麻	-10.4636
识别	-10.4637
的拍摄	-10.4637
下了	-10.4637
迈克尔	-10.4637
周迅	-10.4639
探索	-10.464
不上	-10.4641
举报	-10.4641
联接基金	-10.4642
有色金属	-10.4643
MBA	-10.4646
考试成绩	-10.4647
竞争对手	-10.4651
5.5	-10.4659
必须要	-10.466
声称	-10.4663
工厂	-10.4679
仓	-10.468
完整	-10.4682
ir	-10.4688
▁点击查看	-10.469
骗	-10.4694
他们在	-10.4696
或将	-10.4698
可在	-10.4703
泰国	-10.4706
4%。	-10.4712
2001	-10.4714
在主场	-10.4714
家族	-10.4716
将从	-10.4721
浩	-10.4733
6%。	-10.4737
并购	-10.4743
早上	-10.4745
醒	-10.4748
看了	-10.4749
征集志愿	-10.4751
不利	-10.4751
的趋势	-10.4751
希腊	-10.4752
侯	-10.4753
克里斯	-10.4753
陈冠希	-10.4754
奖励	-10.4754
卡塔尔	-10.4754
模仿	-10.4754
蒋	-10.4754
纳什	-10.4754
昔日	-10.4755
宝宝	-10.4757
征战	-10.4758
焦炭	-10.4759
主角	-10.4764
也没	-10.4767
抢断	-10.4771
触	-10.4771
体能	-10.4776
每吨	-10.4782
敌	-10.4783
凌晨	-10.4785
处在	-10.4788
的话题	-10.4789
的决定	-10.4792
学业	-10.4796
一共	-10.4798
值得一提的是	-10.4806
错过	-10.4807
得以	-10.4808
自称	-10.4811
的过程中	-10.4815
这支	-10.4816
已经有	-10.4821
新浪体育	-10.4824
的投资者	-10.4827
磊	-10.4833
过了	-10.4836
素	-10.484
皇	-10.4842
看到了	-10.4843
主打	-10.485
我知道	-10.4852
版权	-10.4852
敢	-10.4853
禁区	-10.4857
最具	-10.4858
2.	-10.486
lo	-10.4865
行业的	-10.487
二季度	-10.4871
徒	-10.4872
蔡依林	-10.4873
弥补	-10.4873
加仓	-10.4874
尾盘	-10.4875
资费	-10.4875
ent	-10.4876
福州	-10.4876
热身	-10.4878
三人	-10.4878
全线	-10.488
欧美	-10.488
不俗	-10.4881
供给	-10.4881
2》	-10.4884
讲述	-10.4886
很有可能	-10.4887
幅	-10.4898
的股票	-10.4903
好像	-10.4904
百万	-10.4923
租	-10.4926
极为	-10.4926
门口	-10.4928
延	-10.4936
到来	-10.4941
DV	-10.4949
高峰	-10.4953
一颗	-10.4955
一步	-10.4958
的学校	-10.496
的速度	-10.4968
目前正在	-10.4968
申	-10.497
欢	-10.4973
un	-10.4975
春节	-10.4975
明显的	-10.4976
哪个	-10.4978
星期	-10.4981
乌	-10.4982
收报	-10.4983
恶	-10.4983
股指	-10.4984
身为	-10.4984
勇士	-10.4986
黑莓	-10.4988
赔	-10.4989
陶	-10.4989
到达	-10.499
庄	-10.499
扎	-10.499
好莱坞	-10.4993
扫	-10.4993
容祖儿	-10.4993
描述	-10.4994
泡沫	-10.4994
振荡	-10.4994
魏	-10.4994
洛杉矶	-10.4994
韩庚	-10.4994
活塞	-10.4994
万像素摄像头	-10.4994
紧急	-10.4994
借助	-10.4995
洛瑞	-10.4995
利息	-10.4997
网址	-10.4997
拨	-10.4997
落实	-10.4998
安装	-10.5
上网本	-10.5001
浪漫	-10.5003
新浪微博	-10.5005
在现场	-10.501
提及	-10.5016
飙升	-10.5018
伤害	-10.5023
ur	-10.5025
同步	-10.5025
家中	-10.5026
身穿	-10.5037
半场	-10.5042
群体	-10.5045
将对	-10.5045
带有	-10.5047
出道	-10.505
对话	-10.5052
华硕	-10.5053
固定	-10.5061
大戏	-10.5066
无疑是	-10.5068
跟着	-10.507
传中	-10.5072
愿	-10.5073
针	-10.5076
最初	-10.5077
中移动	-10.5078
名球员	-10.5078
家基金公司	-10.5079
”,“	-10.508
他将	-10.5089
董事会	-10.509
妈	-10.509
毫不	-10.5096
引起了	-10.51
主体	-10.5106
as	-10.5107
时刻	-10.511
仍然是	-10.511
餐	-10.5111
防止	-10.5111
岗位	-10.5112
郭富城	-10.5116
十大	-10.5117
EOS	-10.5117
金融机构	-10.5126
隔	-10.5131
大牌	-10.5131
罚球	-10.5133
买卖	-10.5135
编	-10.5145
三个月	-10.5151
依然是	-10.5151
第一志愿	-10.5153
第六	-10.5153
可以看出	-10.5155
转向	-10.5157
会计	-10.516
生活中	-10.5174
的基础	-10.5175
引来	-10.5177
40%	-10.5178
榜首	-10.5179
卡片机	-10.518
这段时间	-10.5188
之战	-10.5189
丰富的	-10.519
新鲜	-10.5193
大师	-10.5195
知识点	-10.5198
15%	-10.52
精彩的	-10.5203
有网友	-10.5203
淡	-10.521
延续了	-10.5211
万欧元	-10.5213
网购	-10.5214
SH	-10.5215
的相关	-10.5215
影迷	-10.5217
胸	-10.522
刊	-10.5223
涉	-10.5225
一件	-10.5231
忧	-10.5231
一部分	-10.5237
我在	-10.5237
依赖	-10.5239
奥巴马	-10.5239
兹	-10.5239
土耳其	-10.5239
暗示	-10.5239
退休	-10.524
认证	-10.524
替代	-10.524
剧情	-10.524
职业技术学院	-10.524
LME	-10.5241
语音	-10.5241
战斗	-10.5242
主管	-10.5242
日上午消息	-10.5242
GRE	-10.5242
多位	-10.5242
▁4.	-10.5243
居然	-10.5244
获奖	-10.5245
是他	-10.5245
凯文	-10.5248
长达	-10.5251
难题	-10.5252
更好地	-10.5258
中招	-10.5258
接收	-10.526
但却	-10.5262
外汇	-10.5264
选择题	-10.5268
▁近期	-10.5269
通讯	-10.5269
分以上	-10.5275
历	-10.5276
是由	-10.5278
北京奥运会	-10.5278
关注的	-10.5281
评级	-10.5282
零售	-10.5287
3%,	-10.5291
常规赛	-10.5292
遭受	-10.5296
更大的	-10.5299
出线	-10.531
已经在	-10.5312
名单中	-10.5313
尤	-10.5313
响	-10.5313
▁去年	-10.5319
卡尔	-10.5323
跌至	-10.5324
续	-10.5325
将其	-10.5331
可以通过	-10.5338
豆类	-10.5338
判罚	-10.5341
大量的	-10.5341
几年	-10.5343
我们会	-10.5346
攀升	-10.5352
考生要	-10.5353
edu	-10.5353
效	-10.5357
乘	-10.5358
卢	-10.5359
骨	-10.5362
桥	-10.5362
复读	-10.5363
舒淇	-10.5363
拜仁	-10.5364
棕榈油	-10.5364
孟	-10.5364
▁----	-10.5364
理工大学	-10.5364
约翰	-10.5364
显现	-10.5365
子女	-10.5365
保守	-10.5365
做的	-10.5366
制片人	-10.5367
▁The	-10.5368
月份的	-10.5368
新年	-10.5369
▁for	-10.537
常常	-10.537
年末	-10.537
参加高考	-10.5372
甲	-10.5372
缩小	-10.5372
指责	-10.5374
我们认为	-10.538
东部	-10.538
复制	-10.5388
机场	-10.539
之路	-10.5393
参	-10.5399
更换	-10.5405
3.6	-10.5407
输出	-10.5408
7%,	-10.541
的同学	-10.5414
管理层	-10.5415
主演的	-10.5418
不超过	-10.5418
录取通知书	-10.5419
有关部门	-10.5423
享	-10.5431
000	-10.5433
了自己	-10.5435
105	-10.5437
放大	-10.5438
的声音	-10.544
▁当然	-10.5441
益	-10.5443
夏天	-10.5444
一笔	-10.5448
的热情	-10.5448
三种	-10.5453
最小	-10.546
调剂	-10.5462
已于	-10.5465
缴费	-10.5469
债市	-10.5481
伴	-10.5482
旗	-10.5485
。[	-10.5485
赔偿	-10.549
AMD	-10.549
均衡	-10.5491
负担	-10.5491
栏目	-10.5491
庾澄庆	-10.5491
毫米	-10.5491
链接	-10.5491
结算价	-10.5492
结算	-10.5493
以上的	-10.5493
消化	-10.5493
共计	-10.5493
在京	-10.5495
开考	-10.5497
输球	-10.5498
较多	-10.5498
一流	-10.5499
一球	-10.5499
合作伙伴	-10.55
反超	-10.5501
远远	-10.5512
三次	-10.5512
被人	-10.5513
早就	-10.5519
没什么	-10.5527
这件事	-10.5547
医学	-10.5547
大胆	-10.5549
置	-10.5551
资产配置	-10.5552
走进	-10.5552
▁K	-10.5556
大气	-10.556
家电	-10.5564
市场中	-10.5564
但是在	-10.5568
1105	-10.5569
大胜	-10.5571
et	-10.5573
的核心	-10.5573
童	-10.5574
VS	-10.5575
袁	-10.5576
不住	-10.5577
捧	-10.5578
棒	-10.5578
美好	-10.5582
这段	-10.5585
▁推荐	-10.5587
不已	-10.5588
琳	-10.5589
邀	-10.5591
暴	-10.5594
▁2、	-10.5598
拉开	-10.5598
状元	-10.5599
1080	-10.5601
恒	-10.5602
240	-10.5602
不仅仅是	-10.5604
愈	-10.5614
一开始	-10.5616
瞬间	-10.5616
取决于	-10.5618
疲软	-10.5618
蒿俊闵	-10.5618
吉格斯	-10.5619
沪锌	-10.5619
聪明	-10.5619
▁今日	-10.5619
智慧	-10.5619
传递	-10.562
任意球	-10.562
之时	-10.562
粮	-10.5621
解析	-10.5622
精力	-10.5623
日下午消息	-10.5623
环球	-10.5623
回合	-10.5624
成果	-10.5626
平静	-10.5628
日在	-10.5633
财经	-10.5633
北京队	-10.5634
送给	-10.5635
货币基金	-10.5636
巨人	-10.5638
核	-10.5643
这两个	-10.5643
101	-10.5651
的就是	-10.5656
▁三	-10.5656
那是	-10.5657
考生和家长	-10.5663
复苏	-10.5666
我相信	-10.567
基金管理公司	-10.5681
道德	-10.5683
将被	-10.5686
国庆	-10.5687
男女	-10.5688
有个	-10.5688
决	-10.569
&	-10.5691
富士	-10.5692
找到了	-10.5696
刑	-10.57
妙	-10.5704
述	-10.5704
俩	-10.5706
▁1、	-10.5709
统计数据显示	-10.571
全高清	-10.5714
的背景下	-10.5714
升至	-10.5716
有不少	-10.5717
线上	-10.5719
多年的	-10.572
唯一的	-10.5721
较低	-10.5728
代理	-10.5733
还透露	-10.5739
祖	-10.5742
岩	-10.5745
拜	-10.5746
存款	-10.5747
忠	-10.5747
.1%	-10.5747
扣篮	-10.5748
ne	-10.5748
局势	-10.5748
托马斯	-10.5748
旭	-10.5748
▁that	-10.5749
灰熊	-10.5749
右侧	-10.5749
缺阵	-10.5749
监控	-10.575
痛苦	-10.575
布鲁克斯	-10.575
晨	-10.5752
硕士研究生	-10.5752
认同	-10.5752
融入	-10.5752
欧元区	-10.5752
指数型基金	-10.5754
王菲	-10.5756
长时间	-10.5757
显示效果	-10.5759
生意	-10.5759
么	-10.5761
被迫	-10.5763
小沈阳	-10.5763
身价	-10.5764
提供的	-10.5764
▁对此	-10.5765
已经被	-10.5768
持有人	-10.5768
这支球队	-10.577
自行	-10.5771
低开	-10.5771
加工	-10.5772
十足	-10.5773
我们在	-10.5775
的形式	-10.5777
液晶屏	-10.5778
颇为	-10.5783
正好	-10.5785
的收益	-10.5785
评分	-10.5786
999	-10.579
的水平	-10.5791
短片	-10.5794
国内外	-10.5798
▁本报	-10.5802
术	-10.5807
为自己	-10.5809
南方基金	-10.581
全球经济	-10.5813
增速	-10.5822
连败	-10.5824
5%,	-10.5826
我要	-10.5827
略有	-10.5829
▁基金	-10.5833
日本队	-10.5834
专访	-10.5839
摄	-10.584
签订	-10.584
1%。	-10.5842
要注意	-10.5844
创造了	-10.585
受益	-10.5851
的进球	-10.5853
那么多	-10.5853
大规模	-10.5855
订	-10.5862
一道	-10.5862
晶	-10.5868
净赎回	-10.5868
最早	-10.5868
添	-10.587
相关的	-10.5871
近来	-10.5872
董	-10.5874
引擎	-10.5879
皆	-10.5879
崔	-10.5879
的经纪人	-10.5879
变焦	-10.5879
也曾	-10.588
邮件	-10.588
王亚伟	-10.588
TFT	-10.588
细腻	-10.588
姚晨	-10.588
集训	-10.588
拖累	-10.588
李连杰	-10.588
抛售	-10.5881
离职	-10.5882
的她	-10.5882
米勒	-10.5883
豪门	-10.5883
恋爱	-10.5883
复旦大学	-10.5883
宽带	-10.5883
温度	-10.5883
触控	-10.5886
席位	-10.5889
投票	-10.5889
生存	-10.5889
离场	-10.589
IPO	-10.5891
团体	-10.5891
IF	-10.5891
表示自己	-10.5893
收藏	-10.5894
肯	-10.5895
赠送	-10.59
的用户	-10.5905
取代	-10.5906
越来越多的	-10.5908
各位	-10.5909
4.0	-10.5911
队员们	-10.5912
转身	-10.5912
他又	-10.5915
时报	-10.5916
但从	-10.5918
的效果	-10.5918
140	-10.5919
开学	-10.5919
的一些	-10.5926
派出	-10.5933
迎	-10.5935
美豆	-10.5938
诚信	-10.594
表现出	-10.5947
场比赛中	-10.5949
了一些	-10.5953
抽	-10.5956
颖	-10.5957
营	-10.5959
▁实习生	-10.5959
》《	-10.5965
前天	-10.5966
流量	-10.5967
因而	-10.5977
说法	-10.5977
采	-10.5982
给出	-10.5982
在微博上	-10.5982
九段	-10.6001
企	-10.6002
圣诞	-10.6002
但现在	-10.6005
贺	-10.6007
有利	-10.6009
裁员	-10.6011
宗	-10.6011
困境	-10.6013
更具	-10.6013
障碍	-10.6013
NYMEX	-10.6013
省教育考试院	-10.6014
媳妇	-10.6014
中信证券	-10.6014
湖南卫视	-10.6014
广发	-10.6014
Wind	-10.6015
居民	-10.6015
之际	-10.6015
马琳	-10.6016
鲁尼	-10.6016
▁火箭	-10.6018
研究员	-10.6018
吉林	-10.6019
献	-10.6019
会否	-10.6019
医药	-10.602
回顾	-10.602
也不能	-10.602
所以我	-10.6022
转移	-10.6022
真题	-10.6023
造成的	-10.6027
制造业	-10.6031
为其	-10.6032
从来没有	-10.6033
保密	-10.6035
追捧	-10.6035
日益	-10.6037
这个角色	-10.6039
的看法	-10.6042
高开	-10.6049
’,	-10.6051
等地	-10.6055
的日子	-10.6057
忘记	-10.6058
前后	-10.6062
9%。	-10.6068
的可能	-10.6072
边路	-10.6074
他人	-10.6074
托管	-10.6075
审	-10.6076
大概	-10.6076
动物	-10.6077
人家	-10.6079
问她	-10.6084
SR	-10.6088
维持在	-10.6091
陕西	-10.6093
的目的	-10.6096
害	-10.6099
很强	-10.6099
让你	-10.61
事故	-10.6102
前日	-10.6102
众人	-10.6104
全明星	-10.6106
210	-10.6108
-7	-10.611
问他	-10.6112
第七	-10.6115
公正	-10.6119
虚	-10.6122
访	-10.613
型号	-10.6134
围棋	-10.6138
将由	-10.6139
材	-10.614
第三节	-10.614
1400	-10.6141
稳定的	-10.6144
实用	-10.6145
规定的	-10.6145
邦	-10.6146
寄	-10.6147
苗	-10.6148
信贷	-10.6148
谋	-10.6148
鑫	-10.6148
冲突	-10.6148
砸	-10.6148
Verizon	-10.6148
辉煌	-10.6148
贾静雯	-10.6149
范冰冰	-10.6149
逻辑	-10.6149
莱曼	-10.6149
扩张	-10.615
协调	-10.615
中小	-10.6151
事宜	-10.6151
流程	-10.6152
监管部门	-10.6152
的规定	-10.6152
笑言	-10.6153
SCDMA	-10.6153
封面	-10.6155
跳水	-10.6155
建业	-10.6155
触及	-10.6157
新浪考研	-10.6159
][	-10.6159
西班牙队	-10.616
特意	-10.6164
竞赛	-10.6165
笑称	-10.6167
首节	-10.617
山东队	-10.6171
▁然而	-10.6172
蓝色	-10.6177
的对手	-10.618
的电视剧	-10.6181
房子	-10.6184
赛场上	-10.619
月合约	-10.6193
领域的	-10.6199
延长	-10.6201
国产	-10.6201
象	-10.6209
大片	-10.621
为他	-10.6213
报到	-10.6214
开拍	-10.6216
4.6	-10.622
▁3、	-10.6221
一场比赛	-10.6223
新一轮	-10.6227
的到来	-10.6238
最后时刻	-10.6244
的风格	-10.6247
ol	-10.625
两者	-10.6258
为大家	-10.6258
一年的	-10.6258
拿到了	-10.6261
场内	-10.6263
返	-10.6263
都市	-10.6267
国债	-10.6269
的音乐	-10.6275
爱立信	-10.6275
不高	-10.6278
芯	-10.6281
复旦	-10.6282
柔	-10.6282
隐	-10.6283
群众	-10.6284
羽	-10.6285
邱	-10.6285
瓜迪奥拉	-10.6285
坚决	-10.6285
上投摩根	-10.6285
狼	-10.6285
@	-10.6286
戴维斯	-10.6287
下场	-10.6287
沃尔	-10.6288
选购	-10.6288
的感情	-10.6288
交换	-10.6291
紧密	-10.6291
酒吧	-10.6292
业余	-10.6292
抓住	-10.6294
新疆队	-10.6295
申报	-10.6296
待遇	-10.6299
电力	-10.6299
大幅下跌	-10.6299
笑容	-10.6304
在全国	-10.6305
再现	-10.6306
有多	-10.6306
做题	-10.6308
主任	-10.6313
的做法	-10.6314
片中	-10.6323
中国经济	-10.6323
一组	-10.6328
不怕	-10.6329
爆出	-10.6329
友人	-10.6331
中国学生	-10.6335
对自己	-10.6346
指定	-10.6346
工商	-10.6352
疑问	-10.6358
天下	-10.636
我们将	-10.636
最后一个	-10.6363
也非常	-10.6368
这是一个	-10.6371
坚	-10.6371
03	-10.6372
订单	-10.6373
压制	-10.6377
联系电话	-10.6384
的外观	-10.6384
IP	-10.6385
考研论坛	-10.6398
土	-10.6399
同样是	-10.64
唱歌	-10.6405
择	-10.6405
交手	-10.6407
溢价	-10.6409
很重要	-10.6411
变成了	-10.6412
女足	-10.6414
上方	-10.6415
志愿填报	-10.6416
挂牌	-10.6417
高清视频	-10.6419
480	-10.6421
环境下	-10.6421
开出	-10.6422
珍	-10.6423
穆	-10.6423
紫	-10.6423
授权	-10.6424
别墅	-10.6424
荒	-10.6424
吊	-10.6424
杰拉德	-10.6424
默契	-10.6424
林志玲	-10.6425
摆脱	-10.6425
浏览器	-10.6425
涨势	-10.6425
猛龙	-10.6426
布帅	-10.6426
打好	-10.6429
开播	-10.6429
技能	-10.6429
非法	-10.6429
总数	-10.6431
原装	-10.6432
干部	-10.6432
榨季	-10.6432
较好	-10.6436
方正	-10.6441
的信心	-10.6446
新闻发布会	-10.6449
仍旧	-10.645
到现在	-10.6452
一轮	-10.6458
▁联想	-10.646
北京行情	-10.6461
的整体	-10.6461
收盘价	-10.6462
大卫	-10.6463
SX	-10.6465
两家	-10.6468
俱乐部的	-10.6469
绯闻	-10.6471
商品期货	-10.6473
两个人	-10.6474
婚后	-10.6475
cm	-10.6476
看法	-10.648
投资移民	-10.6481
资产管理	-10.6482
德国队	-10.6482
银华	-10.6484
都没	-10.6484
而对于	-10.649
▁N	-10.6493
抢眼	-10.6493
示	-10.6499
做出了	-10.6501
学期	-10.6502
位居	-10.6504
6.8	-10.6509
莫雷	-10.651
页	-10.652
超过了	-10.6523
年后	-10.6524
7.5	-10.6527
看过	-10.6529
有关负责人	-10.6529
市场对	-10.653
他会	-10.6536
雅思考试	-10.6541
两场比赛	-10.6542
判	-10.6542
企业的	-10.6543
操	-10.6544
畅	-10.6544
责	-10.6545
箱	-10.6547
执	-10.6549
今天的	-10.655
本科生	-10.6553
膜	-10.6554
提高了	-10.6556
孔	-10.6557
歌词	-10.656
一对	-10.6561
办公	-10.6562
担保	-10.6562
侠	-10.6562
紧缩	-10.6563
冲刺	-10.6564
避险	-10.6565
懂得	-10.6565
薛	-10.6565
监测	-10.6565
腹	-10.6565
规格	-10.6566
控卫	-10.6566
巡演	-10.6566
坚定	-10.6566
黄奕	-10.6567
科研	-10.6567
范围内	-10.6568
招商	-10.6568
拍拖	-10.6568
的心理	-10.6571
体制	-10.6571
活力	-10.6572
风波	-10.6572
周围	-10.6572
内衣	-10.6575
新产品	-10.6577
新兴市场	-10.6581
放心	-10.6582
姜文	-10.6582
▁R	-10.6584
4.7	-10.6587
也开始	-10.6589
一直以来	-10.6592
广东队	-10.6594
运气	-10.6594
使用了	-10.6596
下方	-10.6598
买家	-10.66
▁为了	-10.6601
好了	-10.6606
头球	-10.6608
将为	-10.6609
患	-10.6611
一本线	-10.6615
忘	-10.6617
ce	-10.6622
的胜利	-10.6623
的发挥	-10.6624
要在	-10.6632
家乡	-10.6632
不必	-10.6632
国奥队	-10.6637
不在	-10.664
集成	-10.6642
天王	-10.6643
个赛季	-10.6647
农业	-10.6648
走到	-10.6648
签名	-10.6657
管理费	-10.6659
级别	-10.666
已经是	-10.666
地区的	-10.666
委托	-10.6662
东芝	-10.6666
发展的	-10.6666
一句	-10.6669
登上	-10.6672
ter	-10.6673
是非常	-10.6673
改进	-10.6678
的高	-10.6678
要看	-10.6686
的政策	-10.669
学位	-10.6691
响应	-10.6693
辛苦	-10.6694
持平	-10.6698
谱	-10.6699
发言	-10.6702
逃	-10.6704
脸上	-10.6706
诉讼	-10.6707
茨	-10.6707
视觉	-10.6708
阿德尔曼	-10.6708
煤	-10.6708
Lucas	-10.6708
SDHC	-10.6708
乒乓球	-10.6708
领袖	-10.6708
兰德里	-10.6708
熊黛林	-10.6708
温暖	-10.6708
周星驰	-10.6709
补偿	-10.6709
产业链	-10.6709
情人节	-10.6709
补贴	-10.671
开启	-10.671
黑客	-10.6712
▁姚明	-10.6713
套利	-10.6713
考官	-10.6714
右路	-10.6714
火热	-10.6714
解决方案	-10.6714
重复	-10.6716
射手	-10.6717
深度	-10.6718
一切都	-10.6719
就连	-10.672
的前	-10.6724
电影节	-10.6728
读者	-10.6729
相对于	-10.6731
在微博	-10.6733
合适	-10.6735
新型	-10.674
突	-10.6746
在家	-10.6746
铅	-10.6747
上学	-10.6748
位用户	-10.6751
在未来	-10.6753
专用	-10.6755
闷	-10.6756
的表演	-10.6759
场外	-10.6762
4.4	-10.6774
已是	-10.6775
的基金公司	-10.6777
万美元的	-10.6785
少数	-10.6786
华人	-10.6787
高价	-10.679
AP	-10.6796
三十	-10.6803
);	-10.6806
空单	-10.6811
不排除	-10.6812
的方法	-10.6812
说过	-10.6814
缴	-10.6817
意向	-10.6822
▁观望	-10.6822
触摸屏	-10.6824
误	-10.6825
说起	-10.6826
出于	-10.6836
摇	-10.6837
很高	-10.684
放弃了	-10.684
-10	-10.6841
毅	-10.6842
只需	-10.6843
已达	-10.6845
讨	-10.6848
谈及	-10.6849
名师	-10.6851
悦	-10.6851
傻	-10.6852
贤	-10.6852
新西兰	-10.6853
甜蜜	-10.6853
佘诗曼	-10.6853
俐俐	-10.6853
给大家	-10.6853
剩余	-10.6854
▁相关报道	-10.6854
投影机	-10.6854
此番	-10.6855
贝尔	-10.6856
体育馆	-10.6856
额度	-10.6857
回复	-10.6857
江西	-10.6858
绝大多数	-10.686
流感	-10.686
机关	-10.6861
界面	-10.6862
定价	-10.6863
设定	-10.6864
期市	-10.6865
砍下	-10.6866
地表示	-10.6866
收紧	-10.6866
报纸	-10.687
户口	-10.6873
被问到	-10.6877
这将	-10.6877
体力	-10.6878
笔记本电脑	-10.6881
二级市场	-10.6881
汇率	-10.6882
第二天	-10.6882
搬	-10.6886
介绍说	-10.6888
鹏华	-10.6889
首款	-10.6891
潜在	-10.6894
加之	-10.6895
就被	-10.6897
首日	-10.6903
▁黄	-10.6904
总共	-10.6904
手里	-10.6905
市场份额	-10.6908
周年	-10.6912
上篮	-10.6924
我都	-10.6924
上课	-10.6925
惊人	-10.6925
ad	-10.6926
9%,	-10.6928
念	-10.693
带给	-10.6936
这不是	-10.6936
承	-10.6936
表现得	-10.6937
将达到	-10.694
助理	-10.6946
从中	-10.6951
止	-10.6952
体现了	-10.6961
民生银行	-10.6962
新低	-10.6963
邮	-10.6966
呼	-10.6966
三是	-10.6969
出局	-10.6972
卖场	-10.6985
锐	-10.6985
一生	-10.6986
表情	-10.6989
牌照	-10.6991
千元	-10.6991
▁新浪教育	-10.6992
司	-10.6993
5.6	-10.6994
迅	-10.6995
做客	-10.6997
泉	-10.6998
就没有	-10.6998
残	-10.6999
舍	-10.6999
惊讶	-10.6999
途径	-10.7
妹妹	-10.7
郭士强	-10.7
晒	-10.7
渴望	-10.7
诞生	-10.7
餐厅	-10.7
作弊	-10.7001
衡量	-10.7001
极具	-10.7001
男主角	-10.7001
冷静	-10.7003
倍光学变焦镜头	-10.7003
MHz	-10.7004
率领	-10.7005
每日	-10.7005
专利	-10.7006
今年高考	-10.7006
保级	-10.7006
01	-10.701
道理	-10.7011
加试	-10.7011
快门	-10.7011
无需	-10.7012
过渡	-10.7012
什么时候	-10.7015
他对	-10.7016
热线	-10.7016
迎来了	-10.7016
美国队	-10.7017
▁每经记者	-10.7021
节能	-10.7024
不清楚	-10.7025
据统计	-10.7035
球迷们	-10.7039
均有	-10.704
的准备	-10.704
几位	-10.7043
我很	-10.7045
地球	-10.7048
售价为	-10.7051
8.5	-10.7057
也可	-10.706
食品	-10.706
情况来看	-10.7062
般的	-10.7066
在一定程度上	-10.7069
高调	-10.7073
派对	-10.7076
首位	-10.7079
演戏	-10.7083
接连	-10.7084
中国球员	-10.7085
理工	-10.7088
全力	-10.7089
比例为	-10.7091
听说	-10.7092
魅力	-10.7095
不佳	-10.7095
感光度	-10.7097
AT	-10.71
辆	-10.7104
的所有	-10.7104
首席	-10.7108
常规	-10.7108
预选赛	-10.7108
另有	-10.7113
焦	-10.7114
是最	-10.7119
基金产品	-10.7127
会对	-10.7128
网站上	-10.7129
缩	-10.7131
津	-10.7131
每个人	-10.7131
讲述了	-10.7135
国有	-10.7137
标志	-10.7137
戒	-10.7139
瑞典	-10.7144
幕后	-10.7144
今年上半年	-10.7144
烧	-10.7144
吻	-10.7145
的业绩	-10.7147
合法	-10.7148
名学生	-10.7148
胎	-10.7149
拳	-10.7149
丑	-10.7149
劝	-10.7149
奥多姆	-10.7149
读卡器	-10.7149
京东商城	-10.7149
炎	-10.715
颁奖礼	-10.715
虚拟	-10.715
顶尖	-10.715
探讨	-10.715
缴纳	-10.715
窗口	-10.715
江苏卫视	-10.715
亮度	-10.7152
种种	-10.7154
ma	-10.7156
贸易商	-10.7156
改变了	-10.7158
情节	-10.7159
该产品	-10.716
ity	-10.7161
体重	-10.7161
的部分	-10.7163
的增长	-10.7165
很高兴	-10.7166
的形象	-10.7168
1109	-10.7168
有媒体	-10.7168
人文	-10.7173
6.3	-10.7173
▁(+	-10.7174
致电	-10.7174
输了	-10.7174
同事	-10.7174
▁09	-10.7176
配有	-10.7177
不出	-10.7181
次新基金	-10.7184
因为我	-10.7184
提出了	-10.7187
舒	-10.7201
资格的	-10.7202
的反弹	-10.7204
有时候	-10.7205
自动对焦	-10.7206
言论	-10.7207
拉斯	-10.7208
现有	-10.7209
跳投	-10.721
捐	-10.7211
王子	-10.7212
的一次	-10.7212
耗	-10.7214
物流	-10.7222
出版社	-10.7223
PE	-10.7224
上证指数	-10.7226
扑	-10.7233
3.9	-10.7252
上台	-10.7258
盗	-10.726
形成了	-10.726
签署	-10.726
的因素	-10.7264
日进行	-10.7264
▁吴	-10.7265
向下	-10.7268
掌	-10.7271
这对于	-10.7271
情况下	-10.7272
社	-10.7277
第一批	-10.728
很容易	-10.7281
选秀	-10.7284
涨幅为	-10.7288
曝	-10.729
联赛冠军	-10.7291
损	-10.7293
仙	-10.7298
鼎	-10.7299
册	-10.73
旺	-10.73
尤文图斯	-10.73
挖	-10.73
中关村	-10.73
套期保值	-10.73
1/2.3	-10.7301
怒	-10.7301
华尔街	-10.7301
毁	-10.7301
娟	-10.7301
荧屏	-10.7301
▁北京考试报讯	-10.7301
抱怨	-10.7301
蓝牙	-10.7301
祝贺	-10.7301
瑞和远见	-10.7301
马拉多纳	-10.7301
华谊兄弟	-10.7301
物质	-10.7302
验证	-10.7302
大厦	-10.7305
▁w	-10.7306
现任	-10.7307
GPS	-10.7307
神奇	-10.7307
省内	-10.7307
性质	-10.7307
自曝	-10.7308
门票	-10.7308
涨价	-10.7309
她还	-10.731
第三方	-10.7311
逼近	-10.7312
喜爱	-10.7313
不惜	-10.7313
天津队	-10.7315
复合	-10.7316
越来越多	-10.7318
和其他	-10.7319
期指	-10.7321
580	-10.7325
开户	-10.7325
拿着	-10.7332
巨头	-10.7337
的观点	-10.7337
眼下	-10.7338
著名的	-10.7344
中路	-10.7344
公安	-10.7348
混合型基金	-10.7354
中国证监会	-10.7355
但他们	-10.7363
较好的	-10.7363
的经验	-10.7367
而且还	-10.7371
依法	-10.7373
要有	-10.7376
显示出	-10.7376
的担忧	-10.7379
必要	-10.7384
市场预期	-10.7386
的复习	-10.7387
便是	-10.7389
外形	-10.7391
主频	-10.7392
明确表示	-10.7393
同行	-10.7399
全能	-10.74
棉价	-10.7401
大奖	-10.7402
等功能	-10.7408
下周	-10.741
时间里	-10.7412
筹	-10.7415
事后	-10.7417
三天	-10.742
均在	-10.7428
浪	-10.743
9.5	-10.7432
糟糕	-10.7432
床	-10.7438
380	-10.7441
育	-10.7441
给自己	-10.7446
甜	-10.7448
缝	-10.7451
重仓	-10.7452
柳	-10.7453
琴	-10.7454
鸡	-10.7454
席尔瓦	-10.7454
...	-10.7454
同时还	-10.7454
犹豫	-10.7454
我们也	-10.7454
月下旬	-10.7455
指挥	-10.7455
嘛	-10.7455
呆	-10.7455
则在	-10.7455
干扰	-10.7455
16:9	-10.7455
呀	-10.7455
郑棉	-10.7455
导航	-10.7456
联络	-10.7456
农民	-10.7456
张国立	-10.7457
康复	-10.7457
专项	-10.7457
结论	-10.7457
一句话	-10.7457
陈坤	-10.7457
新浪财经	-10.7458
物价	-10.7458
这么多	-10.7458
调节	-10.7459
孙兴	-10.746
日内	-10.7464
进口量	-10.7464
刷新	-10.7465
赛区	-10.7466
索尼爱立信	-10.7466
门前	-10.7466
领衔	-10.7468
红利	-10.7471
直至	-10.7477
威尔	-10.7478
深刻	-10.7478
风云	-10.748
刻意	-10.7486
对市场	-10.7486
采访时	-10.7497
5.2	-10.7498
大批	-10.7498
化工	-10.7499
大成	-10.7507
4.2	-10.7508
但我们	-10.7511
进程	-10.7512
IC	-10.7516
470	-10.7517
各方	-10.752
每桶	-10.7521
解释说	-10.7521
主场迎战	-10.7523
初期	-10.7531
开放式	-10.7534
普通高校	-10.7535
边缘	-10.7543
所院校	-10.7543
▁当	-10.7545
组建	-10.7547
篮	-10.7552
影响到	-10.7561
最重要	-10.7563
超值	-10.7564
4.9	-10.7568
约定	-10.7569
演技	-10.7572
可以看到	-10.7576
的主要原因	-10.7578
希望能够	-10.7579
报收	-10.759
近几年	-10.7592
4500	-10.7595
把自己	-10.7596
想到	-10.7603
媒体的	-10.7604
冰箱	-10.7605
朝鲜	-10.7606
刺	-10.7606
粗	-10.7609
年级	-10.7609
伙	-10.7609
泡	-10.761
感光元件	-10.7611
搜狐	-10.7611
伍兹	-10.7611
亚马逊	-10.7611
文并图	-10.7611
策划	-10.7611
芝加哥	-10.7611
悲观	-10.7611
隐私	-10.7611
犯罪	-10.7611
卓越	-10.7612
耳机	-10.7613
预装	-10.7613
交锋	-10.7613
南非	-10.7613
货币市场基金	-10.7614
基民	-10.7615
相比之下	-10.7615
气息	-10.7616
原料	-10.7617
民间	-10.7617
当场	-10.7619
是对	-10.7619
中午	-10.7619
将以	-10.7619
大力	-10.762
下发	-10.762
我没有	-10.7631
TV	-10.7631
都被	-10.7633
重回	-10.7635
外形尺寸	-10.7636
投资总监	-10.7645
让自己	-10.7646
一把	-10.7648
但对于	-10.7652
非常重要	-10.7652
当选	-10.7653
高手	-10.7655
地理	-10.766
▁如果	-10.7663
可谓是	-10.7667
499	-10.7667
自身的	-10.7672
进入了	-10.7673
送出	-10.7674
栏	-10.7679
国泰	-10.7682
送上	-10.7683
质感	-10.7683
依	-10.7683
区县	-10.7684
摘	-10.7689
▁5.	-10.7695
1101	-10.7695
称号	-10.7695
记者会	-10.7702
以便	-10.7702
开发商	-10.7704
而这	-10.7704
别的	-10.7706
迈	-10.7706
年上半年	-10.771
不行	-10.7716
史上	-10.7719
下的	-10.7726
新机	-10.7727
与其他	-10.7728
所有人	-10.7732
惹	-10.7734
却在	-10.7735
仍未	-10.7737
一时	-10.7739
大学的	-10.774
*	-10.7741
▁问	-10.7743
天然橡胶	-10.7744
灰	-10.7746
将近	-10.7746
全景网	-10.7746
墙	-10.7747
很不错	-10.7747
跌幅为	-10.7749
的对象	-10.7751
的焦点	-10.7756
106	-10.7756
拒	-10.7756
基金份额	-10.7759
女排	-10.7761
万份	-10.7762
哲	-10.7763
▁文章	-10.7765
闲	-10.7768
房间	-10.7769
耶	-10.7769
侯佩岑	-10.7769
路易斯	-10.7769
林宥嘉	-10.777
Google	-10.777
莫拉蒂	-10.777
揭晓	-10.777
车辆	-10.777
混乱	-10.777
天赋	-10.7771
GDP	-10.7771
稳步	-10.7771
1999	-10.7771
热刺	-10.7771
西甲	-10.7771
%	-10.7771
湾	-10.7772
分析人士认为	-10.7772
盗版	-10.7772
宝贝	-10.7772
女演员	-10.7773
原创	-10.7773
超薄	-10.7773
指引	-10.7774
赛程	-10.7775
应用程序	-10.7776
泰达	-10.7776
卫生	-10.7778
助手	-10.7779
期货分析师	-10.7783
已被	-10.7788
▁此次	-10.7788
透过	-10.7791
作战	-10.7792
另一位	-10.7793
的经历	-10.7797
近年	-10.7802
次数	-10.7808
首战	-10.7808
判决	-10.7809
甘蔗	-10.7814
开始了	-10.7815
证券投资基金	-10.7817
塑造	-10.7822
给她	-10.7823
年全国	-10.7825
告知	-10.783
净利润	-10.7831
特地	-10.7833
出众	-10.7834
25%	-10.7836
要比	-10.7839
时间内	-10.7839
不仅是	-10.7839
四强	-10.7844
第二节	-10.7848
报告显示	-10.7851
分布	-10.7852
名考生	-10.7854
圈内	-10.7856
7.4	-10.7861
上传	-10.7863
打新	-10.7866
等多种	-10.787
第十	-10.7871
录取工作	-10.7871
业内人士表示	-10.7874
准备了	-10.7874
am	-10.7875
先发	-10.7877
考试中	-10.7878
日到	-10.7882
看见	-10.7883
证件	-10.7887
出品	-10.7887
被告	-10.7895
以此	-10.7899
状	-10.7899
的心态	-10.79
的资金	-10.7905
郑糖	-10.7908
研究中心	-10.7908
只好	-10.7911
给人	-10.7913
大赞	-10.7915
等问题	-10.7916
相关负责人	-10.7925
润	-10.7925
猜	-10.7927
钢材期货	-10.7929
侵权	-10.793
联邦	-10.793
=	-10.7931
肌肉	-10.7931
海耶斯	-10.7931
干旱	-10.7931
拉莫斯	-10.7931
奋斗	-10.7931
试验	-10.7931
试训	-10.7931
勒布朗	-10.7931
减弱	-10.7931
步行者	-10.7932
艺术特长生	-10.7932
琼斯	-10.7932
缺口	-10.7932
亲密	-10.7932
卫冕冠军	-10.7933
股份有限公司	-10.7933
绝杀	-10.7933
外壳	-10.7934
399	-10.7934
伟大的	-10.7934
应付	-10.7936
礼服	-10.7939
这样一个	-10.7941
胜负	-10.7943
不久前	-10.7944
服务器	-10.7945
抵	-10.7945
没人	-10.7946
却没有	-10.7948
表达了	-10.7948
?“	-10.7951
家用	-10.7952
投中	-10.7952
迎接	-10.7953
志愿者	-10.7953
行程	-10.7956
乃至	-10.7956
难道	-10.7958
较强	-10.796
触摸	-10.796
前三	-10.7961
解答	-10.7962
那时	-10.7964
联赛中	-10.7964
参观	-10.7972
造成了	-10.7976
460	-10.7977
要知道	-10.7978
▁国内	-10.7982
第一场	-10.7986
对决	-10.7988
只新基金	-10.7988
卡片	-10.7989
价差	-10.7989
的具体	-10.7992
比较大	-10.7993
来临	-10.7997
玩具	-10.7998
泪	-10.7998
书写	-10.7998
可以说是	-10.8001
TM	-10.8002
强队	-10.8009
▁自	-10.8013
大屏幕	-10.8014
赶到	-10.8015
世界上	-10.8019
一所	-10.802
拔	-10.8024
业务的	-10.8025
SAT	-10.8026
后再	-10.8026
进而	-10.8028
(6	-10.8033
王刚	-10.8036
法国队	-10.8041
多元	-10.8046
走上	-10.8048
不应该	-10.8049
他和	-10.8051
账	-10.8051
汇添富	-10.8052
时装	-10.8057
年开始	-10.8065
飞机	-10.8065
是我们	-10.8074
的网友	-10.8074
顾客	-10.8075
革命	-10.8084
并表示	-10.8085
循环	-10.8085
擅长	-10.8086
密切	-10.8087
等到	-10.8089
吓	-10.8089
以免	-10.809
柏	-10.8093
技	-10.8093
框	-10.8093
祝	-10.8093
竞技	-10.8093
多人	-10.8094
祥	-10.8094
鱼鱼	-10.8094
自治区	-10.8094
向来	-10.8094
弯	-10.8094
浅	-10.8095
视野	-10.8095
欧盟	-10.8095
埋	-10.8095
醉	-10.8095
亚足联	-10.8095
牺牲	-10.8095
遗产	-10.8095
暑假	-10.8095
钱德勒	-10.8095
以下简称	-10.8095
感叹	-10.8096
省教育厅	-10.8096
助阵	-10.8096
星爷	-10.8096
绿城	-10.8096
热议	-10.8096
装置	-10.8096
体操	-10.8097
马竞	-10.8097
李泽楷	-10.8097
取景	-10.8097
摄影师	-10.8097
总计	-10.8099
随意	-10.8099
体积	-10.8099
中小企业	-10.8101
什么样的	-10.8101
哥哥	-10.8101
阻止	-10.8102
外观设计	-10.8104
MV	-10.8105
定投	-10.8106
麦克	-10.8106
做过	-10.8106
赢球	-10.8106
打工	-10.8106
全体	-10.8109
相处	-10.8109
好在	-10.811
的网络	-10.811
长江	-10.8112
眼中	-10.8113
投档线	-10.8114
更快	-10.8117
调查显示	-10.8117
让大家	-10.812
不喜欢	-10.812
商场	-10.8126
严重的	-10.8128
大致	-10.8133
他已经	-10.8133
唱片公司	-10.8135
期权	-10.8136
是一名	-10.8136
多达	-10.8137
以下是	-10.8137
还款	-10.8143
碰	-10.8149
五大	-10.815
成人	-10.8151
3.8	-10.8154
AV	-10.8155
6.1	-10.8157
意愿	-10.8164
资料显示	-10.8164
亿元人民币	-10.8165
省份	-10.8168
的售价	-10.8171
经济增长	-10.8179
就将	-10.8181
上限	-10.8184
科尔	-10.8184
640	-10.8185
意识到	-10.8186
去做	-10.8194
不管是	-10.8199
线下	-10.82
新书	-10.8201
什	-10.8209
提醒考生	-10.8213
从去年	-10.8213
先进	-10.8216
的歌曲	-10.8218
映	-10.8219
参与了	-10.822
▁Q	-10.8222
型基金	-10.8222
PS	-10.8225
希望大家	-10.8226
音频	-10.8232
作为一个	-10.8232
这家	-10.8239
托福	-10.8246
宏观经济	-10.8249
一直没有	-10.8254
▁参考价	-10.8254
几乎是	-10.8256
十几	-10.8257
汪	-10.8257
铺	-10.8257
驻	-10.8257
玛	-10.8257
夏季	-10.8258
ve	-10.826
壁	-10.8261
玻璃	-10.8261
沙尔克	-10.8261
副总裁	-10.8261
颁奖典礼	-10.8262
伊涅斯塔	-10.8262
陈志云	-10.8262
王治郅	-10.8262
贝克汉姆	-10.8262
驾驶	-10.8262
萎缩	-10.8262
角逐	-10.8262
迈克	-10.8262
孔杰	-10.8263
消失	-10.8263
麦克风	-10.8263
可选	-10.8263
只不过	-10.8264
陈琳	-10.8265
坚强	-10.8265
打扮	-10.8265
阿泰	-10.8265
制造商	-10.8265
答应	-10.8266
圣诞节	-10.8266
做得	-10.8268
球衣	-10.827
标配	-10.8271
小型	-10.8271
开支	-10.8273
的收益率	-10.8275
创出	-10.8276
ot	-10.8281
二十	-10.8283
外国	-10.8283
这就	-10.8294
重心	-10.8297
小朋友	-10.8298
终结	-10.83
▁b	-10.8302
股基	-10.8302
的平均	-10.8305
在一个	-10.8309
la	-10.831
广东省	-10.8311
多项	-10.8311
中小盘	-10.8312
二本	-10.8313
队中	-10.8313
训练中	-10.832
影响了	-10.8321
给力	-10.8322
摄像	-10.8323
投资者对	-10.8325
不少人	-10.833
几个月	-10.8339
阿尔	-10.8344
控股	-10.8344
大哥	-10.8345
单一	-10.8346
不同的是	-10.8347
排名第一	-10.8348
庭	-10.8358
还是要	-10.8369
多媒体	-10.8371
只会	-10.8372
多空	-10.8377
▁由	-10.8377
▁徐	-10.8379
作业	-10.838
在客场	-10.8382
省招办	-10.8385
球门	-10.8386
230	-10.839
原定	-10.8391
趋	-10.8394
瘦	-10.8396
忍	-10.8396
▁值得注意的是	-10.84
牵	-10.8401
实习	-10.8403
正确的	-10.8405
的重点	-10.8406
投资于	-10.8406
德甲	-10.8413
考题	-10.8419
路上	-10.842
▁周	-10.8423
把球	-10.8424
猪	-10.8427
一台	-10.8427
哈尔滨	-10.8428
欣	-10.8429
元左右	-10.8429
爽	-10.8429
妆	-10.8429
旺季	-10.843
示范	-10.843
张庆鹏	-10.8431
侵犯	-10.8431
诱惑	-10.8431
骄傲	-10.8431
法拉利	-10.8431
NVIDIA	-10.8431
茶	-10.8431
燃料油	-10.8432
电子邮件	-10.8432
男士	-10.8433
搞笑	-10.8434
荣誉	-10.8434
计划招生	-10.8434
宾得	-10.8434
领跑	-10.8434
平仓	-10.8434
年纪	-10.8435
豪华	-10.8436
工作的	-10.8438
的计划	-10.8438
流入	-10.8439
同时也是	-10.8444
开工	-10.8446
小布	-10.8446
5.9	-10.8449
和谐	-10.8449
在台湾	-10.8451
哪里	-10.8452
公里	-10.8455
不停	-10.8456
查看	-10.8457
股票仓位	-10.8458
增多	-10.8462
每个人都	-10.8469
入市	-10.8471
我们要	-10.8472
她也	-10.8472
减少了	-10.8472
基金业	-10.8474
图为	-10.8475
▁今天	-10.8479
上市时间	-10.8479
名气	-10.8482
面临着	-10.8483
其后	-10.8484
回国	-10.8485
校区	-10.8487
换上	-10.8488
极大	-10.8493
下降了	-10.8494
位置上	-10.8495
全天	-10.8497
成名	-10.8499
给出了	-10.8501
的客户	-10.8502
看点	-10.8503
进行的	-10.8506
这时	-10.8509
AF	-10.8515
话费	-10.8518
被录取	-10.8523
6.6	-10.8523
过度	-10.8524
阳光私募	-10.8524
的院校	-10.8526
富国	-10.8529
应试	-10.8532
绝对是	-10.8534
有效的	-10.8536
锋线	-10.8537
定期	-10.8539
万元的	-10.8541
告诉我	-10.8542
舒适	-10.8542
破解	-10.8543
大于	-10.8546
▁O	-10.8551
的空间	-10.8555
第三次	-10.8561
月末	-10.8562
▁苹果	-10.8563
北美	-10.8566
递	-10.8568
还可	-10.8571
外地	-10.8571
产生了	-10.8572
基础知识	-10.8576
上次	-10.8576
所得	-10.8577
在拍摄	-10.8579
的历史	-10.8582
态	-10.8583
所谓的	-10.8583
避	-10.8587
all	-10.8587
队内	-10.8589
不懂	-10.8589
第二个	-10.8589
过多	-10.8589
奥林巴斯	-10.859
▁II	-10.8593
其实是	-10.8598
尖	-10.8601
去世	-10.8601
卫冕	-10.8601
挤	-10.8602
仅仅是	-10.8602
狠	-10.8603
症	-10.8603
氏	-10.8603
凸显	-10.8603
彦	-10.8604
毫无疑问	-10.8604
豪宅	-10.8604
渐渐	-10.8604
西游记	-10.8604
劳动	-10.8604
邓肯	-10.8604
严肃	-10.8604
参照	-10.8604
公示	-10.8604
边框	-10.8605
实惠	-10.8605
食物	-10.8605
黑棋	-10.8608
故意	-10.8608
毕比	-10.8608
良机	-10.861
5.7	-10.861
枪手	-10.8611
启用	-10.8612
手机的	-10.8615
能让	-10.862
那就	-10.862
电源	-10.8624
记得	-10.8625
做工	-10.8626
双双	-10.8629
拍电影	-10.8631
后续	-10.8633
官方网站	-10.8636
参与股指期货	-10.8639
万亿	-10.864
得主	-10.8644
本科专业	-10.8645
能够在	-10.8651
颗	-10.8658
每股	-10.8659
称赞	-10.8666
较小	-10.8666
出国留学	-10.8668
的爱情	-10.8669
各项	-10.867
首发阵容	-10.8672
逐	-10.8675
世界排名	-10.8676
▁中考	-10.8679
为期	-10.8683
可达	-10.8684
朋友们	-10.8685
有两个	-10.8687
录取线	-10.8688
成功的	-10.8689
招生办	-10.869
设计的	-10.8692
呈现出	-10.8693
把他	-10.8694
度过	-10.8694
电台	-10.8694
盘面	-10.8696
胆	-10.8698
一看	-10.8698
债券市场	-10.8701
部电影	-10.8703
ation	-10.8705
经典的	-10.8708
老大	-10.8717
各有	-10.872
曾表示	-10.8722
专业学位	-10.8724
向上	-10.8726
的射门	-10.8727
识	-10.8727
排名第	-10.8739
用户可以	-10.8741
研究所	-10.8742
公告称	-10.8744
头发	-10.8749
Pad	-10.8752
分开	-10.8758
最有	-10.876
少了	-10.8762
阅	-10.877
上一次	-10.8772
鸣	-10.8772
页面	-10.8773
秘	-10.8774
迹	-10.8774
左侧	-10.8775
公民	-10.8775
晋	-10.8775
欠	-10.8778
国务院	-10.8779
恨	-10.8779
踩	-10.8779
华宝兴业	-10.8779
eBay	-10.8779
仗	-10.8779
DIGIC	-10.8779
巩俐	-10.8779
死亡	-10.8779
佐	-10.8779
协助	-10.8779
降幅	-10.878
RIM	-10.878
风暴	-10.878
升温	-10.8781
版的	-10.8781
快攻	-10.8781
频率	-10.8781
专题	-10.8783
谈论	-10.8784
不时	-10.8784
左路	-10.8784
穿上	-10.8785
老总	-10.8786
差别	-10.8786
精心	-10.8786
一一	-10.8787
交往	-10.8787
经济复苏	-10.8788
步入	-10.8788
基金公司的	-10.8793
毕业后	-10.8793
合唱	-10.8793
所致	-10.8793
599	-10.8798
控球	-10.8801
的心	-10.8802
LA	-10.8804
保证金	-10.8808
拥	-10.8809
没有人	-10.8811
512	-10.8811
的战术	-10.8812
熊	-10.8813
记住	-10.8819
考频道	-10.882
提名	-10.8821
通话	-10.8822
上阵	-10.8823
对我	-10.8826
特里	-10.8828
消息称	-10.8828
▁受	-10.8832
会出现	-10.8832
的迹象	-10.8834
更高的	-10.8838
上来	-10.8839
不见	-10.8842
罚款	-10.8844
每天都	-10.8846
艺术类专业	-10.885
新基金发行	-10.8852
的意思	-10.8853
学子	-10.8855
▁p	-10.8856
当下	-10.8864
利亚	-10.8865
ee	-10.8865
9.8	-10.8868
意甲	-10.8874
增大	-10.8875
商店	-10.8878
万有效像素	-10.8879
考试科目	-10.888
这部分	-10.8882
是以	-10.8884
缓	-10.8893
换下	-10.8908
ie	-10.891
是否有	-10.8912
的调整	-10.8916
演艺	-10.8919
屋	-10.892
5.0	-10.8921
发帖	-10.8926
征求志愿	-10.8932
华安	-10.8937
头号	-10.8941
中国人	-10.8945
上个月	-10.8946
更衣室	-10.8947
眼球	-10.8949
招生院校	-10.895
酸	-10.8952
磅	-10.8952
对考生	-10.8952
这个时候	-10.8953
文史类	-10.8953
式的	-10.8956
的任务	-10.8957
打响	-10.8957
诺维茨基	-10.8957
上证综指	-10.8957
老鼠仓	-10.8957
孙燕姿	-10.8957
口碑	-10.8958
驰	-10.8958
企稳	-10.8958
组委会	-10.8958
构建	-10.8958
官司	-10.8958
事务	-10.8958
上一场	-10.8958
冬季	-10.8959
奇迹	-10.8959
宽松	-10.8959
陆川	-10.8959
击败了	-10.8959
副总经理	-10.8959
彩排	-10.8959
帮忙	-10.896
的一种	-10.8961
作答	-10.8961
装修	-10.8961
260	-10.8961
物品	-10.8962
背光	-10.8962
推迟	-10.8963
可转债	-10.8963
倒是	-10.8967
后悔	-10.8967
婆婆	-10.8971
红军	-10.8971
长春	-10.8974
出击	-10.8976
万色	-10.898
排队	-10.8981
目前国内	-10.8981
放量	-10.8983
等因素	-10.8983
拆	-10.8983
熟悉的	-10.8987
递交	-10.8988
台北	-10.899
的一大	-10.8991
我自己	-10.8995
的第一个	-10.8996
先行	-10.8999
的基本	-10.9002
掀起	-10.9003
早早	-10.9005
其中有	-10.9008
去年同期	-10.9011
开放式基金	-10.9014
保持着	-10.9018
▁最近	-10.9021
Wi	-10.9025
中卫	-10.9028
海富通	-10.9031
少女	-10.9034
ATI	-10.9039
170	-10.904
监管层	-10.9041
的认可	-10.9042
驱动	-10.9043
▁DDR	-10.9044
网店	-10.9047
丹麦	-10.905
真实的	-10.9057
问题是	-10.9058
又一次	-10.9058
眼镜	-10.9058
大使	-10.9059
说自己	-10.9066
进场	-10.9071
有兴趣	-10.9072
记者采访	-10.9072
▁惠普	-10.9075
变身	-10.9075
的原则	-10.9076
得多	-10.9076
115	-10.9079
防线	-10.908
会议上	-10.908
采用的是	-10.9081
平均分	-10.9082
专业课	-10.9088
热身赛	-10.9089
我对	-10.9091
漂亮的	-10.9092
上报	-10.9099
孩子的	-10.9101
用了	-10.9102
自学考试	-10.9107
纹	-10.9108
希望通过	-10.9108
大关	-10.9108
银河	-10.9109
受欢迎	-10.911
因为在	-10.911
顺序	-10.9111
提起	-10.9113
渐	-10.9116
21.	-10.9116
例子	-10.9118
有一定的	-10.9119
9.9	-10.9119
形容	-10.912
辞	-10.9122
江苏队	-10.9122
关注度	-10.9122
妇	-10.9125
的身影	-10.9126
闪	-10.9128
姓	-10.913
染	-10.9132
涂	-10.9135
对他的	-10.9135
赖	-10.9137
颜	-10.9138
哨	-10.9138
脉	-10.9138
锦	-10.9138
薪水	-10.9138
国联安	-10.9138
忽视	-10.9138
斤	-10.9139
丧	-10.9139
当事人	-10.9139
钻石	-10.9139
博尔特	-10.9139
闪光灯	-10.9139
纪律	-10.9139
基金中	-10.9139
无线网卡	-10.9139
充裕	-10.9139
史玉柱	-10.9139
扩容	-10.9139
温馨	-10.9139
仅次于	-10.914
不受	-10.914
简洁	-10.914
彼此	-10.914
感慨	-10.914
乘坐	-10.914
违反	-10.914
热烈	-10.914
国储	-10.9141
法庭	-10.9141
婚变	-10.9143
公关	-10.9143
个专业	-10.9143
偶像剧	-10.9143
无效	-10.9143
银色	-10.9143
旁边	-10.9146
主题曲	-10.9146
促使	-10.9147
重建	-10.9148
产区	-10.9149
工行	-10.915
房产	-10.9152
过剩	-10.9157
科学家	-10.9158
条款	-10.9158
成立于	-10.9159
的责任	-10.9162
人类	-10.9162
信息化	-10.9166
中华	-10.9171
发力	-10.918
人士表示	-10.9181
播放器	-10.9181
眼前	-10.9183
支出	-10.9183
场馆	-10.9186
身着	-10.9187
再一次	-10.9191
The	-10.9191
两市	-10.9193
周日	-10.9193
历年	-10.9194
5.8	-10.9195
并无	-10.9196
的上涨	-10.9197
的作品	-10.9198
来自于	-10.9199
看重	-10.9201
发布会上	-10.9202
身后	-10.9203
早籼稻	-10.9208
了许多	-10.9208
最后一次	-10.921
预订	-10.9211
的费用	-10.9212
八一	-10.9214
剧集	-10.9214
变更	-10.9219
目前已经	-10.9221
ea	-10.9222
追问	-10.9222
的最后	-10.9226
在第	-10.9229
外出	-10.923
如果没有	-10.9232
壮	-10.9237
移动通信	-10.9239
很小	-10.9242
▁至于	-10.9245
▁m	-10.9253
决赛中	-10.9254
发送	-10.9257
好朋友	-10.926
的青睐	-10.9261
年起	-10.927
力争	-10.9272
引发了	-10.9272
占到	-10.9276
贵州	-10.9277
一杆	-10.9277
三分命中	-10.9277
海洋	-10.928
转入	-10.928
小心	-10.9281
充足	-10.9281
便利	-10.9285
阻	-10.9288
杀手	-10.9294
man	-10.9294
室内	-10.9295
1800	-10.9295
很开心	-10.9295
重仓股	-10.9295
四季度	-10.93
足够的	-10.9302
一号	-10.9303
自家	-10.9306
刷	-10.9309
碟	-10.9309
难得	-10.9312
年轻的	-10.9319
▁新华网	-10.9321
昆	-10.9321
涌	-10.9321
昌	-10.9322
泛	-10.9322
敲	-10.9323
设施	-10.9323
阿里巴巴	-10.9323
窗	-10.9323
增至	-10.9323
垫	-10.9324
辩	-10.9324
ESPN	-10.9324
羡慕	-10.9324
郑中基	-10.9324
山寨	-10.9324
愤怒	-10.9324
激励	-10.9324
科特布斯	-10.9325
头衔	-10.9325
漏洞	-10.9325
惊艳	-10.9325
片酬	-10.9325
迪拜	-10.9325
瑞士	-10.9325
租借	-10.9325
乔丹	-10.9326
陪伴	-10.9326
部署	-10.9326
FIA	-10.9326
尽显	-10.9326
正规	-10.9327
梁洛施	-10.9327
工商银行	-10.9328
旨在	-10.9329
暴涨	-10.9331
不起	-10.9331
收集	-10.9331
觉得自己	-10.9331
安静	-10.9332
应届	-10.9332
报考人数	-10.9333
的应用	-10.9334
奇怪	-10.9336
发生在	-10.934
额外	-10.9342
分钟后	-10.9343
报名参加	-10.9343
1998	-10.9344
FZ	-10.9345
热爱	-10.9345
一级	-10.9349
在日本	-10.935
极其	-10.935
月份以来	-10.935
7.6	-10.9352
学者	-10.9354
的动作	-10.9356
费率	-10.9358
独自	-10.936
这几天	-10.9364
解放	-10.9364
只得	-10.9364
做空	-10.9366
看出	-10.9368
集中在	-10.9369
其在	-10.9369
加大了	-10.9369
每周	-10.9369
的基金经理	-10.9372
ell	-10.9372
最喜欢	-10.9376
CD	-10.9376
基本金属	-10.9377
战胜了	-10.9379
韩国队	-10.9379
这条	-10.938
国家队的	-10.9382
学生在	-10.9384
▁自考	-10.9385
视频网站	-10.9386
轮比赛	-10.9388
作为一款	-10.9388
转让	-10.9391
的精神	-10.9392
上世纪	-10.9392
▁can	-10.9395
违法	-10.9396
浪费	-10.94
笑着说	-10.9401
十二	-10.9402
6.4	-10.9404
数十	-10.9411
纱	-10.9412
参加考试	-10.9416
5.3	-10.9423
而现在	-10.9424
为球队	-10.9429
如果是	-10.9431
这个赛季	-10.9432
真的很	-10.9432
股票型	-10.9433
980	-10.9436
独显	-10.9438
难免	-10.944
中国互联网	-10.9443
流通	-10.9444
碰到	-10.9445
ia	-10.9445
排除	-10.9445
高效	-10.9447
向记者	-10.945
市场价格	-10.9455
给你	-10.9456
广播	-10.9457
对中国	-10.9459
被指	-10.9462
二级	-10.9464
不过他	-10.9469
盈	-10.947
▁赵	-10.9473
捷	-10.948
除非	-10.9482
正常的	-10.9483
全场比赛	-10.9484
--	-10.9485
不过在	-10.9488
万部	-10.9489
的收入	-10.949
经济数据	-10.9492
熊市	-10.9493
8.3	-10.9496
趋于	-10.9499
角球	-10.9501
相差	-10.9502
我们需要	-10.9502
储	-10.9505
亏	-10.9508
貌	-10.9508
函	-10.951
娇	-10.9511
种植	-10.9512
纵	-10.9512
媛	-10.9513
戴琳	-10.9513
拜纳姆	-10.9513
盲目	-10.9513
弟弟	-10.9513
臧天朔	-10.9513
李冰冰	-10.9513
爱尔兰	-10.9513
何润东	-10.9513
膝盖	-10.9513
扫描	-10.9513
杜兰特	-10.9513
TCL	-10.9513
沪铝	-10.9513
挂钩	-10.9514
恶意	-10.9514
丧失	-10.9514
抛储	-10.9514
追究	-10.9514
聘请	-10.9515
布置	-10.9515
展望	-10.9515
开工率	-10.9515
武器	-10.9515
民众	-10.9516
开幕式	-10.9516
树立	-10.9516
气候	-10.9516
阿伦	-10.9516
热闹	-10.9516
案例	-10.9518
也希望	-10.9519
套装	-10.9519
患者	-10.9519
简约	-10.952
拍到	-10.9521
个月的	-10.9521
街头	-10.9522
随机	-10.9522
热卖	-10.9522
清盘	-10.9523
得好	-10.9523
巴西队	-10.9524
存储卡	-10.9527
怎么样	-10.9528
周杰	-10.953
厂家	-10.9532
写道	-10.9534
进度	-10.9535
记者在	-10.9535
尽可能	-10.9537
结构性	-10.9539
男性	-10.9543
日报道	-10.9543
持有的	-10.9544
南下	-10.9545
宏观	-10.9546
书中	-10.9548
并列	-10.9551
制作人	-10.9551
着手	-10.9553
各方面	-10.9559
而非	-10.9559
▁针对	-10.9563
饭店	-10.9564
我们必须	-10.9567
特性	-10.9569
的印象	-10.9572
se	-10.9574
命运	-10.9581
被称为	-10.9583
还是比较	-10.9589
中国选手	-10.959
鲜	-10.9591
第一天	-10.9591
这点	-10.9591
所有人都	-10.9595
轻易	-10.9595
附中	-10.9596
4.8	-10.9601
更改	-10.9603
美元的	-10.9607
长大	-10.9609
▁面对	-10.9609
的地位	-10.961
的经济	-10.961
内的	-10.9617
要把	-10.9618
无人	-10.963
另外一个	-10.9632
也比较	-10.9633
▁re	-10.9634
打动	-10.9636
第一轮	-10.9647
在英国	-10.9651
8.9	-10.9652
或者是	-10.9652
精确	-10.9654
以往的	-10.9654
移民政策	-10.9656
双手	-10.9659
省级	-10.9667
能不能	-10.9669
股票市场	-10.9671
都非常	-10.9671
SE	-10.968
年中国	-10.9681
上升到	-10.9683
的演员	-10.9683
的成功	-10.9684
拉升	-10.9689
妻	-10.9689
前卫	-10.9696
聘	-10.9697
楚	-10.9699
防抖	-10.9699
关口	-10.9703
黎	-10.9703
杂	-10.9703
封闭	-10.9703
颁奖	-10.9704
淡季	-10.9705
休闲	-10.9705
国际足联	-10.9705
不容易	-10.9705
编译	-10.9705
安切洛蒂	-10.9705
全日制	-10.9705
汉密尔顿	-10.9705
森林狼	-10.9705
诠释	-10.9705
决策	-10.9705
恐慌	-10.9705
孙继海	-10.9706
红楼梦	-10.9706
恤	-10.9706
抄底	-10.9706
调侃	-10.9706
专栏	-10.9706
富豪	-10.9706
张学友	-10.9706
功臣	-10.9706
坚挺	-10.9706
横扫	-10.9706
扩招	-10.9706
瑞和小康	-10.9706
疑似	-10.9706
形态	-10.9706
乐趣	-10.9706
菲尔	-10.9707
药品	-10.9707
封盖	-10.9707
ICE	-10.9708
档案	-10.9708
不确定性	-10.9708
共享	-10.9708
举措	-10.9709
业绩表现	-10.971
ll	-10.971
单反相机	-10.971
说了	-10.971
求婚	-10.9711
招标	-10.9712
降级	-10.9712
同比下降	-10.9713
电子书	-10.9714
姓名	-10.9714
咨询电话	-10.9716
内外	-10.9716
高盛	-10.9723
站出来	-10.9723
新政	-10.9724
笔者认为	-10.9725
本节	-10.9729
前辈	-10.9732
▁截至	-10.9733
保证了	-10.9736
4.1	-10.9737
单打	-10.9738
他自己	-10.9739
在自己的	-10.9741
特长	-10.9742
付费	-10.9743
好评	-10.9747
单身	-10.9748
过高	-10.9748
电视节目	-10.9749
着急	-10.9752
负于	-10.9753
所以我们	-10.9754
通用	-10.9756
7.7	-10.9757
而来	-10.9769
发动	-10.977
一次性	-10.977
净值增长率	-10.9773
能量	-10.9776
的心情	-10.9777
日公布	-10.9781
诉	-10.9783
一贯	-10.9784
上游	-10.9789
在接受采访时	-10.979
已在	-10.9791
台上	-10.9792
:2009	-10.9795
前者	-10.9797
的最佳	-10.9799
出席了	-10.9804
的研究	-10.9805
报收于	-10.9813
有传	-10.9814
从小	-10.9818
淘宝网	-10.982
给我们	-10.9821
技术和	-10.9823
配置上	-10.9827
榜单	-10.9832
不及	-10.9832
海外市场	-10.9833
个城市	-10.9835
颇有	-10.9835
的状况	-10.9836
私下	-10.9838
几何	-10.984
商务部	-10.9841
决定了	-10.9841
ry	-10.9843
的传闻	-10.9846
用来	-10.9852
安排在	-10.9855
征集	-10.9857
波士顿	-10.9859
赶上	-10.9862
名模	-10.9862
102	-10.9863
雷诺	-10.9863
笑说	-10.9864
的性格	-10.9867
一日	-10.9869
好多	-10.9869
未经	-10.987
5.1	-10.9879
男孩	-10.9879
我不会	-10.988
普及	-10.9883
议	-10.9885
也为	-10.9885
约会	-10.9885
那天	-10.9886
原理	-10.9886
在赛后	-10.9887
内置了	-10.9888
的利益	-10.9891
eon	-10.9895
巡	-10.9896
的冠军	-10.9896
伏	-10.9897
炫	-10.9898
岸	-10.9898
中海	-10.9898
休斯顿	-10.9898
昊	-10.9898
肥	-10.9898
营业	-10.9899
去年的	-10.99
精英	-10.99
池	-10.99
格外	-10.99
华盛顿	-10.9901
兆	-10.9901
烦恼	-10.9901
大商所	-10.9901
瑞福进取	-10.9901
奥斯卡	-10.9901
的企业	-10.9901
栋	-10.9901
擦	-10.9901
802.11	-10.9901
篮筐	-10.9902
知识产权	-10.9902
招考	-10.9902
检验	-10.9902
占据了	-10.9902
李宗伟	-10.9902
陈慧琳	-10.9902
压缩	-10.9902
完毕	-10.9902
营养	-10.9902
职务	-10.9903
旋转	-10.9903
朱骏	-10.9903
多元化	-10.9904
灵活配置	-10.9904
柯达	-10.9904
亲友	-10.9904
防范	-10.9904
流动	-10.9905
合影	-10.9905
一律	-10.9905
任职	-10.9905
训练营	-10.9906
诺安	-10.9909
比利亚	-10.991
下一步	-10.9913
他们将	-10.9913
老人	-10.9914
万元人民币	-10.9914
真相	-10.9914
注意力	-10.9914
神经	-10.9915
创办	-10.9915
生死	-10.9916
网易	-10.9916
格林	-10.9916
专家建议	-10.9917
假如	-10.9919
观念	-10.9919
一对一	-10.9921
II	-10.9922
30%,	-10.9922
师范大学	-10.9923
晚报	-10.9928
这一切	-10.9934
过往	-10.9936
对自己的	-10.9936
展现出	-10.9939
一战	-10.994
目前已	-10.994
日后	-10.9943
dv	-10.9944
co	-10.9945
不良	-10.9945
清新	-10.9945
保持了	-10.9945
多方	-10.9947
很喜欢	-10.995
情况看	-10.9951
较快	-10.9953
在这一	-10.9954
幸	-10.9955
绝不	-10.9959
平均每	-10.9961
交易量	-10.9967
面临的	-10.9971
ID	-10.9972
遇到了	-10.9977
修正	-10.9978
亿美元的	-10.9979
25-	-10.9981
腾	-10.9982
固定收益	-10.9988
设计师	-10.999
发布公告	-10.9994
一篇	-10.9994
ow	-10.9995
也已	-10.9996
强度	-10.9997
▁通讯员	-10.9997
档期	-10.9999
比较好	-11
ine	-11.0002
胜出	-11.0002
吸	-11.0003
的传球	-11.0006
笔记本采用	-11.0009
6.0	-11.0011
激发	-11.0013
中后卫	-11.0015
在过去	-11.002
的游戏	-11.0022
我们已经	-11.0023
天才	-11.0026
盘整	-11.0029
既有	-11.0032
的考试	-11.0034
鸿	-11.0038
花了	-11.0039
称自己	-11.0045
我们都	-11.0049
禁	-11.0053
天使	-11.0054
曾经在	-11.0054
踏	-11.0054
新剧	-11.0055
是我的	-11.0058
剩下的	-11.0062
倾	-11.0064
排名前	-11.0066
权益	-11.0067
峰会	-11.0068
一方	-11.0069
每一	-11.0071
优选	-11.0078
首选	-11.0078
敬	-11.0079
于震	-11.008
2500	-11.008
等于	-11.0081
▁本周	-11.0084
拍了	-11.0087
第二季度	-11.0088
鸟	-11.0089
袭	-11.009
亿吨	-11.0091
朴	-11.0091
币	-11.0091
仪	-11.0092
鲍	-11.0094
楠	-11.0094
在哪里	-11.0095
传输	-11.0096
外资	-11.0097
开户数	-11.0097
厦门	-11.0097
勾	-11.0097
孤	-11.0098
悲	-11.0098
轰	-11.0099
岳	-11.01
繁	-11.0101
晴	-11.0101
诈骗	-11.0101
灭	-11.0101
裤	-11.0101
剪	-11.0101
薪酬	-11.0101
工银瑞信	-11.0101
物联网	-11.0101
本泽马	-11.0101
盒	-11.0101
休斯敦	-11.0101
陈一冰	-11.0101
°	-11.0102
兼顾	-11.0102
债务危机	-11.0102
▁晨报讯	-11.0102
招生简章	-11.0102
蔓延	-11.0102
汪小菲	-11.0102
林俊杰	-11.0102
蔡康永	-11.0102
韦迪	-11.0102
缓慢	-11.0102
阵营	-11.0102
巨额	-11.0102
为止	-11.0102
波什	-11.0103
夸	-11.0103
一遍	-11.0103
首映	-11.0104
sina	-11.0104
果然	-11.0104
抗跌	-11.0104
翻唱	-11.0105
VIP	-11.0105
依次	-11.0105
潮流	-11.0106
芯片组	-11.0106
值得关注	-11.0106
可通过	-11.0107
公主	-11.0109
禁区内	-11.0109
查处	-11.0111
包装	-11.0111
升水	-11.0111
关键词	-11.0113
救市	-11.0113
前进	-11.0114
句子	-11.0115
定位球	-11.0117
所属	-11.0117
下探	-11.0119
研究报告	-11.012
两只	-11.0121
一般的	-11.0121
一面	-11.0123
ca	-11.0123
▁谷歌	-11.0123
恒大	-11.0124
短暂	-11.0126
广场	-11.013
第一名	-11.0137
这种情况	-11.0137
一下子	-11.0138
海报	-11.0138
指控	-11.014
第一节	-11.0143
积极性	-11.0147
基金发行	-11.0153
还算	-11.0156
年下半年	-11.0156
宽屏	-11.0157
代言人	-11.0159
考试院	-11.0159
二次	-11.0162
具体的	-11.0164
正如	-11.0165
适度	-11.0174
截至目前	-11.0174
打出了	-11.0174
一个是	-11.0175
赛道	-11.0175
▁he	-11.0176
专业考试	-11.0178
都不会	-11.0179
边锋	-11.0184
比起	-11.0186
ion	-11.0188
扑出	-11.0191
主办的	-11.0191
中国市场	-11.0191
输给了	-11.0194
最爱	-11.0196
颁发	-11.0203
只产品	-11.0209
一中	-11.0212
日元	-11.0213
科技大学	-11.0214
扮	-11.0216
主办	-11.0219
分成	-11.0221
关键时刻	-11.0225
都已经	-11.0227
充满了	-11.0228
戏剧	-11.0228
市教委	-11.0229
统	-11.023
在最近	-11.0231
的教练	-11.0233
im	-11.0233
的角度	-11.0239
分和	-11.0239
?”“	-11.024
而他	-11.0242
市教育局	-11.0242
是谁	-11.0243
论文	-11.0243
可以选择	-11.0249
反映了	-11.025
报告中	-11.0251
女孩子	-11.0252
瘾	-11.0256
左脚	-11.0264
研究院	-11.0265
出现的	-11.0266
610	-11.0268
:《	-11.027
没法	-11.0271
的首	-11.0272
极大的	-11.0274
在明年	-11.0275
策	-11.0277
涉及到	-11.0278
6.2	-11.028
身边的	-11.0281
▁Y	-11.0285
9.7	-11.0288
开了	-11.0288
单位净值	-11.0294
就不	-11.0294
影音	-11.0296
市教育考试院	-11.0296
绕	-11.0297
提升了	-11.03
根本不	-11.03
她与	-11.0301
国安队	-11.0302
飘	-11.0303
骑	-11.0303
肯定是	-11.0303
瓜	-11.0303
转债	-11.0304
凉	-11.0304
第八	-11.0305
有限责任公司	-11.0305
密集	-11.0305
孝	-11.0305
甄子丹	-11.0305
追踪	-11.0305
逛	-11.0306
捐赠	-11.0306
湿	-11.0306
挖掘	-11.0306
墨西哥	-11.0306
霞	-11.0306
资质	-11.0306
扔	-11.0306
辅助	-11.0306
TUNGSTAR	-11.0306
愁	-11.0306
李宇春	-11.0306
评审	-11.0307
扎实	-11.0307
营业部	-11.0307
英特尔酷睿	-11.0307
轮胎	-11.0307
答卷	-11.0307
引领	-11.0308
申办	-11.0308
协商	-11.0308
元旦	-11.0308
热销	-11.0308
签字	-11.0308
减轻	-11.0308
套保	-11.031
沙特	-11.0311
原件	-11.0312
克服	-11.0313
三巨头	-11.0313
通胀压力	-11.0313
实质性	-11.0315
分钟内	-11.0315
旁	-11.0316
找回	-11.0318
阶段性	-11.0321
网银	-11.0322
水星	-11.0322
非常出色	-11.0323
自由球员	-11.0324
文艺	-11.0324
世博	-11.0324
▁朱	-11.0327
国内市场	-11.0328
强烈的	-11.0328
留意	-11.0329
更强	-11.033
中国女足	-11.0332
删除	-11.0335
简称	-11.034
后腰	-11.0342
入网	-11.0344
停赛	-11.0345
总成绩	-11.0347
你要	-11.0347
洲	-11.0348
两人在	-11.0348
趣	-11.0352
这张	-11.0354
受益于	-11.0354
的梦想	-11.0354
也只有	-11.0357
还包括	-11.0362
组成的	-11.0365
的力量	-11.0366
博文	-11.0367
中国大学	-11.0369
好处	-11.037
这三	-11.0372
民生	-11.0376
结束募集	-11.0379
增值	-11.038
35%	-11.0382
周六	-11.0384
相关人士	-11.0388
会给	-11.0389
1/4	-11.0391
诸如	-11.0392
新款	-11.0392
史上最	-11.0394
受影响	-11.0394
一阵	-11.0394
偏出	-11.0395
我们还	-11.0396
教室	-11.0397
外部	-11.0397
我喜欢	-11.0398
尽管如此	-11.0403
感兴趣	-11.0406
后果	-11.0407
单纯	-11.0408
的使用	-11.0411
展示了	-11.0412
后场	-11.0412
高尔夫球	-11.0417
199	-11.0419
有很大	-11.042
▁诺基亚	-11.042
报道称	-11.0421
第四季度	-11.0423
买了	-11.0426
已成为	-11.0427
背面	-11.0429
还剩	-11.0429
无关	-11.0431
发生的	-11.0431
头上	-11.0434
加强对	-11.0436
境内	-11.0438
HS	-11.0445
中断	-11.0446
的一切	-11.0447
我还	-11.0447
也无法	-11.0449
未必	-11.0451
记者获悉	-11.0454
庞大	-11.0461
的两个	-11.0461
经纪	-11.0463
接受采访时	-11.0464
目的是	-11.0467
三国	-11.0473
证明自己	-11.0473
为了让	-11.0475
占了	-11.0475
最高分辨率	-11.0478
的一部分	-11.0483
的评价	-11.0485
对她	-11.0488
这首歌	-11.0494
成立以来	-11.0497
万台	-11.0497
融	-11.0498
所需	-11.0499
合约报	-11.0502
方面也	-11.0503
抱着	-11.0504
家公司	-11.0504
兔	-11.0504
坛	-11.0507
力挺	-11.0508
前十	-11.0509
帽	-11.0509
柯	-11.051
但如果	-11.0511
客服	-11.0511
陌生	-11.0512
1210	-11.0513
感染	-11.0513
秩序	-11.0513
婉	-11.0513
狗	-11.0513
劫	-11.0513
赤	-11.0513
博斯克	-11.0513
仿佛	-11.0514
谭	-11.0514
•	-11.0514
盛典	-11.0514
躲	-11.0514
震撼	-11.0514
▁with	-11.0514
斯内德	-11.0514
乳	-11.0514
钢琴	-11.0514
徒弟	-11.0514
抹	-11.0514
辞职	-11.0514
游泳	-11.0515
终止	-11.0515
框架	-11.0515
布莱恩特	-11.0515
勒夫	-11.0515
平板电视	-11.0515
磨合	-11.0515
乐坛	-11.0515
暑期	-11.0515
肖恩	-11.0515
账号	-11.0516
鲜明	-11.0516
刘烨	-11.0516
测算	-11.0516
毒品	-11.0516
课堂	-11.0516
苏伟	-11.0517
将迎来	-11.0517
非洲	-11.0517
暴力	-11.0518
支付宝	-11.0518
类专业	-11.0519
港口	-11.0519
赌王	-11.052
风景	-11.0521
启	-11.0523
度假	-11.0523
对方的	-11.0523
南非世界杯	-11.0525
宣称	-11.0525
的精彩	-11.0526
赢了	-11.0526
午后	-11.0527
推高	-11.0527
学员	-11.0527
关爱	-11.0528
现行	-11.0528
RJ	-11.0529
光学防抖	-11.0531
去看	-11.0531
光大	-11.0532
重现	-11.0532
地下	-11.0534
海尔	-11.0535
商业模式	-11.0541
解约	-11.0543
的配置	-11.0545
部分基金	-11.0546
但随着	-11.0548
将进一步	-11.0548
海德	-11.0548
多年来	-11.0551
臂	-11.0553
PK	-11.0553
要做	-11.0555
房屋	-11.0556
国际化	-11.0557
这笔	-11.0559
被取消	-11.0561
’。”	-11.0562
(8	-11.0562
安全性	-11.0565
个唱	-11.0565
平行志愿	-11.0566
上周末	-11.0568
1300	-11.0571
原文	-11.0571
极端	-11.0572
天天	-11.0577
连得	-11.0577
一记	-11.058
中等	-11.0581
跟进	-11.0581
好男人	-11.0583
所学校	-11.0585
公募	-11.0586
主流的	-11.059
总部	-11.0592
间的	-11.0597
打法	-11.0604
基金会	-11.0604
下一个	-11.0604
他与	-11.0604
记者发现	-11.0607
云计算	-11.0609
是指	-11.0611
机遇	-11.062
液晶	-11.062
9000	-11.0623
▁但是	-11.0629
消除	-11.063
的操作	-11.0634
五个	-11.0636
8%。	-11.0636
8.8	-11.0637
掉了	-11.0645
前不久	-11.0645
给他们	-11.0646
周边	-11.0649
前一天	-11.0651
厉害	-11.0654
际	-11.0657
动画	-11.0663
还得	-11.0668
很想	-11.0668
交出	-11.0669
▁18	-11.067
基准	-11.0672
选出	-11.0673
是中国	-11.0682
实地	-11.0686
计划在	-11.0687
(7	-11.0687
有力	-11.0689
一脚	-11.0693
辽宁队	-11.0702
的服务	-11.0702
非常不错	-11.0704
岁月	-11.0705
的努力	-11.0705
8.7	-11.0709
截	-11.0714
此前的	-11.0715
皇帝	-11.0717
ay	-11.0718
魔	-11.0718
坎	-11.0719
各高校	-11.0721
壳	-11.0721
▁该	-11.0722
浮	-11.0722
废	-11.0723
磨	-11.0724
夹	-11.0725
规避	-11.0725
焦距	-11.0726
泳	-11.0726
蕾	-11.0726
▁Rad	-11.0726
凑	-11.0726
紧随其后	-11.0726
郭晶晶	-11.0726
持股	-11.0726
上有	-11.0726
佛罗伦萨	-11.0726
稻谷	-11.0727
理查德森	-11.0727
斜	-11.0727
这句话	-11.0727
羊	-11.0727
纠纷	-11.0727
工信部	-11.0727
得益于	-11.0727
颠覆	-11.0727
不小	-11.0727
倩	-11.0727
乐基儿	-11.0727
郜林	-11.0727
严峻	-11.0727
的前提下	-11.0727
消耗	-11.0727
今夏	-11.0727
疾病	-11.0728
刊登	-11.0728
人性化	-11.0728
高低	-11.0728
首场	-11.0728
原始	-11.0728
定义	-11.0728
透明	-11.0728
害怕	-11.0728
弟子	-11.0729
阴影	-11.073
亲切	-11.073
先锋	-11.0731
切换	-11.0732
露面	-11.0732
黄磊	-11.0732
销售额	-11.0733
的差距	-11.0733
这是我	-11.0735
请求	-11.0735
石化	-11.0735
7.1	-11.0736
体育报	-11.0736
自购	-11.0736
中国人寿	-11.0738
最强	-11.0738
看似	-11.074
商量	-11.0742
书面	-11.0742
法学	-11.0743
奉献	-11.0745
马云	-11.0745
的真实	-11.0746
首都	-11.0746
GSM	-11.0747
我们就	-11.0749
年轻球员	-11.075
想起	-11.0752
两轮	-11.0753
有多少	-11.0756
Mobile	-11.0757
创维	-11.0759
的视频	-11.0761
但是他	-11.0765
我已经	-11.0768
前四	-11.0768
大门	-11.0774
高性能	-11.0774
两只基金	-11.0775
ant	-11.0775
没办法	-11.0777
能力和	-11.0779
就曾	-11.0784
单曲	-11.0786
成像	-11.0787
据介绍	-11.079
帮助球队	-11.0792
be	-11.0793
来得	-11.0798
的意义	-11.0799
部队	-11.0802
不理想	-11.0804
许可	-11.0806
再到	-11.0806
但仍	-11.0806
+1	-11.0806
的排名	-11.0806
▁HS	-11.0808
一个赛季	-11.081
其实我	-11.0811
基础上	-11.0812
银行卡	-11.0813
上月	-11.0814
枚	-11.0815
价格为	-11.0816
1201	-11.0819
撤	-11.0825
日均线	-11.0826
▁继	-11.0831
一手	-11.0834
的情绪	-11.0834
录取率	-11.0836
见面会	-11.0836
▁美	-11.0838
▁as	-11.0838
打分	-11.0843
文理科	-11.0845
开玩笑	-11.0848
金融市场	-11.0857
地上	-11.0857
并不能	-11.0863
经济发展	-11.0865
名叫	-11.0866
也成为	-11.0866
新华	-11.0868
学生们	-11.0869
过分	-11.0873
上涨了	-11.0874
商用	-11.0876
9.4	-11.0878
但目前	-11.0879
入门	-11.0887
注意到	-11.0892
见过	-11.0892
摄像机	-11.0895
万亿元	-11.0898
神话	-11.09
婆	-11.0904
挡	-11.0906
暴风	-11.0906
到底是	-11.0907
恰恰	-11.091
德比	-11.091
三名	-11.0912
的成本	-11.0913
▁最后	-11.0913
视角	-11.0914
不会有	-11.0916
能有	-11.0916
7.2	-11.0917
连续第	-11.0917
精品	-11.0921
摩	-11.0922
深受	-11.0922
的选手	-11.0922
的各种	-11.0924
拍摄时	-11.0926
晃	-11.0927
初试	-11.0927
张照片	-11.0931
na	-11.0931
▁教育部	-11.0933
投保	-11.0934
在校	-11.0934
谦	-11.0934
默	-11.0936
新兴	-11.0938
罢	-11.0939
天娱	-11.094
出门	-11.0941
莹	-11.0941
布鲁克	-11.0941
择校	-11.0942
钻	-11.0943
未成年人	-11.0944
LLDPE	-11.0944
前段时间	-11.0944
。2008	-11.0944
经理人	-11.0944
阿里纳斯	-11.0944
交银施罗德	-11.0944
晚宴	-11.0944
陈伟霆	-11.0944
谭咏麟	-11.0944
奶奶	-11.0944
捕捉	-11.0944
步骤	-11.0944
烂	-11.0944
操控	-11.0944
少数民族	-11.0945
统计数据	-11.0945
昕	-11.0945
系列的	-11.0945
攻势	-11.0945
搜索引擎	-11.0945
一口气	-11.0945
动荡	-11.0945
画幅	-11.0945
特维斯	-11.0945
常昊	-11.0945
体坛	-11.0945
卡佩罗	-11.0945
鉴定	-11.0945
致命	-11.0946
预算	-11.0946
迟到	-11.0946
公园	-11.0946
童话	-11.0946
敲定	-11.0946
节前	-11.0946
曹格	-11.0946
便捷	-11.0946
代替	-11.0946
主义	-11.0946
赶紧	-11.0946
聚集	-11.0947
7.9	-11.0947
划定	-11.0947
宁波	-11.0948
大师赛	-11.0948
周董	-11.0949
注定	-11.0949
流失	-11.0949
热潮	-11.095
工程师	-11.0951
广电	-11.0951
本质	-11.0951
全景	-11.0951
水货	-11.0952
前途	-11.0953
伴随着	-11.0953
保安	-11.0954
客户端	-11.0955
ost	-11.0955
首届	-11.0955
她是	-11.0955
▁答	-11.0956
某个	-11.0956
的工作人员	-11.0957
在全球	-11.0957
华丽	-11.0958
新兴产业	-11.0958
落幕	-11.0963
汉语	-11.0963
世博会	-11.0964
东京	-11.0964
我市	-11.0965
也同样	-11.0966
风情	-11.0967
信托公司	-11.0967
各校	-11.0968
从容	-11.0971
▁○	-11.0971
体现出	-11.0972
之余	-11.0972
龙头	-11.0973
试用	-11.0974
是很	-11.0976
全美	-11.0978
规	-11.0979
▁全景网	-11.0979
▁四	-11.0981
受到影响	-11.0981
看涨	-11.0982
>>	-11.0983
交易商	-11.0983
所能	-11.0984
招生考试	-11.0987
团结	-11.0989
不像	-11.0989
被媒体	-11.099
较少	-11.099
买进	-11.0992
的唯一	-11.0992
但也	-11.0993
也是一个	-11.0994
归来	-11.0994
全家	-11.0999
录取分数	-11.1
分散	-11.1002
舒服	-11.1007
激	-11.1012
的功能	-11.1012
聚会	-11.1012
并对	-11.1014
偏股基金	-11.1014
放到	-11.1014
伟大	-11.1016
年世界杯	-11.1017
妮可	-11.1018
运输	-11.1019
奖杯	-11.1019
大幅增加	-11.1023
都知道	-11.1023
感人	-11.1024
万名	-11.1024
蓝军	-11.1026
被曝	-11.1031
深证	-11.1038
曾是	-11.1038
的涨幅	-11.1042
▁本场比赛	-11.1042
给孩子	-11.1043
卖家	-11.1043
英格兰队	-11.1044
的行情	-11.1045
人大	-11.1045
新星	-11.1046
不小的	-11.1051
20%。	-11.1054
将进入	-11.1055
黄金期货	-11.1057
我不知道	-11.1062
而且在	-11.1065
项目的	-11.1068
▁do	-11.107
的提升	-11.1072
均价	-11.108
类型的	-11.1083
合作的	-11.1085
▁按照	-11.1088
满了	-11.1088
的命运	-11.1089
6.7	-11.1095
的分数	-11.1096
过去的	-11.1099
署	-11.1101
类似的	-11.1101
一夜	-11.1101
德克	-11.1107
760	-11.1109
也已经	-11.1113
旗下基金	-11.1113
仍处于	-11.1115
10%。	-11.1117
不止	-11.112
我们现在	-11.1121
对口	-11.1124
涵盖	-11.1126
▁Mobile	-11.1136
闯	-11.1138
消费者的	-11.1138
次抢断	-11.1139
太过	-11.1144
奉	-11.1145
时光	-11.1147
上去	-11.1147
大幅度	-11.1147
对冲	-11.1148
的电话	-11.1153
了一下	-11.1153
耐	-11.1154
▁微软	-11.1154
的股权	-11.1157
胖	-11.1157
尝	-11.1157
▁本次	-11.116
荷兰队	-11.1162
兼容	-11.1162
济	-11.1163
全球最大的	-11.1163
辣	-11.1163
变为	-11.1163
硕	-11.1163
折价	-11.1164
朱丽倩	-11.1165
磁	-11.1165
卓	-11.1165
译	-11.1165
产品线	-11.1166
严厉	-11.1166
至关重要	-11.1166
卡马乔	-11.1166
福布斯	-11.1166
张靓颖	-11.1166
Droid	-11.1166
窝	-11.1166
市盈率	-11.1166
年化收益率	-11.1166
模糊	-11.1166
履行	-11.1167
赞助	-11.1167
巍	-11.1167
筹码	-11.1167
苗菲	-11.1167
旺盛	-11.1167
沉稳	-11.1167
预料	-11.1167
中关村在线	-11.1167
详情	-11.1168
垫底	-11.1168
夏雨	-11.1168
经济学	-11.1168
老百姓	-11.1168
康佳	-11.1168
伦敦奥运会	-11.1169
长途	-11.1169
司机	-11.117
希尔	-11.117
首播	-11.1171
开唱	-11.1172
记者了解到	-11.1172
华仔	-11.1172
白棋	-11.1173
硕士学位	-11.1175
台词	-11.1176
韩红	-11.1176
阿布	-11.1176
1010	-11.1177
背景下	-11.1178
的人员	-11.1179
▁6.	-11.118
对学生	-11.118
基站	-11.1181
王晶	-11.1182
老牌	-11.1183
名义	-11.1183
演艺圈	-11.1183
要是	-11.1185
新浪娱乐	-11.1185
这样做	-11.1185
手持	-11.1188
技术统计	-11.1192
独特	-11.1193
遭到了	-11.1198
▁14	-11.1198
干净	-11.1201
户籍	-11.1201
也许是	-11.1202
助理教练	-11.1202
的节奏	-11.1204
赴美	-11.1206
值得注意的是	-11.1207
在近期	-11.1208
【	-11.1208
小贝	-11.1212
队友们	-11.1213
跑赢	-11.1215
转会市场	-11.1216
至此	-11.122
GF	-11.1227
总之	-11.123
的条件	-11.1231
两支球队	-11.1238
体育类	-11.1241
心理学	-11.1243
入门级	-11.1243
本赛季的	-11.1243
申请者	-11.1248
的题目	-11.1248
最终以	-11.1248
是一支	-11.1249
连豆	-11.125
据记者了解	-11.1251
到最后	-11.1252
学分	-11.1252
留给	-11.1257
好奇	-11.1259
资产规模	-11.126
于今年	-11.1261
报告称	-11.1263
高涨	-11.1263
表现出色	-11.1271
执导	-11.1271
被对手	-11.1273
分级	-11.1277
较去年	-11.1277
应该说	-11.1279
再说	-11.1283
▁华硕	-11.1284
考生须	-11.1288
解除	-11.1295
如果他	-11.1295
还原	-11.1299
但其	-11.1299
son	-11.1301
▁随后	-11.1302
114	-11.1304
宴	-11.1308
TX	-11.1308
进去	-11.1308
新作	-11.131
不是很	-11.131
视为	-11.1311
宜	-11.1311
时段	-11.1314
治理	-11.1316
而从	-11.1316
两项	-11.1317
序	-11.1317
280	-11.1319
体育场	-11.132
胜率	-11.1321
采取了	-11.1321
完整的	-11.1324
目光	-11.1325
ey	-11.1327
by	-11.1327
有信心	-11.1327
相机包	-11.1331
中学生	-11.1335
给予了	-11.1337
录取结果	-11.1338
均可	-11.1339
3-1	-11.1341
辈	-11.1342
强劲的	-11.1346
的画面	-11.1346
▁现场	-11.1347
毕业于	-11.135
那场	-11.1352
的价值	-11.1356
使其	-11.1357
目前市场	-11.136
道路	-11.136
104	-11.1361
遗	-11.1369
岗	-11.137
3.5%	-11.137
当红	-11.1371
技术移民	-11.1372
让观众	-11.1372
的样子	-11.1375
烈	-11.1375
在国家队	-11.1376
翼	-11.1377
握	-11.1378
司法	-11.1378
蓝筹	-11.1379
监	-11.1382
外围	-11.1384
露出	-11.1384
很高的	-11.1384
因伤	-11.1386
宿	-11.1386
的一面	-11.1388
操作上	-11.1388
浓	-11.139
-11	-11.1391
扇	-11.1392
改编	-11.1393
锅	-11.1393
逗	-11.1393
扶	-11.1393
臣	-11.1393
通货膨胀	-11.1393
综艺节目	-11.1393
广厦	-11.1393
贫困	-11.1393
许晋亨	-11.1393
奥沙利文	-11.1393
费舍尔	-11.1393
胡雪峰	-11.1393
郭敬明	-11.1393
吴宗宪	-11.1394
遵守	-11.1394
婷	-11.1394
宾馆	-11.1394
珍惜	-11.1394
餐饮	-11.1394
墨菲	-11.1394
隐藏	-11.1394
耍	-11.1394
满文军	-11.1394
加内特	-11.1394
▁外观方面	-11.1394
郑秀文	-11.1394
啥	-11.1394
模样	-11.1394
浓厚	-11.1394
追逐	-11.1394
冯远征	-11.1394
南昌	-11.1395
铅笔	-11.1395
监制	-11.1395
眉	-11.1395
警告	-11.1395
孙祥	-11.1395
精准	-11.1395
港姐	-11.1396
珠宝	-11.1396
感冒	-11.1396
审理	-11.1396
不堪	-11.1397
南勇	-11.1397
分值	-11.1397
宝贵	-11.1397
可能出现	-11.1398
倾向于	-11.1398
招商银行	-11.1398
放宽	-11.1398
综合素质	-11.1398
春季	-11.1398
天翼	-11.1398
延期	-11.1399
险胜	-11.14
ver	-11.14
立案	-11.14
远射	-11.14
居住	-11.1401
人才培养	-11.1401
标志着	-11.1402
找不到	-11.1402
赞成	-11.1402
也好	-11.1403
学制	-11.1403
代价	-11.1403
新娘	-11.1403
红牛	-11.1404
招生办公室	-11.1404
极有可能	-11.1404
候选人	-11.1405
西装	-11.1405
备受关注	-11.1406
奥运冠军	-11.1406
410	-11.1408
温柔	-11.1409
平常	-11.141
到处	-11.141
尽力	-11.1411
首尔	-11.1412
的重要性	-11.1413
势必	-11.1416
院系	-11.1416
警察	-11.1417
两款	-11.1418
杀入	-11.1418
国内期货市场	-11.1418
走红	-11.1419
图案	-11.142
拍完	-11.142
报名时间	-11.142
会被	-11.142
时隔	-11.1422
口语	-11.1422
王女士	-11.1423
负责人表示	-11.1424
ate	-11.1424
咨询会	-11.1428
原糖	-11.143
青海	-11.143
对应	-11.1431
.00	-11.1433
有何	-11.1434
我不是	-11.1435
虚假	-11.1436
中东	-11.1436
重重	-11.1436
导致了	-11.1436
强力	-11.1443
女王	-11.1444
不去	-11.1446
创新高	-11.1447
脚下	-11.1448
▁孙	-11.1448
市场人士	-11.145
美股	-11.145
省市	-11.1455
mo	-11.1456
大增	-11.1462
▁上述	-11.1465
的机型	-11.1467
最后一轮	-11.1468
自己也	-11.147
▁富士	-11.1472
是一部	-11.1475
▁首先	-11.1476
高贵	-11.149
完全是	-11.1492
城区	-11.1492
高水平	-11.1492
片段	-11.1493
and	-11.1496
不一定	-11.1499
不准	-11.1503
混合	-11.1504
DX	-11.1504
上任	-11.1504
也可能	-11.1505
▁OS	-11.1509
收盘报	-11.1511
考试大纲	-11.1511
将通过	-11.1512
好看	-11.1518
报价为	-11.1518
差点	-11.1521
可用	-11.1521
▁值得一提的是	-11.1523
换人	-11.1524
不禁	-11.1524
有线	-11.1525
的贡献	-11.153
自己在	-11.153
事儿	-11.1531
看不到	-11.1532
vs	-11.1536
夺取	-11.1537
de	-11.1538
在韩国	-11.1539
对后市	-11.154
已经超过	-11.154
妮	-11.1543
可以让	-11.1544
如果我	-11.1549
当年的	-11.155
都比较	-11.1554
用心	-11.1556
age	-11.1558
首先要	-11.156
出题	-11.1564
六级	-11.1566
谈起	-11.1567
所在地	-11.1572
飙	-11.1575
ut	-11.1578
里奇	-11.1578
本来就	-11.1581
都会有	-11.1585
桌	-11.1585
同为	-11.1585
工业品	-11.1589
2014	-11.1592
纪	-11.1596
一百	-11.1598
虽然没有	-11.16
伍	-11.1602
诱	-11.1606
完美的	-11.1606
▁U	-11.1606
完全可以	-11.1607
况	-11.1609
手机市场	-11.1611
社交	-11.1612
bo	-11.1613
的时间里	-11.1613
诊	-11.1615
谢谢	-11.1617
婧	-11.1617
多重	-11.1618
的喜爱	-11.1618
开发的	-11.1619
加以	-11.162
危	-11.1621
但是我们	-11.1622
韦	-11.1622
北京教育考试院	-11.1622
屡	-11.1622
佛	-11.1623
奶	-11.1624
菁	-11.1624
雯	-11.1625
碎	-11.1625
薇	-11.1625
堡	-11.1625
一丝	-11.1625
LOF	-11.1626
暨	-11.1626
陈楚生	-11.1626
彬	-11.1626
邻	-11.1626
曾志伟	-11.1626
一分	-11.1626
利比亚	-11.1626
酝酿	-11.1626
疲弱	-11.1626
保监会	-11.1626
鸟巢	-11.1626
婚宴	-11.1626
模块	-11.1626
倍光变	-11.1626
安以轩	-11.1626
羽泉	-11.1627
颖颖	-11.1627
做什么	-11.1627
吸毒	-11.1627
厚度	-11.1627
董洁	-11.1627
的造型	-11.1627
稳固	-11.1627
细致	-11.1628
落榜生	-11.1628
吴尊	-11.1628
主产区	-11.1628
大幅下挫	-11.1628
尺度	-11.1629
实质	-11.1629
立体	-11.1629
杨昊	-11.1629
升值	-11.1629
WCDMA	-11.163
兰州	-11.163
气势	-11.163
叶问	-11.163
第一财经	-11.1631
劳尔	-11.1631
供应商	-11.1632
首发出场	-11.1632
误导	-11.1634
气温	-11.1634
基金投资	-11.1635
通报	-11.1636
2600	-11.1636
世界大赛	-11.1636
小编	-11.1637
上海期货交易所	-11.1638
追加	-11.1638
负面	-11.1638
增发	-11.1638
指纹	-11.1639
的职业	-11.164
FC	-11.1641
眼光	-11.1642
买盘	-11.1642
APS	-11.1644
目前来看	-11.1644
红包	-11.1646
文史	-11.1646
有关规定	-11.1647
就业率	-11.1648
给观众	-11.1649
的明星	-11.1649
很棒	-11.1652
来形容	-11.1653
第二场	-11.1654
拉动	-11.1656
跟他	-11.1656
本年度	-11.166
相关部门	-11.166
快捷	-11.1661
每秒	-11.1661
保存	-11.1662
台下	-11.1664
了近	-11.1665
中邮	-11.1668
优秀学生	-11.1669
一支球队	-11.167
好消息	-11.1673
地铁	-11.1674
日子	-11.1675
的报价	-11.1678
稳定性	-11.1678
建议投资者	-11.1681
TA	-11.1684
先进的	-11.1686
中途	-11.1686
定向	-11.1689
促	-11.1692
节后	-11.1693
富有	-11.1695
中国内地	-11.1701
流出	-11.1708
分级基金	-11.1709
并称	-11.1709
标准的	-11.171
的成长	-11.1713
前夕	-11.1717
的目标是	-11.1719
就是要	-11.1724
新颖	-11.1725
日举行	-11.1725
克斯	-11.1735
节目中	-11.1739
▁谈到	-11.174
▁it	-11.1743
▁V	-11.1745
可以用	-11.1748
天空	-11.1751
ment	-11.1753
▁传	-11.1756
第一位	-11.1757
的数量	-11.1758
打造的	-11.1764
他现在	-11.1764
幻	-11.1766
队医	-11.177
考上	-11.1774
控制在	-11.1774
出行	-11.1777
作文题	-11.1778
▁网友	-11.1779
塑	-11.178
霸	-11.1783
走过	-11.1786
经历过	-11.1788
的父亲	-11.1788
当作	-11.1789
三家	-11.1789
sh	-11.1792
▁LG	-11.1792
月度	-11.1795
长城	-11.1795
从今年	-11.1798
▁昨晚	-11.18
数字电视	-11.18
期货交易所	-11.1804
为您	-11.1804
惨	-11.1806
的阵容	-11.1808
不具备	-11.1812
端子	-11.1814
又将	-11.1817
赠	-11.1818
即便是	-11.182
尺	-11.1822
都已	-11.1823
下课	-11.1823
关注的焦点	-11.1826
不论	-11.1826
喷	-11.1829
强麦	-11.183
俗	-11.1831
增长率	-11.1835
的态势	-11.1836
的方向	-11.1836
西南	-11.1837
我说	-11.1841
原材料	-11.1842
夸张	-11.1843
MA	-11.1844
撑	-11.1844
刚开始	-11.1848
的竞争	-11.1848
的时刻	-11.1849
享受到	-11.1851
转移到	-11.1852
可靠	-11.1853
9.6	-11.1854
7.3	-11.1855
受损	-11.1856
改为	-11.1857
盯	-11.1858
Hz	-11.1858
赏	-11.1859
催	-11.1861
骏	-11.1861
接下来的	-11.1861
伪	-11.1862
攀	-11.1862
高等学校	-11.1863
押	-11.1863
忌	-11.1863
本科三批	-11.1863
井	-11.1863
朵	-11.1863
ight	-11.1863
屈	-11.1864
内蒙古	-11.1864
主创	-11.1864
祭	-11.1864
冻	-11.1864
吐	-11.1864
持卡人	-11.1864
NCAA	-11.1864
阿德里亚诺	-11.1864
王力宏	-11.1864
帧	-11.1864
黄维德	-11.1864
焦虑	-11.1864
Kindle	-11.1864
蛋糕	-11.1864
朱芳雨	-11.1864
每日经济新闻	-11.1864
欧债危机	-11.1864
▁信息时报讯	-11.1864
格里芬	-11.1864
Symbian	-11.1864
Chrome	-11.1864
日早间消息	-11.1864
微距	-11.1864
梁朝伟	-11.1864
田径	-11.1864
埃托奥	-11.1865
尹	-11.1865
惩罚	-11.1865
比利时	-11.1865
兰帕德	-11.1865
谷物	-11.1865
拘留	-11.1865
喜悦	-11.1865
修订	-11.1865
匹配	-11.1865
连连	-11.1865
营造	-11.1865
职责	-11.1865
▁接口方面	-11.1865
新泽西篮网	-11.1865
谢晋	-11.1865
提议	-11.1866
乡村	-11.1866
帕托	-11.1866
分析人士指出	-11.1866
掌声	-11.1866
违约	-11.1867
成交额	-11.1867
麦基	-11.1867
提前批	-11.1867
著称	-11.1867
考区	-11.1867
哲学	-11.1868
线材	-11.1868
酷派	-11.1869
回避	-11.1869
的市场份额	-11.187
通胀预期	-11.187
休斯	-11.1871
穿越	-11.1871
季军	-11.1872
日均	-11.1872
ME	-11.1873
建信	-11.1875
公布的数据显示	-11.1875
北方	-11.1876
力求	-11.1876
旧爱	-11.1877
专心	-11.1878
职业学院	-11.1878
风声	-11.1881
高考状元	-11.1881
注入	-11.1882
的戏份	-11.1884
转投	-11.1886
兴业银行	-11.1887
也需要	-11.1889
八一队	-11.1889
▁GeForce	-11.1889
10%,	-11.189
杨千	-11.189
向好	-11.189
成功率	-11.1895
就已	-11.1895
如今的	-11.1895
快报	-11.1896
排行	-11.19
战平	-11.19
做准备	-11.1901
伴随	-11.1901
该股	-11.1903
中国队在	-11.1903
不同程度的	-11.1905
解决问题	-11.1907
目录	-11.1909
炼	-11.1909
借鉴	-11.1909
国际市场	-11.1911
预赛	-11.1912
原则上	-11.1912
回头	-11.1913
在纽约	-11.1915
已开始	-11.1916
亚太	-11.1918
证券公司	-11.1919
金山	-11.1919
可能在	-11.192
岁生日	-11.1921
大举	-11.1921
接受采访	-11.1922
分球	-11.1922
no	-11.1924
学习成绩	-11.1924
ac	-11.1924
一声	-11.1927
怎样的	-11.193
190	-11.1932
春天	-11.1939
---	-11.194
的理由	-11.1941
▁on	-11.1943
遗憾的是	-11.1944
为准	-11.1949
这使得	-11.1952
拍下	-11.1957
几名	-11.1959
风险控制	-11.196
是目前	-11.1961
召开的	-11.1962
他们也	-11.1965
新任	-11.1968
港元	-11.1968
420	-11.1972
普通高考	-11.1972
的场景	-11.1976
的通知	-11.1976
我能	-11.1976
途	-11.1981
列入	-11.1982
这款笔记本	-11.1983
已经结束	-11.1985
未见	-11.1988
都不是	-11.1988
899	-11.1989
消费类	-11.1991
▁记者从	-11.1993
西方	-11.1994
帅气	-11.1997
即使是	-11.1997
基金销售	-11.1998
首次在	-11.2002
组织的	-11.2003
黑人	-11.2006
表格	-11.2008
却被	-11.2008
当当	-11.2009
外面	-11.201
大地震	-11.2014
一志愿	-11.2018
核对	-11.2018
世界第一	-11.2019
只想	-11.202
很清楚	-11.2023
生子	-11.2025
扮演的	-11.2028
年期	-11.2029
日正式	-11.2031
不希望	-11.2036
的消费者	-11.204
与之	-11.2041
网报	-11.2042
惜	-11.2044
根据自己的	-11.2048
的动力	-11.2049
股市的	-11.205
向媒体	-11.2052
三成	-11.2052
流行的	-11.2053
理想的	-11.2054
1100	-11.2057
在昨天	-11.206
招生政策	-11.2061
其他人	-11.2064
庞	-11.2069
部长	-11.2069
较量	-11.2069
排在第	-11.2071
辅	-11.2073
的高校	-11.2074
▁记者了解到	-11.2075
又要	-11.2075
回到了	-11.2076
就好	-11.2077
基金业绩	-11.2077
有效像素	-11.208
以下为	-11.2082
如果说	-11.2082
0.00	-11.2084
一心	-11.2087
手上	-11.2087
距	-11.2087
第三批	-11.2088
滞	-11.209
受邀	-11.2091
当你	-11.2093
抬	-11.2097
逢	-11.2098
固	-11.2099
意图	-11.2099
什么都	-11.21
见证	-11.2101
闭	-11.2102
手指	-11.2102
贸	-11.2104
搜	-11.2104
纺织	-11.2105
通过网络	-11.2105
蓉	-11.2105
有能力	-11.2105
柜	-11.2106
剂	-11.2107
民办	-11.2107
培	-11.2107
铲	-11.2107
直销	-11.2108
复印件	-11.2108
巴洛特利	-11.2108
疯	-11.2108
歇	-11.2108
饮食	-11.2108
Office	-11.2108
刘嘉玲	-11.2108
公寓	-11.2108
按钮	-11.2108
邓萃雯	-11.2108
刻录光驱	-11.2108
中兴通讯	-11.2108
实验室	-11.2108
魔鬼	-11.2108
引援	-11.2109
亨利	-11.2109
Groupon	-11.2109
客串	-11.2109
王珞丹	-11.2109
削减	-11.2109
全运会	-11.2109
足坛	-11.2109
车祸	-11.2109
歌坛	-11.2109
现在已经	-11.211
银幕	-11.211
副主席	-11.211
硬汉	-11.211
主管部门	-11.211
油厂	-11.2111
印尼	-11.2111
共识	-11.2111
跌势	-11.2111
特长生	-11.2111
MVP	-11.2111
牵手	-11.2112
卢克	-11.2112
祖国	-11.2112
到目前为止	-11.2113
跳舞	-11.2113
翻盘	-11.2113
云集	-11.2114
住了	-11.2114
沉重	-11.2115
收录	-11.2115
相结合	-11.2116
猫王	-11.2116
情形	-11.2117
智利	-11.2117
学籍	-11.2117
贴近	-11.2118
EF	-11.2118
适时	-11.2118
节省	-11.2119
试行	-11.2119
千克	-11.2119
农场	-11.212
病情	-11.2121
设有	-11.2121
流传	-11.2121
初三	-11.2121
高企	-11.2123
张琳	-11.2124
揭开	-11.2125
我们是	-11.2126
一个多月	-11.2126
致敬	-11.2126
升学	-11.2127
有所下降	-11.2127
招行	-11.2128
还有一些	-11.2129
开发者	-11.2131
光学	-11.2131
▁What	-11.2134
有更多	-11.2136
今年我省	-11.2137
上诉	-11.2139
长远	-11.2139
好于	-11.2139
好成绩	-11.214
总规模	-11.2141
替换	-11.2141
报酬	-11.2144
举例	-11.2147
也因此	-11.2147
新能源	-11.2148
找出	-11.2148
第九	-11.2151
塞尔比	-11.2153
向前	-11.2154
元的价格	-11.2156
装扮	-11.2156
节日	-11.2157
光明	-11.2158
不败	-11.2161
看得	-11.2162
太空	-11.2163
万家	-11.2166
半小时	-11.2167
推行	-11.2168
王先生	-11.2168
平台的	-11.2173
▁2007	-11.2177
▁深圳	-11.218
主要是因为	-11.218
▁东芝	-11.2181
▁当天	-11.2183
不宜	-11.2185
分析认为	-11.2186
的身体	-11.2187
生孩子	-11.2187
▁英国	-11.2191
的观众	-11.2193
加里	-11.2194
▁与此同时	-11.2196
自由人	-11.2197
得出	-11.2205
的格局	-11.2209
动感	-11.2212
大前锋	-11.2216
to	-11.2218
战中	-11.2219
有自己的	-11.2225
的加入	-11.2226
我们可以	-11.2226
以前的	-11.2227
中兴	-11.2228
;2	-11.2231
660	-11.2234
或许是	-11.2236
该机的	-11.2237
场胜利	-11.2242
的判断	-11.2242
高画质	-11.2244
本科一批	-11.2245
就是一个	-11.2246
海关	-11.2247
继续保持	-11.2248
便于	-11.2251
刚好	-11.2255
阻力	-11.2256
银行业	-11.2257
甚至是	-11.2257
举行了	-11.2257
的经典	-11.2258
▁前锋	-11.2259
EC	-11.226
红歌	-11.2263
结局	-11.2275
所说的	-11.2276
潜	-11.2276
一个好	-11.2276
不易	-11.2277
万多	-11.2277
PA	-11.2277
▁16	-11.2279
750	-11.228
在广州	-11.2281
比赛开始	-11.2287
前两	-11.2288
新浪网	-11.229
让孩子	-11.229
990	-11.2292
还不能	-11.2299
忍不住	-11.2302
靓丽	-11.2306
▁张柏芝	-11.2306
美棉	-11.2308
ong	-11.2309
PM	-11.2315
几十	-11.2316
地产股	-11.2317
帖	-11.2318
即时	-11.232
我感觉	-11.2322
附近的	-11.2323
起到了	-11.2324
我只是	-11.2324
考生们	-11.2325
析	-11.2326
成人高考	-11.2327
影院	-11.2327
可拍摄	-11.2333
为代表的	-11.2334
定于	-11.2341
到货	-11.2341
典	-11.2346
切实	-11.2348
权利	-11.2349
的理解	-11.2349
音乐人	-11.2349
基德	-11.235
链	-11.235
违	-11.2351
莎	-11.2351
己	-11.2352
萌	-11.2352
场上的	-11.2352
图形	-11.2353
单月	-11.2353
束	-11.2354
铭	-11.2354
奏	-11.2355
耀	-11.2356
奎	-11.2356
q	-11.2357
轴	-11.2358
溜	-11.2358
傲	-11.2358
CBOT	-11.2358
WIFI	-11.2358
华莱士	-11.2358
金球奖	-11.2358
瓦伦西亚	-11.2358
哄	-11.2358
iPod	-11.2358
泄露	-11.2358
安慰	-11.2358
王雅捷	-11.2358
尼尔森	-11.2359
缩减	-11.2359
影帝	-11.2359
罕见	-11.2359
房贷	-11.2359
睡觉	-11.2359
逛街	-11.2359
汇丰	-11.236
乔治	-11.236
险些	-11.236
诚意	-11.236
笔记	-11.236
红魔	-11.236
小区	-11.2361
为基础	-11.2361
江湖	-11.2361
内维尔	-11.2362
装备	-11.2362
清洗	-11.2362
▁台湾	-11.2363
仓单	-11.2363
延伸	-11.2363
相恋	-11.2363
考务	-11.2364
阿曼	-11.2364
显卡	-11.2365
演练	-11.2365
大事	-11.2366
稳重	-11.2366
那时候	-11.2366
唐山	-11.2367
非凡	-11.2367
国际象棋	-11.2368
贴心	-11.2368
无论如何	-11.2368
出示	-11.2368
就是这样	-11.2369
在第四节	-11.2369
会继续	-11.237
当今	-11.2371
港台	-11.2371
Live	-11.2372
健身	-11.2373
会是	-11.2373
世界纪录	-11.2373
现在还	-11.2375
招生单位	-11.2375
会让	-11.2375
加州	-11.2375
属性	-11.2375
430	-11.2376
善于	-11.2376
本周末	-11.2377
钢铁企业	-11.2378
出征	-11.2379
华语	-11.2379
海清	-11.238
ang	-11.2383
常用	-11.2383
创纪录	-11.2383
大比分	-11.2386
许多人	-11.2387
5.4	-11.2389
忙于	-11.2389
黑马	-11.239
离队	-11.239
转战	-11.2391
凭借着	-11.2392
灰色	-11.2395
心思	-11.2397
中端	-11.24
地面	-11.2401
轮换	-11.2401
有一次	-11.2406
然后再	-11.2406
建立了	-11.2407
两度	-11.2408
重点关注	-11.2408
▁曼联	-11.241
倒地	-11.2411
江苏省	-11.2412
天价	-11.2412
除外	-11.2415
种类	-11.2415
连拍	-11.2416
不断地	-11.2416
提到了	-11.2416
分差	-11.2418
发表了	-11.2421
的女儿	-11.2421
的人选	-11.2422
比较高	-11.2422
预录取	-11.2428
还有很多	-11.2428
解题	-11.2429
不动	-11.2434
的优惠	-11.2434
这边	-11.2436
募资	-11.2438
录取时	-11.244
比价	-11.2441
线条	-11.2443
更低	-11.2443
法规	-11.2446
6400	-11.2446
9.3	-11.2447
而不	-11.2448
的愿望	-11.2449
特定	-11.245
接入	-11.2453
春节前	-11.2454
更多地	-11.2455
GS	-11.2456
自然是	-11.2456
所在的	-11.2457
票据	-11.2459
庞大的	-11.2463
强硬	-11.2464
大楼	-11.2465
当月	-11.2469
的感受	-11.247
以至于	-11.247
低谷	-11.2472
要么	-11.2474
记者们	-11.2474
踢得	-11.2474
体育考试	-11.2478
大四	-11.2479
首部	-11.2481
才有	-11.2482
中考论坛	-11.2482
美国人	-11.2484
dea	-11.2492
约占	-11.2492
心得	-11.2492
配置了	-11.2496
伤势	-11.2502
副总	-11.2504
VC	-11.2504
意思	-11.2505
情人	-11.2506
还不错	-11.2506
同台	-11.2509
如同	-11.2509
专业志愿	-11.2513
嫂	-11.2514
就知道	-11.2514
安排了	-11.2515
单边	-11.2518
有人说	-11.2518
上前	-11.2518
出院	-11.2522
已经确定	-11.2523
招生计划为	-11.2526
计入	-11.2528
ard	-11.2528
心目中	-11.2529
社保基金	-11.2531
ive	-11.2532
CF	-11.2535
的女孩	-11.2541
援	-11.2545
主裁判	-11.2546
从此	-11.255
生前	-11.2551
净值增长率为	-11.2554
收到了	-11.2554
完了	-11.2555
▁沪铜	-11.2558
▁·	-11.256
动手	-11.2561
的得分	-11.2562
高考作文	-11.2562
无线电	-11.2563
Fi	-11.2563
昨日下午	-11.2563
在欧洲	-11.2564
竞	-11.2567
将面临	-11.2568
过大	-11.2569
不予	-11.2569
场次	-11.2569
有一天	-11.257
330	-11.2571
副主任	-11.2574
结束前	-11.2576
在那里	-11.2576
颇具	-11.2577
在赛季	-11.2579
开车	-11.2582
动能	-11.2583
察	-11.2583
▁后卫	-11.2584
渝	-11.2585
接力	-11.2586
个篮板和	-11.2588
给出的	-11.2588
验	-11.2588
龄	-11.2588
国际学生	-11.2591
她又	-11.2591
偿	-11.2591
揭	-11.2592
砍	-11.2592
开会	-11.2597
AX	-11.2598
举动	-11.2598
卫星	-11.2599
还说	-11.2601
追平	-11.2601
起点	-11.2604
五一	-11.2606
问及	-11.2606
湘	-11.2607
奔	-11.2607
训	-11.2607
枝	-11.261
贷	-11.261
蝶	-11.261
乙烯	-11.2612
看完	-11.2613
崇	-11.2613
▁Mobil	-11.2613
只需要	-11.2613
张宁益	-11.2613
靓	-11.2614
牙	-11.2614
婚纱	-11.2614
女婿	-11.2614
孙菲菲	-11.2614
越南	-11.2614
搏	-11.2614
狄波拉	-11.2614
纷	-11.2614
纳斯达克	-11.2614
太平洋	-11.2614
fps	-11.2614
廷	-11.2614
每日邮报	-11.2614
周慧敏	-11.2614
魔兽	-11.2614
萧敬腾	-11.2614
林心如	-11.2615
地图	-11.2615
小升初	-11.2615
操纵	-11.2615
摇滚	-11.2615
乔布斯	-11.2615
昏	-11.2615
安德鲁	-11.2615
屡屡	-11.2615
郑嘉颖	-11.2615
未婚夫	-11.2615
虫	-11.2615
舒马赫	-11.2615
垂直	-11.2615
点半	-11.2615
损害	-11.2615
货币型基金	-11.2615
挪威	-11.2615
略显	-11.2615
同胞	-11.2615
越狱	-11.2615
日晚间消息	-11.2615
闪存	-11.2616
包揽	-11.2616
张静初	-11.2616
偶尔	-11.2616
耀眼	-11.2616
顶替	-11.2616
周海滨	-11.2616
宿舍	-11.2616
只是一个	-11.2616
历程	-11.2616
合肥	-11.2616
信用债	-11.2616
丢失	-11.2616
闪电	-11.2616
永久	-11.2616
商家名称	-11.2617
极致	-11.2617
具备了	-11.2617
扭转	-11.2617
爱好者	-11.2617
柏林	-11.2618
密切关注	-11.2618
游客	-11.2618
感兴趣的朋友可以	-11.2618
充当	-11.2619
托尼	-11.2619
停产	-11.262
南宁	-11.262
重申	-11.262
女郎	-11.262
易立	-11.262
提案	-11.2621
生效	-11.2621
贴水	-11.2622
已超过	-11.2622
支招	-11.2622
勇气	-11.2623
法官	-11.2624
推杆	-11.2624
个性化	-11.2624
模式下	-11.2624
指南	-11.2625
国际金价	-11.2625
彰显	-11.2626
军人	-11.2626
在此之前	-11.2626
买断	-11.2626
亿英镑	-11.2627
细则	-11.2628
3200	-11.2628
下一轮	-11.263
推荐商家	-11.263
平板	-11.2631
齐全	-11.2631
增添了	-11.2633
起步	-11.2633
自考办	-11.2633
自杀	-11.2635
五位	-11.2636
着实	-11.2636
整天	-11.2637
效力于	-11.2638
校方	-11.2638
三场比赛	-11.264
370	-11.2644
捧场	-11.2645
场边	-11.2645
强制	-11.2645
简直	-11.2645
行货	-11.2646
1700	-11.2647
通过对	-11.2647
拥抱	-11.2648
的母亲	-11.2651
离去	-11.2652
事先	-11.2654
的道路	-11.2654
换来	-11.2655
的知识	-11.2657
幸好	-11.2658
净值增长	-11.2658
还不够	-11.2658
小时候	-11.266
con	-11.266
CX	-11.2661
用品	-11.2663
一季报	-11.2663
的主题	-11.2664
在片中	-11.2666
那次	-11.2669
较弱	-11.2669
眼泪	-11.2678
制约	-11.2678
带球	-11.268
普通高校招生	-11.2682
左手	-11.2687
四六级	-11.2688
座位	-11.2689
中秋	-11.2691
成人高校	-11.2693
帖子	-11.2699
倒在	-11.2701
的粉丝	-11.2703
带队	-11.2705
整整	-11.2712
一行	-11.2715
day	-11.2715
那样的	-11.2717
的一位	-11.2718
图书	-11.2718
的人气	-11.2718
结果显示	-11.2722
您的	-11.2725
系列赛	-11.2725
原有	-11.2726
批次录取	-11.2727
展现了	-11.2728
生气	-11.2729
一经	-11.2732
又被	-11.2732
一出	-11.2735
优异	-11.2736
便携性	-11.2737
上市以来	-11.2737
很明显	-11.2739
宅	-11.2739
不然	-11.2743
巴西人	-11.2746
▁天津	-11.2746
你可以	-11.2747
end	-11.2748
红牌	-11.2749
超高	-11.2749
应急	-11.275
准备工作	-11.2754
??	-11.2754
中盘	-11.2754
只是在	-11.2755
发现了	-11.2757
8.4	-11.2757
但最终	-11.2759
放开	-11.2761
为之	-11.2763
将增加	-11.2765
最重要的是	-11.2767
▁自从	-11.2767
已经进入	-11.2772
的损失	-11.2773
中介	-11.2773
亚运	-11.2774
义务	-11.2783
增量	-11.2784
照片中	-11.2789
日晚上	-11.2789
123	-11.279
黄金投资	-11.2791
的策略	-11.2792
的镜头	-11.2793
的一项	-11.2794
近两年	-11.2794
忽略	-11.2796
很简单	-11.2796
当他	-11.2796
非常大	-11.2796
攻读	-11.2797
加重	-11.2798
英镑	-11.2799
出自	-11.2801
▁四六级	-11.2801
投资机会	-11.2802
低端	-11.2804
成绩单	-11.2807
一副	-11.2816
▁ThinkPad	-11.2821
中最	-11.2823
时表示	-11.2824
十五	-11.2829
维拉	-11.2832
620	-11.2832
商城	-11.2835
国际教育	-11.2838
发布时间	-11.284
可以获得	-11.2842
涨跌	-11.2847
几家	-11.285
小语种	-11.285
高考录取	-11.2854
变得更	-11.2856
me	-11.2858
强悍	-11.2858
▁其次	-11.2863
”;	-11.2867
对冲基金	-11.2869
1-2	-11.2869
报名点	-11.2871
陷	-11.2873
贬值	-11.2873
好事	-11.2873
旋	-11.2874
串	-11.2874
驾	-11.2874
的妻子	-11.2874
奈	-11.2875
880	-11.2876
姑娘	-11.2876
水泥	-11.2876
盲	-11.2876
墨	-11.2876
深交所	-11.2877
撒	-11.2878
监狱	-11.2878
大郅	-11.2878
古天乐	-11.2878
斯诺克	-11.2878
困惑	-11.2878
欧联杯	-11.2878
巩固	-11.2878
倪萍	-11.2878
靴	-11.2878
陷阱	-11.2878
Super	-11.2878
上期所	-11.2878
Selina	-11.2878
将比分追成	-11.2878
滕	-11.2878
灵魂	-11.2878
沙溢	-11.2878
斥资	-11.2878
惊叹	-11.2878
哦	-11.2878
弗莱彻	-11.2878
▁more	-11.2878
干脆	-11.2878
同性恋	-11.2878
巴拉克	-11.2878
辰	-11.2878
印象深刻	-11.2878
展览	-11.2878
萍	-11.2878
应届毕业生	-11.2878
汤姆	-11.2879
恶搞	-11.2879
丰厚	-11.2879
勇敢	-11.2879
剧烈	-11.2879
液晶显示屏	-11.2879
很正常	-11.2879
万有效像素的	-11.2879
汪洋	-11.2879
拼命	-11.288
熟知	-11.288
刘炜	-11.288
犹如	-11.288
推测	-11.288
形象大使	-11.2881
哪怕	-11.2881
进驻	-11.2881
负面影响	-11.2881
冲刺阶段	-11.2881
▁are	-11.2881
语言学	-11.2882
侧面	-11.2882
日凌晨消息	-11.2882
转播	-11.2882
联系地址	-11.2883
第三轮	-11.2883
领涨	-11.2884
老基金	-11.2884
这笔交易	-11.2884
推理	-11.2886
合照	-11.2886
▁>>	-11.2887
主力阵容	-11.2887
友情	-11.2887
情景	-11.2888
知名度	-11.2888
金钱	-11.2888
收涨	-11.2889
来到了	-11.2889
晚间	-11.289
显得有些	-11.289
决战	-11.289
8.1	-11.289
蓝筹股	-11.2893
小幅上涨	-11.2894
入住	-11.2894
女歌手	-11.2895
建行	-11.2896
反弹行情	-11.2896
长假	-11.2896
贡献了	-11.2896
胶价	-11.2898
深情	-11.2898
订婚	-11.29
热拍	-11.2901
看空	-11.2902
手机上网	-11.2904
我还是	-11.2904
IPS	-11.2904
有许多	-11.2905
开打	-11.2906
快女	-11.2906
破产	-11.2908
类似于	-11.2908
低廉	-11.2908
阻挡	-11.2911
对不起	-11.2911
第三者	-11.2911
场合	-11.2912
也正是	-11.2913
每一次	-11.2913
只股票	-11.2916
截止到	-11.2917
拿球	-11.2917
在过去的	-11.2918
逐年	-11.2918
的份额	-11.2921
内托	-11.2922
连线	-11.2923
的图片	-11.2925
一群	-11.2928
FX	-11.293
董事	-11.2934
可能性	-11.2934
间接	-11.2935
却不	-11.2937
即将开始	-11.2938
正版	-11.2939
四位	-11.2939
文明	-11.2942
丝毫	-11.2945
发达	-11.2945
分别在	-11.2947
联赛的	-11.2951
在第一时间	-11.2956
▁-1.	-11.296
2800	-11.2962
将比分	-11.2963
▁总分	-11.2965
可获得	-11.2968
常见的	-11.2968
戴着	-11.297
发球	-11.2971
Ch	-11.2971
完全没有	-11.2972
3500	-11.2973
师生	-11.2978
同时表示	-11.2979
马刺队	-11.298
则说	-11.2984
非常有	-11.2988
之初	-11.2988
议论	-11.2989
得不到	-11.2993
0.5%	-11.2995
会把	-11.2996
之情	-11.2996
重新回到	-11.2999
期内	-11.3001
而据	-11.3009
——“	-11.301
时就	-11.3012
一开始就	-11.3015
这是他	-11.3015
用户在	-11.3016
此款	-11.3018
转发	-11.3023
查分	-11.3032
来看看	-11.3033
的商业	-11.3033
个三分球	-11.3034
送到	-11.3036
需求量	-11.3036
大宗商品价格	-11.3036
一再	-11.3041
这首	-11.3043
▁发自	-11.3045
通知书	-11.3045
多久	-11.3046
50%。	-11.3047
被判	-11.3049
不应	-11.3051
东吴	-11.3053
更能	-11.3058
的另一个	-11.3063
就把	-11.3069
打过	-11.307
7.0	-11.3071
降低了	-11.3072
▁篮网	-11.3073
几款	-11.3073
无比	-11.3076
的另一	-11.3076
Mo	-11.3079
对未来	-11.308
FP	-11.308
仍需	-11.3083
ook	-11.3088
予	-11.3088
▁we	-11.3089
并不会	-11.3091
融通	-11.3094
的实际	-11.3094
ome	-11.3095
8.6	-11.3095
事业部	-11.3096
充	-11.3097
不允许	-11.3097
将根据	-11.3098
高考生	-11.3099
在下半场	-11.31
暴露	-11.3102
中饰演	-11.3104
月开始	-11.3104
金鹰	-11.3107
两类	-11.3109
还需	-11.3109
分公司	-11.3109
三周	-11.311
域	-11.3113
委员	-11.3113
柏芝	-11.3114
390	-11.3114
MC	-11.3117
类院校	-11.3118
看多	-11.3118
的队员	-11.3119
出货	-11.3119
技术上	-11.3123
960	-11.3125
第二位	-11.3127
宣	-11.3127
非常高	-11.3128
概	-11.313
养老	-11.3133
的良好	-11.3135
六成	-11.3135
经过了	-11.3135
头寸	-11.3136
据说	-11.3137
▁7.	-11.3137
飞人	-11.3138
但是我	-11.3138
FR	-11.3139
爷	-11.3143
柱	-11.3144
堵	-11.3144
巡回	-11.3145
有足够的	-11.3145
浦	-11.3145
怨	-11.3146
缠	-11.3147
柴	-11.3147
背诵	-11.3147
萧	-11.3147
府	-11.3147
琪	-11.3147
▁4、	-11.3147
御	-11.3147
非诚勿扰	-11.3147
众所周知	-11.3147
疏	-11.3147
勋	-11.3147
教训	-11.3147
珊	-11.3148
昭	-11.3148
瑟	-11.3148
日太平洋电脑网	-11.3148
1366×768	-11.3148
富国天丰	-11.3148
悬疑	-11.3148
揭秘	-11.3148
1920×1080	-11.3148
轩	-11.3148
倪震	-11.3148
首席执行官	-11.3148
巴恩斯	-11.3148
虐	-11.3148
▁about	-11.3148
阿尔维斯	-11.3148
Micro	-11.3148
碧	-11.3148
巴丁格	-11.3148
中华台北	-11.3148
#	-11.3148
隐患	-11.3148
姿态	-11.3148
阿里汉	-11.3148
震惊	-11.3148
羽毛球	-11.3148
宣告	-11.3149
抗议	-11.3149
基金新增开户数	-11.3149
张涵予	-11.3149
印刷	-11.3149
订购	-11.3149
悉尼	-11.3149
成交均价	-11.3149
弗兰克	-11.3149
复核	-11.3149
睢冉	-11.3149
Baby	-11.3149
斯基	-11.3149
叶童	-11.315
访谈	-11.315
积分榜	-11.315
服饰	-11.315
它是	-11.315
秘书长	-11.315
欲望	-11.315
谢赫	-11.315
短时间内	-11.315
此役	-11.3151
谈恋爱	-11.3151
献唱	-11.3151
较去年同期	-11.3152
急需	-11.3152
恶化	-11.3153
风采	-11.3153
季节性	-11.3153
动向	-11.3153
基层	-11.3154
行列	-11.3154
跑步	-11.3154
探班	-11.3155
花园	-11.3155
接待	-11.3155
地域	-11.3156
对比度	-11.3157
答复	-11.3157
被问及	-11.3157
商标	-11.3157
培训班	-11.3157
内幕	-11.3157
白领	-11.3158
显示器	-11.3159
三分之一	-11.3159
走弱	-11.316
迫使	-11.3161
舞台上	-11.3161
小幅下跌	-11.3161
带到	-11.3162
着重	-11.3163
八强	-11.3163
火山	-11.3165
双重	-11.3165
冠军杯	-11.3166
演讲	-11.3166
ta	-11.3167
法语	-11.3167
抢先	-11.3168
这部戏	-11.3168
斯坦	-11.3169
破发	-11.3169
里皮	-11.317
投篮命中率	-11.3171
可观	-11.3171
弱点	-11.3171
大幅下降	-11.3172
的性能	-11.3173
灾害	-11.3174
ud	-11.3174
投资策略	-11.3176
今天上午	-11.3176
感受到	-11.3177
HK	-11.3177
本色	-11.3178
一味	-11.3179
附加	-11.3182
总数的	-11.3183
昨天上午	-11.3185
细分	-11.3186
▁这是	-11.3188
在这种情况下	-11.3188
安心	-11.3189
确实是	-11.319
考生及家长	-11.3191
850	-11.3191
国泰基金	-11.3192
东家	-11.3193
这么做	-11.3194
港股	-11.32
首只	-11.3205
这时候	-11.3205
之作	-11.3205
停牌	-11.3205
在今天	-11.3206
盘点	-11.321
打到	-11.3213
最受	-11.3213
比较多	-11.3214
可比	-11.3217
全国各地	-11.3221
大屏	-11.3223
据知	-11.3224
为他们	-11.3226
河北省	-11.3229
我不想	-11.3231
夜店	-11.3233
▁广东	-11.3233
就不会	-11.3234
存在着	-11.3235
和解	-11.3238
拒绝了	-11.3239
实际情况	-11.3239
中投	-11.3239
的时代	-11.324
的舞台	-11.3241
RB	-11.3244
要求考生	-11.3244
德文	-11.3245
如果有	-11.3245
▁J	-11.3246
提出的	-11.3247
个月内	-11.3251
首场比赛	-11.3252
自如	-11.3261
在这次	-11.3262
公开赛	-11.3264
万人民币	-11.3265
网下	-11.3266
日收盘	-11.3266
成长性	-11.3276
对此事	-11.3277
288	-11.3278
▁摩托罗拉	-11.3278
完全不同	-11.3279
数据统计	-11.3281
锁	-11.3281
反映出	-11.3288
个国家	-11.3292
一首	-11.3294
数百	-11.3296
正在进行	-11.3296
中国大陆	-11.3297
冲击力	-11.33
▁配置方面	-11.3301
激烈的	-11.3301
得起	-11.3302
最少	-11.3302
的概念	-11.3312
维斯	-11.3313
3100	-11.3314
新赛季的	-11.3314
期铜	-11.3315
适用	-11.3315
商学院	-11.3315
国青	-11.3316
转会费	-11.3317
又会	-11.3318
对应的	-11.332
在上周	-11.3323
▁our	-11.3326
ance	-11.3327
播出的	-11.3329
薪	-11.3333
所以在	-11.3333
尤其是在	-11.3335
大将	-11.3337
清晰的	-11.3338
各省	-11.3338
一脸	-11.3339
惊人的	-11.334
管理部门	-11.3342
后才	-11.3342
赛中	-11.3345
古装	-11.3347
ous	-11.3349
兑	-11.3351
错过了	-11.3352
中超联赛	-11.3355
正处于	-11.3355
央票	-11.3362
接应	-11.3362
调整后	-11.3362
▁2.0	-11.3364
不明	-11.3365
接拍	-11.337
迫	-11.3371
将会在	-11.3375
获得过	-11.3377
2013	-11.3377
他曾	-11.3378
始	-11.338
市场需求	-11.3381
遭遇了	-11.3385
均是	-11.3385
并于	-11.3387
两地	-11.3387
京东	-11.339
在场边	-11.339
▁He	-11.3396
的战绩	-11.3396
各家	-11.3396
音乐会	-11.3401
老师说	-11.3401
▁e	-11.3403
保持在	-11.3404
活动中	-11.3404
娘	-11.3404
人事	-11.3405
人工	-11.3408
民营	-11.3409
▁关于	-11.3409
被打	-11.3412
堆	-11.3415
媒	-11.3415
很多人都	-11.3416
但对	-11.3416
趁	-11.3418
为她	-11.3418
纽	-11.3419
也认为	-11.3421
的错误	-11.3422
芬	-11.3423
荡	-11.3423
并支持	-11.3424
亡	-11.3424
瓶	-11.3424
挣	-11.3425
恐惧	-11.3425
霍启刚	-11.3425
斑	-11.3425
帐	-11.3426
求职	-11.3426
公安机关	-11.3426
肩膀	-11.3426
国际能源署	-11.3426
▁徕卡	-11.3426
专升本	-11.3426
受此影响	-11.3426
史蒂夫	-11.3426
迭戈	-11.3426
曼奇尼	-11.3426
疲劳	-11.3426
惯例	-11.3426
碗	-11.3426
贪	-11.3426
▁010-82	-11.3426
严禁	-11.3426
张纪中	-11.3426
竹	-11.3426
韦斯特	-11.3426
懒	-11.3426
止损	-11.3426
种植面积	-11.3426
佩德罗	-11.3426
pvc	-11.3426
企业年金	-11.3426
欠缺	-11.3426
诊断	-11.3427
清洁套装	-11.3427
跳绳	-11.3427
殷桃	-11.3427
承办	-11.3427
东方卫视	-11.3427
珍贵	-11.3427
赞助商	-11.3427
冒险	-11.3427
嘉伯	-11.3427
投研	-11.3427
自嘲	-11.3427
包夹	-11.3428
熟练	-11.3428
斗志	-11.3428
快门速度	-11.3428
相识	-11.3428
达成协议	-11.3428
天津泰达	-11.3428
执黑	-11.3428
欢乐	-11.3429
见习记者	-11.3429
恰好	-11.3429
名誉	-11.343
薪金	-11.343
一定是	-11.343
担当	-11.343
辅导班	-11.343
埃尔	-11.3431
在内线	-11.3432
这些都是	-11.3432
终身	-11.3432
对我来说	-11.3432
远程	-11.3433
阿帅	-11.3433
影星	-11.3433
欧洲央行	-11.3434
美国农业部	-11.3434
交代	-11.3435
十字	-11.3436
联动	-11.3436
子弹	-11.3436
our	-11.3436
的作文	-11.3437
曲线	-11.3437
桌面	-11.3437
男星	-11.3437
只剩下	-11.3438
并列第	-11.3439
自动化	-11.344
工业大学	-11.3441
汇报	-11.3441
深厚	-11.3442
国内期市	-11.3442
被认为是	-11.3445
一对多产品	-11.3445
ers	-11.3446
楼市	-11.3446
回放	-11.3449
授予	-11.3449
他们都	-11.345
很满意	-11.3452
博时基金	-11.3452
高额	-11.3453
所带来的	-11.3454
金色	-11.3456
生活费	-11.3456
衍生品	-11.3456
等都	-11.3456
归队	-11.3457
进入考场	-11.3457
一头	-11.3459
现状	-11.346
偏高	-11.3461
继续上涨	-11.3463
▁第二节	-11.3464
是她	-11.3465
女单	-11.3465
条例	-11.3465
很显然	-11.3465
功力	-11.3466
超强	-11.3467
途中	-11.3467
转而	-11.3467
其次是	-11.3468
个考点	-11.3469
可实现	-11.3469
正是因为	-11.347
我可以	-11.347
我真的	-11.3471
▁HTC	-11.3473
他透露	-11.3474
有一点	-11.3476
1994	-11.3477
也十分	-11.3478
前列	-11.348
美国经济	-11.3482
主将	-11.3485
风雨	-11.3485
满意的	-11.3489
服从	-11.349
必将	-11.3491
卡拉	-11.3492
收高	-11.3494
那位	-11.3494
ha	-11.3495
将进行	-11.3498
新媒体	-11.3498
RM	-11.3499
选中	-11.3502
为由	-11.3502
改造	-11.3509
>>>	-11.351
工人	-11.3512
的回答	-11.3512
元老	-11.3513
128	-11.3514
被拍到	-11.3514
中长期	-11.3514
第二批	-11.3515
的人数	-11.3515
过关	-11.3516
这批	-11.3518
出面	-11.3519
da	-11.352
Touch	-11.3522
▁(2)	-11.3523
▁St	-11.3525
因为我们	-11.3526
在接受记者采访时	-11.3529
可爱的	-11.3529
实习记者	-11.3532
net	-11.3532
▁Mark	-11.3536
要多	-11.3537
▁In	-11.3539
▁x	-11.3539
一方面是	-11.354
借此	-11.3543
解决了	-11.3545
po	-11.3545
投进	-11.3545
有必要	-11.3549
帝	-11.355
▁第三	-11.355
本科录取	-11.3553
的办法	-11.3553
百年	-11.3554
先前	-11.3554
提高到	-11.3557
因为他们	-11.3562
午	-11.3562
大宗商品市场	-11.3566
动用	-11.3567
影视剧	-11.3571
的强势	-11.3573
混合基金	-11.3577
不说	-11.3578
任何人	-11.3581
有些人	-11.3581
基金持有人	-11.3586
等着	-11.359
ide	-11.3591
的理念	-11.3591
个进球	-11.3593
下达	-11.3598
205	-11.36
笑着	-11.3601
文书	-11.3601
杨光	-11.3602
军团	-11.3602
▁就在	-11.3602
明朗	-11.3603
上升至	-11.3603
不符合	-11.3603
的难度	-11.3605
om	-11.361
发自	-11.3611
那场比赛	-11.3615
有哪些	-11.3615
高仓位	-11.3615
高性价比	-11.3616
前提	-11.3618
▁而在	-11.3624
日语	-11.3624
中信	-11.3625
动人	-11.3625
以外的	-11.3626
很久	-11.3627
ther	-11.3639
1.5%	-11.364
上演了	-11.3641
能得到	-11.3648
让对手	-11.3652
更重要	-11.3654
正赛	-11.3654
能获得	-11.3659
黄牌	-11.3663
之势	-11.3667
证实了	-11.3668
▁证监会	-11.3668
唯	-11.3668
知道自己	-11.3669
入球	-11.3669
长盛基金	-11.367
级别的	-11.3673
拍出	-11.3675
16%	-11.3675
宾	-11.3676
裁	-11.3677
我跟	-11.3678
季节	-11.3678
权重	-11.3679
该指数	-11.3682
不减	-11.3685
针对性	-11.3685
择优录取	-11.369
BC	-11.369
万个	-11.3692
一直都	-11.3694
漫长	-11.3694
伦铜	-11.3695
对我们	-11.3698
令她	-11.37
球馆	-11.3703
逆	-11.3703
299	-11.3704
投资组合	-11.3706
不做	-11.3706
ore	-11.3708
象征	-11.3709
会场	-11.3709
叹	-11.3709
est	-11.3709
创始人	-11.371
绘	-11.371
牧	-11.371
不再是	-11.371
殷铁生	-11.3711
炸	-11.3711
巾	-11.3711
拟任基金经理	-11.3711
立陶宛	-11.3711
定期存款	-11.3711
侯耀文	-11.3711
蛮	-11.3711
埃弗顿	-11.3711
桂	-11.3711
哀	-11.3711
宵	-11.3711
慎重	-11.3711
阿德巴约	-11.3711
梳理	-11.3711
库伊特	-11.3711
马布里	-11.3711
布拉德	-11.3711
绍	-11.3712
饶	-11.3712
郁闷	-11.3712
帕切科	-11.3712
幼儿园	-11.3712
李昌镐	-11.3712
从业人员	-11.3712
WiFi	-11.3712
较上一交易日	-11.3712
遏制	-11.3712
东南亚	-11.3712
增产	-11.3712
塞萨尔	-11.3712
一会儿	-11.3712
出人意料	-11.3712
兑现	-11.3712
采访时表示	-11.3713
还好	-11.3713
抽签	-11.3713
搞怪	-11.3713
农民工	-11.3713
参展	-11.3713
缩短	-11.3713
落泪	-11.3713
认知	-11.3713
约合人民币	-11.3714
复试分数线	-11.3714
申请材料	-11.3714
装饰	-11.3714
知情人士透露	-11.3715
▁(1)	-11.3716
波兰	-11.3716
时间安排	-11.3716
余额	-11.3716
专注于	-11.3716
苏州	-11.3716
替补出场	-11.3716
配音	-11.3717
妇女	-11.3717
交投	-11.3717
富通	-11.3717
求证	-11.3718
杀青	-11.3718
镜面	-11.3718
同庆	-11.3719
言语	-11.3719
李湘	-11.372
此项	-11.372
奖牌	-11.3721
美食	-11.3721
巴里	-11.3721
一座	-11.3722
苹果公司	-11.3722
出路	-11.3723
据台湾媒体报道	-11.3723
外籍	-11.3724
线索	-11.3724
复查	-11.3724
智力	-11.3725
米雪	-11.3725
欧洲杯	-11.3725
不忘	-11.3726
VR	-11.3726
已经有了	-11.3726
源于	-11.3727
UT	-11.3727
深深	-11.3727
专户理财	-11.373
侧重	-11.373
CDC	-11.3731
心愿	-11.3732
清单	-11.3733
分量	-11.3733
累积	-11.3734
空白	-11.3734
掌控	-11.3737
特有的	-11.3737
达不到	-11.3739
靠近	-11.374
精美	-11.374
想过	-11.3741
进行调整	-11.3742
忙着	-11.3742
把握住	-11.3742
急于	-11.3744
主攻	-11.3745
的调查	-11.3746
亲身	-11.3746
限定	-11.3747
卷入	-11.3747
工作室	-11.3748
总局	-11.3748
不介意	-11.375
的队伍	-11.375
客场挑战	-11.3753
反转	-11.3753
歌唱	-11.3754
不能再	-11.3754
投资管理	-11.3756
冲高	-11.3756
美丽的	-11.3757
本周一	-11.3757
530	-11.3758
的那样	-11.376
请来	-11.3761
罗德	-11.3761
的概率	-11.3761
▁数据显示	-11.3762
在经历了	-11.3763
抢下	-11.3766
卖点	-11.3766
一股	-11.3769
sa	-11.3769
成熟的	-11.377
军队	-11.3771
温和	-11.3775
而目前	-11.3778
当成	-11.3781
国民经济	-11.3781
投资基金	-11.3782
集合	-11.3784
在新加坡	-11.3785
降到	-11.3785
中甲	-11.3786
扣除	-11.3788
淘汰赛	-11.3788
MS	-11.379
打气	-11.3791
的较量	-11.3792
的人生	-11.3793
一体	-11.3793
的决心	-11.3794
拉里	-11.3797
前一周	-11.3797
在这方面	-11.3799
发挥出	-11.3801
现阶段	-11.3803
:2008	-11.3805
一个新的	-11.3809
107	-11.3809
大面积	-11.3813
不公平	-11.3814
最差的	-11.3814
XT	-11.3818
▁五	-11.3819
开球	-11.382
任何一个	-11.3821
爱上	-11.3821
张专辑	-11.3823
NP	-11.3824
焦炭期货	-11.3825
6%;	-11.3825
信息服务	-11.3826
顶盖	-11.3826
三季报	-11.3827
很快就	-11.383
克尔	-11.383
才知道	-11.3832
信息技术	-11.3833
号种子	-11.3833
收购价	-11.3833
的冲击	-11.3835
有很大的	-11.3836
名次	-11.3836
湖北省	-11.3837
是美国	-11.3837
他可以	-11.3839
不含	-11.3841
等专业	-11.3847
还真	-11.3849
要说	-11.385
光线	-11.3852
感兴趣的	-11.3856
艺考	-11.3856
易方达基金	-11.3857
光圈	-11.3857
爱好	-11.3859
保费	-11.3861
一类	-11.3861
考生报考	-11.3863
201	-11.3863
本队	-11.3863
出席活动	-11.3865
手机用户	-11.3865
的热身赛	-11.3865
点左右	-11.3865
放下	-11.3868
两分	-11.3868
5230	-11.3871
某一	-11.3871
考试中心	-11.3871
上周六	-11.3873
半年报	-11.3875
五十	-11.3881
则为	-11.3882
这么多年	-11.3886
有报道称	-11.3887
135	-11.3889
蓝光	-11.3893
你会	-11.3896
网友们	-11.3899
限量	-11.39
256	-11.3901
2-3	-11.3904
价格也	-11.3904
的演出	-11.3905
基金管理有限公司	-11.3905
抢到	-11.3905
经济危机	-11.3909
产品中	-11.3909
在此前	-11.391
就没	-11.3911
谁能	-11.3919
PO	-11.392
论坛上	-11.3922
▁山东	-11.3925
的争夺	-11.3926
赢下	-11.3931
的女人	-11.3932
结束之后	-11.3932
往往是	-11.3932
定下	-11.3935
致使	-11.3938
列为	-11.3939
没有得到	-11.394
也应该	-11.3942
他还是	-11.3943
该行	-11.395
市区	-11.395
8%;	-11.3953
秒钟	-11.3954
将不会	-11.3954
沿	-11.3956
收盘于	-11.3957
有色	-11.396
.46%	-11.3963
双核处理器	-11.3964
尼克	-11.3964
540	-11.3966
0-3	-11.3967
伸	-11.3968
的打法	-11.3968
三段	-11.3971
▁点评	-11.3971
迟	-11.3972
坦	-11.3975
118	-11.3978
的比重	-11.3978
上班	-11.3979
有问题	-11.3982
▁De	-11.3984
投篮命中	-11.3985
日结束	-11.3987
妹	-11.3988
大盘股	-11.3989
音效	-11.399
这些问题	-11.3991
授	-11.3994
遮	-11.3994
仿	-11.3997
两年前	-11.3997
巧妙	-11.3997
的那个	-11.3999
涵	-11.4001
穷	-11.4002
侵	-11.4002
织	-11.4002
奕	-11.4002
狱	-11.4002
认出	-11.4003
新泽西	-11.4004
仰	-11.4005
奥兰多	-11.4005
拉斯维加斯	-11.4005
朝阳	-11.4005
的配合	-11.4005
被誉为	-11.4005
银监会	-11.4005
LUX	-11.4005
吴金贵	-11.4005
妖	-11.4005
杨幂	-11.4005
徐静蕾	-11.4005
迄今为止	-11.4005
铮	-11.4006
维斯特伍德	-11.4006
LinkedIn	-11.4006
岚	-11.4006
弦	-11.4006
瘫	-11.4006
▁University	-11.4006
云天化	-11.4006
孙志浩	-11.4006
缺陷	-11.4006
一辈子	-11.4006
疲惫	-11.4006
杨澜	-11.4006
埃文斯	-11.4006
张兆旭	-11.4006
监考	-11.4006
坚固	-11.4006
桂纶镁	-11.4006
中金所	-11.4006
跳槽	-11.4006
活泼	-11.4006
植物	-11.4006
顽强	-11.4006
钢企	-11.4007
遗忘	-11.4007
奢华	-11.4007
万像素的摄像头	-11.4007
隔夜	-11.4007
悉数	-11.4007
泰勒	-11.4007
免试	-11.4007
税务	-11.4007
勉强	-11.4007
右后卫	-11.4007
制订	-11.4007
阿里巴巴集团	-11.4008
考生报名	-11.4008
这也意味着	-11.4008
实战	-11.4008
在本场比赛中	-11.4008
英皇	-11.4008
复古	-11.4008
终极	-11.4008
清洁	-11.4009
降息	-11.4009
班主任	-11.4009
甲型	-11.401
生态	-11.401
吃惊	-11.401
当当网	-11.401
模型	-11.401
约什	-11.401
向记者透露	-11.4011
航空公司	-11.4012
扬州	-11.4012
美容	-11.4012
怀特	-11.4012
投影	-11.4012
收官	-11.4012
讲座	-11.4013
临场	-11.4013
杰森	-11.4013
看待	-11.4014
九城	-11.4014
募集规模	-11.4014
偏空	-11.4015
更重要的是	-11.4015
海归	-11.4016
木马	-11.4017
胡军	-11.4017
菜单	-11.4017
自豪	-11.4018
邀请赛	-11.4018
相同的	-11.402
罗恩	-11.402
这与	-11.4022
公益活动	-11.4023
极高的	-11.4023
发了	-11.4024
红毯	-11.4025
隆多	-11.4025
文凭	-11.4025
贴膜	-11.4026
进取	-11.4026
火力	-11.4029
重任	-11.4031
不仅要	-11.4031
另一种	-11.4031
站上	-11.4033
MO	-11.4035
为用户提供	-11.4035
打比赛	-11.4036
目前该机	-11.4036
特价	-11.4037
风光	-11.4037
领先优势	-11.4037
车主	-11.4038
当我	-11.4038
该网站	-11.4039
本校	-11.4039
也得到了	-11.404
与以往	-11.404
北京报道	-11.4041
的权利	-11.4043
(11	-11.4044
几周	-11.4044
整体来看	-11.4045
马尔	-11.4046
可怕	-11.4047
性能上	-11.4048
取消了	-11.4049
有所增加	-11.4049
移动互联网	-11.4051
学士学位	-11.4053
基金仓位	-11.4053
不会再	-11.4053
宣传活动	-11.4054
年间	-11.4055
本科院校	-11.4055
他很	-11.4057
日发布	-11.4057
书籍	-11.4057
心灵	-11.4058
语法	-11.4059
班级	-11.4059
预定	-11.406
的一幕	-11.4062
引发的	-11.4062
找工作	-11.4064
考生应	-11.4064
大厅	-11.4064
的人物	-11.4064
交易中	-11.4064
不失	-11.4067
发出了	-11.4069
家企业	-11.4071
个多月	-11.4071
将出现	-11.4074
罗本	-11.4075
应该会	-11.4076
的好友	-11.4077
ED	-11.4077
十多	-11.4082
的演技	-11.4082
才华	-11.4083
糖厂	-11.4084
最后阶段	-11.4084
化解	-11.4085
错了	-11.4086
午盘	-11.4086
基金规模	-11.4086
今年一季度	-11.4087
在整个	-11.4088
中国平安	-11.4089
硕士生	-11.409
伯尼	-11.4092
对付	-11.4092
考生人数	-11.4093
世界杯预选赛	-11.4096
孙家	-11.4097
传说	-11.41
去年底	-11.4101
心目中的	-11.4104
▁赛后	-11.4106
普通的	-11.4106
的一段	-11.4107
第一季度	-11.4108
专门的	-11.4109
使馆	-11.4112
各自的	-11.4112
二者	-11.4113
的儿子	-11.4113
都是在	-11.4114
以其	-11.4114
生产成本	-11.4115
美国股市	-11.4117
对着	-11.4121
数次	-11.4126
tion	-11.4129
两球	-11.413
显然是	-11.413
是否能够	-11.4132
日韩	-11.4138
在今年的	-11.4138
令他	-11.4139
步伐	-11.4143
类基金	-11.4143
这里的	-11.4144
335	-11.4145
她认为	-11.4147
各级	-11.4149
目前仍	-11.4153
月起	-11.4156
的恋情	-11.4157
铁路	-11.4158
调查报告	-11.4159
建成	-11.4161
长期投资	-11.4161
月份开始	-11.4162
成交价	-11.4162
投资收益	-11.4162
AL	-11.4162
并以	-11.4162
不利于	-11.4164
ast	-11.4166
的综合	-11.4172
les	-11.4174
不过我	-11.4177
两倍	-11.4181
799	-11.4185
收益率为	-11.4186
这才是	-11.4187
依旧是	-11.4188
的反应	-11.4192
▁-0.	-11.4193
很是	-11.4194
大腕	-11.4197
也纷纷	-11.4197
的幸福	-11.4202
冠军联赛	-11.4206
在家里	-11.4206
高考期间	-11.4212
曾与	-11.4214
剩	-11.4219
决心	-11.4221
在内	-11.4225
已久的	-11.4225
的转会	-11.4227
阵中	-11.4227
的高度	-11.4232
留住	-11.4233
网点	-11.4233
受限	-11.4234
更容易	-11.4236
自去年	-11.4238
按时	-11.424
几乎没有	-11.4241
则认为	-11.4246
各科	-11.4246
合格证	-11.4248
基金资产的	-11.4252
造假	-11.4252
一改	-11.4257
内部人士	-11.4258
SM	-11.426
采访中	-11.426
这只是	-11.4263
虽然是	-11.4264
删	-11.4265
性能方面	-11.4266
名牌	-11.4267
内需	-11.4268
平局	-11.4269
天相投顾	-11.427
pr	-11.427
主人	-11.4276
就意味着	-11.428
小牛队	-11.428
时下	-11.4282
口号	-11.4284
化妆	-11.4286
回去	-11.4286
太高	-11.4287
实体	-11.4289
不下	-11.4289
会影响	-11.4291
的报价为	-11.4293
戏份	-11.4294
平方米	-11.4295
转到	-11.4296
高通	-11.4297
现在我	-11.4297
彤	-11.4299
浙	-11.4301
困	-11.4303
琼	-11.4305
致力于	-11.4305
熙	-11.4306
披	-11.4306
痴	-11.4307
尘	-11.4307
铃	-11.4307
匹	-11.4308
裂	-11.4308
慌	-11.4308
衰	-11.4308
姿	-11.4308
凶	-11.4308
威廉	-11.4308
挪	-11.4308
邵	-11.4308
TOM	-11.4308
架构	-11.4308
的气氛	-11.4308
博阿滕	-11.4308
磨砂	-11.4308
言承旭	-11.4308
吴佩慈	-11.4308
媚	-11.4308
纽约商品交易所	-11.4308
下半时	-11.4308
倾斜	-11.4308
爵爷	-11.4309
梁文博	-11.4309
可见一斑	-11.4309
辽足	-11.4309
皮肤	-11.4309
巴菲特	-11.4309
雾	-11.4309
MacBook	-11.4309
李亚鹏	-11.4309
CFTC	-11.4309
恭喜	-11.4309
弗朗西斯	-11.4309
扯	-11.4309
奢侈品	-11.4309
干散货	-11.4309
翠	-11.4309
兰多夫	-11.4309
方力申	-11.4309
罗比尼奥	-11.4309
孙海平	-11.4309
与众不同	-11.4309
低于标准杆	-11.4309
担纲	-11.4309
统治	-11.4309
噪音	-11.4309
鼠标	-11.4309
粤语	-11.4309
秘诀	-11.4309
▁Home	-11.4309
月上旬	-11.4309
谦虚	-11.4309
突击	-11.4309
博弈	-11.4309
西蒙斯	-11.4309
连锁	-11.4309
周立波	-11.431
开门红	-11.431
纠正	-11.431
初中毕业生	-11.431
立体声	-11.431
倒闭	-11.431
稍微	-11.431
德里克	-11.4311
宠爱	-11.4311
韩鹏	-11.4311
紧接着	-11.4311
净资本	-11.4311
攻防	-11.4311
信念	-11.4311
中央电视台	-11.4311
改观	-11.4312
模板	-11.4312
丁宁	-11.4312
无一	-11.4312
女一号	-11.4312
备案	-11.4312
审题	-11.4313
含义	-11.4313
法律硕士	-11.4313
排名第二	-11.4313
添利	-11.4313
排列	-11.4314
WAP	-11.4314
将获得	-11.4315
越来越大	-11.4315
朴文	-11.4316
配套	-11.4316
图拔	-11.4316
自营	-11.4317
左边	-11.4317
原油库存	-11.4317
道具	-11.4317
难怪	-11.4317
比赛结束后	-11.4318
耐用	-11.4318
姐妹	-11.4318
证明了	-11.4318
全线上涨	-11.4318
13%	-11.4318
随便	-11.432
每位	-11.432
必定	-11.432
历史新高	-11.4321
绿卡	-11.4321
苦战	-11.4322
背部	-11.4323
薄弱	-11.4324
另类	-11.4324
落选	-11.4325
记者昨日从	-11.4325
弹性	-11.4325
谁是	-11.4326
往事	-11.4326
正式发布	-11.4328
胜任	-11.4329
他本人	-11.4329
格式的	-11.433
全是	-11.4332
官方微博	-11.4332
张卫星	-11.4333
并不大	-11.4333
退市	-11.4333
把它	-11.4333
有效期	-11.4334
偿还	-11.4334
海信	-11.4335
有趣的是	-11.4336
作风	-11.4337
LE	-11.4337
李健	-11.4341
将于近期	-11.4343
研讨会	-11.4343
研究人员	-11.4343
在本赛季	-11.4345
不一	-11.4347
不幸	-11.4348
在深圳	-11.4349
尤为	-11.4352
展开了	-11.4352
淡出	-11.4352
中国留学生	-11.4353
财年	-11.4353
普遍认为	-11.4353
上海队	-11.4356
亿欧元	-11.4358
处境	-11.436
告诉他	-11.436
不适合	-11.4362
记者张	-11.4365
单日	-11.4366
.5×	-11.4366
北师大	-11.4367
拉拉	-11.4368
act	-11.4369
资金面	-11.4369
约有	-11.4369
一到	-11.437
实习生	-11.437
的歌迷	-11.4373
每年都	-11.4374
能给	-11.4375
造人	-11.4381
不清	-11.4384
首先是	-11.4385
无力	-11.4386
高一	-11.4386
780	-11.4386
还拥有	-11.4389
偏好	-11.4391
等多个	-11.4391
负责人介绍	-11.4393
但实际上	-11.4397
歌舞	-11.4397
之道	-11.4399
大声	-11.44
的个性	-11.44
DS	-11.4402
绝大部分	-11.4404
总会	-11.4409
转为	-11.4418
的魅力	-11.4421
他们已经	-11.4422
灾难	-11.4427
中小学	-11.4427
严格的	-11.4428
在第三节	-11.443
使用者	-11.443
大类	-11.4432
是怎样	-11.4433
会成为	-11.4433
相关信息	-11.4437
不计	-11.4438
是一位	-11.4439
这套	-11.4441
还有一个	-11.4441
一家人	-11.4443
正式启动	-11.4448
几分	-11.445
价格走势	-11.4452
企业家	-11.4459
所说	-11.446
的限制	-11.4462
只见	-11.4463
不论是	-11.4463
相较	-11.4464
1-0	-11.4465
年前的	-11.4465
75%	-11.4466
则会	-11.4467
较多的	-11.4468
从小就	-11.4468
电子盘	-11.4469
已婚	-11.4469
的仓位	-11.4477
候	-11.4479
小法	-11.4487
-50	-11.4489
兴业	-11.4493
无意	-11.4494
一门	-11.4494
的资格	-11.4495
大意	-11.4497
条件下	-11.4497
还支持	-11.4498
的兴趣	-11.4499
百亿	-11.4499
未有	-11.4501
制定的	-11.4503
英语考试	-11.4505
ton	-11.4506
通过微博	-11.4508
建仓期	-11.4508
愿望	-11.4509
明日	-11.451
常见	-11.4518
的外形	-11.4519
不肯	-11.4522
业内人士认为	-11.4523
DA	-11.4523
传来	-11.4523
夺得了	-11.4524
台湾地区	-11.4524
师傅	-11.4525
季末	-11.4525
采用了一块	-11.4527
不包括	-11.4529
只为	-11.4529
TS	-11.453
▁中场	-11.4532
老布	-11.4532
丝毫不	-11.4534
ks	-11.4534
▁湖人	-11.4535
等方式	-11.4535
但还是	-11.4536
即使在	-11.4537
影片中	-11.4537
5500	-11.4538
相对较	-11.4539
但是由于	-11.4539
大名单	-11.454
ER	-11.4541
的知识点	-11.4541
在国外	-11.4542
cu	-11.4549
950	-11.4551
ose	-11.4553
的文章	-11.4554
却又	-11.4555
也不错	-11.4556
不能说	-11.4556
成绩查询	-11.4557
出入	-11.4559
在北京举行	-11.4563
▁one	-11.4565
一年多	-11.4566
新浪科技	-11.4568
了一把	-11.4568
塞尔	-11.4569
分拆	-11.4573
单元	-11.4573
也很难	-11.4574
感觉到	-11.4574
的相机	-11.4575
了起来	-11.4575
了吗	-11.4575
客人	-11.4575
的巨大	-11.4576
的男人	-11.4577
文化部	-11.4578
据称	-11.4578
科类	-11.458
699	-11.4581
出游	-11.4582
都需要	-11.4583
我没	-11.4584
饼	-11.4587
担	-11.4589
留下了	-11.459
即将于	-11.4593
一年期	-11.4594
一场胜利	-11.4594
类产品	-11.46
燃	-11.46
年年底	-11.4603
叔	-11.4604
是否能	-11.4605
下称	-11.4608
仇	-11.461
体会	-11.4611
毕	-11.4611
挥	-11.4611
排球	-11.4612
一如既往	-11.4612
快递	-11.4613
过快	-11.4613
同场	-11.4615
牢	-11.4618
目前还没有	-11.4618
战场	-11.4619
饮	-11.4619
已经不是	-11.462
这几	-11.462
培育	-11.462
荐	-11.462
糖市	-11.462
爬	-11.462
坊	-11.462
超额收益	-11.462
低风险	-11.462
为投资者	-11.462
雀	-11.4621
冯绍峰	-11.4621
卡萨诺	-11.4621
冬奥会	-11.4621
Mbps	-11.4621
咖啡	-11.4621
大连商品交易所	-11.4621
季前赛	-11.4621
菲律宾	-11.4621
黎姿	-11.4621
瓶颈	-11.4621
东道主	-11.4621
教科书	-11.4621
赵忠祥	-11.4621
傅家俊	-11.4621
出身	-11.4621
沉默	-11.4621
克鲁斯	-11.4621
寂	-11.4621
银信合作	-11.4621
宋祖德	-11.4621
聚焦	-11.4622
猴票	-11.4622
变革	-11.4622
▁some	-11.4622
炮轰	-11.4622
异议	-11.4622
注意事项	-11.4622
滚石	-11.4622
奔跑	-11.4622
丑闻	-11.4622
赔付	-11.4622
恩怨	-11.4622
暴扣	-11.4622
修复	-11.4622
古典	-11.4622
排序	-11.4622
复仇	-11.4622
悲伤	-11.4623
常态	-11.4623
灵敏	-11.4623
抛弃	-11.4623
短缺	-11.4623
原著	-11.4623
擅自	-11.4623
▁外观上	-11.4623
社团	-11.4623
解围	-11.4623
短裙	-11.4623
轨道	-11.4623
师大	-11.4623
iOS	-11.4624
清淡	-11.4624
表述	-11.4624
震动	-11.4624
发表声明	-11.4624
岂	-11.4624
惊险	-11.4624
市面上	-11.4624
▁III	-11.4624
杜绝	-11.4624
罗宾	-11.4624
反响	-11.4624
恒星	-11.4624
剔除	-11.4624
倾向	-11.4625
发达国家	-11.4625
商家地址	-11.4625
封杀	-11.4625
光大银行	-11.4625
即将到来	-11.4625
荣获	-11.4625
可怜	-11.4625
势力	-11.4625
甜美	-11.4626
任命	-11.4626
相遇	-11.4626
美术学院	-11.4626
通告	-11.4627
公办	-11.4627
这一天	-11.4627
指望	-11.4627
补录	-11.4627
镜片	-11.4627
珠海	-11.4627
创建	-11.4627
贴身	-11.4628
定为	-11.4629
半程	-11.4629
查阅	-11.463
下游需求	-11.463
何种	-11.463
细心	-11.463
水果	-11.463
算上	-11.4631
男儿	-11.4631
财报	-11.4632
部委	-11.4632
出资	-11.4633
偏低	-11.4633
免考	-11.4633
存量	-11.4634
日期间	-11.4634
总体来看	-11.4634
远离	-11.4634
歌声	-11.4635
房价	-11.4635
班底	-11.4635
主屏幕	-11.4635
答题卡	-11.4635
广泛关注	-11.4635
方静	-11.4635
贺岁	-11.4636
像素数	-11.4636
在最后	-11.4636
▁people	-11.4636
购入	-11.4637
因为她	-11.4638
山东省	-11.4639
典型	-11.4639
避开	-11.464
支持者	-11.464
zs	-11.4641
事项	-11.4641
确立	-11.4641
勇士队	-11.4641
完胜	-11.4641
109	-11.4641
每场	-11.4641
之争	-11.4642
大笑	-11.4643
天堂	-11.4643
知情人士	-11.4644
实时	-11.4645
每年的	-11.4648
六个	-11.465
空气	-11.465
新世纪	-11.4651
一族	-11.4652
写出	-11.4652
糟糕的	-11.4653
不仅如此	-11.4653
少量	-11.4653
亲手	-11.4654
清纯	-11.4654
消费量	-11.4655
停摆	-11.4656
华东	-11.4657
原先	-11.4658
阿根廷队	-11.466
不存在	-11.4661
两个小时	-11.4662
看球	-11.4662
外套	-11.4663
投资品种	-11.4665
后防线	-11.4667
输掉	-11.4667
一曲	-11.4669
接手	-11.4669
7.8	-11.467
CA	-11.4674
不便	-11.4674
等行业	-11.4675
第二年	-11.4675
基金重仓股	-11.4676
第二名	-11.4676
快男	-11.4676
四处	-11.4676
很好地	-11.4679
券	-11.4679
赛季初	-11.468
这是一场	-11.468
几年前	-11.4681
市招办	-11.4682
要用	-11.4688
究竟是	-11.4689
的首选	-11.469
30%。	-11.469
面上	-11.4692
的情感	-11.4692
惨败	-11.4692
不开心	-11.4693
眼里	-11.4694
准备好	-11.4695
硬件配置	-11.4695
▁time	-11.4695
较低的	-11.4699
重金	-11.47
之行	-11.4701
第一大	-11.4703
相当不错	-11.4703
设置了	-11.4706
比赛时	-11.4706
毕业证书	-11.4706
考生本人	-11.4709
盖帽	-11.4711
高清摄像	-11.4712
工作中	-11.4715
做人	-11.4717
重庆市	-11.4719
透露自己	-11.4726
该国	-11.4726
大脑	-11.4728
的婚礼	-11.4729
分居	-11.4733
的进步	-11.4734
中国香港	-11.4734
迷人	-11.4737
曝出	-11.4737
290	-11.4741
较强的	-11.4741
一时间	-11.4746
占有	-11.4746
年限	-11.4746
不觉得	-11.4749
不稳定	-11.4751
下降到	-11.4752
小于	-11.4752
这款相机	-11.4752
口头	-11.4753
色情	-11.4753
粒	-11.4753
十月	-11.4754
不让	-11.4756
立场	-11.4757
利多	-11.4757
2020	-11.4759
澳元	-11.4759
我们希望	-11.4767
多点	-11.4773
没有太大	-11.4774
还是会	-11.4776
歌星	-11.4777
特别提醒	-11.4778
点多	-11.4781
的又一	-11.4782
预备队	-11.4782
会面	-11.4783
上来看	-11.4785
旅	-11.4793
诸	-11.4794
能找到	-11.4794
这其中	-11.4794
的步伐	-11.4795
昨天下午	-11.4796
的数字	-11.4797
我个人	-11.4801
在球场上	-11.4801
从来不	-11.4804
文中	-11.4805
打破了	-11.4805
EP	-11.4805
职业教育	-11.481
这也让	-11.481
划分	-11.4811
继承	-11.4812
还是很	-11.4818
多所	-11.4819
17%	-11.482
人寿	-11.4821
禁令	-11.4825
开赛	-11.4825
番	-11.4825
早期	-11.4825
银行理财产品	-11.4826
跌幅超过	-11.4828
是非	-11.4828
本科二批	-11.4828
版本的	-11.4829
▁de	-11.4829
阿里	-11.483
分子	-11.4832
一直处于	-11.4833
早日	-11.4835
我爱	-11.4841
问题上	-11.4845
长得	-11.4848
职场	-11.4855
走出了	-11.4857
考虑一下	-11.486
都曾	-11.4863
投资者可	-11.4863
期货交易	-11.4864
否定	-11.4864
她坦言	-11.4865
住宿	-11.4865
毫	-11.4867
3-0	-11.4868
才开始	-11.4868
经济形势	-11.487
产品设计	-11.4872
os	-11.4873
kg	-11.4876
成考	-11.4876
单场	-11.4877
计划招收	-11.4878
余名	-11.4878
本节还有	-11.4878
采访了	-11.4882
经济体	-11.4882
这可能	-11.4883
原油市场	-11.4883
”——	-11.4884
不足以	-11.4886
做一个	-11.4887
皮克	-11.4888
将陆续	-11.4889
已经没有	-11.4891
维尔	-11.4893
已与	-11.49
在台北	-11.4901
▁百度	-11.4902
两位数	-11.4903
在这样的	-11.4907
女朋友	-11.4912
弟	-11.4915
比重	-11.4919
▁何	-11.4919
去年四季度	-11.492
实在太	-11.492
财政部	-11.4926
的毕业生	-11.4927
接过	-11.493
儿女	-11.4931
该如何	-11.4932
三角	-11.4933
加时	-11.4933
合约上涨	-11.4934
立法	-11.4935
他是一个	-11.4935
疼	-11.4937
努	-11.4937
详	-11.4939
腔	-11.494
迁	-11.4942
纤	-11.4942
罗西基	-11.4942
三季度末	-11.4942
辨	-11.4942
汗	-11.4943
迭	-11.4943
绵	-11.4943
烦	-11.4943
竞聘	-11.4943
汽油	-11.4943
欺诈	-11.4943
接班人	-11.4943
号召	-11.4943
出租车	-11.4943
刮	-11.4943
吴彦祖	-11.4943
里弗斯	-11.4943
朴廷桓	-11.4944
李春江	-11.4944
阿尔斯通	-11.4944
风向标	-11.4944
专卖店	-11.4944
苏格兰	-11.4944
王学兵	-11.4944
艾弗森	-11.4944
皇家马德里	-11.4944
遂	-11.4944
王仕鹏	-11.4944
精湛	-11.4944
崩溃	-11.4944
|	-11.4944
垃圾短信	-11.4944
Nexus	-11.4944
WIND	-11.4944
迅猛	-11.4944
晕	-11.4944
丰田	-11.4944
沪基指	-11.4944
摊	-11.4944
决胜局	-11.4944
于大宝	-11.4944
纠结	-11.4944
扎堆	-11.4944
潜伏	-11.4944
work	-11.4944
花絮	-11.4944
饮料	-11.4944
煮	-11.4944
佳绩	-11.4944
邮箱	-11.4944
范佩西	-11.4944
黄秋生	-11.4944
眼看	-11.4944
张艺谋	-11.4944
郭涛	-11.4944
充电	-11.4945
纵观	-11.4945
武术	-11.4945
紧凑	-11.4945
固然	-11.4945
招办主任	-11.4945
实用的	-11.4945
减肥	-11.4945
银河证券	-11.4945
休养	-11.4945
社会各界	-11.4945
现役	-11.4946
郭跃	-11.4946
探望	-11.4946
寒冷	-11.4946
MSN	-11.4946
如果能	-11.4946
坦克	-11.4946
对记者表示	-11.4946
敬业	-11.4946
核电	-11.4946
卡片相机	-11.4947
涌入	-11.4947
消费旺季	-11.4947
提速	-11.4947
空中网	-11.4947
走软	-11.4947
卫诗	-11.4947
老东家	-11.4947
机身背面	-11.4948
的一员	-11.4948
和家人	-11.4948
主编	-11.4948
主观	-11.4948
提档线	-11.4948
趣味	-11.4948
▁not	-11.4948
预科	-11.4949
圆满	-11.4949
首页	-11.4949
论证	-11.4949
净资产	-11.4949
在校生	-11.495
9.1	-11.495
保值	-11.495
盛传	-11.495
赶快	-11.495
李咏	-11.4951
休战	-11.4951
的主要因素	-11.4951
值得期待	-11.4951
当周	-11.4952
求助	-11.4952
头脑	-11.4952
讲解	-11.4953
提取	-11.4953
而成	-11.4953
直传	-11.4954
有一种	-11.4954
维权	-11.4955
任意	-11.4955
乐团	-11.4955
博士生	-11.4955
面值	-11.4955
估算	-11.4955
团购网站	-11.4956
接受访问	-11.4956
哈林	-11.4956
争抢	-11.4956
0909	-11.4959
要去	-11.4959
这部剧	-11.4959
片方	-11.4959
摘得	-11.496
授课	-11.496
不影响	-11.4961
运转	-11.4961
促销活动	-11.4962
玩游戏	-11.4963
对记者说	-11.4963
正收益	-11.4963
改版	-11.4964
高中阶段	-11.4965
男单	-11.4965
可以从	-11.4965
戒指	-11.4966
民营企业	-11.4966
运球	-11.4966
▁河南	-11.4967
比去年减少	-11.4968
既是	-11.4971
接球	-11.4973
1990	-11.4974
张磊	-11.4974
EX	-11.4975
OK	-11.4976
了一定的	-11.4977
今年夏天	-11.4978
建设银行	-11.4978
异地	-11.4978
上海男篮	-11.498
高位震荡	-11.498
元以上	-11.498
有多大	-11.4981
亿股	-11.4983
发生变化	-11.4987
51.	-11.4988
完婚	-11.499
新体	-11.4991
打满	-11.4991
局限	-11.4991
优点	-11.4993
土地	-11.4993
江南	-11.4994
人间	-11.4994
一般来说	-11.4994
法人	-11.5
风头	-11.5001
设想	-11.5004
不该	-11.5004
1/3	-11.5005
被传	-11.5008
这是因为	-11.5008
马特	-11.5008
归属	-11.5008
钢材价格	-11.5008
狗仔	-11.5009
率队	-11.501
新东方	-11.501
这两天	-11.5012
帅哥	-11.5013
强攻	-11.5014
ru	-11.5016
视听	-11.5018
高品质	-11.502
甚至还	-11.502
在比赛还有	-11.5022
白天	-11.5022
时至	-11.5023
过瘾	-11.5023
的位置上	-11.5025
两个赛季	-11.5027
平面	-11.5028
已达到	-11.5033
课题	-11.5035
下跌了	-11.5035
认识到	-11.5035
BD	-11.5037
是一次	-11.5039
最高分	-11.5039
吃了	-11.5041
一辆	-11.5041
的思路	-11.5042
小品	-11.5044
报名人数	-11.5044
爆仓	-11.5044
被视为	-11.5046
寿	-11.5047
ish	-11.5048
时许	-11.505
问我	-11.505
增加到	-11.5051
教育部门	-11.5051
带走	-11.5053
▁替补	-11.5055
残疾	-11.5055
则以	-11.5055
网络方面	-11.5059
在职	-11.5061
一个个	-11.5063
高校自主招生	-11.5064
个星期	-11.5065
On	-11.5066
两支	-11.5067
▁第三节	-11.5067
广州市	-11.5067
王者	-11.5071
18%	-11.5073
作为一名	-11.508
进来	-11.508
助推	-11.5081
比去年增加	-11.5084
old	-11.5088
招生学校	-11.5088
斯托	-11.509
震荡上行	-11.509
的传统	-11.509
的伤势	-11.5091
就一直	-11.5093
场所	-11.5094
9.0	-11.5096
每场比赛	-11.5096
被罚	-11.5102
出具	-11.5104
的邀请	-11.5109
中专	-11.5109
EI	-11.5109
630	-11.511
不方便	-11.5112
权证	-11.5113
大光圈	-11.5113
颁发的	-11.5113
期货合约	-11.5118
执导的	-11.5118
比赛结束	-11.512
▁me	-11.5122
中国银行	-11.5123
出彩	-11.5123
将向	-11.5124
仍以	-11.5124
真的是	-11.5127
福利	-11.5134
很多同学	-11.5138
但也有	-11.5139
重要的是	-11.5142
不顾	-11.5144
一贯的	-11.5148
会选择	-11.5153
▁la	-11.5154
就必须	-11.5157
典型的	-11.5158
的估值	-11.5159
公司旗下	-11.516
主播	-11.5161
伤心	-11.5161
习	-11.5162
12%	-11.5162
代表性	-11.5163
发给	-11.5163
意义上	-11.5164
买到	-11.5165
才发现	-11.5166
多部	-11.517
可以拍摄	-11.5173
用自己的	-11.5174
第二大	-11.5175
一年后	-11.5175
铅期货	-11.5179
高考分数	-11.5179
的投入	-11.518
献上	-11.5181
27-	-11.5182
68.	-11.5183
价钱	-11.5184
95%	-11.519
对于自己	-11.5192
追随	-11.5197
半个月	-11.5201
之多	-11.5202
半个	-11.5209
配置方面	-11.521
投资风格	-11.5211
如果不	-11.5212
过一次	-11.5216
环境中	-11.5217
的气质	-11.5217
最大光圈	-11.5222
准时	-11.5223
化身	-11.5223
年底前	-11.5225
该款	-11.5226
风险管理	-11.5227
边后卫	-11.523
怎么办	-11.5235
仪式上	-11.5236
想着	-11.5237
分左右	-11.5238
多万	-11.5239
回访	-11.5239
短暂的	-11.5241
证券投资	-11.5246
这将是	-11.5247
渡	-11.5248
我只	-11.5249
号称	-11.525
展会	-11.5252
合约跌	-11.5253
比拼	-11.5254
截至昨日	-11.5256
没有出现	-11.5256
悔	-11.5259
篮协	-11.5261
政府部门	-11.5262
每当	-11.5265
四人	-11.5265
9.2	-11.5266
113	-11.5266
滨	-11.5268
高风险	-11.5268
盟	-11.527
偶	-11.5272
肢	-11.5274
高晓松	-11.5275
舟	-11.5275
上篮得手	-11.5275
猴	-11.5276
同类	-11.5276
箭	-11.5276
朋	-11.5276
督	-11.5276
幼	-11.5276
浴	-11.5276
瑶	-11.5277
唐国强	-11.5277
克劳福德	-11.5277
姑	-11.5277
原谅	-11.5277
刘易斯	-11.5277
汇聚	-11.5277
嫩	-11.5277
国防生	-11.5277
勿	-11.5277
熬	-11.5277
稀	-11.5277
南开大学	-11.5277
李章洙	-11.5277
遵循	-11.5277
渊	-11.5277
赛迪网	-11.5277
范德维奇	-11.5277
癌	-11.5277
足总杯	-11.5277
香港中文大学	-11.5277
许可证	-11.5277
▁man	-11.5277
WiMAX	-11.5277
全力以赴	-11.5277
抄袭	-11.5277
睡眠	-11.5277
邹	-11.5277
简介	-11.5277
衫	-11.5277
欺骗	-11.5277
大个子	-11.5277
Vista	-11.5277
牢牢	-11.5277
挣扎	-11.5277
爆炸	-11.5277
尖叫	-11.5278
一年一度的	-11.5278
肿瘤	-11.5278
垮	-11.5278
宾客	-11.5278
惨遭	-11.5278
段奕宏	-11.5278
艾伦	-11.5278
抖动	-11.5278
韦唯	-11.5278
营业厅	-11.5278
王仪涵	-11.5278
顺畅	-11.5278
核准	-11.5278
解禁	-11.5278
畅游	-11.5278
艳照门	-11.5279
第三方支付	-11.5279
名人堂	-11.5279
店铺	-11.5279
宽容	-11.5279
饱受	-11.5279
隐瞒	-11.5279
伤愈	-11.5279
那个时候	-11.5279
重挫	-11.5279
广发证券	-11.5279
航运	-11.5279
朝阳区	-11.5279
商讨	-11.528
争冠	-11.528
有意思的是	-11.528
拼音	-11.528
填补	-11.528
干预	-11.528
净买入	-11.528
直观	-11.5281
极限	-11.5281
搭建	-11.5281
缺失	-11.5281
重启	-11.5281
赶往	-11.5281
的可能性较大	-11.5281
哈哈	-11.5281
更何况	-11.5281
宝钢	-11.5282
重磅	-11.5282
日中午	-11.5282
竞选	-11.5282
资格审查	-11.5282
描写	-11.5282
这件事情	-11.5282
足足	-11.5282
归纳	-11.5283
娘家	-11.5283
字母	-11.5283
宝座	-11.5283
最终还是	-11.5283
光环	-11.5284
端口	-11.5284
深圳市	-11.5284
参赛资格	-11.5285
邀约	-11.5285
阅读理解	-11.5285
借读	-11.5286
农业大学	-11.5286
总比分	-11.5286
亚视	-11.5286
创投	-11.5287
选举	-11.5287
清醒	-11.5287
误解	-11.5287
延迟	-11.5287
登台	-11.5288
文化课	-11.5288
招牌	-11.5288
绝非	-11.5289
丢球	-11.5289
数额	-11.5289
等效焦距为	-11.529
准入	-11.529
样本	-11.529
充分利用	-11.529
▁据台湾	-11.5293
VX	-11.5293
太阳报	-11.5294
LX	-11.5294
重点高中	-11.5295
最佳状态	-11.5295
喜欢的朋友可以	-11.5296
但因	-11.5296
车晓	-11.5297
之举	-11.5299
火花	-11.5299
库斯	-11.5301
UI	-11.5301
参演	-11.5302
不少网友	-11.5305
交易员	-11.5305
深化	-11.5306
入手	-11.5307
▁Z	-11.5309
在外线	-11.531
福建省	-11.531
考生可以	-11.531
时不时	-11.5311
变数	-11.5312
沃克	-11.5314
花钱	-11.5315
1997	-11.5315
1996	-11.5315
比赛还有	-11.5315
福建队	-11.5316
挡出	-11.5316
去向	-11.5317
热门专业	-11.5317
热心	-11.5318
水利	-11.5318
上涨趋势	-11.5318
综合性	-11.5319
投资公司	-11.532
市价	-11.5321
女方	-11.5321
曾被	-11.5323
要等到	-11.5323
冲着	-11.5323
圈中	-11.5323
专属	-11.5323
提供给	-11.5324
高科技	-11.5324
多哈	-11.5324
适中	-11.5325
小组出线	-11.5325
ES	-11.5326
选定	-11.5328
艺术家	-11.5328
四级	-11.5329
每一位	-11.533
开战	-11.5331
这一消息	-11.5332
贵金属	-11.5333
粉丝们	-11.5334
用户来说	-11.5334
现场观众	-11.5334
华商	-11.5334
网络购物	-11.5336
深造	-11.5337
意大利队	-11.5337
▁*	-11.5338
希望赛	-11.5338
ak	-11.534
15.6	-11.534
就应该	-11.534
▁an	-11.5343
如果您	-11.5343
刚刚开始	-11.5343
面子	-11.5345
养老保险	-11.5346
陈真	-11.5351
等一系列	-11.5351
产品价格	-11.5352
2-1	-11.5352
119	-11.5352
新帅	-11.5354
抢占	-11.5354
期末	-11.5355
瑞和	-11.5357
胡可	-11.5358
落地	-11.5358
已成	-11.5358
2300	-11.5358
春节后	-11.5359
两届	-11.5359
在同一	-11.536
也算是	-11.536
经验和	-11.5362
不少于	-11.5364
985	-11.5365
证券市场	-11.5365
平台上	-11.5365
在台上	-11.5367
角度看	-11.5368
变得更加	-11.5368
出身的	-11.5369
对球队	-11.5369
ina	-11.537
▁08	-11.5373
嫌疑	-11.5374
投资顾问	-11.5374
名列	-11.538
前三名	-11.538
我一直	-11.5382
养成	-11.5382
南美	-11.5382
专访时	-11.5384
该品牌	-11.5385
流向	-11.5386
市场走势	-11.5386
本金	-11.5387
在网络上	-11.5388
香港大学	-11.5388
有资格	-11.5391
HP	-11.5393
等明星	-11.5393
最长	-11.5396
上届	-11.5398
两局	-11.5398
这个消息	-11.54
适合自己的	-11.54
270	-11.5401
小前锋	-11.5402
工会	-11.5403
其他球队	-11.5405
每人	-11.5407
属于自己的	-11.5407
has	-11.5409
ors	-11.5412
七成	-11.5414
到现场	-11.5414
上大学	-11.5417
发型	-11.5419
在篮下	-11.5421
6500	-11.5421
一根	-11.5421
1005	-11.5423
ab	-11.5424
历经	-11.5425
含有	-11.5426
新歌	-11.5427
显得很	-11.543
四周	-11.5431
卡西欧	-11.5432
错失	-11.5432
爱人	-11.5433
分校	-11.5433
更多的是	-11.5435
Mr	-11.5436
▁热评	-11.5436
富国基金	-11.5437
美观	-11.544
留下的	-11.5442
的思想	-11.5442
有所不同	-11.5444
和平	-11.5446
1995	-11.5449
跟上	-11.5449
▁Phone	-11.5449
而如果	-11.5449
过年	-11.5453
家有	-11.5454
时间表	-11.5455
今年年初	-11.5456
只股票型基金	-11.5457
的各项	-11.5458
的大门	-11.5459
▁另据	-11.5459
的流动性	-11.5459
(600	-11.5459
后台	-11.5459
▁上赛季	-11.5459
三场	-11.5461
两部	-11.5461
抛出	-11.5461
电器	-11.5464
里克	-11.5469
▁章子怡	-11.5473
用户数	-11.5476
当然是	-11.5478
大巴	-11.5478
75.	-11.5481
一层	-11.5486
▁福建	-11.5487
不知情	-11.5491
拍摄功能	-11.5495
做法	-11.5498
一些人	-11.55
写了	-11.5509
跑到	-11.5509
实在是	-11.5512
生动	-11.5513
人心	-11.5516
难得的	-11.5519
两成	-11.5521
二中	-11.5521
种子	-11.5522
4%;	-11.5525
演艺界	-11.553
受访	-11.5531
再有	-11.5531
眼神	-11.5531
对孩子	-11.5532
.79%	-11.5532
正值	-11.5534
是全球	-11.5535
要先	-11.5537
几场	-11.5542
入行	-11.5549
陈好	-11.5555
记者昨日	-11.556
用户使用	-11.556
45%	-11.556
能做到	-11.5561
多么	-11.5562
一眼	-11.5565
手下	-11.5566
款产品	-11.5566
乃	-11.5567
长跑	-11.5568
AA	-11.5571
13.3	-11.5574
一直以	-11.5576
大局	-11.5576
家银行	-11.5577
对该	-11.5579
招生录取	-11.558
的背后	-11.5581
新华社	-11.5581
590	-11.5583
估	-11.5586
驶	-11.5587
.02%	-11.5587
基金开户数	-11.5588
部分地区	-11.559
可直接	-11.5593
旋律	-11.5594
昂	-11.5595
太多了	-11.5598
长焦相机	-11.5599
交易市场	-11.5603
340	-11.5603
价值观	-11.5604
是一场	-11.5605
该合约	-11.5608
尼斯	-11.561
象棋	-11.561
尺寸为	-11.5611
誉	-11.5613
原告	-11.5613
滴	-11.5615
嫌	-11.5616
分析人士	-11.5616
hu	-11.5618
轨	-11.5618
狮	-11.5618
性能表现	-11.5618
犹	-11.5618
专注	-11.5618
鼻	-11.5618
锡	-11.5619
揽	-11.5619
落在	-11.562
俄	-11.562
巢	-11.562
斥	-11.5621
玫瑰	-11.5621
孙俪	-11.5621
棕	-11.5621
葛优	-11.5621
仲	-11.5621
雕	-11.5621
领头羊	-11.5621
李小冉	-11.5621
上海交通大学	-11.5622
国字号	-11.5622
格兰杰	-11.5622
年来的	-11.5622
整数关口	-11.5622
检察院	-11.5622
莱昂纳多	-11.5622
耽误	-11.5622
随时随地	-11.5622
郝	-11.5622
纯债基金	-11.5622
咕	-11.5622
羞	-11.5622
IBM	-11.5622
高等院校	-11.5622
亨德利	-11.5622
投连险	-11.5622
RAW	-11.5622
马斯切拉诺	-11.5622
国投瑞银	-11.5622
任达华	-11.5622
埃利斯	-11.5622
娶	-11.5622
滤镜	-11.5622
∶	-11.5622
华夏大盘精选	-11.5622
张继科	-11.5622
潘金莲	-11.5622
特派记者	-11.5622
曙光	-11.5622
咽	-11.5622
污	-11.5622
坎贝尔	-11.5622
Apple	-11.5622
扳平比分	-11.5622
辣妹	-11.5622
图书馆	-11.5622
费雷拉	-11.5622
喻	-11.5622
支柱	-11.5622
果岭	-11.5622
江若琳	-11.5623
小伙子	-11.5623
久违	-11.5623
圆润	-11.5623
对所有	-11.5623
典礼	-11.5623
扭伤	-11.5623
收窄	-11.5623
背光源	-11.5623
全方位	-11.5623
EXR	-11.5623
信仰	-11.5623
储存	-11.5623
欠佳	-11.5623
造势	-11.5623
佣金	-11.5623
zol	-11.5623
器材	-11.5623
防御	-11.5623
善良	-11.5623
周一围	-11.5623
qu	-11.5623
紧缺	-11.5624
怀念	-11.5624
采集	-11.5624
吕征	-11.5624
悲剧	-11.5624
集结	-11.5624
浮动	-11.5624
NEX	-11.5624
迎合	-11.5624
早餐	-11.5624
这样一来	-11.5624
期盼	-11.5624
棋圣	-11.5625
报名信息	-11.5625
天弘	-11.5625
巡回演唱会	-11.5625
粉色	-11.5625
佛山	-11.5625
无锡	-11.5625
逆市	-11.5625
目击	-11.5625
坚信	-11.5625
降温	-11.5625
体质	-11.5625
绝望	-11.5626
十二五	-11.5626
善款	-11.5626
淡定	-11.5626
口味	-11.5626
果断	-11.5626
私立	-11.5627
王皓	-11.5627
一览	-11.5627
前妻	-11.5629
新课改	-11.5629
留洋	-11.5629
中国男排	-11.5629
深夜	-11.563
急剧	-11.563
普涨	-11.563
卡佩	-11.563
婚事	-11.563
的重要原因	-11.5631
使命	-11.5632
▁据香港	-11.5632
非常喜欢	-11.5633
陈涛	-11.5633
收费标准	-11.5634
出庭	-11.5634
清算	-11.5634
父子	-11.5634
若干	-11.5634
中国概念股	-11.5635
主权	-11.5635
清理	-11.5636
小胖	-11.5637
大幅反弹	-11.5638
不停地	-11.5638
.26%	-11.5639
为首的	-11.564
安然	-11.564
量化	-11.5641
560	-11.5641
新榨季	-11.5642
波特	-11.5643
举办了	-11.5643
one	-11.5645
男双	-11.5645
在接受媒体采访时	-11.5646
三连胜	-11.5647
斯科拉里	-11.5647
她透露	-11.5648
148	-11.5648
课本	-11.5648
影子	-11.5649
之列	-11.5649
来自中国	-11.5649
最关键的	-11.5649
的确是	-11.565
徐克	-11.565
全联盟	-11.5651
课外	-11.5651
有指	-11.5652
越位	-11.5654
不会影响	-11.5654
主要是由于	-11.5658
半数	-11.5659
一姐	-11.5659
my	-11.5659
将延续	-11.566
优惠政策	-11.5661
在赛前	-11.5664
▁fro	-11.5666
卖掉	-11.5667
本期	-11.5667
真心	-11.5668
有较大	-11.5669
溢价率	-11.567
研究机构	-11.5671
非常适合	-11.5672
外表	-11.5673
省外	-11.5673
确定了	-11.5673
全都	-11.5674
▁郑糖	-11.5675
积极参与	-11.5675
成交金额	-11.5676
对抗赛	-11.5678
5%;	-11.5678
意味	-11.5681
10000	-11.5682
人们对	-11.5682
大腿	-11.5683
如期	-11.5683
生长	-11.5683
▁胡	-11.5683
得意	-11.5688
自己所	-11.5688
期货行业	-11.569
未婚	-11.5691
说出	-11.5692
app	-11.5695
区分	-11.5697
公开表示	-11.5697
广角镜头	-11.5697
外型	-11.5698
节约	-11.5698
的一个重要	-11.5699
围观	-11.57
进一步扩大	-11.57
的新闻发布会上	-11.5701
他们会	-11.5703
年考研	-11.5703
遇上	-11.5704
经验丰富	-11.5704
有任何	-11.5706
都必须	-11.5709
配额	-11.571
股东大会	-11.571
天津大学	-11.5712
大额	-11.5713
中国网民	-11.5714
645	-11.5714
cc	-11.5714
签署了	-11.5716
涨幅达	-11.5717
长盛	-11.5717
3999	-11.5717
不过从	-11.572
570	-11.572
高质量的	-11.5722
市招考办	-11.5723
防守球员	-11.5724
产业发展	-11.5725
这几年	-11.5726
不适应	-11.5727
档次	-11.5728
签订了	-11.5729
分的优势	-11.5732
有序	-11.5734
手中的	-11.5734
余人	-11.5735
失手	-11.5735
专人	-11.5737
的目光	-11.5737
开创	-11.574
味道	-11.5741
乎	-11.5742
有效地	-11.5743
4300	-11.5745
一件事	-11.5745
又能	-11.5745
求学	-11.575
王晓	-11.5753
185	-11.5754
最低分	-11.5755
同名	-11.5756
可以肯定	-11.5757
结束时	-11.5757
一来	-11.5758
商务人士	-11.5762
还称	-11.5763
抗通胀	-11.5764
吨左右	-11.5768
召开了	-11.5774
8.0	-11.5774
将于今年	-11.5776
高职院校	-11.5776
管理办法	-11.5777
将推出	-11.5777
焦段	-11.5777
开始后	-11.5777
目前市场上	-11.578
2400	-11.578
吸收	-11.5781
在第二节	-11.5781
在德国	-11.5781
开口	-11.5782
备选	-11.5782
.264	-11.5794
性能配置	-11.5799
进行分析	-11.5799
住院	-11.5802
适	-11.5808
地方政府	-11.5808
的祝福	-11.581
管理人	-11.5812
随后又	-11.5814
加深	-11.5816
空中	-11.5818
考了	-11.5819
新科	-11.5823
收回	-11.5823
两家公司	-11.5827
性别	-11.5829
西班牙人	-11.5835
中国企业	-11.5839
夕	-11.5839
与男友	-11.5841
不胜	-11.5841
难忘的	-11.5846
.01%	-11.5847
可享受	-11.5848
莱利	-11.5848
互联网上	-11.5849
两张	-11.5849
让您	-11.585
888	-11.5852
右脚	-11.5852
前几	-11.5855
永不	-11.5858
而今年	-11.5861
拍摄模式	-11.5862
在海外	-11.5864
per	-11.5865
债券型	-11.5865
总体上	-11.5866
记者王	-11.5869
关心的	-11.5873
全身	-11.5873
考生必须	-11.5874
进口大豆	-11.5875
今天的比赛	-11.5876
出现过	-11.5878
两点	-11.5878
岁以下	-11.5878
另一名	-11.5881
网上填报志愿	-11.5885
美人	-11.5885
过去了	-11.5886
同等	-11.5887
驾车	-11.5888
当做	-11.59
大规模的	-11.5901
显得非常	-11.5901
右边	-11.5909
▁实际上	-11.591
本次比赛	-11.5912
些什么	-11.5914
这些都	-11.5917
正式比赛	-11.5917
活动现场	-11.5918
而这次	-11.592
不会对	-11.5927
在港	-11.5928
惯	-11.5931
低估	-11.5935
分析师认为	-11.5939
利润率	-11.5941
在本月	-11.5941
至每桶	-11.5942
希望可以	-11.5944
候选	-11.5945
主队	-11.5945
悬	-11.5947
看到他	-11.5948
欢呼	-11.5955
的强烈	-11.5956
垒	-11.5957
让学生	-11.5958
老家	-11.5959
平均收益率	-11.5959
能达到	-11.5961
的身价	-11.5961
三亚	-11.5963
投入到	-11.5964
甩	-11.5964
役	-11.597
裸	-11.597
坤	-11.5971
680	-11.5971
尊	-11.5973
扰	-11.5973
植	-11.5973
没有太多	-11.5974
阔	-11.5975
莲	-11.5975
闸	-11.5976
开拓	-11.5976
ari	-11.5977
桃	-11.5977
摔	-11.5978
行李	-11.5978
斩	-11.5978
卧	-11.5978
俏	-11.5978
维迪奇	-11.5978
劣势	-11.5978
液	-11.5978
王励勤	-11.5978
百姓	-11.5978
沈祥福	-11.5978
高职高专	-11.5978
国泰君安	-11.5978
卸	-11.5978
丁锦辉	-11.5979
古巨基	-11.5979
泰伦斯	-11.5979
魂	-11.5979
逸	-11.5979
灰尘	-11.5979
金元比联	-11.5979
国金证券	-11.5979
李晓霞	-11.5979
特雷西	-11.5979
节能减排	-11.5979
交强险	-11.5979
钉	-11.5979
阿拉伯	-11.5979
潘玮柏	-11.5979
不可思议	-11.5979
中国人民大学	-11.5979
妍	-11.5979
疾	-11.5979
迈凯轮	-11.5979
那不勒斯	-11.5979
婴儿	-11.5979
YouTube	-11.5979
美国宇航局	-11.5979
道格拉斯	-11.5979
马雅舒	-11.5979
图库供稿	-11.5979
林青霞	-11.5979
法布雷加斯	-11.5979
马洛卡	-11.5979
拉开帷幕	-11.5979
摩根士丹利	-11.5979
豹	-11.5979
坦承	-11.5979
拆迁	-11.5979
朴智星	-11.5979
FIFA	-11.5979
纤薄	-11.5979
Ella	-11.5979
典雅	-11.5979
征求意见稿	-11.5979
瞄准	-11.5979
殴	-11.5979
禁止转载	-11.5979
韦弗	-11.5979
大宗交易	-11.5979
Kelly	-11.5979
挫折	-11.598
伯明翰	-11.598
囊	-11.598
邻居	-11.598
许志安	-11.598
简历	-11.598
送走	-11.598
邱峻	-11.598
汪峰	-11.598
仪器	-11.598
潜质	-11.598
硬朗	-11.598
陈凯歌	-11.598
长虹	-11.598
潘德夫	-11.598
潜规则	-11.598
数码单反	-11.598
顺势	-11.598
承压	-11.598
袁莉	-11.598
工业和信息化部	-11.5981
吸取	-11.5981
▁湖北	-11.5981
邮票	-11.5981
照相功能	-11.5981
整容	-11.5981
标识	-11.5981
不好意思	-11.5981
优良	-11.5981
常识	-11.5981
轻巧	-11.5981
穆里奇	-11.5981
亿港元	-11.5981
涉案	-11.5981
透支	-11.5982
散户	-11.5982
收缩	-11.5982
曲目	-11.5982
证券交易所	-11.5982
施工	-11.5983
横店	-11.5983
孙楠	-11.5983
凯塔	-11.5983
偏弱	-11.5983
字样	-11.5983
争论	-11.5983
陈蓉	-11.5983
约束	-11.5984
陪同	-11.5984
衣物	-11.5984
功底	-11.5984
黑网吧	-11.5984
公立	-11.5984
的矛盾	-11.5984
社交网络	-11.5984
配件	-11.5984
zk	-11.5985
替身	-11.5985
底座	-11.5985
一封	-11.5986
面孔	-11.5986
助教	-11.5986
评分标准	-11.5986
陪同下	-11.5986
大奖赛	-11.5986
戏称	-11.5986
战士	-11.5986
帽子	-11.5986
乔尔	-11.5987
轻取	-11.5987
经济衰退	-11.5987
德隆	-11.5987
市场环境	-11.5987
过半	-11.5987
作曲	-11.5988
工银	-11.5988
本榨季	-11.5988
医学院	-11.5988
手续费	-11.5989
之称的	-11.5989
高薪	-11.5989
交银	-11.599
获配	-11.599
千万不要	-11.5991
直指	-11.5991
中欧基金	-11.5991
皮特	-11.5992
雷纳	-11.5992
兼报	-11.5993
谈话	-11.5994
徐国	-11.5994
调价	-11.5994
冬天	-11.5995
罗宁	-11.5995
二代	-11.5996
亚信	-11.5996
华富	-11.5998
大成基金	-11.5998
单产	-11.5998
▁Li	-11.5998
825	-11.5998
新碟	-11.5999
男方	-11.5999
日在北京	-11.6
可以考虑	-11.6
平均仓位	-11.6
恩爱	-11.6001
陈豪	-11.6001
多样	-11.6003
公牛队	-11.6004
火车	-11.6004
日当周	-11.6005
第三位	-11.6005
▁奥林巴斯	-11.6006
收低	-11.6006
相关负责人表示	-11.6009
近距离	-11.6009
歌迷们	-11.6009
星光	-11.6009
40%。	-11.6009
南京大学	-11.6011
高温	-11.6011
文科生	-11.6011
期货业	-11.6011
推手	-11.6011
前腰	-11.6012
身处	-11.6013
第二阶段	-11.6013
节目组	-11.6014
功能方面	-11.6014
排练	-11.6015
巴斯	-11.6016
三本	-11.6016
很像	-11.6019
该项	-11.6021
是怎么	-11.6023
最主要的	-11.6025
考入	-11.6025
14.1	-11.6027
有更多的	-11.6028
散热	-11.6028
此前曾	-11.6028
兑换	-11.603
感光度范围	-11.6031
意志	-11.6032
定位于	-11.6033
远远超过	-11.6034
拉姆	-11.6034
行走	-11.6035
打完	-11.6035
继续维持	-11.6036
高分考生	-11.6037
几句	-11.6039
▁-2.	-11.6039
事物	-11.6039
专家认为	-11.604
这已经是	-11.6041
大幅提升	-11.6041
这么大	-11.6042
主频为	-11.6042
踏上	-11.6043
一众	-11.6044
相关规定	-11.6045
缘分	-11.6047
超市	-11.6048
主要内容	-11.6053
部位	-11.6054
很长时间	-11.6055
对于未来	-11.6056
成立了	-11.606
虽说	-11.6062
感情生活	-11.6063
FM	-11.6063
昨日上午	-11.6063
一定能	-11.6064
充足的	-11.6064
竞争者	-11.6066
身家	-11.6067
售出	-11.6068
▁out	-11.6068
一千	-11.607
下属	-11.6071
调查中	-11.6071
专业人士	-11.6072
考分	-11.6076
三级	-11.6078
合作协议	-11.608
手法	-11.608
无论从	-11.6082
可以发现	-11.6083
快讯	-11.6084
床上	-11.6084
数目	-11.6087
平均水平	-11.6087
保送	-11.609
傅	-11.609
开头	-11.6092
色调	-11.6102
收看	-11.6103
▁联系电话	-11.6104
不确定	-11.6104
了下来	-11.6105
ov	-11.6108
空前	-11.6108
高档	-11.6109
5.5%	-11.6109
东亚	-11.6111
只有一个	-11.6112
▁近年来	-11.612
多多	-11.6121
曝光了	-11.6122
901	-11.6123
的信任	-11.6124
约旦	-11.6128
主打歌	-11.6129
人体	-11.6133
后防	-11.6135
就成了	-11.614
万港元	-11.6141
来进行	-11.6141
也有一些	-11.6142
OT	-11.6143
一个小	-11.6143
0000	-11.6146
也许会	-11.6148
列表	-11.615
统招	-11.6151
当记者	-11.6153
捐出	-11.6155
Phone	-11.6156
ist	-11.6156
在加拿大	-11.6156
移动运营商	-11.6162
天生	-11.6162
观看了	-11.6169
中低端	-11.6171
特区	-11.6172
way	-11.6173
不高兴	-11.6174
代表了	-11.6174
会考虑	-11.6175
等领域	-11.618
创造出	-11.6195
据英国	-11.6198
颇受	-11.62
山东鲁能	-11.6203
联想到	-11.6206
分别达到	-11.6208
看书	-11.6209
它还	-11.6211
小三	-11.6211
冷门	-11.6213
可信	-11.6214
原油期货价格	-11.6216
优异的	-11.6221
更要	-11.6223
最低价	-11.6225
接下	-11.6228
强于	-11.6231
进行过	-11.6232
正式开始	-11.6233
告诉你	-11.6236
笑话	-11.6238
片场	-11.624
的销量	-11.6242
5100	-11.6245
前作	-11.6246
专家表示	-11.6247
感兴趣的朋友不妨	-11.6248
健全	-11.6248
升级版	-11.6249
让用户	-11.6249
打着	-11.6251
日以来	-11.6254
有关人士	-11.6255
的影响力	-11.6259
掀起了	-11.6259
▁To	-11.6259
的伤情	-11.626
及相关	-11.6262
年仅	-11.6262
做好了	-11.6263
最受欢迎	-11.6266
该人士	-11.6267
▁以下为	-11.6271
晨报	-11.6272
一档	-11.6272
可查	-11.6272
伤情	-11.6273
各专业	-11.6276
新技术	-11.6278
art	-11.6279
在短期内	-11.6281
关机	-11.6283
预告	-11.6284
数千	-11.6286
研究生院	-11.629
没有必要	-11.629
不仅仅	-11.6291
便可	-11.6291
GT	-11.6292
基本功	-11.6295
门外	-11.6297
不看好	-11.6298
满足用户	-11.6299
主线	-11.6299
的工资	-11.6304
避免了	-11.6306
想像	-11.6308
CO	-11.6308
:‘	-11.6311
民警	-11.6317
球技	-11.6318
手机上	-11.6319
二号	-11.6325
入了	-11.6325
捕	-11.6327
曾多次	-11.6329
基金分析师	-11.6331
2-0	-11.6334
霆锋	-11.6335
各界	-11.6336
援引	-11.6337
悉	-11.634
一直保持	-11.6342
只差	-11.6343
脏	-11.6343
娱	-11.6343
扭	-11.6343
编制	-11.6344
观赏	-11.6345
宠	-11.6345
肚	-11.6346
爸	-11.6346
裔	-11.6346
汽	-11.6346
都无法	-11.6347
娃	-11.6348
郭可盈	-11.6348
光学变焦	-11.6348
彻	-11.6348
叉	-11.6349
蒋兴权	-11.6349
喜欢的朋友不妨	-11.6349
辱	-11.6349
西多夫	-11.6349
哑	-11.6349
姜东润	-11.6349
中国人民银行	-11.6349
惑	-11.6349
兜	-11.6349
碍	-11.6349
景顺长城	-11.6349
妃	-11.6349
爷爷	-11.6349
扬声器	-11.6349
李霄云	-11.6349
三分线外	-11.6349
广电总局	-11.6349
脆弱	-11.6349
热那亚	-11.6349
斯图加特	-11.6349
疫	-11.6349
钊	-11.6349
银河证券基金研究中心	-11.6349
阿巴特	-11.6349
詹宁斯	-11.6349
阿毛里	-11.6349
泻	-11.6349
娃娃	-11.6349
伊拉克	-11.6349
信达澳银	-11.6349
埃因霍温	-11.6349
屠	-11.6349
逮捕	-11.6349
王宝强	-11.6349
锋芝	-11.6349
犬	-11.6349
▁have	-11.6349
▁this	-11.6349
▁新快报讯	-11.6349
威尔士	-11.6349
陈耀烨	-11.6349
▁whi	-11.635
塞维利亚	-11.635
发烧友	-11.635
俞	-11.635
轨迹	-11.635
呼吸	-11.635
艰辛	-11.635
股票型证券投资基金	-11.635
背靠背	-11.635
颁布	-11.635
劲旅	-11.635
委屈	-11.635
恶劣	-11.635
失业	-11.635
揭示	-11.635
默默	-11.635
激活	-11.635
也不例外	-11.635
安哥拉	-11.635
顺其自然	-11.635
液晶面板	-11.635
王志文	-11.635
钰	-11.635
辩护	-11.635
感恩节	-11.635
竞价	-11.635
契约	-11.6351
的带领下	-11.6351
话语权	-11.6351
黎耀祥	-11.6351
欣喜	-11.6351
ical	-11.6351
声誉	-11.6351
探访	-11.6351
本周五	-11.6351
Fire	-11.6351
盯防	-11.6351
索赔	-11.6351
隐形	-11.6351
支援	-11.6351
涉毒	-11.6351
榜样	-11.6351
迪亚拉	-11.6351
深陷	-11.6351
梦幻	-11.6351
稿件	-11.6351
保鲜	-11.6352
持稳	-11.6352
文科状元	-11.6352
斗争	-11.6352
曹操	-11.6352
限额	-11.6352
绯闻男友	-11.6352
功课	-11.6352
况且	-11.6352
划算	-11.6352
一分钱	-11.6352
喝酒	-11.6352
照样	-11.6353
激进	-11.6353
肚子	-11.6353
沪指	-11.6354
落败	-11.6354
气象	-11.6355
内涵	-11.6355
机身尺寸为	-11.6355
择校生	-11.6355
实录	-11.6355
巴顿	-11.6356
隆重	-11.6356
的帮助下	-11.6356
供电	-11.6356
平淡	-11.6356
城乡	-11.6357
花样	-11.6357
搞定	-11.6357
的重要因素	-11.6357
▁It	-11.6357
绝对不会	-11.6357
华财经	-11.6357
参考报价	-11.6357
法律责任	-11.6358
精度	-11.6358
EIA	-11.6358
高峰期	-11.6358
基准利率	-11.6359
逢高	-11.6359
考生可登录	-11.6359
获准	-11.6359
供应紧张	-11.6359
门户	-11.6359
年轻队员	-11.636
翻身	-11.636
看台上	-11.636
购机	-11.636
尼奥	-11.636
四川省	-11.636
如愿	-11.636
长信	-11.6361
晓明	-11.6362
家具	-11.6362
朝鲜队	-11.6362
跑动	-11.6362
Thi	-11.6363
作物	-11.6363
接纳	-11.6364
生产商	-11.6364
force	-11.6364
普利	-11.6364
Ro	-11.6365
讲话	-11.6365
的股价	-11.6368
的原因之一	-11.6369
听取	-11.6369
点击进入	-11.6369
顺位	-11.637
张野	-11.637
相声	-11.6371
及其他	-11.6371
三轮	-11.6372
被捕	-11.6372
公认	-11.6372
没错	-11.6372
向记者表示	-11.6373
对媒体	-11.6375
富士通	-11.6375
按规定	-11.6376
制胜	-11.6376
走秀	-11.6377
热度	-11.6378
称其	-11.6378
▁//	-11.6379
当代	-11.638
了解一下	-11.638
人士透露	-11.6382
已进入	-11.6383
低胸	-11.6384
联想集团	-11.6384
根本没有	-11.6386
最难	-11.6386
起色	-11.6389
一家基金公司	-11.6389
英语水平	-11.6389
的比分	-11.639
传达	-11.6391
调动	-11.6391
宏观调控	-11.6391
艺术设计	-11.6393
顶着	-11.6393
领先了	-11.6394
赞同	-11.6395
客队	-11.6395
相约	-11.6396
日渐	-11.6396
德尔	-11.6396
这样才能	-11.6397
更愿意	-11.6398
正当	-11.6398
等效	-11.6399
十六	-11.6399
相近	-11.6399
国美	-11.64
万吨左右	-11.64
更适合	-11.6401
ess	-11.6406
的行列	-11.6406
GX	-11.6407
最想	-11.6408
都有可能	-11.641
师资	-11.641
男队	-11.641
付款	-11.6415
如果不是	-11.6416
联盟中	-11.6417
一角	-11.6418
银行股	-11.642
促成	-11.6421
在一次	-11.6421
保住	-11.6422
并存	-11.6423
西北	-11.6425
考试内容	-11.6428
尔森	-11.6429
稍有	-11.643
报导	-11.6431
ap	-11.6431
其他国家	-11.6436
此消息	-11.6438
顿时	-11.6441
问题在于	-11.6444
OL	-11.6447
一届	-11.6447
大唐	-11.6448
不只是	-11.6449
他俩	-11.6449
控制线	-11.645
稍后	-11.6452
中国队以	-11.6454
京城	-11.6456
李明	-11.6456
▁谈及	-11.6458
较前	-11.6458
但同时	-11.6463
突破了	-11.6469
不认识	-11.647
拍得	-11.6471
不服	-11.6471
)--	-11.6473
影后	-11.6473
牛年	-11.6474
演唱会上	-11.6475
名选手	-11.6476
不仅可以	-11.6477
研究生招生	-11.6478
用户提供	-11.6481
均出现	-11.6482
半决赛中	-11.6483
我们看到	-11.6487
9:00	-11.6491
否认了	-11.6492
在当前	-11.6492
记者问	-11.6492
普高	-11.6494
夫人	-11.6495
投资价值	-11.6499
3×	-11.6499
一般都	-11.65
金额为	-11.6501
声明中	-11.6506
忘了	-11.6507
最新价格	-11.6508
于去年	-11.6509
没问题	-11.651
被网友	-11.651
在商家	-11.6516
你说	-11.6517
中职	-11.6518
Au	-11.6522
战成	-11.6522
期货品种	-11.6523
均超过	-11.6524
大户	-11.6527
他坦言	-11.6529
相关专业	-11.6531
患上	-11.6532
向大家	-11.6533
三款	-11.6537
指向	-11.6538
已完成	-11.654
一直被	-11.6541
2200	-11.6542
跟她	-11.6543
收盘时	-11.6547
DDR	-11.6547
通讯员	-11.6549
的前景	-11.6551
扩	-11.6552
失球	-11.6553
整体上	-11.6555
现在我们	-11.6559
压榨	-11.6561
今年下半年	-11.6562
晨报记者	-11.6564
几大	-11.6564
正式发行	-11.6566
被淘汰	-11.6566
举行婚礼	-11.6571
一直都是	-11.6571
吉他	-11.6572
自发	-11.6573
戏中	-11.6574
ETS	-11.6574
所做的	-11.6574
再战	-11.6575
长久	-11.6576
不太好	-11.6577
▁so	-11.6577
四种	-11.6579
ix	-11.6582
吃到	-11.6586
休息室	-11.6587
专家提醒	-11.6588
工作者	-11.6589
的绯闻	-11.6595
想去	-11.6598
戴上	-11.6598
每个月	-11.6602
高校招生	-11.6606
下次	-11.6606
过多的	-11.6606
雷人	-11.6606
的意愿	-11.6607
市场化	-11.6611
单周	-11.6612
▁SL	-11.6612
出名	-11.6613
两会	-11.6615
的几率	-11.6618
指定的	-11.662
记者看到	-11.6621
今年中考	-11.6625
已经连续	-11.6628
是一件	-11.6631
把我	-11.6632
发展前景	-11.6635
是如何	-11.6636
净利润为	-11.6639
点位	-11.6639
已确定	-11.6644
人性	-11.6646
有意义	-11.6652
一年前	-11.6652
已经公布	-11.6659
7500	-11.6662
三四	-11.6663
跌幅最大	-11.6666
率达到	-11.6667
在接下来的	-11.6667
.03%	-11.6667
4200	-11.6668
▁Re	-11.6669
力压	-11.6672
力克	-11.6672
跳出	-11.6676
十足的	-11.6676
过得	-11.6676
高球	-11.6677
记者致电	-11.6679
是一家	-11.6681
超人	-11.6686
的出场时间	-11.6687
主要原因	-11.6688
ner	-11.6689
1410	-11.6696
剧院	-11.6702
还不是	-11.6703
天然	-11.6704
2%;	-11.6705
沪上	-11.6707
谓	-11.6708
球会	-11.6708
恢复到	-11.671
业主	-11.6711
两国	-11.6711
发生后	-11.6713
涨至	-11.6717
实物	-11.6719
几场比赛	-11.672
释	-11.672
挫	-11.672
均未	-11.672
每分钟	-11.6722
主意	-11.6722
宣布了	-11.6723
▁叶	-11.6726
淘	-11.6727
知性	-11.6727
的荣誉	-11.6728
得不错	-11.6728
一个小时	-11.673
稀土	-11.673
睿	-11.673
弊	-11.673
骚	-11.6731
撰文	-11.6731
璐	-11.6731
葡	-11.6731
孕	-11.6731
淑	-11.6732
愤	-11.6732
小子	-11.6732
椅	-11.6732
迈阿密	-11.6732
谣	-11.6732
梁文冲	-11.6733
婴	-11.6733
绿衫军	-11.6733
贝尔巴托夫	-11.6733
猎	-11.6733
鞭	-11.6733
理查德	-11.6733
上海黄金交易所	-11.6733
普约尔	-11.6733
衬	-11.6733
浮出水面	-11.6733
闵鹿蕾	-11.6734
王家卫	-11.6734
周苏红	-11.6734
遥遥领先	-11.6734
华泰柏瑞	-11.6734
庆典	-11.6734
于文凤	-11.6734
科特迪瓦	-11.6734
耕	-11.6734
佛罗里达	-11.6734
甲级联赛	-11.6734
祈	-11.6734
联合会杯	-11.6734
RMVB	-11.6734
应届本科毕业生	-11.6734
TOP	-11.6734
李玮锋	-11.6734
▁据新华社电	-11.6734
乐易玲	-11.6734
掏	-11.6734
细胞	-11.6734
郝蕾	-11.6734
ROM	-11.6734
做市商	-11.6734
摩根大通	-11.6734
诺维奇	-11.6734
Mydaily	-11.6734
艾尔顿	-11.6734
在进攻端	-11.6734
拭目以待	-11.6734
匪	-11.6734
雇主	-11.6734
翁虹	-11.6734
储蓄	-11.6734
北京电影学院	-11.6734
外国语	-11.6734
掷	-11.6734
燃料	-11.6734
阿内尔卡	-11.6734
上海交大	-11.6734
公积金	-11.6734
哥伦比亚	-11.6734
麟	-11.6734
周秀娜	-11.6734
月中下旬	-11.6734
召集	-11.6734
惨淡	-11.6734
侦探	-11.6734
表彰	-11.6734
包裹	-11.6735
贯彻	-11.6735
陈小春	-11.6735
汤唯	-11.6735
风靡	-11.6735
高等教育自学考试	-11.6735
围巾	-11.6735
间谍	-11.6735
漫画	-11.6735
迫切	-11.6735
接近尾声	-11.6735
编码	-11.6735
盛宴	-11.6735
讲究	-11.6735
首募规模	-11.6735
续航能力	-11.6735
英尺	-11.6735
实名制	-11.6735
谣言	-11.6735
涂层	-11.6735
叶璇	-11.6735
谢楠	-11.6735
隆重举行	-11.6735
综合素质评价	-11.6735
宝盈	-11.6735
发泄	-11.6735
国储糖	-11.6735
黄海波	-11.6735
返港	-11.6736
精细	-11.6736
依托	-11.6736
奎尔	-11.6736
芬奇	-11.6736
补篮	-11.6736
吸纳	-11.6736
巡回赛	-11.6736
测评	-11.6736
严宽	-11.6736
预警	-11.6736
机身设计	-11.6736
▁Pro	-11.6736
显存	-11.6737
轰动	-11.6737
闯入	-11.6737
波段	-11.6737
略微	-11.6737
评阅	-11.6737
祖儿	-11.6738
鲜花	-11.6738
脱离	-11.6738
子弟	-11.6738
打招呼	-11.6738
救助	-11.6738
信诚	-11.6738
丰收	-11.6739
8.2	-11.6739
影视作品	-11.6739
佳丽	-11.6739
出道以来	-11.6739
国象	-11.6739
阿尔法	-11.6739
惟一	-11.674
刑事	-11.674
刘芸	-11.674
紧缩政策	-11.674
▁8.	-11.674
假设	-11.6741
各区县	-11.6741
ty	-11.6741
温州	-11.6741
宝石	-11.6741
百货	-11.6741
两岸	-11.6741
影像处理器	-11.6741
创立	-11.6741
神勇	-11.6742
特质	-11.6742
跳楼	-11.6742
视频直播	-11.6742
产糖	-11.6742
招生规模	-11.6743
回购	-11.6743
高三学生	-11.6743
更像是	-11.6743
再创新高	-11.6744
反思	-11.6744
出口退税	-11.6744
节节	-11.6744
核实	-11.6745
作出了	-11.6745
主场对阵	-11.6745
排位赛	-11.6746
广州亚运会	-11.6746
闪婚	-11.6747
分别上涨	-11.6747
无聊	-11.6747
脑子	-11.6748
海岸	-11.6748
持股比例	-11.6748
普通话	-11.6748
标题	-11.6749
单机	-11.6749
新援	-11.6749
取得胜利	-11.675
交通银行	-11.675
飞往	-11.675
商谈	-11.675
逾期	-11.675
威力	-11.6751
强行	-11.6751
始于	-11.6751
汇总	-11.6751
黑莓手机	-11.6751
适用于	-11.6751
成员国	-11.6752
小皇帝	-11.6752
谈谈	-11.6752
男朋友	-11.6752
安保	-11.6752
ATM	-11.6753
五段	-11.6754
高昂	-11.6754
发货	-11.6754
复赛	-11.6754
平民	-11.6755
是一款拥有	-11.6755
共设	-11.6756
此刻	-11.6756
出镜	-11.6757
已经达到	-11.6757
同志	-11.6758
取得联系	-11.6758
切入	-11.6758
行业协会	-11.6759
接听	-11.6759
还剩下	-11.6759
坦言自己	-11.676
网商	-11.676
翻转	-11.676
ana	-11.6761
离开了	-11.6761
赢家	-11.6762
折扣	-11.6762
被发现	-11.6763
指标生	-11.6764
缺点	-11.6764
好坏	-11.6764
自主选拔录取	-11.6764
海口	-11.6765
之类的	-11.6765
哈利	-11.6765
华南	-11.6765
军事	-11.6765
全国统考	-11.6765
基金管理人	-11.6766
试过	-11.6766
代号	-11.6768
乌克兰	-11.6768
开心网	-11.6768
目的地	-11.6769
断球	-11.6769
购买了	-11.6771
同城	-11.6772
电视机	-11.6772
一幕	-11.6773
最新报价为	-11.6773
可供	-11.6773
终点	-11.6774
红人	-11.6775
大幅减少	-11.6776
高居	-11.6778
分割	-11.6778
恰当	-11.6778
伊万	-11.6778
远期	-11.6779
次犯规	-11.6779
李小姐	-11.678
杜比	-11.678
▁◆	-11.6783
上个赛季	-11.6786
)[	-11.6786
陷入了	-11.6787
偏向	-11.6787
太阳队	-11.6787
关联	-11.6787
平平	-11.6787
快速发展	-11.6788
不限	-11.6791
标准银行	-11.6791
务必	-11.6792
零下	-11.6795
胜者	-11.6795
亚当	-11.6795
还具备	-11.6797
天内	-11.68
外传	-11.6801
85%	-11.6801
解放军	-11.6801
的话说	-11.6801
美术类专业	-11.6802
岁时	-11.6803
停留在	-11.6803
预告片	-11.6805
UV	-11.6805
界人士	-11.6806
淘汰了	-11.6807
邀请了	-11.6808
需要时间	-11.6808
小时内	-11.6809
的脚步	-11.6809
自费	-11.6812
争夺战	-11.6814
▁Ma	-11.6816
也令	-11.6819
出动	-11.682
女队	-11.6823
停工	-11.6825
OS	-11.6825
一直很	-11.6827
两双	-11.6827
不进	-11.6829
高考报名	-11.683
华安基金	-11.683
必要的	-11.683
写着	-11.6831
除去	-11.6832
.27%	-11.6832
截至今年	-11.6835
真机	-11.6836
老马	-11.6837
最强的	-11.6838
银行理财	-11.6839
特别注意	-11.6839
JW	-11.684
署名	-11.6842
武大	-11.6844
几乎所有	-11.6845
工作经验	-11.6846
都觉得	-11.6849
已公布	-11.6849
天津市	-11.685
▁直击	-11.685
商品期货市场	-11.6851
相当大	-11.6851
管理人员	-11.6854
在亚洲	-11.6854
总产量	-11.6854
▁SD	-11.6854
明智	-11.6855
展出	-11.6858
EA	-11.6858
将正式	-11.686
社保	-11.686
10.1	-11.6861
系列产品	-11.6863
四成	-11.6863
北京地区	-11.6864
大国	-11.6865
▁You	-11.6866
区内	-11.6866
一幅	-11.6869
han	-11.687
误会	-11.6872
最牛	-11.6872
HR	-11.6874
两三	-11.6876
招生人数	-11.6877
能源化工	-11.6878
的时候就	-11.6879
比去年同期的	-11.688
NG	-11.688
海地	-11.6886
可选择	-11.6886
的净值增长率	-11.6889
之王	-11.6891
基金分红	-11.6894
亚冠联赛	-11.6895
1993	-11.6896
落后于	-11.6896
在关键时刻	-11.6897
发展趋势	-11.6897
拉伤	-11.6897
全球最大	-11.6897
主要还是	-11.6897
入学考试	-11.69
的外观设计	-11.69
谁都	-11.6901
绝不会	-11.6902
日程	-11.6903
盈利能力	-11.6904
这说明	-11.6907
有记者问	-11.6908
有权	-11.691
中小盘股	-11.6916
Jo	-11.6916
目标是	-11.6919
768	-11.692
由学校	-11.692
6.9	-11.6921
想做	-11.6921
只封闭式基金	-11.6926
od	-11.6926
股票资产	-11.6928
有钱	-11.6934
启动了	-11.6934
不支持	-11.6936
驱	-11.6936
很忙	-11.6939
创下了	-11.6942
010-	-11.6944
可以帮助	-11.6945
并不多	-11.6945
难点	-11.6946
申花队	-11.6947
点击查看	-11.6949
der	-11.6952
热评	-11.6955
三支	-11.6956
这并不是	-11.6959
秋冬	-11.6959
人次	-11.6962
▁or	-11.6962
中韩	-11.6963
记者刘	-11.6964
心理上	-11.6967
凯尔特人队	-11.697
RE	-11.6971
作了	-11.6971
这些学生	-11.6973
社会上	-11.6975
有一位	-11.6976
第一批本科	-11.6977
学生和家长	-11.6981
中行	-11.6981
网通	-11.6982
部总经理	-11.6982
个球	-11.6986
的言论	-11.6986
是一个很	-11.6987
新戏	-11.6991
募	-11.6993
与家人	-11.6994
还曾	-11.6996
已经成为了	-11.6998
运动会	-11.6998
恋人	-11.6999
lie	-11.7
这是我们	-11.7003
政策性	-11.7004
.04%	-11.7005
方式进行	-11.7008
总理	-11.7009
138	-11.7011
后发现	-11.7011
合成	-11.7016
年度最佳	-11.7016
出口量	-11.7017
成人高校招生	-11.7017
场球	-11.7022
中国区	-11.7023
混合型	-11.7023
师范	-11.7024
外教	-11.7024
代表作	-11.7032
已经完全	-11.7035
辽宁省	-11.7036
机票	-11.7038
上周四	-11.7043
鹏华基金	-11.7045
保单	-11.7046
年夏天	-11.7046
在家中	-11.7046
你就	-11.7047
49%	-11.7051
刚刚结束	-11.7056
寸液晶	-11.7057
喜欢的朋友	-11.7058
题干	-11.7059
膝	-11.706
手动	-11.7063
上千	-11.7063
区间震荡	-11.7063
金牛	-11.7064
在联赛中	-11.7064
似乎是	-11.7065
方可	-11.707
债券投资	-11.7071
最后一场	-11.7073
类股票	-11.7075
构	-11.7076
判定	-11.7077
机身重量	-11.7078
找我	-11.708
败给	-11.7081
对位	-11.7085
你能	-11.7086
一期	-11.7087
但仍然	-11.7087
黄金价格	-11.7088
▁-3.	-11.7091
不乐观	-11.7093
七八	-11.7093
漫	-11.7098
大城市	-11.7099
没有办法	-11.71
校考	-11.71
的特性	-11.7105
境地	-11.7105
兑人民币	-11.7105
被警方	-11.7106
都希望	-11.7107
可能要	-11.7109
亩	-11.7116
中国电影	-11.712
原因在于	-11.7122
鹰	-11.7123
以确保	-11.7124
咏	-11.7125
跪	-11.7126
排位	-11.7127
就是为了	-11.7129
饱	-11.7131
发改委	-11.7131
室外	-11.7131
遥	-11.7132
徽	-11.7132
嘘	-11.7132
粤	-11.7133
玮	-11.7133
廖	-11.7133
拘	-11.7133
陈道明	-11.7133
关天朗	-11.7133
劣	-11.7133
邓丽君	-11.7133
唤	-11.7133
可分配收益	-11.7133
同等学力	-11.7133
怎	-11.7134
扛	-11.7134
鹿	-11.7134
梅开二度	-11.7134
布莱切	-11.7134
滋	-11.7134
泰达荷银	-11.7134
舰	-11.7134
舌	-11.7134
契合	-11.7134
炳	-11.7134
蔡健雅	-11.7134
易观国际	-11.7134
塞尔维亚	-11.7134
涩	-11.7134
东湖高新	-11.7134
奥林匹克	-11.7134
伊瓜因	-11.7134
皮尔斯	-11.7134
哈达迪	-11.7134
可圈可点	-11.7134
梁咏琪	-11.7134
阎	-11.7134
颂	-11.7134
范德法特	-11.7134
人力资源	-11.7134
华兰生物	-11.7134
齐豫	-11.7134
何韵诗	-11.7134
美联社	-11.7134
韬	-11.7134
扑朔迷离	-11.7134
拢	-11.7134
宣判	-11.7134
施魏因斯泰格	-11.7134
愧	-11.7134
入主	-11.7134
神州数码	-11.7134
讽刺	-11.7134
刘莎莎	-11.7134
娜塔莎	-11.7134
随身携带	-11.7134
邓卓翔	-11.7134
本菲卡	-11.7134
吕晓明	-11.7134
▁晚报讯	-11.7134
淮	-11.7134
宠物	-11.7134
1280×720	-11.7134
电池供电	-11.7134
主旨	-11.7134
CPU	-11.7135
当之无愧	-11.7135
含金量	-11.7135
贵宾	-11.7135
厨房	-11.7135
桂冠	-11.7135
蒙娜丽莎	-11.7135
摄影爱好者	-11.7135
舜天	-11.7135
削弱	-11.7135
伤愈复出	-11.7135
昂贵	-11.7135
遥远	-11.7135
稍稍	-11.7135
脑袋	-11.7135
观测	-11.7135
罗德曼	-11.7135
慰问	-11.7135
滚动	-11.7135
莫文蔚	-11.7135
争执	-11.7135
伊始	-11.7135
偶然	-11.7135
万镑	-11.7135
停滞	-11.7135
成像质量	-11.7135
在规定时间内	-11.7135
连拍速度	-11.7135
百分之	-11.7136
锐减	-11.7136
餐馆	-11.7136
斯科特	-11.7136
逢低	-11.7136
残酷	-11.7136
预示着	-11.7136
草根	-11.7136
基金份额持有人	-11.7136
河南建业	-11.7136
商铺	-11.7136
续集	-11.7136
手柄	-11.7137
天虹	-11.7137
背单词	-11.7137
答谢	-11.7137
吃亏	-11.7137
紫色	-11.7137
适马	-11.7137
早晨	-11.7137
附件	-11.7137
师徒	-11.7137
何鸿	-11.7137
点或	-11.7137
胡瓜	-11.7138
绝佳	-11.7138
纯属	-11.7138
欧阳	-11.7138
充满信心	-11.7138
玉树	-11.7138
莲花	-11.7138
飘红	-11.7138
严格执行	-11.7138
画皮	-11.7139
专程	-11.7139
童星	-11.7139
飞侠	-11.7139
碰面	-11.7139
艾尔	-11.7139
挥手	-11.7139
接替	-11.7139
的举动	-11.714
较前一周	-11.714
中国男足	-11.714
合格者	-11.7141
起伏	-11.7141
突发	-11.7141
新生代	-11.7141
换帅	-11.7141
谢联	-11.7141
灵感	-11.7142
吸金	-11.7142
协作	-11.7142
差异化	-11.7143
章节	-11.7143
锌价	-11.7144
多年前	-11.7144
编号	-11.7144
病房	-11.7144
deal	-11.7145
中国网通	-11.7145
期货日报	-11.7145
划线	-11.7145
投机资金	-11.7145
行业中	-11.7145
巨人网络	-11.7145
撞车	-11.7146
预约	-11.7146
成效	-11.7146
尽早	-11.7146
最后一节	-11.7146
失业率	-11.7147
清晰度	-11.7147
两侧	-11.7147
国内首只	-11.7147
独立学院	-11.7147
住房	-11.7147
学历教育	-11.7149
平凡	-11.7149
美国大学	-11.7149
纪录片	-11.715
银河期货	-11.715
慈善活动	-11.7151
表现不佳	-11.7152
单项	-11.7153
著名导演	-11.7153
有趣的	-11.7153
围绕着	-11.7153
文具	-11.7153
奠定了	-11.7154
市场风险	-11.7155
每晚	-11.7155
社交网站	-11.7155
中国篮协	-11.7155
调低	-11.7156
等候	-11.7156
西城	-11.7156
一袭	-11.7156
浙江大学	-11.7157
李琳	-11.7157
平均收益	-11.7158
IE	-11.7158
马伊	-11.7162
希望他能	-11.7162
新学期	-11.7164
引得	-11.7164
大幅增长	-11.7164
刘威	-11.7165
.72%	-11.7166
呼声	-11.7166
中国围棋	-11.7166
购置	-11.7169
实体经济	-11.7171
技术犯规	-11.7171
PL	-11.7171
新郎	-11.7173
两个交易日	-11.7173
据新华社	-11.7174
迷你	-11.7175
理科生	-11.7176
铁矿石价格	-11.7176
至少有	-11.7176
重演	-11.7176
-45	-11.7177
迟迟	-11.7177
纹身	-11.7178
的进程	-11.718
这块	-11.7181
io	-11.7181
反正	-11.7182
高度关注	-11.7183
自今年	-11.7183
武汉大学	-11.7184
局部	-11.7184
样子	-11.7184
喜好	-11.7184
线路	-11.7184
已经基本	-11.7185
短文	-11.7185
中学校长	-11.7186
澳大利亚队	-11.7186
世界级	-11.7186
这部电影	-11.7189
之后又	-11.719
录取资格	-11.719
是最好的	-11.7191
的表情	-11.7191
单车	-11.7193
打理	-11.7195
家居	-11.7195
考量	-11.7196
赛马	-11.7196
征求	-11.7197
开业	-11.7197
涨幅超过	-11.7197
前女友	-11.7197
发明	-11.7198
引用	-11.7198
一哥	-11.7198
令我	-11.7199
第三场	-11.7199
能力测试	-11.7201
之星	-11.7202
含税	-11.7204
叫做	-11.7205
未来几年	-11.7206
等国	-11.7206
调高	-11.7208
拿了	-11.7209
电话会议	-11.7213
这使	-11.7214
会根据	-11.7217
参与者	-11.7219
现有的	-11.7222
并且支持	-11.7224
FH	-11.7225
越好	-11.7226
外形设计	-11.7227
凡是	-11.7227
一分钟	-11.7228
刚才	-11.723
投资比例	-11.7231
从来都	-11.7232
在中场	-11.7233
▁Ro	-11.7234
没有想到	-11.7235
次助攻和	-11.7236
总人数	-11.7236
曾一度	-11.7237
涨到	-11.7238
.71%	-11.7238
为主题	-11.7239
不要再	-11.724
事发	-11.7245
鸿海	-11.7247
都想	-11.7248
横向	-11.7249
年普通高校招生	-11.725
不同于	-11.7254
投向	-11.7256
首歌曲	-11.7259
这两位	-11.726
计划数	-11.726
假球	-11.7261
口中	-11.7262
枚金牌	-11.7271
其中一个	-11.7271
日圆	-11.7272
公布后	-11.7275
本本	-11.7277
不料	-11.7277
▁(3)	-11.7278
金融学	-11.7278
三地	-11.7279
失分	-11.7279
2-2	-11.7279
十七	-11.728
也使得	-11.728
lin	-11.7282
再看	-11.7282
这方面的	-11.7284
大题	-11.7285
白糖价格	-11.7286
运费	-11.7287
在性能方面	-11.7287
剩下	-11.7291
今年年底	-11.7292
GW	-11.7292
33%	-11.7292
新规	-11.7294
打乱	-11.73
该怎么	-11.7301
因其	-11.7302
继承了	-11.7303
0.3%	-11.7304
练兵	-11.7306
这一问题	-11.7307
未知	-11.7309
一职	-11.731
想把	-11.731
对外公布	-11.731
▁&	-11.7315
八成	-11.7316
一处	-11.7316
深圳队	-11.7325
陈红	-11.7325
大盘蓝筹	-11.7328
该机采用	-11.7329
▁晨报记者	-11.7334
成功地	-11.7341
:1-	-11.7342
成为一个	-11.7343
成品油	-11.7349
最美	-11.735
说明了	-11.7351
分区	-11.7353
合资	-11.7355
等其他	-11.7357
中国政府	-11.7357
初级	-11.7358
▁Be	-11.7362
这无疑	-11.7364
电机	-11.737
会考	-11.737
产量为	-11.7374
部戏	-11.7376
TI	-11.7378
专业硕士	-11.7379
3-2	-11.7379
▁昨天下午	-11.7381
申请表	-11.7382
所持	-11.7383
艰苦	-11.7386
▁武汉市	-11.7386
▁Ge	-11.7387
理光	-11.7388
1.3%	-11.7389
这两年	-11.739
步步	-11.7392
970	-11.7393
的首发阵容	-11.7394
随之	-11.7394
教育机构	-11.7397
7200	-11.7398
该负责人	-11.7399
拍摄出	-11.7404
不安	-11.7404
388	-11.7407
礼仪	-11.7408
4-1	-11.7412
0-1	-11.7413
继续努力	-11.7414
高中毕业生	-11.7415
格莱美	-11.7415
XP	-11.7416
制品	-11.742
将超过	-11.7422
收于每桶	-11.7425
不了解	-11.7426
表现抢眼	-11.7428
展示出	-11.7431
前所未有的	-11.7435
搬到	-11.744
发票	-11.7441
能看到	-11.7441
前几天	-11.7442
技术性	-11.7443
51%	-11.7443
概率	-11.7447
▁昨日下午	-11.7447
队里	-11.7452
好玩	-11.7458
一班	-11.746
等众多	-11.7461
下班	-11.7463
Se	-11.7466
可以满足	-11.7468
摆在	-11.7469
参加过	-11.747
符合条件的	-11.7472
再创	-11.7475
说什么	-11.7475
ust	-11.7476
比赛前	-11.7477
的首场	-11.7477
一次次	-11.7477
到时候	-11.7477
习惯了	-11.7479
178	-11.748
在性能上	-11.748
总能	-11.7482
泰信	-11.7486
榨	-11.7487
停留	-11.7488
发行规模	-11.7491
代表团	-11.7491
拥有一个	-11.7494
▁创维	-11.7494
今年初	-11.7496
割	-11.7499
首歌	-11.75
批复	-11.7505
设立了	-11.7505
股票投资	-11.7509
校内	-11.751
时常	-11.751
面对媒体	-11.751
熊市中	-11.7513
漫游	-11.7516
等内容	-11.7518
增添	-11.7523
金钟	-11.7523
制定了	-11.7524
大多是	-11.7524
址	-11.7529
91.	-11.7529
就这样	-11.7534
刘海	-11.7534
同组	-11.7535
琦	-11.7539
揭幕	-11.7541
报志愿	-11.7544
自律	-11.7545
里昂	-11.7545
漂	-11.7545
殷	-11.7547
掀	-11.7547
加拉	-11.7547
究	-11.7547
悟	-11.7548
祸	-11.7548
荷	-11.7548
芝	-11.7549
奸	-11.7549
窄	-11.7549
袖	-11.7549
削	-11.7549
菊	-11.755
弈	-11.755
茜	-11.755
兽	-11.755
齐达内	-11.755
博列洛	-11.755
赋予	-11.755
比往年	-11.755
友谊赛	-11.755
彪	-11.755
裸奔	-11.755
波波维奇	-11.755
闭幕式	-11.755
苍	-11.755
杜淳	-11.755
欧足联	-11.755
万像素成像能力	-11.755
不难看出	-11.755
肾	-11.755
食品饮料	-11.755
费迪南德	-11.755
LOGO	-11.755
安德烈	-11.755
罗志祥	-11.755
杨紫琼	-11.755
巧克力	-11.755
压轴	-11.755
标准普尔	-11.755
汤普森	-11.7551
贾斯汀	-11.7551
特科格鲁	-11.7551
寓所	-11.7551
瑜	-11.7551
等离子电视	-11.7551
专业课加试	-11.7551
开盘交易的	-11.7551
何雯娜	-11.7551
俞觉敏	-11.7551
失踪	-11.7551
帕金斯	-11.7551
睁	-11.7551
瓷	-11.7551
世华财讯	-11.7551
艾薇儿	-11.7551
截然不同	-11.7551
欧巡赛	-11.7551
余文乐	-11.7551
录取最低控制分数线	-11.7551
四分之一	-11.7551
张国荣	-11.7551
拦截	-11.7551
阻碍	-11.7551
老虎伍兹	-11.7551
申银万国	-11.7551
董方卓	-11.7551
灿烂	-11.7551
凝	-11.7551
系统性风险	-11.7551
聿	-11.7551
▁商报讯	-11.7551
排名靠前	-11.7551
ound	-11.7551
不容乐观	-11.7551
▁版权所有	-11.7551
骚扰	-11.7551
萨尔蒙斯	-11.7551
投篮不中	-11.7551
罗德里格斯	-11.7551
枫叶	-11.7551
房祖名	-11.7551
技战术	-11.7551
斯塔德迈尔	-11.7551
花旦	-11.7551
拉伊奥拉	-11.7551
数码相机产品报价	-11.7551
Tony	-11.7551
沉寂	-11.7551
加仑	-11.7551
大手笔	-11.7551
保险保障基金	-11.7551
狠狠	-11.7551
▁相关新闻	-11.7551
撰写	-11.7551
唯独	-11.7551
救援	-11.7551
取景器	-11.7552
冻结	-11.7552
收拾	-11.7552
西汉姆	-11.7552
狄仁杰	-11.7552
称之为	-11.7552
New	-11.7552
数码摄像机	-11.7552
国民党	-11.7552
洗衣机	-11.7552
碰撞	-11.7552
路径	-11.7552
繁忙	-11.7552
礼貌	-11.7552
航空	-11.7552
斩获	-11.7552
滑盖	-11.7552
QVGA	-11.7552
公映	-11.7552
磨练	-11.7552
检修	-11.7553
严密	-11.7553
景象	-11.7553
召回	-11.7553
选秀权	-11.7553
问候	-11.7553
杀毒	-11.7553
评判	-11.7553
证券时报	-11.7553
极强的	-11.7553
避险情绪	-11.7553
营业收入	-11.7553
备货	-11.7553
误差	-11.7553
劲爆	-11.7553
鼓舞	-11.7553
公测	-11.7554
副校长	-11.7554
号召力	-11.7554
禁赛	-11.7554
打出一波	-11.7554
And	-11.7554
精武	-11.7554
很长	-11.7554
黄博文	-11.7554
便会	-11.7554
理赔	-11.7554
近乎	-11.7555
谢娜	-11.7555
止跌	-11.7555
巧合	-11.7555
药物	-11.7555
偏紧	-11.7555
畅谈	-11.7555
供求	-11.7555
极佳	-11.7555
哲科	-11.7555
教父	-11.7555
新闻发言人	-11.7555
赌博	-11.7555
多空双方	-11.7555
预防	-11.7556
草案	-11.7556
读研	-11.7556
填志愿	-11.7556
盛世	-11.7556
情报	-11.7556
建筑钢材	-11.7556
还特别	-11.7556
现今	-11.7556
传统封基	-11.7556
光学防抖功能	-11.7557
补丁	-11.7557
进账	-11.7557
反观	-11.7557
此行	-11.7557
盛大游戏	-11.7557
实验操作	-11.7557
指导意见	-11.7557
定增	-11.7557
消息人士透露	-11.7558
telli	-11.7558
实验班	-11.7558
格伦	-11.7558
今天小编	-11.7559
美妙	-11.7559
每盎司	-11.7559
达拉斯	-11.7559
ah	-11.7559
富商	-11.756
西藏	-11.756
机身厚度	-11.756
那一刻	-11.756
劳动力	-11.756
税收	-11.756
混双	-11.756
直降	-11.756
潜能	-11.7561
转载	-11.7561
红灯	-11.7562
不过对于	-11.7562
灯光	-11.7562
还要看	-11.7562
当被问及	-11.7563
嫁给	-11.7564
兔年	-11.7564
1009	-11.7564
韩刚	-11.7564
放假	-11.7564
雅思成绩	-11.7564
新东家	-11.7564
编者	-11.7565
更衣室里	-11.7565
最新报价	-11.7565
极度	-11.7565
ack	-11.7566
校友	-11.7567
赌球	-11.7568
老虎	-11.7568
个月后	-11.7569
分析人士表示	-11.7569
踏实	-11.7569
莱特	-11.757
黄色	-11.757
成功后	-11.757
型男	-11.757
供应量	-11.757
这事	-11.7571
交谈	-11.7571
闻名	-11.7571
各省市	-11.7571
主板	-11.7571
大会上	-11.7572
夺金	-11.7573
大叔	-11.7574
北京国安	-11.7574
收跌	-11.7575
长期以来	-11.7575
单节	-11.7575
越高	-11.7576
全过程	-11.7576
十年前	-11.7576
选取	-11.7577
中国国际	-11.7578
资产管理公司	-11.7579
那段	-11.7579
下一代	-11.758
黑白	-11.7581
我们不能	-11.7583
攻入	-11.7584
化妆品	-11.7585
BP	-11.7586
字数	-11.7586
户外	-11.7586
动摇	-11.7588
一审	-11.7589
各市	-11.759
摆放	-11.7592
不小心	-11.7592
能够让	-11.7592
千金	-11.7592
意大利媒体	-11.7592
新欢	-11.7592
2015	-11.7593
历时	-11.7595
沿用	-11.7597
高校排名	-11.7598
或许会	-11.7598
选拔赛	-11.7598
面对面	-11.7599
估值水平	-11.76
在市场上	-11.7602
管理学院	-11.7602
各品种	-11.7604
▁Research	-11.7604
剧照	-11.7604
话说	-11.7604
紧紧	-11.7604
赶来	-11.7609
示人	-11.761
万多人	-11.7612
大喊	-11.7612
李静	-11.7613
敌人	-11.7616
个人信息	-11.7617
越多	-11.7617
有可能会	-11.7618
小康	-11.7619
买下	-11.762
我省高考	-11.762
跨市场	-11.762
周岁	-11.7621
日左右	-11.7622
要考虑	-11.7622
不景气	-11.7623
导向	-11.7627
天地	-11.7629
英里	-11.7629
特约	-11.7629
书店	-11.763
推向	-11.763
没必要	-11.7633
很低	-11.7636
高感光度	-11.7638
前男友	-11.7639
但是如果	-11.7639
产后	-11.764
道题	-11.7643
四次	-11.7643
第四次	-11.7646
考完	-11.7647
角度来看	-11.7648
还送	-11.7649
发现自己	-11.765
保留了	-11.7652
可申请	-11.7652
进行网上报名	-11.7654
tra	-11.7654
分手后	-11.7654
新进	-11.7655
海子	-11.7655
出海	-11.7657
夺回	-11.7662
个孩子	-11.7662
方便考生	-11.7664
最后一天	-11.7664
仍为	-11.7665
游玩	-11.7666
第一周	-11.7666
的结局	-11.7669
个案	-11.767
这些人	-11.7673
万一	-11.7674
武汉市	-11.7674
有误	-11.7675
新婚	-11.7676
时长	-11.7676
代表着	-11.7677
一般是	-11.7677
的眼神	-11.7678
第一场比赛	-11.7679
太好	-11.7679
很可能是	-11.7682
销售价格	-11.7683
1—	-11.7684
妙传	-11.7686
比率	-11.7687
不远	-11.7687
落到	-11.7688
银行系	-11.769
一击	-11.7692
不爱	-11.7692
对于那些	-11.7696
在当地	-11.7696
换下了	-11.7697
身份证号	-11.7697
入口	-11.7699
可以根据	-11.77
下降至	-11.7703
报名工作	-11.7704
方便用户	-11.7708
考生可通过	-11.7709
以求	-11.7712
首家	-11.7714
理论上	-11.7714
本子	-11.7721
在新赛季	-11.7724
将使	-11.7727
港大	-11.7729
感兴趣的朋友	-11.7732
小风	-11.7732
逐一	-11.7733
▁11.	-11.7733
表现突出	-11.7738
很感兴趣	-11.7739
继续进行	-11.7739
0.2%	-11.7739
去美国	-11.7741
也有了	-11.7745
该项目	-11.7745
五次	-11.7745
次盖帽	-11.7748
只基金中	-11.7749
少见	-11.7751
正式宣布	-11.7752
为了保证	-11.7752
已经完成	-11.7753
销售渠道	-11.7754
中脱颖而出	-11.7756
其间	-11.7757
回报率	-11.7759
吸引人	-11.7765
将采取	-11.7766
超越了	-11.7766
想必	-11.7767
国青队	-11.7767
走人	-11.7771
My	-11.7773
股指期货市场	-11.7776
一则	-11.7776
人像	-11.7777
1988	-11.7778
下一场	-11.778
改成	-11.7781
风险投资	-11.7784
必然会	-11.7786
大军	-11.7788
招生工作	-11.7789
8:00	-11.7789
也出现了	-11.779
十八	-11.779
981	-11.7791
确有	-11.7796
发行价	-11.7796
有趣	-11.7801
ies	-11.7802
另一家	-11.7802
将会是	-11.7802
两年后	-11.7803
大热	-11.7804
法国人	-11.7807
ao	-11.7807
用一个	-11.7807
为核心	-11.7811
全国性	-11.7812
码处	-11.7813
早籼稻期货	-11.7822
来电	-11.7824
为自己的	-11.7826
在这份	-11.7826
单独招生	-11.7827
在上赛季	-11.7833
虽然目前	-11.7835
我必须	-11.7837
补报名	-11.7839
而此前	-11.7841
五六	-11.7843
偏股	-11.7844
4600	-11.7845
丢了	-11.7846
大环境	-11.7847
的味道	-11.7848
和队友	-11.7849
他觉得	-11.785
名列第	-11.7852
为主题的	-11.7852
引爆	-11.7855
几度	-11.7859
不舒服	-11.7861
替补席上	-11.7864
批文	-11.7865
重伤	-11.7869
ON	-11.7879
生活方式	-11.7882
话语	-11.7883
价格下跌	-11.7888
考生填报志愿	-11.7889
起床	-11.7892
关键是	-11.7892
第一部	-11.7894
具体时间	-11.7895
做完	-11.7895
王晨	-11.7897
▁10.	-11.7903
概念股	-11.7907
最佳球员	-11.7909
已经过去	-11.791
脚步	-11.7911
白糖期货	-11.7911
也只是	-11.7911
开关	-11.7911
上一场比赛	-11.7912
扩大到	-11.7913
几百	-11.7915
超广角	-11.7916
当她	-11.7917
个省	-11.7917
元钱	-11.7918
生成	-11.7919
仅剩	-11.7921
国企	-11.7925
du	-11.7926
婚前	-11.793
选用	-11.793
廉	-11.7931
克拉	-11.7934
教练员	-11.7937
让人们	-11.7938
等相关	-11.7941
跟我	-11.7942
矿业	-11.7942
例外	-11.7946
投资方	-11.7951
VA	-11.7953
伙伴	-11.7953
表演专业	-11.7954
188	-11.7954
阿德	-11.7956
对整个	-11.7961
杰出	-11.7961
渗透	-11.7965
出场时间	-11.7966
不要错过	-11.7967
师兄	-11.7968
名声	-11.797
成品	-11.7971
小鸟	-11.7971
港币	-11.7975
右手	-11.7977
点儿	-11.7979
整场	-11.7979
帆	-11.798
盼	-11.7982
绑	-11.7983
蒲式耳	-11.7983
甘肃	-11.7984
引人注目	-11.7984
倾诉	-11.7984
郭焱	-11.7985
八卦	-11.7985
蒂亚戈	-11.7985
汇丰晋信	-11.7985
坑	-11.7985
趋紧	-11.7985
中规中矩	-11.7985
卡洛斯	-11.7985
勃	-11.7985
囤积	-11.7985
白岩松	-11.7985
马加特	-11.7985
李妮娜	-11.7985
尊敬	-11.7985
大中华区	-11.7985
脊	-11.7985
皮尔洛	-11.7985
凸	-11.7985
巴特尔	-11.7985
赵丹阳	-11.7985
霖	-11.7985
PCHOME	-11.7985
郡	-11.7985
马德里	-11.7985
旭日阳刚	-11.7985
权益登记日	-11.7985
颓势	-11.7985
潘霜霜	-11.7985
双胞胎	-11.7985
定向增发	-11.7985
叙	-11.7985
理财周报记者	-11.7985
德维恩	-11.7986
中等职业学校	-11.7986
Skype	-11.7986
朴茨茅斯	-11.7986
谜	-11.7986
可视角度	-11.7986
藉	-11.7986
瞎	-11.7986
任贤齐	-11.7986
壹	-11.7986
守门员	-11.7986
CMMB	-11.7986
Nvidia	-11.7986
泛滥	-11.7986
光芒	-11.7986
尹志强	-11.7986
头球攻门	-11.7986
告一段落	-11.7986
CBN	-11.7986
谢杏芳	-11.7986
李佳薇	-11.7986
▁特约记者	-11.7986
严谨	-11.7986
监察	-11.7986
黄金市场	-11.7986
时代华纳	-11.7986
飚	-11.7986
林保怡	-11.7986
违纪	-11.7986
恰逢	-11.7986
确切	-11.7986
战袍	-11.7986
构思	-11.7986
拜祭	-11.7986
周建安	-11.7986
逃避	-11.7986
袁泉	-11.7986
赵宝刚	-11.7986
衔接	-11.7986
单向收费	-11.7986
的扮演者	-11.7986
主人公	-11.7986
阴谋	-11.7986
的带动下	-11.7986
▁One	-11.7986
主要原因是	-11.7986
尿	-11.7986
跑赢大盘	-11.7986
贯穿	-11.7986
国际奥委会	-11.7986
公平公正	-11.7987
袭击	-11.7987
撤离	-11.7987
威尼斯	-11.7987
IMF	-11.7987
保费收入	-11.7987
绿色通道	-11.7987
宣言	-11.7987
加西亚	-11.7987
审计	-11.7987
挖角	-11.7987
竞价排名	-11.7987
扶持	-11.7987
坚守	-11.7987
挽回	-11.7987
师妹	-11.7987
赤字	-11.7987
券商集合理财产品	-11.7988
盛赞	-11.7988
分类监管	-11.7988
存款准备金率	-11.7988
坚实	-11.7988
金融风暴	-11.7988
WTI	-11.7988
多样化	-11.7988
戈登	-11.7988
地理位置	-11.7988
未知数	-11.7988
进口铁矿石	-11.7988
佩服	-11.7988
曲折	-11.7988
必备	-11.7988
涉足	-11.7988
核查	-11.7989
境界	-11.7989
教育部考试中心	-11.7989
骨干	-11.7989
武警	-11.7989
泉州	-11.7989
开闸	-11.7989
民办高校	-11.7989
趁机	-11.7989
最新一期	-11.7989
转折	-11.7989
戴维	-11.7989
每股收益	-11.7989
公益事业	-11.7989
预言	-11.7989
夜景	-11.7989
电容	-11.799
命中三分	-11.799
亲属	-11.799
流浪	-11.799
孙莉	-11.799
身体素质	-11.799
彼得	-11.799
关怀	-11.799
英冠	-11.799
凭证	-11.799
属实	-11.799
受访者	-11.7991
ure	-11.7991
模特儿	-11.7991
外国语学校	-11.7992
水晶	-11.7992
足协主席	-11.7993
指数上涨	-11.7993
拐点	-11.7993
人士指出	-11.7993
精英赛	-11.7993
士气	-11.7993
理智	-11.7994
无线宽带	-11.7994
减免	-11.7994
逼平	-11.7994
推出的一款	-11.7994
统一考试	-11.7994
退档	-11.7994
杨鸣	-11.7995
恩师	-11.7995
主要集中在	-11.7995
负债	-11.7995
补课	-11.7995
摇头	-11.7995
礼品	-11.7995
做的事情	-11.7996
现在看来	-11.7996
常州	-11.7996
不光是	-11.7996
万港币	-11.7997
立足	-11.7997
推动作用	-11.7997
不利影响	-11.7997
八段	-11.7997
运价指数	-11.7998
周鹏	-11.7998
普跌	-11.7998
无敌	-11.7998
公安部门	-11.7998
加密	-11.7999
书记	-11.7999
十三	-11.8
首创	-11.8
选修	-11.8001
梅尔	-11.8001
他指出	-11.8001
思科	-11.8001
从没	-11.8001
抒情	-11.8001
诊所	-11.8002
训练结束后	-11.8002
获得亚军	-11.8002
高速增长	-11.8002
北京师范大学	-11.8003
三围	-11.8003
组件	-11.8003
库尔	-11.8003
家长们	-11.8003
增利	-11.8004
有否	-11.8004
见底	-11.8005
令人满意	-11.8006
郑州市	-11.8006
数字化	-11.8006
声乐	-11.8007
男演员	-11.8007
待机	-11.8007
国家队主教练	-11.8007
画画	-11.8007
更是让	-11.8007
高度重视	-11.8008
另一半	-11.8008
两连胜	-11.8008
母子	-11.8008
退费	-11.8008
某种	-11.8009
敢于	-11.801
实用性	-11.801
反倒	-11.801
艺术学院	-11.8012
中职校	-11.8012
在接受采访时表示	-11.8013
投行	-11.8013
特尼	-11.8013
投身	-11.8014
无形	-11.8014
也知道	-11.8015
给学生	-11.8015
1986	-11.8016
卖方	-11.8016
外接	-11.8016
滞后	-11.8016
家属	-11.8016
神情	-11.8016
婚讯	-11.8017
解散	-11.8017
大摩	-11.8018
下限	-11.8018
快速增长	-11.802
[...]
