<unk>	0
<pad>	0
<s>	0
</s>	0
00	-0
基金	-1
10	-2
。”	-3
中国	-4
市场	-5
20	-6
一个	-7
公司	-8
200	-9
时间	-10
记者	-11
自己	-12
我们	-13
表示	-14
没有	-15
考生	-16
比赛	-17
11	-18
投资	-19
已经	-20
可以	-21
北京	-22
新浪	-23
:“	-24
今年	-25
目前	-26
进行	-27
考试	-28
价格	-29
他们	-30
大学	-31
12	-32
可能	-33
方面	-34
,“	-35
高考	-36
学生	-37
产品	-38
信息	-39
期货	-40
专业	-41
美元	-42
现在	-43
▁新浪	-44
开始	-45
对于	-46
工作	-47
因为	-48
招生	-49
交易	-50
”,	-51
同时	-52
50	-53
第一	-54
美国	-55
..	-56
不过	-57
如果	-58
30	-59
认为	-60
问题	-61
情况	-62
这个	-63
就是	-64
成为	-65
教育	-66
%,	-67
表现	-68
录取	-69
到了	-70
球队	-71
还是	-72
消息	-73
非常	-74
体育	-75
由于	-76
球员	-77
以及	-78
in	-79
的是	-80
通过	-81
”。	-82
不是	-83
的一	-84
计划	-85
显示	-86
出现	-87
15	-88
之后	-89
学校	-90
手机	-91
▁“	-92
世界	-93
1.	-94
16	-95
但是	-96
2.	-97
大的	-98
其中	-99
19	-100
国家	-101
赛季	-102
媒体	-103
▁(	-104
国内	-105
影响	-106
选择	-107
国际	-108
部分	-109
成绩	-110
%。	-111
希望	-112
这样	-113
电视	-114
18	-115
自己的	-116
上海	-117
银行	-118
管理	-119
经济	-120
on	-121
获得	-122
上涨	-123
14	-124
提供	-125
很多	-126
用户	-127
了一	-128
需要	-129
虽然	-130
数据	-131
13	-132
技术	-133
去年	-134
报道	-135
也是	-136
100	-137
主要	-138
2010	-139
网络	-140
发展	-141
参加	-142
什么	-143
一直	-144
研究	-145
公布	-146
他的	-147
时候	-148
er	-149
娱乐	-150
最后	-151
作为	-152
▁北京	-153
一些	-154
企业	-155
这一	-156
第二	-157
2009	-158
拍摄	-159
机会	-160
不会	-161
继续	-162
0.	-163
采用	-164
所有	-165
▁据	-166
支持	-167
▁在	-168
了解	-169
微博	-170
要求	-171
25	-172
关注	-173
昨日	-174
中的	-175
增长	-176
好的	-177
服务	-178
80	-179
更多	-180
这些	-181
重要	-182
以来	-183
调整	-184
17	-185
特别	-186
还有	-187
进入	-188
相关	-189
3.	-190
发布	-191
分析	-192
人士	-193
所以	-194
场比赛	-195
香港	-196
大家	-197
能力	-198
60	-199
人的	-200
指数	-201
能够	-202
。“	-203
今天	-204
投资者	-205
因此	-206
志愿	-207
都是	-208
冠军	-209
年的	-210
行业	-211
分钟	-212
全球	-213
现场	-214
设计	-215
一定	-216
正式	-217
比较	-218
结束	-219
透露	-220
机构	-221
电影	-222
收益	-223
24	-224
增加	-225
活动	-226
不能	-227
报名	-228
下跌	-229
包括	-230
。(	-231
经理	-232
▁本	-233
an	-234
其他	-235
高校	-236
朋友	-237
26	-238
使用	-239
消费	-240
股票	-241
上的	-242
商品	-243
根据	-244
系统	-245
之前	-246
),	-247
生活	-248
网站	-249
不同	-250
的人	-251
28	-252
合约	-253
基本	-254
达到	-255
这是	-256
2008	-257
超过	-258
000	-259
接受	-260
——	-261
孩子	-262
月份	-263
部门	-264
▁北京时间	-265
功能	-266
99	-267
推出	-268
而且	-269
全国	-270
学院	-271
不断	-272
政策	-273
拥有	-274
需求	-275
▁新浪体育	-276
23	-277
业务	-278
第三	-279
个人	-280
来说	-281
方式	-282
▁新浪体育讯	-283
申请	-284
火箭	-285
资金	-286
亿元	-287
为了	-288
不少	-289
变化	-290
分别	-291
网上	-292
基金公司	-293
来的	-294
最终	-295
2011	-296
只有	-297
应该	-298
昨天	-299
知道	-300
移动	-301
季度	-302
处理	-303
90	-304
学习	-305
训练	-306
40	-307
准备	-308
证券	-309
▁t	-310
像素	-311
合作	-312
教练	-313
来看	-314
规模	-315
最高	-316
参考	-317
个月	-318
并不	-319
ar	-320
中心	-321
对手	-322
上市	-323
除了	-324
新的	-325
联赛	-326
原因	-327
结果	-328
的时候	-329
水平	-330
院校	-331
▁新浪娱乐	-332
只是	-333
人员	-334
正在	-335
一次	-336
俱乐	-337
27	-338
俱乐部	-339
▁新浪娱乐讯	-340
风险	-341
发行	-342
相机	-343
这种	-344
是否	-345
电话	-346
科技	-347
报讯	-348
队的	-349
那么	-350
....	-351
此外	-352
另外	-353
完成	-354
万元	-355
日本	-356
评论	-357
介绍	-358
大幅	-359
4.	-360
黄金	-361
甚至	-362
一起	-363
得到	-364
优势	-365
连续	-366
明星	-367
有关	-368
出了	-369
21	-370
压力	-371
or	-372
这样的	-373
必须	-374
资产	-375
是一	-376
随着	-377
社会	-378
两个	-379
负责	-380
将在	-381
近期	-382
提高	-383
发现	-384
喜欢	-385
尽管	-386
22	-387
阶段	-388
明显	-389
未来	-390
这次	-391
日前	-392
金融	-393
en	-394
老师	-395
上周	-396
内容	-397
销售	-398
决定	-399
其实	-400
看到	-401
标准	-402
)、	-403
考虑	-404
游戏	-405
艺术	-406
最近	-407
具有	-408
本科	-409
状态	-410
配置	-411
排名	-412
保持	-413
型基金	-414
70	-415
净值	-416
取得	-417
视频	-418
分数	-419
此前	-420
一步	-421
我的	-422
平均	-423
普通	-424
行情	-425
毕业	-426
不仅	-427
人民	-428
音乐	-429
mm	-430
觉得	-431
操作	-432
职业	-433
5.	-434
es	-435
举行	-436
成功	-437
决赛	-438
下降	-439
近日	-440
的新	-441
整体	-442
论坛	-443
帮助	-444
报价	-445
镜头	-446
代表	-447
说明	-448
再次	-449
参与	-450
电子	-451
报记者	-452
29	-453
系列	-454
的情况	-455
主力	-456
一样	-457
网友	-458
历史	-459
直接	-460
也有	-461
球迷	-462
债券	-463
预计	-464
高中	-465
的比赛	-466
基础	-467
预期	-468
过程	-469
完全	-470
统计	-471
时尚	-472
实现	-473
500	-474
》,	-475
政府	-476
以上	-477
原油	-478
报考	-479
300	-480
的大	-481
左右	-482
观众	-483
首次	-484
ro	-485
之间	-486
两人	-487
此次	-488
面对	-489
家长	-490
规定	-491
依然	-492
市场的	-493
节目	-494
英寸	-495
▁记者	-496
it	-497
采访	-498
发生	-499
业绩	-500
无法	-501
le	-502
更加	-503
不错	-504
任何	-505
保险	-506
机身	-507
相比	-508
持续	-509
演员	-510
期间	-511
基金的	-512
万吨	-513
突破	-514
公布的	-515
如何	-516
一位	-517
目标	-518
▁中	-519
如此	-520
下午	-521
客户	-522
II	-523
奥运	-524
成交	-525
he	-526
模式	-527
专家	-528
十分	-529
截至	-530
联系	-531
英语	-532
关系	-533
6.	-534
领先	-535
之一	-536
存在	-537
并且	-538
最大	-539
半年	-540
带来	-541
反弹	-542
大利	-543
!”	-544
因素	-545
有限	-546
TF	-547
笔记	-548
at	-549
韩国	-550
安排	-551
公开	-552
同样	-553
受到	-554
进攻	-555
减少	-556
当时	-557
有些	-558
项目	-559
▁4	-560
▁S	-561
品牌	-562
地区	-563
防守	-564
这款	-565
ou	-566
互联	-567
姚明	-568
感觉	-569
也不	-570
演唱	-571
考研	-572
注意	-573
的高	-574
▁3	-575
过去	-576
▁[	-577
宣布	-578
建议	-579
提前	-580
来自	-581
一般	-582
位置	-583
比例	-584
重点	-585
▁高考	-586
进一步	-587
确定	-588
BA	-589
报告	-590
资格	-591
ad	-592
▁《	-593
告诉	-594
的考生	-595
竞争	-596
调查	-597
篮板	-598
有效	-599
相当	-600
足球	-601
ic	-602
仍然	-603
新闻	-604
涨幅	-605
起来	-606
is	-607
博客	-608
是在	-609
移民	-610
产业	-611
笔记本	-612
al	-613
一下	-614
关键	-615
内地	-616
全部	-617
的事	-618
访问	-619
导致	-620
持有	-621
推荐	-622
库存	-623
最新	-624
导演	-625
综合	-626
将于	-627
7.	-628
有所	-629
相对	-630
45	-631
万像素	-632
随后	-633
按照	-634
购买	-635
测试	-636
稳定	-637
运动	-638
更是	-639
el	-640
▁本报讯	-641
或者	-642
效果	-643
不要	-644
当然	-645
基金经理	-646
实际	-647
英国	-648
控制	-649
价值	-650
出色	-651
om	-652
台湾	-653
对此	-654
集团	-655
)。	-656
CD	-657
值得	-658
文化	-659
事件	-660
35	-661
电脑	-662
照片	-663
ETF	-664
互联网	-665
今日	-666
成立	-667
主场	-668
填报	-669
品种	-670
成了	-671
指出	-672
频道	-673
性能	-674
电信	-675
是一个	-676
索尼	-677
理财	-678
相信	-679
三分	-680
的话	-681
双方	-682
安全	-683
条件	-684
▁M	-685
经过	-686
日消息	-687
环境	-688
短期	-689
速度	-690
第四	-691
88	-692
后的	-693
出的	-694
▁C	-695
数码	-696
得分	-697
成本	-698
一年	-699
液晶	-700
份额	-701
处于	-702
走势	-703
实力	-704
成长	-705
肯定	-706
咨询	-707
行为	-708
世界杯	-709
组织	-710
运营	-711
震荡	-712
利用	-713
选手	-714
下的	-715
另一	-716
米兰	-717
负责人	-718
数据显示	-719
具体	-720
货币	-721
最低	-722
金属	-723
身份	-724
小时	-725
主持	-726
对方	-727
广告	-728
积极	-729
范围	-730
id	-731
平台	-732
年轻	-733
空间	-734
接口	-735
复习	-736
多的	-737
广东	-738
one	-739
尤其	-740
人民币	-741
留学	-742
8.	-743
的朋友	-744
,《	-745
不得	-746
解决	-747
55	-748
他在	-749
危机	-750
知识	-751
并没有	-752
只要	-753
研究生	-754
iP	-755
硕士	-756
角色	-757
lo	-758
只能	-759
经验	-760
▁b	-761
应用	-762
33	-763
几乎	-764
经历	-765
许多	-766
兴趣	-767
整个	-768
努力	-769
队员	-770
的表现	-771
as	-772
家庭	-773
欧洲	-774
中学	-775
苹果	-776
针对	-777
自然	-778
通知	-779
屏幕	-780
提供的	-781
出来	-782
9.	-783
保证	-784
华夏	-785
改变	-786
31	-787
国家队	-788
不到	-789
出席	-790
吸引	-791
现货	-792
都有	-793
业内	-794
明年	-795
▁A	-796
将会	-797
当地	-798
提升	-799
软件	-800
re	-801
城市	-802
处理器	-803
46	-804
创新	-805
收入	-806
计算	-807
消费者	-808
▁T	-809
会上	-810
怎么	-811
的问题	-812
全面	-813
年度	-814
程度	-815
即将	-816
外观	-817
无线	-818
深圳	-819
自主	-820
重新	-821
上升	-822
的时间	-823
高清	-824
亿美元	-825
分析师	-826
一场	-827
最大的	-828
经纪	-829
确认	-830
2007	-831
ac	-832
发挥	-833
多数	-834
关于	-835
曾经	-836
跌幅	-837
中国队	-838
越来	-839
产生	-840
地方	-841
我国	-842
权威	-843
▁从	-844
湖人	-845
电视剧	-846
越来越	-847
▁H	-848
▁新	-849
--	-850
亚洲	-851
女儿	-852
进行了	-853
佳能	-854
股市	-855
名单	-856
这位	-857
作用	-858
趋势	-859
使得	-860
让人	-861
产量	-862
编辑	-863
天津	-864
组合	-865
这么	-866
进球	-867
优秀	-868
法国	-869
该机	-870
都会	-871
36	-872
图片	-873
而在	-874
高的	-875
合同	-876
最佳	-877
命中	-878
上午	-879
以下	-880
结婚	-881
传统	-882
商业	-883
▁张	-884
收购	-885
智能	-886
ing	-887
同学	-888
他们的	-889
欢迎	-890
长期	-891
他说	-892
加上	-893
阵容	-894
各方面	-895
%;	-896
无论	-897
我们的	-898
ww	-899
之外	-900
开放	-901
才能	-902
有的	-903
监管	-904
离开	-905
支撑	-906
▁对于	-907
人数	-908
助攻	-909
工程	-910
......	-911
发表	-912
媒体报道	-913
风格	-914
hone	-915
单位	-916
后卫	-917
出场	-918
▁I	-919
新浪网	-920
尼康	-921
自动	-922
采用了	-923
主题	-924
岁的	-925
面临	-926
的不断	-927
▁L	-928
宣传	-929
真正	-930
下来	-931
都在	-932
为准	-933
形成	-934
的基金	-935
的学生	-936
建设	-937
策略	-938
oo	-939
本赛季	-940
人们	-941
斯特	-942
有一	-943
私募	-944
三星	-945
持仓	-946
篮网	-947
办法	-948
听歌	-949
德国	-950
责任	-951
38	-952
中小	-953
具备	-954
生产	-955
真的	-956
il	-957
数量	-958
广州	-959
敬请	-960
演唱会	-961
山东	-962
心理	-963
方案	-964
维持	-965
造成	-966
09	-967
76	-968
GB	-969
▁P	-970
仅供	-971
分红	-972
各种	-973
监会	-974
先生	-975
▁s	-976
主帅	-977
令人	-978
曼联	-979
理科	-980
刚刚	-981
性的	-982
西班	-983
仅供参考	-984
收盘	-985
评价	-986
西班牙	-987
▁G	-988
恢复	-989
有限公司	-990
半场	-991
材料	-992
在这	-993
容易	-994
挑战	-995
首发	-996
75	-997
开发	-998
提醒	-999
US	-1000
似乎	-1001
担任	-1002
数学	-1003
▁中国	-1004
▁李	-1005
就业	-1006
胜利	-1007
分数线	-1008
信心	-1009
而是	-1010
感到	-1011
担心	-1012
旗下	-1013
ind	-1014
简单	-1015
高达	-1016
考试信息	-1017
不可	-1018
进口	-1019
▁特别	-1020
万美元	-1021
▁D	-1022
低于	-1023
曝光	-1024
至于	-1025
总经理	-1026
大豆	-1027
摄像	-1028
申购	-1029
领域	-1030
110	-1031
▁今年	-1032
ow	-1033
方向	-1034
QD	-1035
▁【	-1036
本周	-1037
有可能	-1038
所提供的	-1039
32	-1040
作文	-1041
一名	-1042
儿子	-1043
属于	-1044
巴萨	-1045
绝对	-1046
交易所	-1047
▁我	-1048
前的	-1049
国外	-1050
期待	-1051
股指	-1052
还要	-1053
方法	-1054
终于	-1055
表演	-1056
证明	-1057
▁更多	-1058
34	-1059
严重	-1060
中考	-1061
也在	-1062
年来	-1063
考生以	-1064
公告	-1065
时代	-1066
核心	-1067
率为	-1068
资料	-1069
赎回	-1070
事实	-1071
她的	-1072
形象	-1073
主动	-1074
快速	-1075
科比	-1076
资源	-1077
权威部门	-1078
再度	-1079
如今	-1080
很大	-1081
拿下	-1082
》、	-1083
商务	-1084
QDII	-1085
信息为准	-1086
然而	-1087
与变化	-1088
毕业生	-1089
仓位	-1090
故事	-1091
查询	-1092
▁the	-1093
▁特别说明	-1094
公布的正式	-1095
▁7	-1096
不足	-1097
商家	-1098
谷歌	-1099
请访问	-1100
各方面情况	-1101
敬请考生以	-1102
的不断调整	-1103
所提供的所有	-1104
由于各方面情况	-1105
的不断调整与变化	-1106
考试信息仅供参考	-1107
公布的正式信息为准	-1108
敬请考生以权威部门	-1109
新浪网所提供的所有	-1110
由于各方面情况的不断调整与变化	-1111
37	-1112
比如	-1113
实施	-1114
明确	-1115
同比	-1116
海外	-1117
48	-1118
考场	-1119
的情况下	-1120
信息请访问	-1121
结构	-1122
博客圈	-1123
第一次	-1124
▁王	-1125
启动	-1126
log	-1127
江苏	-1128
而言	-1129
光学	-1130
售价	-1131
然后	-1132
目的	-1133
更多的	-1134
举办	-1135
会议	-1136
利率	-1137
加强	-1138
紧张	-1139
了一个	-1140
只基金	-1141
文章	-1142
首先	-1143
供应	-1144
培养	-1145
降低	-1146
ch	-1147
▁5	-1148
上述	-1149
我省	-1150
纪录	-1151
足协	-1152
就会	-1153
独立	-1154
?”	-1155
一家	-1156
文科	-1157
配备	-1158
▁B	-1159
联盟	-1160
制作	-1161
很难	-1162
演的	-1163
66	-1164
克斯	-1165
适合	-1166
一度	-1167
也会	-1168
NBA	-1169
过程中	-1170
▁2	-1171
、“	-1172
法律	-1173
个篮板	-1174
每天	-1175
纽约	-1176
重庆	-1177
比分	-1178
课程	-1179
数字	-1180
身体	-1181
公司的	-1182
意味	-1183
点评	-1184
联想	-1185
的一个	-1186
85	-1187
坚持	-1188
正常	-1189
统一	-1190
队友	-1191
OS	-1192
看来	-1193
科学	-1194
段时间	-1195
加盟	-1196
姆斯	-1197
有了	-1198
前锋	-1199
确实	-1200
设备	-1201
ion	-1202
08	-1203
客场	-1204
推动	-1205
400	-1206
奥运会	-1207
▁新浪科技	-1208
为主	-1209
利润	-1210
同期	-1211
招办	-1212
董事	-1213
ay	-1214
精神	-1215
联合	-1216
费用	-1217
尤其是	-1218
的影响	-1219
招生计划	-1220
分辨	-1221
即使	-1222
巴西	-1223
皇马	-1224
裁判	-1225
语言	-1226
在北京	-1227
nd	-1228
健康	-1229
已有	-1230
邀请	-1231
难以	-1232
▁据悉	-1233
以后	-1234
保护	-1235
普遍	-1236
阅读	-1237
的价格	-1238
专辑	-1239
回应	-1240
遭遇	-1241
面试	-1242
com	-1243
▁w	-1244
方便	-1245
显得	-1246
证监会	-1247
亮相	-1248
人才	-1249
内的	-1250
地产	-1251
态度	-1252
支付	-1253
转会	-1254
工作人员	-1255
▁新浪科技讯	-1256
42	-1257
MA	-1258
▁-	-1259
出口	-1260
满足	-1261
iPhone	-1262
ed	-1263
▁1	-1264
专科	-1265
众多	-1266
作者	-1267
大量	-1268
正是	-1269
著名	-1270
那些	-1271
制造	-1272
加入	-1273
卫视	-1274
采取	-1275
升级	-1276
变焦	-1277
开心	-1278
有人	-1279
了解到	-1280
1000	-1281
上网	-1282
的小	-1283
纷纷	-1284
至少	-1285
场上	-1286
主教练	-1287
获悉	-1288
较大	-1289
意大利	-1290
上证	-1291
妈妈	-1292
接近	-1293
阿联	-1294
800	-1295
人物	-1296
官方	-1297
质量	-1298
较为	-1299
▁昨日	-1300
▁编辑	-1301
ED	-1302
显然	-1303
作品	-1304
协会	-1305
意见	-1306
替补	-1307
欧元	-1308
也将	-1309
有望	-1310
理解	-1311
粉丝	-1312
自由	-1313
》、《	-1314
幅度	-1315
艺人	-1316
一种	-1317
尔特	-1318
扩大	-1319
柏芝	-1320
精彩	-1321
阿里	-1322
两年	-1323
保障	-1324
观点	-1325
采访时	-1326
展开	-1327
年底	-1328
集中	-1329
业内人士	-1330
唯一	-1331
▁不过	-1332
大盘	-1333
承认	-1334
符合	-1335
经营	-1336
轻松	-1337
配合	-1338
▁陈	-1339
愿意	-1340
成都	-1341
是个	-1342
机型	-1343
逐渐	-1344
都不	-1345
教育部	-1346
意外	-1347
找到	-1348
有着	-1349
油价	-1350
锦赛	-1351
面的	-1352
享受	-1353
状况	-1354
距离	-1355
里斯	-1356
比赛中	-1357
的球员	-1358
am	-1359
放弃	-1360
意味着	-1361
还没有	-1362
免费	-1363
现象	-1364
▁而	-1365
▁o	-1366
困难	-1367
当天	-1368
背景	-1369
限制	-1370
收益率	-1371
的同时	-1372
点击	-1373
笔者	-1374
清华	-1375
迅速	-1376
运营商	-1377
一旦	-1378
一点	-1379
回到	-1380
形式	-1381
影片	-1382
每个	-1383
的前	-1384
钢材	-1385
市场上	-1386
▁6	-1387
▁W	-1388
一款	-1389
事业	-1390
据悉	-1391
考点	-1392
高等	-1393
坦言	-1394
强调	-1395
酒店	-1396
49	-1397
▁f	-1398
赢得	-1399
大利亚	-1400
的机会	-1401
经纪人	-1402
2000	-1403
出版	-1404
特点	-1405
可能会	-1406
澳大利亚	-1407
动作	-1408
体验	-1409
渠道	-1410
赛后	-1411
创造	-1412
微软	-1413
歌手	-1414
男篮	-1415
结合	-1416
考试院	-1417
募集	-1418
特尔	-1419
玉米	-1420
生的	-1421
经常	-1422
罗斯	-1423
解释	-1424
利亚	-1425
在中国	-1426
的投资	-1427
股指期货	-1428
休息	-1429
很好	-1430
日至	-1431
经典	-1432
能源	-1433
通胀	-1434
不再	-1435
协议	-1436
学位	-1437
当前	-1438
感情	-1439
战胜	-1440
股份	-1441
us	-1442
三个	-1443
下滑	-1444
理工	-1445
答案	-1446
单反	-1447
累计	-1448
目前的	-1449
充分	-1450
就在	-1451
日晚	-1452
大部分	-1453
日的	-1454
起了	-1455
”、“	-1456
重要的	-1457
▁据了解	-1458
▁F	-1459
共同	-1460
延续	-1461
本次	-1462
还在	-1463
▁此外	-1464
加拿	-1465
提出	-1466
黑色	-1467
并不是	-1468
▁周	-1469
意义	-1470
知名	-1471
的事情	-1472
▁R	-1473
东方	-1474
及时	-1475
夺冠	-1476
搭载	-1477
造型	-1478
TD	-1479
制度	-1480
对焦	-1481
拿到	-1482
本人	-1483
:00	-1484
ht	-1485
▁一	-1486
总裁	-1487
或许	-1488
斯科	-1489
联通	-1490
东西	-1491
场的	-1492
时刻	-1493
,3	-1494
et	-1495
▁刘	-1496
亏损	-1497
内部	-1498
冲击	-1499
剧中	-1500
受伤	-1501
强的	-1502
落后	-1503
是因为	-1504
,”	-1505
年前	-1506
球队的	-1507
事情	-1508
几个	-1509
情绪	-1510
歌迷	-1511
HD	-1512
难度	-1513
会有	-1514
内线	-1515
反映	-1516
资本	-1517
自主招生	-1518
主席	-1519
内置	-1520
击败	-1521
团队	-1522
执行	-1523
改革	-1524
注册	-1525
生涯	-1526
设置	-1527
告诉记者	-1528
39	-1529
ol	-1530
则是	-1531
父亲	-1532
男友	-1533
达到了	-1534
47	-1535
AC	-1536
两位	-1537
在线	-1538
无疑	-1539
新基金	-1540
86	-1541
歌曲	-1542
演出	-1543
爱情	-1544
犯规	-1545
的热	-1546
顺利	-1547
今年的	-1548
电视台	-1549
信用	-1550
办理	-1551
四川	-1552
大宗	-1553
招收	-1554
根本	-1555
自考	-1556
该校	-1557
上半年	-1558
出现在	-1559
IS	-1560
做出	-1561
凭借	-1562
力的	-1563
德里	-1564
股东	-1565
▁p	-1566
传媒	-1567
投入	-1568
指导	-1569
精选	-1570
最后一	-1571
2006	-1572
56	-1573
你们	-1574
委员	-1575
小组	-1576
教学	-1577
来了	-1578
角度	-1579
贡献	-1580
还将	-1581
▁10	-1582
产品的	-1583
共有	-1584
呈现	-1585
并未	-1586
批次	-1587
武汉	-1588
给了	-1589
and	-1590
上赛季	-1591
一切	-1592
中超	-1593
前期	-1594
加大	-1595
工业	-1596
并非	-1597
运行	-1598
棉花	-1599
上了	-1600
也许	-1601
月底	-1602
橡胶	-1603
iv	-1604
丰富	-1605
更为	-1606
真实	-1607
行动	-1608
的主要	-1609
定位	-1610
未能	-1611
来到	-1612
中国移动	-1613
TC	-1614
cn	-1615
否认	-1616
尔夫	-1617
当年	-1618
摄影	-1619
199	-1620
教师	-1621
账户	-1622
那样	-1623
▁我要	-1624
▁a	-1625
▁m	-1626
交流	-1627
每年	-1628
加拿大	-1629
▁我要评论	-1630
播放	-1631
组图	-1632
43	-1633
CE	-1634
从而	-1635
以前	-1636
基亚	-1637
所在	-1638
新增	-1639
细节	-1640
预测	-1641
这也是	-1642
下了	-1643
培训	-1644
尺寸	-1645
很快	-1646
避免	-1647
之间的	-1648
出现了	-1649
日下午	-1650
主角	-1651
回答	-1652
完美	-1653
投档	-1654
满意	-1655
热火	-1656
得到了	-1657
的原因	-1658
液晶电视	-1659
TA	-1660
▁E	-1661
▁华	-1662
合理	-1663
回落	-1664
好友	-1665
小幅	-1666
建立	-1667
措施	-1668
格兰	-1669
流动	-1670
老板	-1671
ter	-1672
▁of	-1673
一定要	-1674
Wind	-1675
本场比赛	-1676
做好	-1677
板块	-1678
涉及	-1679
以往	-1680
南方	-1681
清楚	-1682
球场	-1683
依旧	-1684
封闭	-1685
引发	-1686
杂志	-1687
阿尔	-1688
的可能	-1689
57	-1690
失误	-1691
实行	-1692
差距	-1693
44	-1694
不好	-1695
两次	-1696
婚礼	-1697
很有	-1698
通信	-1699
力量	-1700
强势	-1701
白糖	-1702
的成绩	-1703
roid	-1704
1-	-1705
女子	-1706
实验	-1707
政治	-1708
不同的	-1709
不知道	-1710
一周	-1711
体现	-1712
电池	-1713
财经	-1714
学生的	-1715
诺基亚	-1716
本报记者	-1717
89	-1718
▁与	-1719
主任	-1720
体系	-1721
动力	-1722
南京	-1723
国安	-1724
突然	-1725
今年以来	-1726
乐观	-1727
区域	-1728
周期	-1729
影像	-1730
总体	-1731
摩托	-1732
收视	-1733
时的	-1734
程序	-1735
主持人	-1736
事实上	-1737
英特尔	-1738
65	-1739
但在	-1740
全场	-1741
增强	-1742
打造	-1743
自身	-1744
身上	-1745
传闻	-1746
收于	-1747
提供了	-1748
多少	-1749
大赛	-1750
的中	-1751
类似	-1752
逐步	-1753
金额	-1754
高兴	-1755
交易日	-1756
的消息	-1757
充满	-1758
央行	-1759
附近	-1760
▁2.	-1761
该基金	-1762
52	-1763
之中	-1764
争夺	-1765
估值	-1766
保本	-1767
掌握	-1768
日电	-1769
理想	-1770
等待	-1771
特别是	-1772
大宗商品	-1773
仅仅	-1774
切尔	-1775
尼奥	-1776
物浦	-1777
百度	-1778
也没有	-1779
▁2010	-1780
▁8	-1781
幸福	-1782
打出	-1783
概念	-1784
高位	-1785
120	-1786
▁目前	-1787
利物浦	-1788
张柏芝	-1789
光学变焦	-1790
优惠	-1791
沪深	-1792
里的	-1793
▁根据	-1794
上一	-1795
不久	-1796
加坡	-1797
开展	-1798
发布会	-1799
最好的	-1800
的方式	-1801
获得了	-1802
你的	-1803
投篮	-1804
母亲	-1805
>>	-1806
IP	-1807
下一	-1808
买入	-1809
办公	-1810
女生	-1811
至今	-1812
认识	-1813
雅思	-1814
▁c	-1815
会在	-1816
兄弟	-1817
员工	-1818
季后	-1819
搜索	-1820
浙江	-1821
讨论	-1822
通讯	-1823
魔术	-1824
多次	-1825
定的	-1826
把握	-1827
汽车	-1828
申花	-1829
选拔	-1830
切尔西	-1831
的重要	-1832
詹姆斯	-1833
▁这	-1834
万人	-1835
她说	-1836
小姐	-1837
看看	-1838
遗憾	-1839
厂商	-1840
取消	-1841
拒绝	-1842
毕竟	-1843
表达	-1844
▁虽然	-1845
也很	-1846
对象	-1847
律师	-1848
考生的	-1849
87	-1850
判断	-1851
学科	-1852
贷款	-1853
期货市场	-1854
Hz	-1855
一天	-1856
信托	-1857
成熟	-1858
我想	-1859
领导	-1860
季后赛	-1861
结束后	-1862
3000	-1863
但他	-1864
局面	-1865
搭配	-1866
最好	-1867
禁区	-1868
能否	-1869
让他	-1870
那个	-1871
高于	-1872
记录	-1873
▁图片	-1874
我觉得	-1875
59	-1876
任务	-1877
伦敦	-1878
素质	-1879
罗拉	-1880
主要是	-1881
日起	-1882
And	-1883
%、	-1884
三年	-1885
分为	-1886
北大	-1887
在于	-1888
收费	-1889
旅游	-1890
百分	-1891
石油	-1892
这也	-1893
感兴趣	-1894
1/	-1895
将是	-1896
尝试	-1897
战略	-1898
现实	-1899
▁上海	-1900
在接受	-1901
高尔夫	-1902
IT	-1903
地址	-1904
少年	-1905
形势	-1906
现身	-1907
生源	-1908
股价	-1909
多头	-1910
易建	-1911
股权	-1912
高职	-1913
ent	-1914
现在的	-1915
教育考试院	-1916
,6	-1917
入学	-1918
创业	-1919
力度	-1920
声明	-1921
影视	-1922
灵活	-1923
重视	-1924
颁奖	-1925
▁有	-1926
不大	-1927
分的	-1928
刺激	-1929
华德	-1930
父母	-1931
谨慎	-1932
中国的	-1933
大多数	-1934
易建联	-1935
▁0	-1936
▁国	-1937
三大	-1938
召开	-1939
各地	-1940
女友	-1941
当中	-1942
成人	-1943
战术	-1944
指标	-1945
新生	-1946
热门	-1947
贸易	-1948
参考价格	-1949
央视	-1950
波动	-1951
给予	-1952
贴吧	-1953
hin	-1954
方面的	-1955
指数基金	-1956
数码相机	-1957
一对	-1958
复出	-1959
想要	-1960
斯的	-1961
ook	-1962
日上午	-1963
▁编辑点评	-1964
ME	-1965
回报	-1966
强劲	-1967
损失	-1968
的外	-1969
舞台	-1970
式基金	-1971
摄像头	-1972
次助攻	-1973
上场	-1974
回归	-1975
晚上	-1976
表明	-1977
这两	-1978
钢铁	-1979
题目	-1980
im	-1981
》。	-1982
交通	-1983
先后	-1984
去了	-1985
后者	-1986
LED	-1987
ows	-1988
www	-1989
他表示	-1990
▁blog	-1991
SD	-1992
ir	-1993
习惯	-1994
心态	-1995
松下	-1996
科目	-1997
足够	-1998
比赛的	-1999
摩托罗拉	-2000
//	-2001
CO	-2002
ob	-2003
亿份	-2004
医院	-2005
后来	-2006
始终	-2007
就能	-2008
篮球	-2009
色彩	-2010
西亚	-2011
证书	-2012
身边	-2013
▁另外	-2014
身份证	-2015
分享	-2016
剧组	-2017
印象	-2018
地位	-2019
太阳	-2020
清晰	-2021
环保	-2022
类型	-2023
警方	-2024
为什么	-2025
,2010	-2026
3-	-2027
▁d	-2028
可谓	-2029
家人	-2030
追求	-2031
都要	-2032
第一个	-2033
不妨	-2034
到底	-2035
参赛	-2036
棋手	-2037
签约	-2038
该公司	-2039
中场	-2040
偏股	-2041
偶像	-2042
各大	-2043
展示	-2044
平板	-2045
广角	-2046
德华	-2047
总是	-2048
披露	-2049
有点	-2050
约翰	-2051
这部	-2052
适应	-2053
600	-2054
,5	-2055
不想	-2056
主流	-2057
年初	-2058
感光	-2059
更好	-2060
特色	-2061
该剧	-2062
就可以	-2063
不够	-2064
前往	-2065
可是	-2066
等多	-2067
都很	-2068
不错的	-2069
分辨率	-2070
▁大	-2071
后市	-2072
后期	-2073
感谢	-2074
成员	-2075
熟悉	-2076
盈利	-2077
分别为	-2078
股票型基金	-2079
,7	-2080
UN	-2081
促销	-2082
合格	-2083
实习	-2084
往往	-2085
方达	-2086
此后	-2087
法院	-2088
新赛季	-2089
良好的	-2090
大型	-2091
存款	-2092
总监	-2093
才是	-2094
看好	-2095
支球队	-2096
新加坡	-2097
显示屏	-2098
2012	-2099
68	-2100
世纪	-2101
代言	-2102
位于	-2103
出手	-2104
占据	-2105
反应	-2106
版本	-2107
男子	-2108
的首	-2109
荷兰	-2110
重量	-2111
陆续	-2112
易方达	-2113
,1	-2114
创作	-2115
嘉宾	-2116
布朗	-2117
必要	-2118
杰克	-2119
校长	-2120
用于	-2121
队在	-2122
阿泰	-2123
集体	-2124
委员会	-2125
的产品	-2126
基金管理	-2127
操作系统	-2128
传感	-2129
出台	-2130
变得	-2131
焦点	-2132
相应	-2133
美术	-2134
▁to	-2135
▁作者	-2136
▁昨天	-2137
也可以	-2138
凯尔特	-2139
基本面	-2140
》(	-2141
就要	-2142
教授	-2143
文件	-2144
沈阳	-2145
特殊	-2146
答题	-2147
考证	-2148
认可	-2149
证实	-2150
马刺	-2151
▁9	-2152
中央	-2153
地震	-2154
外界	-2155
平时	-2156
日在	-2157
激烈	-2158
矿石	-2159
的球队	-2160
另一方面	-2161
67	-2162
AT	-2163
PE	-2164
传球	-2165
参数	-2166
富士	-2167
射门	-2168
放在	-2169
网民	-2170
Windows	-2171
上演	-2172
之下	-2173
公益	-2174
名字	-2175
夏天	-2176
存储	-2177
开户	-2178
男人	-2179
缺乏	-2180
营销	-2181
规范	-2182
质疑	-2183
饰演	-2184
10-	-2185
实际上	-2186
有机会	-2187
4-	-2188
82	-2189
严格	-2190
做到	-2191
心情	-2192
时期	-2193
规则	-2194
超级	-2195
主力合约	-2196
发表评论	-2197
VC	-2198
▁h	-2199
主办	-2200
凌晨	-2201
性价	-2202
慈善	-2203
月的	-2204
根廷	-2205
签证	-2206
阿森	-2207
马上	-2208
不得不	-2209
传感器	-2210
阿根廷	-2211
73	-2212
全新	-2213
公安	-2214
农业	-2215
周一	-2216
对比	-2217
对阵	-2218
开盘	-2219
引进	-2220
登录	-2221
营业	-2222
连胜	-2223
下半年	-2224
Android	-2225
95	-2226
们的	-2227
太多	-2228
引起	-2229
快乐	-2230
格局	-2231
正确	-2232
淘汰	-2233
硬盘	-2234
阳光	-2235
世锦赛	-2236
准考证	-2237
北京市	-2238
很好的	-2239
阿森纳	-2240
,2009	-2241
eb	-2242
tp	-2243
▁但	-2244
下调	-2245
公募	-2246
内存	-2247
几天	-2248
十年	-2249
尚未	-2250
日报	-2251
行的	-2252
规划	-2253
成为了	-2254
净值增长	-2255
st	-2256
攻击	-2257
民族	-2258
沪铜	-2259
生物	-2260
短信	-2261
维奇	-2262
▁11	-2263
CDMA	-2264
http	-2265
倍光学变焦	-2266
不管	-2267
听力	-2268
图像	-2269
本山	-2270
爆发	-2271
画面	-2272
3.5	-2273
在美国	-2274
增加了	-2275
的中国	-2276
▁2009	-2277
83	-2278
ag	-2279
利益	-2280
广大	-2281
最为	-2282
有利	-2283
检查	-2284
湖南	-2285
的女	-2286
稳健	-2287
▁由于	-2288
一定的	-2289
计算机	-2290
2-	-2291
PS	-2292
不了	-2293
专门	-2294
想到	-2295
新高	-2296
混合	-2297
环节	-2298
英雄	-2299
150	-2300
▁论坛	-2301
在今年	-2302
带来的	-2303
很多人	-2304
几年	-2305
国奥	-2306
打算	-2307
暂时	-2308
沟通	-2309
突出	-2310
终端	-2311
运会	-2312
▁12	-2313
性价比	-2314
艺术类	-2315
▁三	-2316
一致	-2317
万手	-2318
人气	-2319
场景	-2320
天气	-2321
担忧	-2322
显卡	-2323
融资	-2324
试题	-2325
USB	-2326
很大的	-2327
期货公司	-2328
刘翔	-2329
发言	-2330
就有	-2331
惠普	-2332
确保	-2333
辽宁	-2334
金牌	-2335
农产品	-2336
流动性	-2337
新浪高考	-2338
▁更多信息请访问	-2339
伊朗	-2340
工具	-2341
年龄	-2342
怎样	-2343
春节	-2344
赛前	-2345
://	-2346
一代	-2347
上调	-2348
他是	-2349
他还	-2350
大会	-2351
福建	-2352
红利	-2353
组成	-2354
能在	-2355
认真	-2356
迎来	-2357
霆锋	-2358
青年	-2359
麦蒂	-2360
英格兰	-2361
新浪高考频道	-2362
TV	-2363
原本	-2364
就像	-2365
带着	-2366
覆盖	-2367
也就是	-2368
比去年	-2369
,4	-2370
一本	-2371
仅为	-2372
仪式	-2373
分配	-2374
原则	-2375
收到	-2376
暂停	-2377
杭州	-2378
见面	-2379
Pad	-2380
▁尽管	-2381
▁欢迎	-2382
铁矿石	-2383
智能手机	-2384
98	-2385
ig	-2386
▁自	-2387
总结	-2388
推广	-2389
本身	-2390
让我	-2391
问到	-2392
,2	-2393
77	-2394
也要	-2395
出演	-2396
别人	-2397
寻找	-2398
展现	-2399
想法	-2400
打得	-2401
播出	-2402
晋级	-2403
芯片	-2404
观看	-2405
谈到	-2406
豆粕	-2407
陷入	-2408
取得了	-2409
5000	-2410
券商	-2411
建筑	-2412
河南	-2413
练习	-2414
英超	-2415
面积	-2416
CEO	-2417
在一起	-2418
总决赛	-2419
房地产	-2420
的基础	-2421
▁更多高考	-2422
▁高考论坛	-2423
▁高考贴吧	-2424
▁高考博客圈	-2425
▁欢迎发表评论	-2426
▁更多高考信息请访问	-2427
.5	-2428
ab	-2429
ce	-2430
▁文	-2431
巨大	-2432
接触	-2433
的发展	-2434
的第一	-2435
un	-2436
做的	-2437
安东	-2438
感受	-2439
截止	-2440
所谓	-2441
昨晚	-2442
炒作	-2443
详细	-2444
说法	-2445
遇到	-2446
ISO	-2447
▁近日	-2448
的需求	-2449
董事长	-2450
人生	-2451
传出	-2452
低调	-2453
加分	-2454
安德	-2455
对抗	-2456
试卷	-2457
辅导	-2458
▁索尼	-2459
大学生	-2460
留学生	-2461
网上报名	-2462
72	-2463
为此	-2464
公平	-2465
印度	-2466
多年	-2467
女排	-2468
实在	-2469
小的	-2470
生日	-2471
的确	-2472
离婚	-2473
观察	-2474
走出	-2475
进步	-2476
银河	-2477
雷斯	-2478
▁1.	-2479
不可能	-2480
专业的	-2481
GA	-2482
更有	-2483
淘宝	-2484
还会	-2485
高级	-2486
:30	-2487
有一个	-2488
运动员	-2489
保险公司	-2490
41	-2491
PC	-2492
ot	-2493
场均	-2494
手段	-2495
手续	-2496
机制	-2497
梦想	-2498
银华	-2499
高端	-2500
高速	-2501
三季度	-2502
时间为	-2503
的市场	-2504
MB	-2505
▁□	-2506
一路	-2507
外援	-2508
女士	-2509
承诺	-2510
拍戏	-2511
格式	-2512
现代	-2513
绯闻	-2514
赛事	-2515
错误	-2516
门将	-2517
2.0	-2518
发布的	-2519
杰克逊	-2520
理财产品	-2521
一线	-2522
不知	-2523
两天	-2524
关心	-2525
减仓	-2526
各类	-2527
地说	-2528
意识	-2529
扮演	-2530
曼城	-2531
率先	-2532
的好	-2533
直播	-2534
违规	-2535
ess	-2536
▁考研	-2537
可以说	-2538
据了解	-2539
97	-2540
不用	-2541
个性	-2542
于是	-2543
化学	-2544
唱片	-2545
布鲁	-2546
性感	-2547
意思	-2548
输入	-2549
▁th	-2550
拉斯	-2551
提交	-2552
模特	-2553
▁佳能	-2554
更好的	-2555
的地方	-2556
个股	-2557
互动	-2558
债务	-2559
元的	-2560
卡特	-2561
外国	-2562
届时	-2563
新疆	-2564
服装	-2565
老公	-2566
都能	-2567
鼓励	-2568
▁尼康	-2569
价格的	-2570
2005	-2571
凯尔特人	-2572
▁N	-2573
兴奋	-2574
前景	-2575
命题	-2576
并在	-2577
思想	-2578
月中	-2579
查看	-2580
理念	-2581
豆油	-2582
▁美国	-2583
是一款	-2584
原油期货	-2585
这场比赛	-2586
69	-2587
▁小	-2588
不太	-2589
但我	-2590
出国	-2591
嘉实	-2592
复试	-2593
效率	-2594
新兴	-2595
现金	-2596
行政	-2597
这里	-2598
酷睿	-2599
一直在	-2600
出色的	-2601
,9	-2602
54	-2603
专户	-2604
今后	-2605
名校	-2606
基于	-2607
她们	-2608
结算	-2609
英镑	-2610
记忆	-2611
重大	-2612
防抖	-2613
面向	-2614
▁作为	-2615
赵本山	-2616
都没有	-2617
债券基金	-2618
58	-2619
IA	-2620
In	-2621
不多	-2622
从来	-2623
例如	-2624
债基	-2625
允许	-2626
化的	-2627
周二	-2628
在此	-2629
子的	-2630
学历	-2631
师范	-2632
开拓	-2633
强烈	-2634
手术	-2635
湖北	-2636
留在	-2637
量的	-2638
据香港	-2639
是不是	-2640
还可以	-2641
78	-2642
MI	-2643
也能	-2644
出售	-2645
固定	-2646
大连	-2647
对外	-2648
用的	-2649
相同	-2650
研发	-2651
维斯	-2652
者的	-2653
话题	-2654
阅卷	-2655
面前	-2656
的工作	-2657
▁当	-2658
以为	-2659
做了	-2660
写作	-2661
卡片	-2662
尔顿	-2663
星期	-2664
称为	-2665
观望	-2666
语文	-2667
一方面	-2668
将继续	-2669
中有	-2670
争取	-2671
其余	-2672
完善	-2673
应对	-2674
浏览	-2675
章子	-2676
良好	-2677
运作	-2678
金价	-2679
麦克	-2680
180	-2681
俄罗斯	-2682
关注的	-2683
接下来	-2684
公众	-2685
复旦	-2686
学费	-2687
拍照	-2688
掘金	-2689
热情	-2690
直到	-2691
的要求	-2692
填报志愿	-2693
不如	-2694
休斯	-2695
各个	-2696
宏观	-2697
最多	-2698
爸爸	-2699
节奏	-2700
队长	-2701
公布了	-2702
无论是	-2703
火箭队	-2704
百分点	-2705
的位置	-2706
程度上	-2707
万像素的	-2708
的可能性	-2709
DV	-2710
▁第	-2711
万股	-2712
下载	-2713
到期	-2714
女人	-2715
打击	-2716
月初	-2717
期价	-2718
队伍	-2719
下半场	-2720
大学的	-2721
此同时	-2722
62	-2723
▁前	-2724
丁俊	-2725
克尔	-2726
到来	-2727
动态	-2728
区间	-2729
声音	-2730
处罚	-2731
外语	-2732
少数	-2733
活跃	-2734
画质	-2735
考查	-2736
触摸	-2737
赵薇	-2738
▁in	-2739
丁俊晖	-2740
刘德华	-2741
安东尼	-2742
最高的	-2743
考生可	-2744
国际米兰	-2745
的比赛中	-2746
64	-2747
上看	-2748
二级	-2749
传奇	-2750
农村	-2751
多家	-2752
威胁	-2753
它的	-2754
富国	-2755
接到	-2756
穆里	-2757
▁中新	-2758
最新的	-2759
短期内	-2760
个百分点	-2761
分析人士	-2762
高考成绩	-2763
74	-2764
IX	-2765
▁高	-2766
在场	-2767
地点	-2768
年内	-2769
建仓	-2770
新人	-2771
状元	-2772
以上的	-2773
可能是	-2774
在上海	-2775
章子怡	-2776
考虑到	-2777
谢霆锋	-2778
有效像素	-2779
▁V	-2780
会员	-2781
全线	-2782
其次	-2783
没能	-2784
理由	-2785
设立	-2786
这对	-2787
迹象	-2788
首席	-2789
一季度	-2790
斯科拉	-2791
▁杨	-2792
位的	-2793
保罗	-2794
团购	-2795
战绩	-2796
打了	-2797
打进	-2798
批准	-2799
摩根	-2800
的两	-2801
92	-2802
IC	-2803
▁黄	-2804
全景	-2805
单独	-2806
博士	-2807
反而	-2808
尼尔	-2809
扩展	-2810
漂亮	-2811
球星	-2812
球的	-2813
登记	-2814
积分	-2815
转换	-2816
骑士	-2817
另一个	-2818
在香港	-2819
娱乐圈	-2820
尼克斯	-2821
情况下	-2822
考生在	-2823
下游	-2824
为何	-2825
伤病	-2826
准确	-2827
增持	-2828
总分	-2829
梅西	-2830
白色	-2831
成交量	-2832
53	-2833
63	-2834
二人	-2835
储备	-2836
发放	-2837
学术	-2838
携带	-2839
此时	-2840
油脂	-2841
治疗	-2842
演绎	-2843
独特	-2844
糖价	-2845
考察	-2846
舞蹈	-2847
办公室	-2848
金融危机	-2849
,2008	-2850
封闭式基金	-2851
”(	-2852
一份	-2853
不满	-2854
估计	-2855
兴业	-2856
分手	-2857
及其	-2858
句话	-2859
回来	-2860
富通	-2861
收获	-2862
曾在	-2863
本届	-2864
调控	-2865
重仓	-2866
传言	-2867
公牛	-2868
出战	-2869
医生	-2870
十足	-2871
华谊	-2872
原来	-2873
可见	-2874
合适	-2875
大纲	-2876
奇才	-2877
布斯	-2878
明天	-2879
澳洲	-2880
这场	-2881
键盘	-2882
马克	-2883
700	-2884
推出了	-2885
债券型基金	-2886
不但	-2887
作出	-2888
便携	-2889
国足	-2890
圣诞	-2891
复杂	-2892
往年	-2893
得了	-2894
打破	-2895
执教	-2896
爱的	-2897
瑞和	-2898
谈判	-2899
较高	-2900
还能	-2901
释放	-2902
长焦	-2903
雅虎	-2904
art	-2905
▁基金	-2906
▁已有	-2907
一个人	-2908
▁2011	-2909
up	-2910
名为	-2911
周三	-2912
复苏	-2913
学金	-2914
工商	-2915
广西	-2916
应届	-2917
线上	-2918
过了	-2919
通常	-2920
10.	-2921
720	-2922
一个月	-2923
可以在	-2924
命中率	-2925
而不是	-2926
据香港媒体报道	-2927
▁O	-2928
亲自	-2929
他也	-2930
优先	-2931
减产	-2932
制定	-2933
即便	-2934
大陆	-2935
妻子	-2936
年代	-2937
彻底	-2938
提到	-2939
效力	-2940
文学	-2941
校园	-2942
每日	-2943
洪波	-2944
深入	-2945
约为	-2946
螺纹	-2947
贝尔	-2948
达成	-2949
随时	-2950
将成为	-2951
推出的	-2952
选择了	-2953
▁and	-2954
一段时间	-2955
证券投资	-2956
,2011	-2957
84	-2958
ec	-2959
em	-2960
ur	-2961
大跌	-2962
女孩	-2963
女星	-2964
承担	-2965
每次	-2966
看出	-2967
美分	-2968
CBA	-2969
UNT	-2970
三分球	-2971
记者从	-2972
hink	-2973
COUNT	-2974
ly	-2975
下去	-2976
云南	-2977
尤文	-2978
尽快	-2979
层次	-2980
平衡	-2981
开通	-2982
我是	-2983
此事	-2984
爆料	-2985
特长	-2986
葡萄	-2987
颜色	-2988
▁听歌	-2989
▁报价	-2990
上半场	-2991
学校的	-2992
让我们	-2993
普通高校	-2994
阿泰斯特	-2995
一是	-2996
即可	-2997
名人	-2998
思路	-2999
文字	-3000
杉矶	-3001
热身	-3002
留下	-3003
盘中	-3004
站在	-3005
统考	-3006
走高	-3007
销量	-3008
鲁能	-3009
洛杉矶	-3010
仅有	-3011
依据	-3012
信号	-3013
全队	-3014
名的	-3015
名称	-3016
外形	-3017
多个	-3018
布莱	-3019
弱势	-3020
性格	-3021
整理	-3022
无奈	-3023
澳门	-3024
腾讯	-3025
西部	-3026
说的	-3027
赛中	-3028
举行的	-3029
一边	-3030
不住	-3031
不在	-3032
争议	-3033
失望	-3034
威廉	-3035
情感	-3036
我会	-3037
早已	-3038
晓明	-3039
欧冠	-3040
焦炭	-3041
竟然	-3042
给他	-3043
财政	-3044
首轮	-3045
职业生涯	-3046
51	-3047
71	-3048
79	-3049
av	-3050
嘉欣	-3051
回升	-3052
成龙	-3053
绿色	-3054
转型	-3055
迎战	-3056
了很多	-3057
半决赛	-3058
▁中新网	-3059
当地时间	-3060
,8	-3061
一部	-3062
万桶	-3063
上映	-3064
不利	-3065
二是	-3066
多种	-3067
带领	-3068
录制	-3069
恋情	-3070
折价	-3071
招考	-3072
讲述	-3073
身材	-3074
车队	-3075
郑州	-3076
销商	-3077
长的	-3078
3.0	-3079
ore	-3080
。”(	-3081
最后的	-3082
较大的	-3083
上市公司	-3084
的朋友不妨	-3085
IF	-3086
ul	-3087
两名	-3088
临时	-3089
台北	-3090
家的	-3091
广发	-3092
本市	-3093
本来	-3094
青睐	-3095
13.	-3096
ity	-3097
全新的	-3098
分别是	-3099
的内容	-3100
近年来	-3101
场比赛中	-3102
主义	-3103
其它	-3104
千万	-3105
备受	-3106
她在	-3107
婚姻	-3108
尊重	-3109
常规	-3110
征集	-3111
流通	-3112
祝福	-3113
等等	-3114
足联	-3115
了一些	-3116
__	-3117
▁吴	-3118
上去	-3119
保留	-3120
修改	-3121
全力	-3122
封基	-3123
得手	-3124
权益	-3125
爱心	-3126
环比	-3127
超越	-3128
跌破	-3129
降至	-3130
IXUS	-3131
ut	-3132
一张	-3133
世博	-3134
中信	-3135
中期	-3136
中锋	-3137
主演	-3138
别的	-3139
双核	-3140
发出	-3141
备战	-3142
女性	-3143
尴尬	-3144
得知	-3145
搭档	-3146
本月	-3147
疯狂	-3148
看法	-3149
究竟	-3150
美丽	-3151
过的	-3152
韦德	-3153
999	-3154
在内的	-3155
据国外	-3156
有很多	-3157
未来的	-3158
的手机	-3159
第二次	-3160
CM	-3161
上篮	-3162
关村	-3163
初中	-3164
可惜	-3165
平安	-3166
度的	-3167
技巧	-3168
拉开	-3169
招商	-3170
改善	-3171
教材	-3172
秒时	-3173
较低	-3174
过后	-3175
ers	-3176
配备了	-3177
94	-3178
下挫	-3179
中文	-3180
从事	-3181
低迷	-3182
入门	-3183
四个	-3184
大战	-3185
小麦	-3186
我在	-3187
推进	-3188
男生	-3189
神秘	-3190
运用	-3191
进了	-3192
,10	-3193
▁除了	-3194
巨大的	-3195
一事	-3196
供需	-3197
助理	-3198
塞尔	-3199
密码	-3200
情人	-3201
拍卖	-3202
老鹰	-3203
资讯	-3204
15.	-3205
了不少	-3206
商品市场	-3207
ation	-3208
07	-3209
SP	-3210
uc	-3211
博时	-3212
多名	-3213
春晚	-3214
的日	-3215
红色	-3216
西安	-3217
触控	-3218
过于	-3219
青岛	-3220
18-	-3221
也表示	-3222
强大的	-3223
所有的	-3224
上扬	-3225
人都	-3226
会计	-3227
商城	-3228
尽量	-3229
广泛	-3230
当日	-3231
永远	-3232
猜测	-3233
空头	-3234
纪念	-3235
纳斯	-3236
考核	-3237
这项	-3238
铜价	-3239
14.	-3240
our	-3241
他们在	-3242
发展的	-3243
开拓者	-3244
球员的	-3245
的专业	-3246
1,	-3247
也被	-3248
保送	-3249
剧本	-3250
各自	-3251
外盘	-3252
大大	-3253
实践	-3254
成像	-3255
打开	-3256
是不	-3257
的三	-3258
美女	-3259
蓝筹	-3260
高分	-3261
1.5	-3262
550	-3263
之所以	-3264
在这个	-3265
应该是	-3266
我希望	-3267
的机身	-3268
葡萄牙	-3269
螺纹钢	-3270
穆里尼奥	-3271
AM	-3272
Sa	-3273
ev	-3274
ex	-3275
▁孙	-3276
交所	-3277
小学	-3278
工艺	-3279
庆祝	-3280
引擎	-3281
态势	-3282
放松	-3283
河北	-3284
注重	-3285
生命	-3286
立信	-3287
罚球	-3288
股的	-3289
轻薄	-3290
马丁	-3291
▁如果	-3292
▁相关	-3293
发布了	-3294
第三节	-3295
2004	-3296
中华	-3297
为止	-3298
入选	-3299
分类	-3300
塑料	-3301
大涨	-3302
尼亚	-3303
开幕	-3304
我和	-3305
我很	-3306
气质	-3307
题材	-3308
高开	-3309
▁上周	-3310
以来的	-3311
值得一	-3312
消息称	-3313
的目标	-3314
第四节	-3315
两大	-3316
国王	-3317
失败	-3318
将来	-3319
感动	-3320
我也	-3321
我就	-3322
手中	-3323
泰达	-3324
照顾	-3325
立即	-3326
第五	-3327
都将	-3328
VGA	-3329
爱立信	-3330
的一些	-3331
这一点	-3332
第一时间	-3333
写真	-3334
号码	-3335
回调	-3336
大多	-3337
暴跌	-3338
机关	-3339
笔试	-3340
说道	-3341
龙江	-3342
▁点击	-3343
奖学金	-3344
的设计	-3345
经销商	-3346
青少年	-3347
同比增长	-3348
注意的是	-3349
MV	-3350
ap	-3351
一轮	-3352
不变	-3353
业界	-3354
体检	-3355
六级	-3356
化工	-3357
哪些	-3358
大师	-3359
天的	-3360
客观	-3361
排在	-3362
排除	-3363
汇率	-3364
监督	-3365
算是	-3366
缺席	-3367
考验	-3368
赛的	-3369
还没	-3370
背景下	-3371
中国电信	-3372
平板电脑	-3373
▁2008	-3374
亚军	-3375
促进	-3376
公务	-3377
公斤	-3378
受益	-3379
审查	-3380
征求	-3381
数的	-3382
演艺	-3383
煤炭	-3384
物理	-3385
特征	-3386
理论	-3387
网游	-3388
试点	-3389
购物	-3390
身高	-3391
退出	-3392
适当	-3393
逆转	-3394
邮件	-3395
350	-3396
之前的	-3397
再加上	-3398
月中旬	-3399
华夏基金	-3400
hinkPad	-3401
不及	-3402
仍有	-3403
信任	-3404
冰冰	-3405
变成	-3406
奖项	-3407
排行	-3408
时报	-3409
案件	-3410
禁止	-3411
长城	-3412
高层	-3413
▁随着	-3414
克里斯	-3415
参加了	-3416
约翰逊	-3417
独立显卡	-3418
硕士研究生	-3419
05	-3420
op	-3421
两种	-3422
十大	-3423
域名	-3424
基地	-3425
外线	-3426
宽松	-3427
将有	-3428
平稳	-3429
打球	-3430
按键	-3431
标志	-3432
登陆	-3433
纳尔	-3434
背后	-3435
自学	-3436
营收	-3437
识别	-3438
360	-3439
50%	-3440
▁3.	-3441
▁日前	-3442
他认为	-3443
行业的	-3444
了自己的	-3445
值得一提	-3446
研究中心	-3447
考试成绩	-3448
货币政策	-3449
高等教育	-3450
CP	-3451
▁对	-3452
一段	-3453
代理	-3454
依靠	-3455
全省	-3456
加息	-3457
加速	-3458
周杰	-3459
回家	-3460
完整	-3461
很少	-3462
手感	-3463
整机	-3464
斯塔	-3465
时机	-3466
有多	-3467
欣赏	-3468
沪胶	-3469
独家	-3470
真是	-3471
续约	-3472
远远	-3473
采购	-3474
10%	-3475
20%	-3476
▁4.	-3477
很可能	-3478
打电话	-3479
拍摄的	-3480
持仓量	-3481
04	-3482
ee	-3483
以外	-3484
勇士	-3485
医疗	-3486
卖出	-3487
可在	-3488
审核	-3489
来源	-3490
礼物	-3491
给我	-3492
跟踪	-3493
锦标	-3494
▁13	-3495
一定会	-3496
公务员	-3497
开户数	-3498
第二节	-3499
这一次	-3500
iPad	-3501
分辨率为	-3502
统计显示	-3503
91	-3504
▁为	-3505
▁四	-3506
▁该	-3507
。《	-3508
万户	-3509
中间	-3510
低价	-3511
儿童	-3512
公共	-3513
周四	-3514
好好	-3515
委会	-3516
小将	-3517
带动	-3518
惊喜	-3519
抢断	-3520
的不	-3521
立刻	-3522
缓解	-3523
过来	-3524
进展	-3525
CCD	-3526
也不会	-3527
出来的	-3528
是什么	-3529
机构的	-3530
的态度	-3531
的感觉	-3532
全球经济	-3533
电子商务	-3534
GS	-3535
ie	-3536
一块	-3537
不上	-3538
主管	-3539
交割	-3540
出线	-3541
分化	-3542
品质	-3543
环球	-3544
跌停	-3545
高出	-3546
GHz	-3547
▁is	-3548
已经在	-3549
感光度	-3550
我认为	-3551
英寸的	-3552
邓华德	-3553
od	-3554
▁⊙	-3555
▁每	-3556
▁马	-3557
一人	-3558
下面	-3559
不停	-3560
减持	-3561
区的	-3562
反击	-3563
均为	-3564
尔的	-3565
巨头	-3566
得很	-3567
心里	-3568
思维	-3569
托管	-3570
旗舰	-3571
榨季	-3572
流畅	-3573
盛大	-3574
评估	-3575
说到	-3576
阿德	-3577
面板	-3578
有没有	-3579
看起来	-3580
1500	-3581
▁本报记者	-3582
值得一提的是	-3583
DC	-3584
也没	-3585
产能	-3586
低开	-3587
却是	-3588
否则	-3589
在家	-3590
填写	-3591
大约	-3592
头球	-3593
巴斯	-3594
强化	-3595
成就	-3596
拉德	-3597
本节	-3598
爵士	-3599
秘密	-3600
自我	-3601
评委	-3602
顶级	-3603
预选	-3604
在国内	-3605
海富通	-3606
的信息	-3607
的生活	-3608
1200	-3609
HDMI	-3610
联系方式	-3611
96	-3612
▁二	-3613
中等	-3614
前三	-3615
发自	-3616
变动	-3617
周末	-3618
学业	-3619
布局	-3620
并将	-3621
我不	-3622
效应	-3623
早在	-3624
有色	-3625
本土	-3626
检测	-3627
深刻	-3628
的全	-3629
诸多	-3630
零售	-3631
企业的	-3632
受到了	-3633
基本上	-3634
我们在	-3635
手机的	-3636
的数据	-3637
问题的	-3638
资产管理	-3639
的朋友可以	-3640
ff	-3641
▁林	-3642
今晚	-3643
会的	-3644
名额	-3645
听到	-3646
增仓	-3647
备考	-3648
夫妇	-3649
夺得	-3650
套机	-3651
定期	-3652
怀孕	-3653
总额	-3654
想象	-3655
本地	-3656
毫不	-3657
涨停	-3658
矛盾	-3659
美联	-3660
财务	-3661
赛车	-3662
门槛	-3663
顾问	-3664
高点	-3665
11.	-3666
▁19	-3667
出版社	-3668
总冠军	-3669
报价为	-3670
考试的	-3671
饰演的	-3672
与此同时	-3673
师范大学	-3674
时报记者	-3675
、1	-3676
上下	-3677
从未	-3678
初步	-3679
同意	-3680
图文	-3681
基准	-3682
容量	-3683
差异	-3684
接着	-3685
早前	-3686
格里	-3687
牛市	-3688
由此	-3689
看着	-3690
破门	-3691
穿着	-3692
赛场	-3693
通道	-3694
历史上	-3695
最重要	-3696
有利于	-3697
的训练	-3698
股市场	-3699
黑龙江	-3700
Tw	-3701
Wi	-3702
ge	-3703
▁J	-3704
▁金	-3705
上线	-3706
亮点	-3707
优质	-3708
优选	-3709
但这	-3710
分级	-3711
天然	-3712
官员	-3713
将球	-3714
开场	-3715
提示	-3716
构成	-3717
比亚	-3718
气氛	-3719
流行	-3720
潜力	-3721
热点	-3722
等人	-3723
糟糕	-3724
纳入	-3725
要在	-3726
亚洲杯	-3727
交易的	-3728
媒体的	-3729
日凌晨	-3730
相当于	-3731
普通高中	-3732
清华大学	-3733
网络游戏	-3734
据国外媒体报道	-3735
▁U	-3736
丈夫	-3737
也就	-3738
发的	-3739
多了	-3740
如下	-3741
尔斯	-3742
市值	-3743
开局	-3744
心的	-3745
或是	-3746
战争	-3747
投诉	-3748
新华	-3749
本报	-3750
获利	-3751
获取	-3752
足以	-3753
连败	-3754
▁三星	-3755
▁证券	-3756
上海市	-3757
但由于	-3758
将比分	-3759
长时间	-3760
aceb	-3761
偏股型基金	-3762
acebook	-3763
临近	-3764
件事	-3765
八一	-3766
出去	-3767
到场	-3768
取景	-3769
喜剧	-3770
安徽	-3771
必然	-3772
机器	-3773
材质	-3774
模拟	-3775
民生	-3776
火爆	-3777
篮下	-3778
约合	-3779
自从	-3780
认购	-3781
走向	-3782
转移	-3783
选项	-3784
面上	-3785
320	-3786
ile	-3787
一对多	-3788
中关村	-3789
发言人	-3790
大家都	-3791
带来了	-3792
AA	-3793
QF	-3794
▁l	-3795
一支	-3796
上行	-3797
个别	-3798
卫冕	-3799
周五	-3800
型号	-3801
增值	-3802
定制	-3803
将对	-3804
投机	-3805
提问	-3806
新品	-3807
片中	-3808
的她	-3809
相似	-3810
美的	-3811
补充	-3812
违法	-3813
2.8	-3814
900	-3815
有什么	-3816
用户的	-3817
类专业	-3818
阿里扎	-3819
4000	-3820
QFII	-3821
RE	-3822
▁X	-3823
东莞	-3824
也让	-3825
人在	-3826
全文	-3827
利空	-3828
单词	-3829
大使	-3830
奥林	-3831
子女	-3832
小刚	-3833
小孩	-3834
山西	-3835
巴黎	-3836
异常	-3837
当晚	-3838
收报	-3839
新秀	-3840
每桶	-3841
版权	-3842
硬件	-3843
网吧	-3844
词汇	-3845
财富	-3846
频频	-3847
高度	-3848
ill	-3849
tel	-3850
▁国内	-3851
女主角	-3852
工作的	-3853
投资的	-3854
月以来	-3855
进行的	-3856
高洪波	-3857
一批	-3858
予以	-3859
仍在	-3860
传中	-3861
传播	-3862
停止	-3863
创下	-3864
医药	-3865
取胜	-3866
大奖	-3867
思考	-3868
批评	-3869
是最	-3870
正面	-3871
每月	-3872
百万	-3873
罗德	-3874
返回	-3875
还不	-3876
30%	-3877
▁be	-3878
▁同时	-3879
两个月	-3880
会不会	-3881
价格上涨	-3882
北京时间	-3883
私募基金	-3884
股票基金	-3885
itter	-3886
负责人表示	-3887
TE	-3888
iz	-3889
制片	-3890
加快	-3891
哈维	-3892
场面	-3893
增幅	-3894
大小	-3895
失去	-3896
女足	-3897
将与	-3898
师大	-3899
幸运	-3900
明白	-3901
期望	-3902
格斯	-3903
这类	-3904
退役	-3905
亚运会	-3906
信用卡	-3907
向记者	-3908
和家长	-3909
日开始	-3910
湖人队	-3911
的照片	-3912
的状态	-3913
罗纳尔	-3914
较高的	-3915
通知书	-3916
Ch	-3917
MP	-3918
▁阿	-3919
下行	-3920
亚冠	-3921
光圈	-3922
光大	-3923
农民	-3924
出任	-3925
占比	-3926
夫妻	-3927
好了	-3928
密切	-3929
山猫	-3930
巡回	-3931
强大	-3932
快门	-3933
总统	-3934
持平	-3935
日常	-3936
粮食	-3937
老将	-3938
自信	-3939
自行	-3940
预估	-3941
马拉	-3942
160	-3943
2.5	-3944
一直是	-3945
为大家	-3946
所高校	-3947
的压力	-3948
知识点	-3949
结束了	-3950
人士透露	-3951
已经开始	-3952
志愿填报	-3953
自动对焦	-3954
):	-3955
势头	-3956
反对	-3957
垃圾	-3958
复制	-3959
天王	-3960
季报	-3961
小牛	-3962
当初	-3963
才会	-3964
整合	-3965
日期	-3966
最快	-3967
每吨	-3968
皮球	-3969
询问	-3970
食品	-3971
HTC	-3972
微博上	-3973
搭载了	-3974
旗下的	-3975
明显的	-3976
的一次	-3977
发布会上	-3978
期货价格	-3979
家基金公司	-3980
81	-3981
?)	-3982
▁郑	-3983
一波	-3984
不佳	-3985
东芝	-3986
九段	-3987
仍是	-3988
优雅	-3989
出发	-3990
功夫	-3991
医学	-3992
南非	-3993
多元	-3994
多单	-3995
工资	-3996
市民	-3997
徕卡	-3998
恐怕	-3999
机械	-4000
的主	-4001
盎司	-4002
等级	-4003
融合	-4004
评卷	-4005
赚钱	-4006
输给	-4007
锁定	-4008
错过	-4009
ina	-4010
上周五	-4011
在这里	-4012
完成了	-4013
已经是	-4014
每个人	-4015
的最新	-4016
银行的	-4017
锦标赛	-4018
CMOS	-4019
▁据介绍	-4020
关注一下	-4021
基金份额	-4022
01	-4023
’,	-4024
▁y	-4025
上方	-4026
不敌	-4027
伊布	-4028
伊能	-4029
做法	-4030
出炉	-4031
创意	-4032
十二	-4033
卡卡	-4034
回忆	-4035
堪称	-4036
扣篮	-4037
氛围	-4038
海南	-4039
省市	-4040
票房	-4041
私人	-4042
缩小	-4043
罗马	-4044
见到	-4045
规律	-4046
那里	-4047
都市	-4048
陕西	-4049
频繁	-4050
首度	-4051
马斯	-4052
est	-4053
ive	-4054
一开始	-4055
伊能静	-4056
持有人	-4057
的拍摄	-4058
----	-4059
1080	-4060
ia	-4061
▁K	-4062
业余	-4063
失利	-4064
对他	-4065
将为	-4066
承受	-4067
文史	-4068
旅行	-4069
有意	-4070
有过	-4071
毫无	-4072
节能	-4073
遭到	-4074
降价	-4075
12.	-4076
的优势	-4077
的用户	-4078
东北	-4079
之内	-4080
介入	-4081
价位	-4082
便宜	-4083
冲刺	-4084
出道	-4085
十一	-4086
反复	-4087
合并	-4088
围绕	-4089
多人	-4090
学会	-4091
弗格	-4092
的他	-4093
社交	-4094
翻译	-4095
转债	-4096
重组	-4097
钢厂	-4098
食糖	-4099
马来	-4100
黑莓	-4101
ard	-4102
her	-4103
弗格森	-4104
托雷斯	-4105
经历了	-4106
中国足球	-4107
公募基金	-4108
Facebook	-4109
06	-4110
DR	-4111
IG	-4112
▁上	-4113
优异	-4114
原装	-4115
又是	-4116
呼吁	-4117
国庆	-4118
导师	-4119
开工	-4120
我校	-4121
是对	-4122
晚会	-4123
激动	-4124
灾区	-4125
相反	-4126
科特	-4127
竞技	-4128
而已	-4129
联接	-4130
身价	-4131
进的	-4132
PVC	-4133
不低于	-4134
创业板	-4135
哈里斯	-4136
教练组	-4137
时间内	-4138
的关系	-4139
-5	-4140
93	-4141
IM	-4142
▁n	-4143
不起	-4144
之旅	-4145
五年	-4146
全市	-4147
加试	-4148
区别	-4149
国泰	-4150
大众	-4151
太大	-4152
奕迅	-4153
巨星	-4154
底部	-4155
显著	-4156
最受	-4157
本轮	-4158
澄清	-4159
留言	-4160
直言	-4161
祖儿	-4162
福州	-4163
空调	-4164
联考	-4165
表态	-4166
要想	-4167
评级	-4168
调剂	-4169
转变	-4170
选秀	-4171
ark	-4172
▁此前	-4173
一系列	-4174
全景网	-4175
地区的	-4176
没想到	-4177
第二轮	-4178
还表示	-4179
6000	-4180
7000	-4181
人士表示	-4182
科技大学	-4183
61	-4184
St	-4185
TO	-4186
]:	-4187
三位	-4188
他和	-4189
任意	-4190
保值	-4191
入围	-4192
全年	-4193
利好	-4194
史上	-4195
各国	-4196
同一	-4197
哪里	-4198
围棋	-4199
奖金	-4200
录音	-4201
微笑	-4202
戴尔	-4203
放缓	-4204
新股	-4205
期市	-4206
涉嫌	-4207
英文	-4208
超出	-4209
进取	-4210
道歉	-4211
▁今天	-4212
▁今日	-4213
▁其实	-4214
▁新华	-4215
▁组图	-4216
公开赛	-4217
净申购	-4218
副总裁	-4219
四季度	-4220
在网上	-4221
实习生	-4222
录取的	-4223
是一种	-4224
第一批	-4225
证券投资基金	-4226
▁证券时报记者	-4227
os	-4228
▁徐	-4229
一身	-4230
信贷	-4231
其后	-4232
加剧	-4233
加索	-4234
在了	-4235
在前	-4236
它们	-4237
对其	-4238
投影	-4239
抵达	-4240
提振	-4241
早盘	-4242
短短	-4243
示范	-4244
背光	-4245
获批	-4246
问及	-4247
防线	-4248
除此	-4249
高三	-4250
黎明	-4251
PTA	-4252
▁去年	-4253
中小盘	-4254
发生了	-4255
实现了	-4256
拿下了	-4257
接受了	-4258
最多的	-4259
的关键	-4260
的电影	-4261
blog	-4262
马来西亚	-4263
EX	-4264
不敢	-4265
专访	-4266
仍将	-4267
他就	-4268
伤害	-4269
办学	-4270
加油	-4271
发起	-4272
居民	-4273
广播	-4274
招聘	-4275
攀升	-4276
的海	-4277
筹备	-4278
简称	-4279
网卡	-4280
衣服	-4281
诉讼	-4282
钢价	-4283
ire	-4284
她表示	-4285
如果你	-4286
年高考	-4287
成立的	-4288
液晶屏	-4289
的风险	-4290
霍华德	-4291
第三季度	-4292
仔细	-4293
入场	-4294
区县	-4295
周刊	-4296
四大	-4297
塞罗	-4298
外汇	-4299
天胶	-4300
太太	-4301
奥拉	-4302
宽带	-4303
性和	-4304
恋爱	-4305
我要	-4306
期限	-4307
积累	-4308
签订	-4309
让她	-4310
资助	-4311
资深	-4312
输出	-4313
韩寒	-4314
130	-4315
18.	-4316
———	-4317
下来的	-4318
已经有	-4319
申请人	-4320
的交易	-4321
的相关	-4322
第三方	-4323
都可以	-4324
保本基金	-4325
现场确认	-4326
商品交易所	-4327
录取分数线	-4328
5%	-4329
一向	-4330
不俗	-4331
两周	-4332
二本	-4333
元素	-4334
加仓	-4335
加工	-4336
史密	-4337
名将	-4338
处在	-4339
实用	-4340
开设	-4341
打压	-4342
担保	-4343
更大	-4344
某些	-4345
样的	-4346
病毒	-4347
的李	-4348
空中	-4349
类的	-4350
获胜	-4351
走强	-4352
2.7	-4353
▁IS	-4354
▁中考	-4355
月合约	-4356
的股票	-4357
威廉姆斯	-4358
的基础上	-4359
值得注意的是	-4360
:9	-4361
▁g	-4362
▁他	-4363
为例	-4364
主打	-4365
京东	-4366
作家	-4367
入了	-4368
吃饭	-4369
哈尔	-4370
境外	-4371
姐姐	-4372
应当	-4373
的那	-4374
知情	-4375
调研	-4376
还剩	-4377
鹏华	-4378
▁In	-4379
了自己	-4380
冯小刚	-4381
净赎回	-4382
失去了	-4383
年轻人	-4384
的支持	-4385
的选择	-4386
看到了	-4387
简单的	-4388
联赛中	-4389
1600	-4390
也就是说	-4391
国家队的	-4392
03	-4393
5-	-4394
ak	-4395
一同	-4396
世石	-4397
也对	-4398
伙伴	-4399
卡塔	-4400
场内	-4401
套餐	-4402
奥巴	-4403
审批	-4404
引导	-4405
怀疑	-4406
抑制	-4407
拓展	-4408
挂牌	-4409
收取	-4410
敏感	-4411
无限	-4412
既然	-4413
日均	-4414
焦距	-4415
登场	-4416
眼睛	-4417
第六	-4418
被动	-4419
评分	-4420
连接	-4421
锻炼	-4422
麻烦	-4423
黄蜂	-4424
”,“	-4425
个赛季	-4426
主演的	-4427
全明星	-4428
原因是	-4429
月份的	-4430
真正的	-4431
这就是	-4432
去年同期	-4433
理工大学	-4434
这个问题	-4435
与其	-4436
又有	-4437
古力	-4438
国债	-4439
国米	-4440
在其	-4441
官网	-4442
就读	-4443
尼特	-4444
巴蒂	-4445
希腊	-4446
录像	-4447
快船	-4448
打印	-4449
携手	-4450
无缘	-4451
溢价	-4452
玩家	-4453
相继	-4454
缺少	-4455
群体	-4456
认定	-4457
负面	-4458
进军	-4459
避险	-4460
随即	-4461
高峰	-4462
业务的	-4463
塞罗那	-4464
相关的	-4465
预选赛	-4466
北京大学	-4467
外观设计	-4468
巴塞罗那	-4469
投资者的	-4470
现货市场	-4471
自学考试	-4472
Twitter	-4473
ID	-4474
ST	-4475
▁不	-4476
一举	-4477
他对	-4478
出生	-4479
包含	-4480
合计	-4481
回合	-4482
好像	-4483
将从	-4484
就此	-4485
江西	-4486
的老	-4487
精力	-4488
编剧	-4489
而这	-4490
聊天	-4491
联手	-4492
魅力	-4493
ail	-4494
ell	-4495
ine	-4496
▁图文	-4497
万英镑	-4498
中小板	-4499
但是在	-4500
是否会	-4501
的防守	-4502
2003	-4503
中国联通	-4504
联系电话	-4505
02	-4506
ov	-4507
ps	-4508
▁天	-4509
一号	-4510
上有	-4511
可爱	-4512
困扰	-4513
国脚	-4514
复读	-4515
学期	-4516
定价	-4517
对待	-4518
射手	-4519
巨人	-4520
并列	-4521
建业	-4522
投中	-4523
榜首	-4524
洛佩	-4525
爱好	-4526
犯罪	-4527
瞬间	-4528
维护	-4529
获奖	-4530
090	-4531
▁HD	-4532
不仅仅	-4533
主办方	-4534
加索尔	-4535
吸引力	-4536
孩子的	-4537
的话题	-4538
管理的	-4539
净值增长率	-4540
BO	-4541
中午	-4542
体能	-4543
何时	-4544
养老	-4545
前一	-4546
司法	-4547
命运	-4548
回暖	-4549
在校	-4550
大概	-4551
形容	-4552
投放	-4553
有时	-4554
机场	-4555
演技	-4556
用了	-4557
缴费	-4558
耳机	-4559
财产	-4560
走低	-4561
重的	-4562
防止	-4563
▁0.	-4564
▁st	-4565
在比赛	-4566
电影节	-4567
看上去	-4568
美联储	-4569
超过了	-4570
世界冠军	-4571
原油价格	-4572
Intel	-4573
▁赵	-4574
▁郭	-4575
下场	-4576
专用	-4577
住了	-4578
佳一	-4579
公正	-4580
助于	-4581
发售	-4582
各项	-4583
型的	-4584
家族	-4585
布兰	-4586
底线	-4587
拨打	-4588
日讯	-4589
是我	-4590
汉姆	-4591
点球	-4592
短片	-4593
等到	-4594
紧缩	-4595
考前	-4596
见的	-4597
说话	-4598
走了	-4599
跳投	-4600
踢球	-4601
里面	-4602
青春	-4603
17.	-4604
450	-4605
▁松下	-4606
二季度	-4607
多年的	-4608
收视率	-4609
理工类	-4610
能够在	-4611
那就是	-4612
经纪公司	-4613
美元指数	-4614
万有效像素	-4615
期货分析师	-4616
二十	-4617
人选	-4618
但她	-4619
位居	-4620
后面	-4621
喜爱	-4622
好在	-4623
巴巴	-4624
张国	-4625
执法	-4626
抢眼	-4627
挑选	-4628
早就	-4629
昆明	-4630
添富	-4631
港元	-4632
玩笑	-4633
群众	-4634
谈及	-4635
这份	-4636
这支	-4637
重返	-4638
首批	-4639
2.3	-4640
LCD	-4641
ome	-4642
安德森	-4643
的合作	-4644
自己在	-4645
▁事实上	-4646
其中包括	-4647
最后时刻	-4648
除此之外	-4649
)(	-4650
AP	-4651
DP	-4652
ub	-4653
也可	-4654
仅售	-4655
作战	-4656
佩克	-4657
做客	-4658
分歧	-4659
判罚	-4660
右侧	-4661
困境	-4662
在京	-4663
威尔	-4664
实质	-4665
忘记	-4666
想买	-4667
是他	-4668
更衣	-4669
短线	-4670
种植	-4671
签署	-4672
级的	-4673
缺阵	-4674
罗伊	-4675
而不	-4676
联邦	-4677
致电	-4678
读书	-4679
难得	-4680
,19	-4681
TVB	-4682
ang	-4683
ice	-4684
丰富的	-4685
也不是	-4686
了一场	-4687
史密斯	-4688
孩子们	-4689
我现在	-4690
欧佩克	-4691
的就是	-4692
结算价	-4693
观众的	-4694
中国男篮	-4695
俱乐部的	-4696
已经成为	-4697
采访时表示	-4698
ThinkPad	-4699
QQ	-4700
SL	-4701
一中	-4702
一大	-4703
一片	-4704
下旬	-4705
东部	-4706
中证	-4707
之处	-4708
但从	-4709
位列	-4710
关口	-4711
关闭	-4712
危险	-4713
坐在	-4714
好转	-4715
就算	-4716
总局	-4717
投票	-4718
新版	-4719
杠杆	-4720
林丹	-4721
沃尔	-4722
续航	-4723
缩水	-4724
自治	-4725
评测	-4726
资费	-4727
路线	-4728
隆索	-4729
领取	-4730
16.	-4731
▁专家	-4732
▁近期	-4733
发行的	-4734
在去年	-4735
折价率	-4736
排行榜	-4737
是为了	-4738
更衣室	-4739
比例为	-4740
的东西	-4741
美元的	-4742
贝尼特	-4743
▁for	-4744
技术学院	-4745
考试时间	-4746
obile	-4747
2%	-4748
AV	-4749
▁r	-4750
、2	-4751
一套	-4752
体制	-4753
受理	-4754
国产	-4755
增速	-4756
大方	-4757
开机	-4758
拉克	-4759
方正	-4760
破坏	-4761
社区	-4762
网页	-4763
表情	-4764
豆类	-4765
起到	-4766
身为	-4767
辛苦	-4768
阿娇	-4769
陆毅	-4770
集成	-4771
题的	-4772
▁本报	-4773
三个月	-4774
吸引了	-4775
在剧中	-4776
奥巴马	-4777
希望能	-4778
每一个	-4779
特长生	-4780
的能力	-4781
竞争力	-4782
8000	-4783
最重要的	-4784
没有任何	-4785
▁业内人士	-4786
NY	-4787
▁晨	-4788
▁朱	-4789
》《	-4790
一条	-4791
事务	-4792
互相	-4793
产区	-4794
从业	-4795
优化	-4796
听说	-4797
告别	-4798
国民	-4799
孙悦	-4800
实名	-4801
将被	-4802
就不	-4803
工银	-4804
席位	-4805
来讲	-4806
温格	-4807
燃料	-4808
网购	-4809
艰难	-4810
花费	-4811
言论	-4812
认证	-4813
试图	-4814
过剩	-4815
这笔	-4816
长沙	-4817
雷霆	-4818
首歌	-4819
高管	-4820
,12	-4821
240	-4822
480	-4823
▁为了	-4824
一年的	-4825
传统的	-4826
保送生	-4827
净利润	-4828
出现的	-4829
同时也	-4830
奥尼尔	-4831
就开始	-4832
引起了	-4833
技术的	-4834
是非常	-4835
李世石	-4836
汇添富	-4837
的新闻	-4838
的结果	-4839
的行为	-4840
商品期货	-4841
国际油价	-4842
录取工作	-4843
最后一个	-4844
罗纳尔多	-4845
:1	-4846
▁以	-4847
▁由	-4848
一流	-4849
东家	-4850
人群	-4851
假期	-4852
充足	-4853
全程	-4854
典礼	-4855
分和	-4856
前场	-4857
合法	-4858
团体	-4859
夏普	-4860
天后	-4861
太平	-4862
左侧	-4863
并购	-4864
式的	-4865
悬念	-4866
打法	-4867
拍到	-4868
捐款	-4869
新鲜	-4870
更换	-4871
更新	-4872
朝鲜	-4873
林峰	-4874
棕榈	-4875
活塞	-4876
派出	-4877
球手	-4878
疑问	-4879
签字	-4880
网址	-4881
解析	-4882
豪门	-4883
跟随	-4884
车手	-4885
长盛	-4886
题型	-4887
高招	-4888
ist	-4889
▁II	-4890
一部分	-4891
了一块	-4892
优秀的	-4893
就已经	-4894
年以来	-4895
必须要	-4896
新专辑	-4897
更大的	-4898
的学校	-4899
陈奕迅	-4900
黄晓明	-4901
大幅上涨	-4902
目前正在	-4903
机构投资者	-4904
▁海	-4905
一项	-4906
不出	-4907
代码	-4908
伍兹	-4909
做得	-4910
几次	-4911
周年	-4912
国有	-4913
大于	-4914
大成	-4915
天下	-4916
套装	-4917
寻求	-4918
打入	-4919
拜仁	-4920
旺季	-4921
易斯	-4922
此举	-4923
的王	-4924
的第	-4925
被人	-4926
证据	-4927
贵州	-4928
起诉	-4929
进程	-4930
首节	-4931
高潮	-4932
,11	-4933
out	-4934
下赛季	-4935
全世界	-4936
则表示	-4937
大规模	-4938
市场对	-4939
有一些	-4940
的故事	-4941
范围内	-4942
邵佳一	-4943
商业银行	-4944
);	-4945
-3	-4946
ry	-4947
一半	-4948
两队	-4949
中招	-4950
低点	-4951
保守	-4952
冠希	-4953
决心	-4954
出于	-4955
四年	-4956
垄断	-4957
对我	-4958
尔曼	-4959
岗位	-4960
帕克	-4961
年末	-4962
幽默	-4963
慢慢	-4964
户口	-4965
报到	-4966
更高	-4967
毫米	-4968
水准	-4969
济南	-4970
激情	-4971
特意	-4972
相互	-4973
笑着	-4974
笑称	-4975
精致	-4976
结局	-4977
荣誉	-4978
被告	-4979
视觉	-4980
诚信	-4981
黄牌	-4982
60%	-4983
ant	-4984
▁参考	-4985
▁当然	-4986
▁推荐	-4987
▁火箭	-4988
亚锦赛	-4989
今天的	-4990
几个月	-4991
加入了	-4992
招生办	-4993
条评论	-4994
的作用	-4995
的经济	-4996
间消息	-4997
显示效果	-4998
这款手机	-4999
基金公司的	-5000
统计数据显示	-5001
......”	-5002
-6	-5003
LG	-5004
pr	-5005
一级	-5006
两市	-5007
主频	-5008
也都	-5009
升至	-5010
卡尔	-5011
声称	-5012
家里	-5013
小心	-5014
引入	-5015
很高	-5016
拿出	-5017
是有	-5018
最具	-5019
每股	-5020
泰国	-5021
生意	-5022
白银	-5023
的张	-5024
籼稻	-5025
统招	-5026
维尔	-5027
而出	-5028
衍生	-5029
解放	-5030
评选	-5031
还未	-5032
追捧	-5033
鉴于	-5034
链接	-5035
问他	-5036
雄鹿	-5037
风暴	-5038
首个	-5039
▁发自	-5040
▁截至	-5041
不需要	-5042
基金在	-5043
差不多	-5044
的平均	-5045
相应的	-5046
给大家	-5047
阿里巴巴	-5048
高等学校	-5049
▁编辑观点	-5050
一定程度上	-5051
▁Y	-5052
▁■	-5053
之上	-5054
人寿	-5055
从小	-5056
冬季	-5057
冰箱	-5058
千元	-5059
各位	-5060
回顾	-5061
地理	-5062
就被	-5063
年薪	-5064
德勒	-5065
德纲	-5066
或将	-5067
振荡	-5068
收储	-5069
档案	-5070
理查	-5071
界面	-5072
精英	-5073
职位	-5074
莱坞	-5075
菲尔	-5076
解读	-5077
读卡	-5078
-10	-5079
CPI	-5080
ort	-5081
个小时	-5082
也非常	-5083
哈尔滨	-5084
在内地	-5085
小组赛	-5086
已经被	-5087
巴蒂尔	-5088
等方面	-5089
2002	-5090
ouch	-5091
单反相机	-5092
招生考试	-5093
职业技术学院	-5094
MS	-5095
ha	-5096
。[	-5097
一球	-5098
万的	-5099
不中	-5100
东南	-5101
东吴	-5102
举报	-5103
之路	-5104
了对	-5105
他又	-5106
以内	-5107
但却	-5108
冲突	-5109
台上	-5110
场地	-5111
对话	-5112
执导	-5113
掉了	-5114
探索	-5115
极为	-5116
法庭	-5117
的心	-5118
赠送	-5119
连拍	-5120
门口	-5121
黑客	-5122
MEX	-5123
ack	-5124
两人的	-5125
举办的	-5126
在全国	-5127
活动的	-5128
独特的	-5129
的过程	-5130
让他们	-5131
迈克尔	-5132
10-8	-5133
竞争对手	-5134
首发阵容	-5135
▁点击查看	-5136
-2	-5137
为他	-5138
亚伟	-5139
他将	-5140
低位	-5141
依林	-5142
候选	-5143
前来	-5144
名师	-5145
奖励	-5146
宝宝	-5147
延长	-5148
征战	-5149
循环	-5150
放大	-5151
明的	-5152
晶晶	-5153
林志	-5154
模仿	-5155
泡沫	-5156
点的	-5157
签名	-5158
紧急	-5159
纳什	-5160
蓝牙	-5161
许可	-5162
该片	-5163
身穿	-5164
转向	-5165
边缘	-5166
0.5	-5167
▁对此	-5168
上网本	-5169
周杰伦	-5170
正确的	-5171
洛佩斯	-5172
的预期	-5173
网站上	-5174
考生要	-5175
肯定会	-5176
还需要	-5177
2001	-5178
参加高考	-5179
现货价格	-5180
这意味着	-5181
高清视频	-5182
▁----	-5183
CF	-5184
TS	-5185
一共	-5186
上月	-5187
不愿	-5188
两家	-5189
为其	-5190
主导	-5191
伦特	-5192
供给	-5193
到达	-5194
右路	-5195
大戏	-5196
家电	-5197
尾盘	-5198
弥补	-5199
择校	-5200
指定	-5201
接收	-5202
日为	-5203
替代	-5204
最有	-5205
男女	-5206
的超	-5207
给人	-5208
老婆	-5209
老鼠	-5210
负担	-5211
跟着	-5212
跳水	-5213
逻辑	-5214
道路	-5215
风云	-5216
DVD	-5217
LTE	-5218
▁我们	-5219
不一样	-5220
世界上	-5221
保证金	-5222
公告称	-5223
同学们	-5224
蔡依林	-5225
过去的	-5226
通讯员	-5227
征集志愿	-5228
▁何	-5229
▁美	-5230
一只	-5231
上传	-5232
上面	-5233
为人	-5234
之际	-5235
价为	-5236
兰多	-5237
创出	-5238
利息	-5239
华硕	-5240
却在	-5241
响应	-5242
哪个	-5243
在与	-5244
外的	-5245
多空	-5246
套利	-5247
安装	-5248
定了	-5249
得以	-5250
德森	-5251
忽视	-5252
意愿	-5253
意料	-5254
成年	-5255
所得	-5256
描述	-5257
提及	-5258
暗示	-5259
泽西	-5260
浪漫	-5261
电力	-5262
的后	-5263
竞赛	-5264
耐心	-5265
边路	-5266
还款	-5267
都没	-5268
问她	-5269
革命	-5270
韩庚	-5271
MBA	-5272
rom	-5273
▁5.	-5274
▁St	-5275
休斯顿	-5276
名球员	-5277
容祖儿	-5278
年中国	-5279
我知道	-5280
投资人	-5281
有兴趣	-5282
的增长	-5283
高中生	-5284
复旦大学	-5285
新浪体育	-5286
联接基金	-5287
货币市场	-5288
资产配置	-5289
这款产品	-5290
万像素摄像头	-5291
-1	-5292
3,	-5293
4%	-5294
SH	-5295
上半	-5296
下方	-5297
之战	-5298
买卖	-5299
债市	-5300
别墅	-5301
前晚	-5302
同步	-5303
和他	-5304
大牌	-5305
家中	-5306
富城	-5307
带有	-5308
开考	-5309
愿望	-5310
戏剧	-5311
提名	-5312
最初	-5313
洛瑞	-5314
看了	-5315
落实	-5316
蓝色	-5317
说是	-5318
静雯	-5319
21.	-5320
▁最近	-5321
名单中	-5322
延续了	-5323
报道称	-5324
的一年	-5325
的最大	-5326
的进攻	-5327
被录取	-5328
读卡器	-5329
资产的	-5330
中国足协	-5331
很有可能	-5332
有色金属	-5333
计划招生	-5334
相关负责人	-5335
1%	-5336
2》	-5337
?“	-5338
NC	-5339
▁受	-5340
▁近	-5341
下半	-5342
不已	-5343
乐队	-5344
人心	-5345
依赖	-5346
先是	-5347
其在	-5348
凯文	-5349
化妆	-5350
土耳	-5351
均衡	-5352
大力	-5353
小巧	-5354
居然	-5355
已于	-5356
影迷	-5357
惊讶	-5358
成果	-5359
战斗	-5360
抓住	-5361
有个	-5362
本场	-5363
汇丰	-5364
猛龙	-5365
的双	-5366
监控	-5367
省级	-5368
萨尔	-5369
表面	-5370
语音	-5371
赞助	-5372
这让	-5373
退休	-5374
那种	-5375
非法	-5376
IPO	-5377
▁外观	-5378
▁姚明	-5379
之后的	-5380
也不能	-5381
但我们	-5382
制造业	-5383
土耳其	-5384
广东省	-5385
开放式	-5386
我没有	-5387
找到了	-5388
更好地	-5389
李嘉欣	-5390
的部分	-5391
等因素	-5392
精彩的	-5393
股票型	-5394
能力的	-5395
被问到	-5396
设计的	-5397
有关部门	-5398
第一志愿	-5399
贝尼特斯	-5400
日上午消息	-5401
2)	-5402
3%	-5403
也曾	-5404
从中	-5405
以此	-5406
会对	-5407
倾向	-5408
光灯	-5409
初试	-5410
剧情	-5411
加斯	-5412
华安	-5413
压制	-5414
发达	-5415
取代	-5416
在他	-5417
多纳	-5418
姚晨	-5419
常常	-5420
开学	-5421
总数	-5422
情节	-5423
指责	-5424
无数	-5425
早上	-5426
显现	-5427
派对	-5428
立体	-5429
舒淇	-5430
航空	-5431
跌至	-5432
道理	-5433
长假	-5434
长达	-5435
附中	-5436
250	-5437
650	-5438
Ver	-5439
▁2、	-5440
▁6.	-5441
、11	-5442
万欧元	-5443
卡塔尔	-5444
去年的	-5445
因为他	-5446
在主场	-5447
太平洋	-5448
好莱坞	-5449
尺寸为	-5450
年全国	-5451
早籼稻	-5452
球员们	-5453
的网络	-5454
管理层	-5455
重仓股	-5456
▁you	-5457
天然橡胶	-5458
货币基金	-5459
录取通知书	-5460
期货交易所	-5461
▁---->	-5462
ud	-5463
一分	-5464
两场	-5465
之时	-5466
人口	-5467
付出	-5468
借助	-5469
共计	-5470
到位	-5471
前后	-5472
反超	-5473
取决	-5474
士顿	-5475
夏季	-5476
局势	-5477
工厂	-5478
庾澄	-5479
德罗	-5480
新年	-5481
新西	-5482
最强	-5483
步行	-5484
版的	-5485
物价	-5486
物流	-5487
瑞典	-5488
短暂	-5489
笑容	-5490
订单	-5491
赔偿	-5492
里奇	-5493
量化	-5494
钢琴	-5495
障碍	-5496
领衔	-5497
首日	-5498
140	-5499
2%,	-5500
20.	-5501
▁18	-5502
▁1、	-5503
▁联想	-5504
卡片机	-5505
布莱恩	-5506
庾澄庆	-5507
政策的	-5508
时间里	-5509
棕榈油	-5510
的学习	-5511
维持在	-5512
自治区	-5513
规定的	-5514
1105	-5515
奥林巴斯	-5516
投资移民	-5517
金融机构	-5518
1)	-5519
ew	-5520
”“	-5521
▁Q	-5522
下发	-5523
不时	-5524
中职	-5525
主体	-5526
传递	-5527
作弊	-5528
侵权	-5529
俊闵	-5530
做多	-5531
卡西	-5532
地的	-5533
对冲	-5534
小康	-5535
巡赛	-5536
平行	-5537
平静	-5538
待遇	-5539
我对	-5540
抛售	-5541
收藏	-5542
斯坦	-5543
智慧	-5544
栏目	-5545
森林	-5546
民办	-5547
沪锌	-5548
涨势	-5549
理性	-5550
疲软	-5551
社保	-5552
科研	-5553
空单	-5554
签下	-5555
缺口	-5556
背面	-5557
西南	-5558
视野	-5559
走进	-5560
转让	-5561
较多	-5562
里克	-5563
长春	-5564
难题	-5565
26.	-5566
▁但是	-5567
但现在	-5568
信息化	-5569
取决于	-5570
富国天	-5571
市场中	-5572
是中国	-5573
的球迷	-5574
省教育	-5575
经济学	-5576
经记者	-5577
网站的	-5578
蒿俊闵	-5579
个交易日	-5580
基金净值	-5581
这是一个	-5582
日下午消息	-5583
考生和家长	-5584
:0	-5585
BS	-5586
HC	-5587
SR	-5588
ik	-5589
▁·	-5590
▁罗	-5591
三人	-5592
乒乓	-5593
人和	-5594
低端	-5595
出品	-5596
因而	-5597
大胜	-5598
好事	-5599
将由	-5600
已被	-5601
广电	-5602
开播	-5603
引人	-5604
房间	-5605
欧美	-5606
消化	-5607
灰熊	-5608
熊市	-5609
痛苦	-5610
的原	-5611
简直	-5612
类别	-5613
级别	-5614
给出	-5615
认同	-5616
语种	-5617
贝克	-5618
这名	-5619
途径	-5620
通话	-5621
道德	-5622
郑智	-5623
集合	-5624
颇为	-5625
27.	-5626
3%,	-5627
aby	-5628
ick	-5629
▁然而	-5630
体育馆	-5631
决赛中	-5632
基金会	-5633
影响力	-5634
我们将	-5635
投资于	-5636
提高了	-5637
新一代	-5638
没什么	-5639
的一款	-5640
的技术	-5641
的标准	-5642
的现象	-5643
的资金	-5644
赢得了	-5645
选择题	-5646
郭德纲	-5647
布鲁克斯	-5648
的经纪人	-5649
▁that	-5650
指数型基金	-5651
有关负责人	-5652
一一	-5653
一件	-5654
中介	-5655
他会	-5656
几十	-5657
出局	-5658
可达	-5659
城区	-5660
奥多	-5661
婆婆	-5662
将其	-5663
干部	-5664
总量	-5665
成的	-5666
房子	-5667
拖累	-5668
授权	-5669
斯基	-5670
新片	-5671
无人	-5672
概率	-5673
热播	-5674
率领	-5675
球衣	-5676
生存	-5677
略有	-5678
离职	-5679
米勒	-5680
细腻	-5681
薪酬	-5682
设施	-5683
较小	-5684
辉煌	-5685
连杰	-5686
遭受	-5687
重心	-5688
集训	-5689
音频	-5690
飞机	-5691
1.8	-5692
TFT	-5693
are	-5694
▁3、	-5695
▁市场	-5696
▁此次	-5697
不超过	-5698
制片人	-5699
和中国	-5700
在未来	-5701
我们会	-5702
投摩根	-5703
摄像机	-5704
欧元区	-5705
涨幅为	-5706
的速度	-5707
的音乐	-5708
程度的	-5709
范冰冰	-5710
贾静雯	-5711
造成的	-5712
▁实习生	-5713
控制分数线	-5714
普通高校招生	-5715
(3	-5716
2,	-5717
LA	-5718
LD	-5719
ld	-5720
一体	-5721
交给	-5722
会否	-5723
保密	-5724
则在	-5725
利的	-5726
动物	-5727
华商	-5728
卡佩	-5729
卫星	-5730
吉林	-5731
周围	-5732
媳妇	-5733
对应	-5734
左路	-5735
戏份	-5736
报收	-5737
日元	-5738
日内	-5739
日到	-5740
是由	-5741
期的	-5742
此类	-5743
法拉	-5744
流感	-5745
热线	-5746
的多	-5747
皇帝	-5748
稳步	-5749
第七	-5750
而被	-5751
莫雷	-5752
裁员	-5753
跑赢	-5754
较量	-5755
这就	-5756
难免	-5757
飙升	-5758
▁(+	-5759
不确定	-5760
为自己	-5761
也开始	-5762
介绍说	-5763
仍然是	-5764
任意球	-5765
吉格斯	-5766
基金业	-5767
拿到了	-5768
日正式	-5769
的关注	-5770
的同学	-5771
研究员	-5772
稳定的	-5773
中国经济	-5774
商品价格	-5775
市场份额	-5776
湖南卫视	-5777
的过程中	-5778
这个角色	-5779
重要的是	-5780
混合型基金	-5781
越来越多的	-5782
][	-5783
三次	-5784
上学	-5785
交银	-5786
产权	-5787
俊杰	-5788
协调	-5789
台币	-5790
向上	-5791
周边	-5792
在外	-5793
多月	-5794
大气	-5795
头号	-5796
季节	-5797
小说	-5798
层面	-5799
已是	-5800
开拍	-5801
情侣	-5802
惊人	-5803
战中	-5804
扩张	-5805
流入	-5806
流程	-5807
满分	-5808
申报	-5809
监考	-5810
盘面	-5811
笑言	-5812
综艺	-5813
补偿	-5814
触及	-5815
让你	-5816
说了	-5817
转身	-5818
重建	-5819
2%。	-5820
edu	-5821
int	-5822
▁考生	-5823
到现在	-5824
地表示	-5825
基础上	-5826
基金中	-5827
录取线	-5828
浏览器	-5829
生活中	-5830
的角色	-5831
的走势	-5832
董事会	-5833
郭富城	-5834
都非常	-5835
麦克风	-5836
1400	-5837
izon	-5838
万美元的	-5839
从来没有	-5840
合作伙伴	-5841
宏观经济	-5842
接下来的	-5843
新浪考研	-5844
的投资者	-5845
监管部门	-5846
硕士学位	-5847
SCDMA	-5848
8-	-5849
LO	-5850
ip	-5851
▁南	-5852
▁特	-5853
三角	-5854
交换	-5855
佛罗	-5856
内心	-5857
内衣	-5858
再现	-5859
减弱	-5860
华为	-5861
博文	-5862
周迅	-5863
唱歌	-5864
在大	-5865
坚决	-5866
定向	-5867
将以	-5868
感应	-5869
拉蒂	-5870
接力	-5871
是要	-5872
未婚	-5873
极大	-5874
林斯	-5875
民间	-5876
浪费	-5877
犹豫	-5878
瓜迪	-5879
百姓	-5880
目光	-5881
科大	-5882
紧密	-5883
范德	-5884
视为	-5885
费率	-5886
迈克	-5887
选购	-5888
酒吧	-5889
领袖	-5890
鲁尼	-5891
4%,	-5892
LME	-5893
▁比赛	-5894
专业课	-5895
伟大的	-5896
体现了	-5897
依然是	-5898
冠军的	-5899
准备金	-5900
在一个	-5901
外国语	-5902
就没有	-5903
市教育	-5904
常规赛	-5905
所院校	-5906
新华社	-5907
有网友	-5908
的一种	-5909
考试中	-5910
资金的	-5911
进入了	-5912
陈冠希	-5913
ucas	-5914
▁The	-5915
债务危机	-5916
大幅下跌	-5917
市场预期	-5918
瓜迪奥拉	-5919
高尔夫球	-5920
4,	-5921
IE	-5922
Sh	-5923
万余	-5924
不必	-5925
中邮	-5926
事故	-5927
亲密	-5928
仍旧	-5929
做题	-5930
公民	-5931
几位	-5932
分开	-5933
华人	-5934
发票	-5935
发送	-5936
同类	-5937
和李	-5938
国储	-5939
均在	-5940
基指	-5941
大片	-5942
封面	-5943
就连	-5944
布帅	-5945
当事	-5946
德斯	-5947
技能	-5948
掀起	-5949
控股	-5950
摆脱	-5951
期权	-5952
正好	-5953
温度	-5954
温暖	-5955
王菲	-5956
省内	-5957
福德	-5958
离场	-5959
种种	-5960
笑说	-5961
等效	-5962
虚拟	-5963
记得	-5964
这段	-5965
都被	-5966
重复	-5967
院长	-5968
默契	-5969
210	-5970
220	-5971
25.	-5972
80%	-5973
gle	-5974
▁he	-5975
伊朗队	-5976
将达到	-5977
小沈阳	-5978
我们要	-5979
提前批	-5980
新西兰	-5981
有效的	-5982
杰拉德	-5983
波士顿	-5984
的一切	-5985
的准备	-5986
的变化	-5987
的规定	-5988
的说法	-5989
相对于	-5990
研究所	-5991
表现出	-5992
触摸屏	-5993
记者在	-5994
较好的	-5995
还是要	-5996
颁奖礼	-5997
领域的	-5998
光学防抖	-5999
南方基金	-6000
有消息称	-6001
综合素质	-6002
解决方案	-6003
▁考研论坛	-6004
▁考研博客圈	-6005
新浪考研频道	-6006
HO	-6007
NV	-6008
ra	-6009
▁五	-6010
▁安	-6011
▁问	-6012
不论	-6013
东京	-6014
价差	-6015
依法	-6016
先发	-6017
创维	-6018
剩余	-6019
华尔	-6020
单纯	-6021
厚的	-6022
商所	-6023
因伤	-6024
圈内	-6025
多位	-6026
奖杯	-6027
姜文	-6028
实的	-6029
尔克	-6030
幕后	-6031
开出	-6032
德甲	-6033
懂得	-6034
拍拖	-6035
持股	-6036
控卫	-6037
控球	-6038
教委	-6039
斯卡	-6040
时装	-6041
最早	-6042
次数	-6043
歌词	-6044
流量	-6045
海洋	-6046
特性	-6047
琼斯	-6048
的风	-6049
监测	-6050
窗口	-6051
缴纳	-6052
罗伯	-6053
自称	-6054
规格	-6055
角球	-6056
读者	-6057
轻易	-6058
运价	-6059
运气	-6060
送上	-6061
首款	-6062
马尔	-6063
-11	-6064
28.	-6065
▁09	-6066
▁苹果	-6067
▁观望	-6068
万元的	-6069
上市的	-6070
做出了	-6071
名考生	-6072
录取率	-6073
影响到	-6074
我相信	-6075
托马斯	-6076
投影机	-6077
文史类	-6078
有助于	-6079
瑞和远	-6080
生活的	-6081
的一大	-6082
这一切	-6083
这件事	-6084
非常好	-6085
关键时刻	-6086
出国留学	-6087
华谊兄弟	-6088
可以通过	-6089
市场价格	-6090
配置方面	-6091
:《	-6092
Fi	-6093
▁,	-6094
、7	-6095
专栏	-6096
人家	-6097
伤势	-6098
名列	-6099
均价	-6100
大胆	-6101
委托	-6102
对决	-6103
将近	-6104
应试	-6105
开启	-6106
打好	-6107
托福	-6108
推迟	-6109
无需	-6110
星驰	-6111
是很	-6112
更具	-6113
清洁	-6114
火热	-6115
熊黛	-6116
牌照	-6117
物质	-6118
绿城	-6119
考官	-6120
胜负	-6121
补贴	-6122
西游	-6123
说过	-6124
转载	-6125
较好	-6126
还可	-6127
顺序	-6128
马琳	-6129
验证	-6130
1%,	-6131
19.	-6132
ear	-6133
▁想买	-6134
。”“	-6135
上涨的	-6136
不过在	-6137
产业链	-6138
位用户	-6139
兰德里	-6140
和其他	-6141
因为在	-6142
国家的	-6143
对手的	-6144
情人节	-6145
提出了	-6146
新一轮	-6147
新泽西	-6148
熊黛林	-6149
环境下	-6150
的对手	-6151
的局面	-6152
的热情	-6153
美国的	-6154
芯片组	-6155
还透露	-6156
阿隆索	-6157
北京行情	-6158
录取结果	-6159
成人高校	-6160
我们认为	-6161
第四季度	-6162
阿德尔曼	-6163
。2008	-6164
位用户评论	-6165
▁点击查看评论	-6166
()	-6167
MC	-6168
cm	-6169
if	-6170
ll	-6171
oc	-6172
▁总	-6173
、4	-6174
不受	-6175
专项	-6176
了两	-6177
交手	-6178
他能	-6179
佘诗	-6180
俐俐	-6181
元件	-6182
内斯	-6183
分差	-6184
前十	-6185
务院	-6186
卖场	-6187
卫生	-6188
受访	-6189
只需	-6190
向下	-6191
回复	-6192
增发	-6193
复合	-6194
大关	-6195
家用	-6196
已在	-6197
已达	-6198
当当	-6199
志云	-6200
恶意	-6201
成考	-6202
打工	-6203
指引	-6204
指挥	-6205
收紧	-6206
有线	-6207
期指	-6208
格雷	-6209
比重	-6210
深度	-6211
潜在	-6212
甜蜜	-6213
盖帽	-6214
盛顿	-6215
网下	-6216
美豆	-6217
职务	-6218
舒服	-6219
莫斯	-6220
莱曼	-6221
试验	-6222
象棋	-6223
起点	-6224
身影	-6225
这张	-6226
通用	-6227
部的	-6228
队和	-6229
风波	-6230
首只	-6231
首映	-6232
ian	-6233
下降了	-6234
分钟的	-6235
又一次	-6236
售价为	-6237
志愿者	-6238
的决定	-6239
的名字	-6240
的网友	-6241
的高清	-6242
衍生品	-6243
部电影	-6244
▁新华网	-6245
可以看出	-6246
固定收益	-6247
绝大多数	-6248
oogle	-6249
▁北京考试	-6250
▁新浪教育	-6251
▁相关报道	-6252
。2009	-6253
新闻发布会	-6254
笔记本电脑	-6255
基金研究中心	-6256
(6	-6257
-8	-6258
BC	-6259
um	-6260
▁胡	-6261
▁西	-6262
一贯	-6263
三种	-6264
上课	-6265
与前	-6266
人大	-6267
免试	-6268
冷静	-6269
分布	-6270
到的	-6271
厦门	-6272
口语	-6273
图书	-6274
大批	-6275
套期	-6276
妹妹	-6277
就将	-6278
年纪	-6279
应付	-6280
心目	-6281
总共	-6282
报纸	-6283
拉拉	-6284
攻读	-6285
放心	-6286
文斯	-6287
晚宴	-6288
普及	-6289
最小	-6290
权利	-6291
来临	-6292
极具	-6293
标的	-6294
样子	-6295
此番	-6296
渴望	-6297
演戏	-6298
独显	-6299
的金	-6300
简约	-6301
胜局	-6302
般的	-6303
良机	-6304
荧屏	-6305
论文	-6306
说起	-6307
账号	-6308
身的	-6309
输球	-6310
过渡	-6311
递交	-6312
门前	-6313
餐厅	-6314
105	-6315
29.	-6316
90%	-6317
ect	-6318
▁15	-6319
▁国际	-6320
▁文章	-6321
上涨了	-6322
不会有	-6323
他已经	-6324
以下为	-6325
佘诗曼	-6326
分以上	-6327
创造了	-6328
名学生	-6329
宝兴业	-6330
左右的	-6331
日进行	-6332
王亚伟	-6333
男主角	-6334
的企业	-6335
的身份	-6336
给我们	-6337
跌幅为	-6338
这对于	-6339
集中在	-6340
30%,	-6341
套期保值	-6342
报告显示	-6343
表示自己	-6344
▁每经记者	-6345
开放式基金	-6346
基金管理公司	-6347
省教育考试院	-6348
倍光学变焦镜头	-6349
北京教育考试院	-6350
(7	-6351
se	-6352
▁”	-6353
、3	-6354
万亿	-6355
万份	-6356
专利	-6357
中兴	-6358
事项	-6359
体力	-6360
全日	-6361
加之	-6362
同事	-6363
地下	-6364
均有	-6365
大厦	-6366
婚后	-6367
尼斯	-6368
干扰	-6369
年在	-6370
开门	-6371
意甲	-6372
打响	-6373
探讨	-6374
接连	-6375
文并	-6376
时段	-6377
植物	-6378
民营	-6379
波罗	-6380
盛典	-6381
看过	-6382
眼球	-6383
给她	-6384
色的	-6385
要比	-6386
车辆	-6387
较强	-6388
钻石	-6389
长江	-6390
顶尖	-6391
AMD	-6392
GRE	-6393
ade	-6394
all	-6395
ith	-6396
▁14	-6397
▁第二	-6398
人士称	-6399
变成了	-6400
奥多姆	-6401
尤文图	-6402
影响了	-6403
成功的	-6404
有不少	-6405
本科生	-6406
来自于	-6407
科学家	-6408
联赛的	-6409
能力和	-6410
贸易商	-6411
这不是	-6412
院校的	-6413
1109	-6414
icro	-6415
一直以来	-6416
京东商城	-6417
场比赛的	-6418
提醒考生	-6419
江苏卫视	-6420
没有什么	-6421
联赛冠军	-6422
资本市场	-6423
越来越多	-6424
艺术类专业	-6425
基金管理有限公司	-6426
(4	-6427
SX	-6428
de	-6429
▁热	-6430
▁老	-6431
▁被	-6432
三十	-6433
三国	-6434
不算	-6435
中路	-6436
也为	-6437
事宜	-6438
亮度	-6439
仍未	-6440
他与	-6441
他人	-6442
几款	-6443
判决	-6444
前卫	-6445
前日	-6446
原创	-6447
友人	-6448
商用	-6449
基民	-6450
外资	-6451
小编	-6452
席尔	-6453
年中	-6454
年后	-6455
广场	-6456
引来	-6457
性质	-6458
恰恰	-6459
悲观	-6460
扳平	-6461
抱怨	-6462
拿着	-6463
无效	-6464
日益	-6465
是为	-6466
是以	-6467
涨价	-6468
淡季	-6469
漫游	-6470
现任	-6471
现有	-6472
祝贺	-6473
神奇	-6474
称号	-6475
策划	-6476
纳姆	-6477
网的	-6478
肌肉	-6479
落榜	-6480
要有	-6481
要看	-6482
这条	-6483
逼近	-6484
部长	-6485
门票	-6486
阿布	-6487
额度	-6488
高调	-6489
鼠标	-6490
1.6	-6491
2.4	-6492
24.	-6493
▁re	-6494
▁武汉	-6495
▁面对	-6496
不小的	-6497
也希望	-6498
了一次	-6499
人们的	-6500
其他的	-6501
可通过	-6502
国内外	-6503
对记者	-6504
开玩笑	-6505
燃料油	-6506
的孩子	-6507
的形式	-6508
的日子	-6509
等功能	-6510
资格的	-6511
轮比赛	-6512
迎来了	-6513
这两个	-6514
队员们	-6515
orce	-6516
世界排名	-6517
中国女排	-6518
单位净值	-6519
灵活配置	-6520
股份有限公司	-6521
▁北京考试报讯	-6522
:6	-6523
▁曾	-6524
下周	-6525
主权	-6526
亚马	-6527
交往	-6528
以便	-6529
企稳	-6530
休闲	-6531
传输	-6532
但不	-6533
体重	-6534
单曲	-6535
去做	-6536
发了	-6537
各方	-6538
向来	-6539
在我	-6540
复印	-6541
家乡	-6542
导航	-6543
巡演	-6544
快攻	-6545
意向	-6546
更快	-6547
棉价	-6548
榜单	-6549
步伐	-6550
王子	-6551
玻璃	-6552
电器	-6553
直至	-6554
真题	-6555
稀土	-6556
等地	-6557
简章	-6558
组建	-6559
结论	-6560
综指	-6561
聪明	-6562
诺安	-6563
调节	-6564
追究	-6565
遗产	-6566
里亚	-6567
间的	-6568
ond	-6569
▁20	-6570
▁天津	-6571
▁第一	-6572
会议上	-6573
创新高	-6574
大量的	-6575
席尔瓦	-6576
年开始	-6577
开发商	-6578
改变了	-6579
日本队	-6580
有时候	-6581
的一位	-6582
的实力	-6583
营业部	-6584
表现得	-6585
高校的	-6586
16:9	-6587
不同的是	-6588
今年高考	-6589
值得关注	-6590
历史新高	-6591
。2010	-6592
CN	-6593
pp	-6594
▁早	-6595
一枚	-6596
上台	-6597
专注	-6598
举措	-6599
书写	-6600
二代	-6601
交锋	-6602
何超	-6603
全天	-6604
加哥	-6605
升值	-6606
卓越	-6607
单一	-6608
厚度	-6609
去世	-6610
同等	-6611
四强	-6612
天才	-6613
婚变	-6614
宥嘉	-6615
密集	-6616
年金	-6617
影音	-6618
扫描	-6619
换下	-6620
搜狐	-6621
文艺	-6622
朝阳	-6623
气息	-6624
法规	-6625
牺牲	-6626
电台	-6627
目录	-6628
网通	-6629
联安	-6630
联络	-6631
诈骗	-6632
质感	-6633
重回	-6634
金鹰	-6635
隐私	-6636
青海	-6637
预装	-6638
食物	-6639
3.7	-6640
ust	-6641
▁第三	-6642
▁香港	-6643
个月的	-6644
也比较	-6645
亚马逊	-6646
保持着	-6647
另一位	-6648
合适的	-6649
对中国	-6650
戴维斯	-6651
报告中	-6652
收盘价	-6653
文并图	-6654
曾表示	-6655
林志玲	-6656
正收益	-6657
热身赛	-6658
的复习	-6659
的大学	-6660
的比例	-6661
的第二	-6662
芝加哥	-6663
解释说	-6664
记者的	-6665
造成了	-6666
1101	-6667
上证指数	-6668
什么时候	-6669
感光元件	-6670
明确表示	-6671
相比之下	-6672
这段时间	-6673
颁奖典礼	-6674
北京奥运会	-6675
eB	-6676
上限	-6677
不懂	-6678
举动	-6679
义务	-6680
乐坛	-6681
体坛	-6682
作答	-6683
佩岑	-6684
刷新	-6685
刻意	-6686
动画	-6687
助手	-6688
即时	-6689
口碑	-6690
合金	-6691
后再	-6692
哥哥	-6693
哲学	-6694
增添	-6695
天赋	-6696
奢侈	-6697
好处	-6698
宝贝	-6699
康复	-6700
开了	-6701
很不	-6702
德比	-6703
恒大	-6704
揭晓	-6705
日子	-6706
昔日	-6707
星爷	-6708
未必	-6709
条款	-6710
混乱	-6711
瑞信	-6712
甘蔗	-6713
盗版	-6714
盲目	-6715
相差	-6716
着手	-6717
财报	-6718
赛区	-6719
赛程	-6720
辅助	-6721
输了	-6722
雷拉	-6723
EOS	-6724
GDP	-6725
GPS	-6726
ans	-6727
了一份	-6728
了一枚	-6729
侯佩岑	-6730
全高清	-6731
其中的	-6732
华尔街	-6733
品牌的	-6734
并表示	-6735
有一定	-6736
来看看	-6737
比利亚	-6738
的外观	-6739
的服务	-6740
的特点	-6741
的考试	-6742
目前在	-6743
等多种	-6744
老师的	-6745
莫拉蒂	-6746
计划在	-6747
1280	-6748
____	-6749
ight	-6750
中信证券	-6751
国际教育	-6752
在比赛中	-6753
应用程序	-6754
新浪微博	-6755
的背景下	-6756
调查显示	-6757
这样一个	-6758
的主要原因	-6759
▁新浪教育讯	-6760
分析人士认为	-6761
qu	-6762
买家	-6763
事后	-6764
亚太	-6765
人文	-6766
伦斯	-6767
先进	-6768
兼容	-6769
出一	-6770
利斯	-6771
另有	-6772
可选	-6773
和小	-6774
图为	-6775
士强	-6776
外壳	-6777
大卫	-6778
奋斗	-6779
嫌疑	-6780
学友	-6781
宇航	-6782
干旱	-6783
当选	-6784
得好	-6785
戴琳	-6786
投保	-6787
提起	-6788
改进	-6789
新机	-6790
有趣	-6791
模块	-6792
沙特	-6793
没人	-6794
治理	-6795
洗衣	-6796
涵盖	-6797
物品	-6798
特地	-6799
瑞士	-6800
登上	-6801
的发	-6802
的美	-6803
省份	-6804
看见	-6805
种子	-6806
秘书	-6807
线下	-6808
绝杀	-6809
维茨	-6810
网店	-6811
脸上	-6812
膨胀	-6813
菲菲	-6814
融入	-6815
行列	-6816
行程	-6817
试训	-6818
谢谢	-6819
这家	-6820
这将	-6821
透过	-6822
郑糖	-6823
难道	-6824
首都	-6825
驾驶	-6826
高手	-6827
鱼鱼	-6828
4.5	-6829
40%	-6830
70%	-6831
:10	-6832
ite	-6833
lay	-6834
▁本周	-6835
▁现在	-6836
不愿意	-6837
但对于	-6838
充满了	-6839
入门级	-6840
减少了	-6841
勒布朗	-6842
参与了	-6843
国务院	-6844
在拍摄	-6845
在这种	-6846
对他的	-6847
山东队	-6848
心理学	-6849
我们就	-6850
所有人	-6851
是目前	-6852
更高的	-6853
的效果	-6854
省招办	-6855
而对于	-6856
节目中	-6857
让大家	-6858
赛场上	-6859
高水平	-6860
一直没有	-6861
副总经理	-6862
只新基金	-6863
可以看到	-6864
收益率为	-6865
英语考试	-6866
6%	-6867
:4	-6868
PP	-6869
ne	-6870
▁市	-6871
上任	-6872
不高	-6873
中卫	-6874
久的	-6875
五大	-6876
众人	-6877
体积	-6878
保级	-6879
入市	-6880
公立	-6881
创始	-6882
初期	-6883
助阵	-6884
升水	-6885
原料	-6886
口气	-6887
各界	-6888
回国	-6889
地球	-6890
塑造	-6891
天空	-6892
她与	-6893
定投	-6894
富豪	-6895
平常	-6896
得上	-6897
总计	-6898
感叹	-6899
成分	-6900
手里	-6901
投研	-6902
擅长	-6903
暑假	-6904
校区	-6905
欧盟	-6906
每一	-6907
汉语	-6908
波尔	-6909
泽楷	-6910
清盘	-6911
爆出	-6912
玩具	-6913
瑞福	-6914
生死	-6915
的反	-6916
相处	-6917
破解	-6918
礼服	-6919
科尔	-6920
红楼	-6921
耶斯	-6922
联网	-6923
衡量	-6924
装置	-6925
规避	-6926
诞生	-6927
谈论	-6928
边的	-6929
达克	-6930
过多	-6931
还原	-6932
还算	-6933
追问	-6934
队中	-6935
阻止	-6936
限于	-6937
随意	-6938
顾客	-6939
6.5	-6940
640	-6941
768	-6942
▁16	-6943
▁wh	-6944
乒乓球	-6945
使用了	-6946
分钟后	-6947
副主任	-6948
却没有	-6949
同样是	-6950
圣诞节	-6951
复印件	-6952
学生在	-6953
必须在	-6954
摄影师	-6955
放弃了	-6956
步行者	-6957
的人员	-6958
的游戏	-6959
的院校	-6960
的高考	-6961
组委会	-6962
路易斯	-6963
都已经	-6964
钱德勒	-6965
需求的	-6966
马德里	-6967
IDIA	-6968
不仅仅是	-6969
卫冕冠军	-6970
同时也是	-6971
对自己的	-6972
平行志愿	-6973
成人高考	-6974
投资者对	-6975
省教育厅	-6976
资料显示	-6977
钢材期货	-6978
银河证券	-6979
马拉多纳	-6980
Lucas	-6981
亿元人民币	-6982
净值增长率为	-6983
-0	-6984
”)	-6985
★★	-6986
严肃	-6987
个唱	-6988
乃至	-6989
也已	-6990
交大	-6991
以免	-6992
伊涅	-6993
体操	-6994
便是	-6995
修正	-6996
克拉	-6997
全体	-6998
出货	-6999
剧的	-7000
助学	-7001
劳动	-7002
升学	-7003
去看	-7004
参观	-7005
双双	-7006
发动	-7007
合影	-7008
合资	-7009
增至	-7010
大赞	-7011
她还	-7012
孔杰	-7013
实地	-7014
客服	-7015
布拉	-7016
布雷	-7017
干散	-7018
并无	-7019
当场	-7020
得主	-7021
德克	-7022
心中	-7023
成品	-7024
打扮	-7025
打新	-7026
故意	-7027
标配	-7028
梁文	-7029
比利	-7030
治郅	-7031
消失	-7032
漏洞	-7033
燕姿	-7034
特利	-7035
电源	-7036
看得	-7037
眼下	-7038
第十	-7039
答应	-7040
终结	-7041
萎缩	-7042
角逐	-7043
证件	-7044
话费	-7045
走到	-7046
边锋	-7047
迎接	-7048
进而	-7049
金山	-7050
金斯	-7051
随机	-7052
,20	-7053
1.7	-7054
168	-7055
8%,	-7056
MHz	-7057
ate	-7058
ech	-7059
▁7.	-7060
▁外形	-7061
▁按照	-7062
▁现场	-7063
▁至于	-7064
与其他	-7065
两个人	-7066
严重的	-7067
以下是	-7068
制造商	-7069
可能性	-7070
可转债	-7071
周星驰	-7072
唯一的	-7073
回到了	-7074
在微博	-7075
在网络	-7076
布伦特	-7077
干散货	-7078
开始了	-7079
很容易	-7080
投档线	-7081
操作上	-7082
森林狼	-7083
沙尔克	-7084
没有人	-7085
的想法	-7086
的目的	-7087
的计划	-7088
管理费	-7089
给自己	-7090
要知道	-7091
▁参考价	-7092
上市时间	-7093
主场迎战	-7094
以下简称	-7095
伊涅斯塔	-7096
尤文图斯	-7097
次新基金	-7098
的电视剧	-7099
贝克汉姆	-7100
资产规模	-7101
采用的是	-7102
,2007	-7103
▁值得注意的是	-7104
ib	-7105
▁主	-7106
▁同	-7107
。3	-7108
。5	-7109
一来	-7110
万家	-7111
两罚	-7112
严厉	-7113
会是	-7114
传说	-7115
侯耀	-7116
侵犯	-7117
内外	-7118
剩下	-7119
单打	-7120
原件	-7121
变更	-7122
只好	-7123
只想	-7124
可供	-7125
名气	-7126
和谐	-7127
外围	-7128
大哥	-7129
失业	-7130
夺取	-7131
好于	-7132
姐妹	-7133
婚纱	-7134
实体	-7135
宾得	-7136
少了	-7137
平仓	-7138
庆鹏	-7139
开支	-7140
当周	-7141
忽略	-7142
性地	-7143
感染	-7144
我都	-7145
把球	-7146
排队	-7147
搞笑	-7148
男士	-7149
画幅	-7150
看点	-7151
看重	-7152
红牌	-7153
约定	-7154
维拉	-7155
股基	-7156
脚踝	-7157
舒适	-7158
衰退	-7159
被罚	-7160
见证	-7161
解答	-7162
诱惑	-7163
课堂	-7164
豪华	-7165
赌王	-7166
过度	-7167
近来	-7168
连锁	-7169
那就	-7170
锋线	-7171
陈琳	-7172
领跑	-7173
首战	-7174
骄傲	-7175
106	-7176
▁Ge	-7177
▁it	-7178
一志愿	-7179
不久前	-7180
个专业	-7181
中移动	-7182
些时候	-7183
但他们	-7184
作文题	-7185
其中有	-7186
华盛顿	-7187
太多的	-7188
对自己	-7189
广东队	-7190
报收于	-7191
拍电影	-7192
招考办	-7193
时表示	-7194
月下旬	-7195
有媒体	-7196
毫无疑	-7197
爱好者	-7198
的功能	-7199
的所有	-7200
的水平	-7201
的行业	-7202
的视频	-7203
称自己	-7204
第三次	-7205
第二批	-7206
系列的	-7207
给出了	-7208
著名的	-7209
还是在	-7210
进口量	-7211
面临着	-7212
SDHC	-7213
业绩表现	-7214
中国队的	-7215
基金销售	-7216
工银瑞信	-7217
成像能力	-7218
新兴产业	-7219
本科专业	-7220
电子邮件	-7221
Google	-7222
NVIDIA	-7223
▁010-8	-7224
Verizon	-7225
8%	-7226
AF	-7227
IN	-7228
TM	-7229
oh	-7230
▁六	-7231
▁韩	-7232
上次	-7233
不怕	-7234
两者	-7235
了他	-7236
保费	-7237
倒是	-7238
做工	-7239
克莱	-7240
公示	-7241
兰州	-7242
内特	-7243
凸显	-7244
出众	-7245
占到	-7246
厉害	-7247
参照	-7248
各有	-7249
同行	-7250
实惠	-7251
宽屏	-7252
对口	-7253
少女	-7254
席上	-7255
干净	-7256
度假	-7257
弗莱	-7258
强悍	-7259
快捷	-7260
恐慌	-7261
房贷	-7262
所属	-7263
所能	-7264
扩容	-7265
投顾	-7266
斯托	-7267
未经	-7268
枪手	-7269
正规	-7270
残疾	-7271
毕比	-7272
涨跌	-7273
渐渐	-7274
火车	-7275
的情	-7276
盛世	-7277
秩序	-7278
蒙斯	-7279
请求	-7280
豪宅	-7281
超值	-7282
迄今	-7283
邓肯	-7284
那是	-7285
饲料	-7286
黑棋	-7287
1.2	-7288
1.3	-7289
SAT	-7290
The	-7291
▁富士	-7292
▁惠普	-7293
▁最后	-7294
▁本次	-7295
▁这是	-7296
▁针对	-7297
业协会	-7298
为用户	-7299
亚足联	-7300
以前的	-7301
但如果	-7302
只不过	-7303
可能在	-7304
在现场	-7305
扮演的	-7306
李连杰	-7307
的上涨	-7308
的个人	-7309
的具体	-7310
的空间	-7311
的进球	-7312
等问题	-7313
认为是	-7314
这部分	-7315
都比较	-7316
roup	-7317
▁诺基亚	-7318
上投摩根	-7319
完全可以	-7320
接口方面	-7321
民生银行	-7322
知识产权	-7323
这个时候	-7324
这支球队	-7325
雅思考试	-7326
NYMEX	-7327
ivers	-7328
▁外形尺寸	-7329
中国证监会	-7330
参与股指期货	-7331
(5	-7332
(8	-7333
/3	-7334
:7	-7335
MO	-7336
ng	-7337
上年	-7338
上来	-7339
上阵	-7340
不容	-7341
不惜	-7342
专题	-7343
为期	-7344
书面	-7345
二次	-7346
仅次	-7347
充裕	-7348
先行	-7349
光变	-7350
克的	-7351
前面	-7352
加特	-7353
升温	-7354
协助	-7355
司机	-7356
商店	-7357
国投	-7358
在新	-7359
外出	-7360
外地	-7361
大致	-7362
定义	-7363
巩俐	-7364
平方	-7365
弟弟	-7366
强度	-7367
得益	-7368
快递	-7369
所致	-7370
找回	-7371
授予	-7372
无可	-7373
暴风	-7374
更改	-7375
最少	-7376
月末	-7377
李小	-7378
检察	-7379
死亡	-7380
现状	-7381
球后	-7382
用来	-7383
的陈	-7384
称赞	-7385
简洁	-7386
纯粹	-7387
营养	-7388
融通	-7389
被迫	-7390
资质	-7391
身着	-7392
较少	-7393
边框	-7394
违反	-7395
连连	-7396
配有	-7397
阻力	-7398
陈坤	-7399
降幅	-7400
首选	-7401
黄奕	-7402
101	-7403
170	-7404
6%,	-7405
DIG	-7406
age	-7407
ass	-7408
old	-7409
▁on	-7410
不仅是	-7411
不排除	-7412
准备了	-7413
几乎是	-7414
可谓是	-7415
形成了	-7416
德国队	-7417
是一名	-7418
显示出	-7419
最喜欢	-7420
毕业后	-7421
的一场	-7422
的美国	-7423
的趋势	-7424
目的是	-7425
第二天	-7426
自身的	-7427
西游记	-7428
闪光灯	-7429
非常有	-7430
2.11	-7431
eBay	-7432
▁通讯员	-7433
交通大学	-7434
准备金率	-7435
唱片公司	-7436
基本金属	-7437
基金投资	-7438
性能方面	-7439
排名第一	-7440
有限责任	-7441
毫无疑问	-7442
消费者的	-7443
瑞和小康	-7444
纳斯达克	-7445
考试中心	-7446
还是比较	-7447
:2009	-7448
DIGIC	-7449
艺术特长生	-7450
:8	-7451
Ex	-7452
ym	-7453
”、	-7454
▁多	-7455
▁称	-7456
▁答	-7457
一番	-7458
作业	-7459
例子	-7460
入网	-7461
全能	-7462
兰特	-7463
出击	-7464
剧烈	-7465
华语	-7466
合唱	-7467
国青	-7468
在上	-7469
坚定	-7470
增多	-7471
多达	-7472
大为	-7473
奇迹	-7474
安静	-7475
官司	-7476
巅峰	-7477
差别	-7478
帮忙	-7479
年化	-7480
年起	-7481
广厦	-7482
强队	-7483
彩排	-7484
改编	-7485
新低	-7486
日早	-7487
普斯	-7488
最差	-7489
期末	-7490
构建	-7491
波特	-7492
洛蒂	-7493
活力	-7494
海淀	-7495
深证	-7496
游泳	-7497
王刚	-7498
球门	-7499
精心	-7500
红军	-7501
红歌	-7502
纺织	-7503
继承	-7504
而非	-7505
被指	-7506
装修	-7507
警察	-7508
贬值	-7509
贵的	-7510
运输	-7511
连得	-7512
迪拜	-7513
追平	-7514
那时	-7515
部署	-7516
附加	-7517
陆川	-7518
除非	-7519
陪伴	-7520
陪同	-7521
25%	-7522
ure	-7523
▁Wh	-7524
▁日本	-7525
▁谷歌	-7526
上一次	-7527
不管是	-7528
也已经	-7529
仍处于	-7530
保证了	-7531
呈现出	-7532
在场上	-7533
存储卡	-7534
并不能	-7535
总成绩	-7536
成立于	-7537
拉莫斯	-7538
收益为	-7539
是否有	-7540
的到来	-7541
的前提	-7542
的方法	-7543
的演员	-7544
系统的	-7545
维茨基	-7546
老鼠仓	-7547
而且在	-7548
该产品	-7549
郭士强	-7550
配置上	-7551
采访中	-7552
锂电池	-7553
10%,	-7554
4500	-7555
▁DDR	-7556
专业学位	-7557
作为一个	-7558
分级基金	-7559
华宝兴业	-7560
官方网站	-7561
年世界杯	-7562
最后一次	-7563
瑞和远见	-7564
的一部分	-7565
考试科目	-7566
诺维茨基	-7567
+1	-7568
pe	-7569
”;	-7570
▁i	-7571
▁沪	-7572
▁继	-7573
一时	-7574
三是	-7575
不应	-7576
不见	-7577
两轮	-7578
中基	-7579
乘坐	-7580
乙烯	-7581
付费	-7582
伤情	-7583
伤愈	-7584
便利	-7585
促使	-7586
光驱	-7587
公关	-7588
分校	-7589
创办	-7590
北美	-7591
单边	-7592
卡拉	-7593
原糖	-7594
史玉	-7595
号召	-7596
名模	-7597
哈利	-7598
四级	-7599
在职	-7600
埃尔	-7601
增大	-7602
好评	-7603
学者	-7604
宾馆	-7605
年级	-7606
彼此	-7607
忧虑	-7608
患者	-7609
感慨	-7610
我爱	-7611
我说	-7612
房产	-7613
放宽	-7614
放量	-7615
日和	-7616
李宗	-7617
格外	-7618
案例	-7619
检验	-7620
步入	-7621
武器	-7622
温馨	-7623
热刺	-7624
生子	-7625
的最	-7626
直销	-7627
眼镜	-7628
秀文	-7629
紧随	-7630
纪律	-7631
终身	-7632
给你	-7633
药品	-7634
薪水	-7635
观念	-7636
解题	-7637
赛道	-7638
赢球	-7639
赶到	-7640
跻身	-7641
轮胎	-7642
送出	-7643
闪电	-7644
露出	-7645
靓丽	-7646
韦迪	-7647
预料	-7648
频率	-7649
饭店	-7650
饮料	-7651
马竞	-7652
高价	-7653
ATI	-7654
end	-7655
ime	-7656
▁24	-7657
▁信息	-7658
▁自考	-7659
▁首先	-7660
一个是	-7661
世博会	-7662
两人在	-7663
中国男	-7664
主题曲	-7665
产生了	-7666
仅次于	-7667
从今年	-7668
从去年	-7669
再一次	-7670
分公司	-7671
创始人	-7672
北京队	-7673
博尔特	-7674
原材料	-7675
史玉柱	-7676
国奥队	-7677
当事人	-7678
意识到	-7679
所谓的	-7680
技术和	-7681
提升了	-7682
播放器	-7683
曾经在	-7684
服务的	-7685
未成年	-7686
极大的	-7687
林宥嘉	-7688
标准的	-7689
法拉利	-7690
的历史	-7691
的政策	-7692
监管层	-7693
财经讯	-7694
上证综指	-7695
中小企业	-7696
二级市场	-7697
市教育局	-7698
录取分数	-7699
我们已经	-7700
招生简章	-7701
招生院校	-7702
无线网卡	-7703
期货合约	-7704
结束之后	-7705
美国经济	-7706
自主选拔	-7707
今年上半年	-7708
▁新浪财经讯	-7709
感兴趣的朋友不妨	-7710
LE	-7711
PA	-7712
VS	-7713
io	-7714
▁叶	-7715
▁巴	-7716
一把	-7717
一看	-7718
三天	-7719
不等	-7720
不难	-7721
中秋	-7722
丹麦	-7723
乔丹	-7724
书中	-7725
会被	-7726
你要	-7727
供电	-7728
依次	-7729
做空	-7730
公里	-7731
兰克	-7732
军团	-7733
前天	-7734
势必	-7735
原定	-7736
可靠	-7737
启用	-7738
和高	-7739
商场	-7740
图形	-7741
天相	-7742
头衔	-7743
奇怪	-7744
如同	-7745
孙兴	-7746
室内	-7747
富翁	-7748
小菲	-7749
尔兰	-7750
尽显	-7751
山寨	-7752
当代	-7753
很久	-7754
怀特	-7755
惊艳	-7756
愤怒	-7757
我还	-7758
收集	-7759
无关	-7760
既往	-7761
旨在	-7762
明朗	-7763
景顺	-7764
暴涨	-7765
服从	-7766
杀手	-7767
极其	-7768
格林	-7769
梁洛	-7770
激励	-7771
片酬	-7772
牵手	-7773
离子	-7774
租借	-7775
竞价	-7776
网银	-7777
羡慕	-7778
西甲	-7779
说不	-7780
赛上	-7781
走上	-7782
起伏	-7783
超薄	-7784
趋于	-7785
过关	-7786
这时	-7787
远征	-7788
郑棉	-7789
错失	-7790
随之	-7791
风情	-7792
115	-7793
230	-7794
460	-7795
SPN	-7796
ord	-7797
▁英国	-7798
▁随后	-7799
位置上	-7800
体育类	-7801
全日制	-7802
制作人	-7803
发生在	-7804
受欢迎	-7805
合理的	-7806
国家和	-7807
在全球	-7808
在第一	-7809
对方的	-7810
当年的	-7811
忍不住	-7812
我不会	-7813
我自己	-7814
战胜了	-7815
新疆队	-7816
无疑是	-7817
服务器	-7818
李泽楷	-7819
梁洛施	-7820
的代表	-7821
的声音	-7822
的意见	-7823
的整体	-7824
研究院	-7825
经典的	-7826
让自己	-7827
训练中	-7828
这么多	-7829
陈志云	-7830
10%。	-7831
1920	-7832
2500	-7833
▁教育部	-7834
中国学生	-7835
如果没有	-7836
少数民族	-7837
征求意见	-7838
报名信息	-7839
报考人数	-7840
月份以来	-7841
目前已经	-7842
西班牙队	-7843
:2008	-7844
的基金公司	-7845
ok	-7846
ue	-7847
▁●	-7848
▁于	-7849
▁传	-7850
▁谢	-7851
、8	-7852
一出	-7853
一如	-7854
一律	-7855
一战	-7856
三名	-7857
三家	-7858
上报	-7859
不失	-7860
丧失	-7861
中端	-7862
人性	-7863
伊万	-7864
偏出	-7865
做过	-7866
停牌	-7867
写道	-7868
分子	-7869
列入	-7870
力争	-7871
压缩	-7872
只会	-7873
后悔	-7874
在那	-7875
天朔	-7876
奶奶	-7877
完了	-7878
实时	-7879
展望	-7880
岁月	-7881
布置	-7882
度过	-7883
当红	-7884
徒弟	-7885
手动	-7886
打动	-7887
把他	-7888
抛储	-7889
挂钩	-7890
数十	-7891
新政	-7892
晋亨	-7893
板凳	-7894
某种	-7895
树立	-7896
正如	-7897
民众	-7898
水泥	-7899
润东	-7900
火山	-7901
特里	-7902
独自	-7903
眼神	-7904
篮协	-7905
给力	-7906
继海	-7907
老总	-7908
聘请	-7909
膝盖	-7910
花园	-7911
蒙古	-7912
街头	-7913
视角	-7914
转入	-7915
过分	-7916
近年	-7917
还以	-7918
进场	-7919
透明	-7920
逾期	-7921
非洲	-7922
页面	-7923
预告	-7924
预订	-7925
颇有	-7926
首位	-7927
25-	-7928
ain	-7929
ong	-7930
▁26	-7931
▁上述	-7932
▁其中	-7933
下一个	-7934
不容易	-7935
也成为	-7936
农业部	-7937
击败了	-7938
到目前	-7939
和专业	-7940
增长的	-7941
大幅度	-7942
天津队	-7943
好朋友	-7944
安排在	-7945
对市场	-7946
尽可能	-7947
引发了	-7948
张国立	-7949
录取时	-7950
很高兴	-7951
性能上	-7952
感应器	-7953
成交价	-7954
我已经	-7955
拜纳姆	-7956
时间的	-7957
杜兰特	-7958
爱尔兰	-7959
王治郅	-7960
球迷们	-7961
的合同	-7962
的对象	-7963
的活动	-7964
的高度	-7965
臧天朔	-7966
训练营	-7967
记者会	-7968
许晋亨	-7969
足够的	-7970
遇到了	-7971
100%	-7972
工商银行	-7973
年上半年	-7974
我们需要	-7975
投资总监	-7976
瑞福进取	-7977
目前国内	-7978
运价指数	-7979
阳光私募	-7980
中关村在线	-7981
My	-7982
▁两	-7983
万部	-7984
不乏	-7985
中最	-7986
乐趣	-7987
人均	-7988
介意	-7989
例外	-7990
信达	-7991
共享	-7992
决策	-7993
剧集	-7994
功臣	-7995
华泰	-7996
发帖	-7997
古装	-7998
告知	-7999
味道	-8000
场外	-8001
坚挺	-8002
大门	-8003
头发	-8004
姓名	-8005
宇春	-8006
实德	-8007
审理	-8008
封盖	-8009
尾声	-8010
年报	-8011
应急	-8012
康永	-8013
建信	-8014
形态	-8015
徘徊	-8016
恐怖	-8017
悄然	-8018
感恩	-8019
扩招	-8020
抄底	-8021
拘留	-8022
摇滚	-8023
日后	-8024
是谁	-8025
档期	-8026
横扫	-8027
气候	-8028
汉密	-8029
海滨	-8030
理事	-8031
留意	-8032
疑似	-8033
的本	-8034
的重	-8035
皇家	-8036
看待	-8037
祖德	-8038
神经	-8039
私下	-8040
编译	-8041
而来	-8042
自曝	-8043
莱士	-8044
诠释	-8045
调侃	-8046
谷物	-8047
负于	-8048
越南	-8049
路上	-8050
这在	-8051
这点	-8052
进度	-8053
邮报	-8054
金球	-8055
隆重	-8056
4%。	-8057
iam	-8058
ide	-8059
ies	-8060
、10	-8061
一本线	-8062
上升到	-8063
下一步	-8064
亿元的	-8065
保持了	-8066
元左右	-8067
内置了	-8068
出席了	-8069
切洛蒂	-8070
功能的	-8071
已成为	-8072
很重要	-8073
所以我	-8074
报告称	-8075
施罗德	-8076
有两个	-8077
标准杆	-8078
汪小菲	-8079
熟悉的	-8080
电子书	-8081
的公司	-8082
目标是	-8083
相机的	-8084
真实的	-8085
红楼梦	-8086
美国队	-8087
联赛第	-8088
还是有	-8089
那么多	-8090
采访了	-8091
阶段的	-8092
▁can	-8093
也是一个	-8094
咨询电话	-8095
在微博上	-8096
普通高考	-8097
汉密尔顿	-8098
移动通信	-8099
笔者认为	-8100
第二季度	-8101
有限责任公司	-8102
感兴趣的朋友可以	-8103
6-	-8104
BD	-8105
FZ	-8106
RO	-8107
。7	-8108
一冰	-8109
下探	-8110
不去	-8111
亿吨	-8112
任职	-8113
会给	-8114
体会	-8115
修订	-8116
先锋	-8117
全美	-8118
凤凰	-8119
十字	-8120
南下	-8121
史蒂	-8122
同性	-8123
后台	-8124
吸毒	-8125
地上	-8126
地面	-8127
子丹	-8128
完毕	-8129
小布	-8130
崛起	-8131
市盈	-8132
帷幕	-8133
并对	-8134
引领	-8135
当下	-8136
得多	-8137
志伟	-8138
想过	-8139
慧琳	-8140
抱着	-8141
拉升	-8142
择优	-8143
捐赠	-8144
故障	-8145
方的	-8146
权重	-8147
柯达	-8148
欧债	-8149
水星	-8150
求婚	-8151
江湖	-8152
派发	-8153
满了	-8154
烦恼	-8155
生态	-8156
的手	-8157
的爱	-8158
盘整	-8159
真相	-8160
着急	-8161
砍下	-8162
秋季	-8163
篮筐	-8164
精确	-8165
线材	-8166
维亚	-8167
网易	-8168
罚款	-8169
考题	-8170
致力	-8171
舆论	-8172
西门	-8173
足总	-8174
过往	-8175
迪亚	-8176
长途	-8177
防范	-8178
阿伦	-8179
顶替	-8180
5%,	-8181
990	-8182
?”“	-8183
▁23	-8184
▁台湾	-8185
▁山东	-8186
▁微软	-8187
▁网友	-8188
▁谈到	-8189
一次性	-8190
不喜欢	-8191
也只有	-8192
从目前	-8193
价格为	-8194
价格在	-8195
但随着	-8196
偶像剧	-8197
分之一	-8198
创新的	-8199
告诉我	-8200
在这一	-8201
奥斯卡	-8202
学习的	-8203
布鲁克	-8204
张庆鹏	-8205
怎么样	-8206
提出的	-8207
的一面	-8208
的人选	-8209
的使用	-8210
的担忧	-8211
的黄金	-8212
第三批	-8213
而现在	-8214
自考办	-8215
较去年	-8216
还包括	-8217
都不会	-8218
都不是	-8219
都知道	-8220
银行卡	-8221
项目的	-8222
20%。	-8223
hing	-8224
▁证监会	-8225
华夏大盘	-8226
国际足联	-8227
将进一步	-8228
希望大家	-8229
希望通过	-8230
新基金的	-8231
本节还有	-8232
电视节目	-8233
科特布斯	-8234
万元人民币	-8235
802.11	-8236
▁德	-8237
▁方	-8238
三批	-8239
两只	-8240
中投	-8241
亚诺	-8242
假如	-8243
克劳	-8244
公主	-8245
兼顾	-8246
内德	-8247
冲高	-8248
出租	-8249
制糖	-8250
包装	-8251
南宁	-8252
历程	-8253
只得	-8254
可信	-8255
可视	-8256
后腰	-8257
在一	-8258
在内	-8259
在本	-8260
坚强	-8261
多点	-8262
天使	-8263
姑娘	-8264
学分	-8265
巨额	-8266
希尔	-8267
年和	-8268
成名	-8269
我跟	-8270
手的	-8271
抗跌	-8272
拯救	-8273
排位	-8274
操控	-8275
救市	-8276
数百	-8277
斯克	-8278
新型	-8279
旋转	-8280
月度	-8281
有传	-8282
朱丽	-8283
来得	-8284
果然	-8285
查处	-8286
次的	-8287
比起	-8288
波什	-8289
泽马	-8290
演讲	-8291
潮流	-8292
特拉	-8293
男性	-8294
的四	-8295
研讨	-8296
礼仪	-8297
穿上	-8298
约会	-8299
缓慢	-8300
翻唱	-8301
考区	-8302
而他	-8303
自家	-8304
艳照	-8305
若琳	-8306
蔓延	-8307
行货	-8308
解约	-8309
访谈	-8310
辞职	-8311
队内	-8312
陈伟	-8313
驱动	-8314
...	-8315
3.2	-8316
5%。	-8317
580	-8318
7%。	-8319
9%,	-8320
TAR	-8321
▁ab	-8322
▁深圳	-8323
个城市	-8324
仅仅是	-8325
以往的	-8326
休斯敦	-8327
但目前	-8328
具体的	-8329
决定了	-8330
加强对	-8331
卡西欧	-8332
国安队	-8333
在过去	-8334
女演员	-8335
如果是	-8336
对考生	-8337
封闭式	-8338
把自己	-8339
报名点	-8340
招生的	-8341
支付宝	-8342
教育的	-8343
日均线	-8344
时间和	-8345
正常的	-8346
激烈的	-8347
的一项	-8348
的人气	-8349
的传闻	-8350
的出现	-8351
的感情	-8352
的观点	-8353
真的很	-8354
笑着说	-8355
第二个	-8356
获得的	-8357
蔡康永	-8358
见面会	-8359
让观众	-8360
设计师	-8361
赛季的	-8362
输给了	-8363
郑中基	-8364
预期的	-8365
1800	-8366
UNGS	-8367
sina	-8368
▁晨报讯	-8369
债券市场	-8370
全场比赛	-8371
参加考试	-8372
基础知识	-8373
基金发行	-8374
就是一个	-8375
希望能够	-8376
征求志愿	-8377
波罗的海	-8378
管理中心	-8379
这种情况	-8380
中国互联网	-8381
记者采访时	-8382
;“	-8383
LP	-8384
ax	-8385
sh	-8386
sp	-8387
”:	-8388
之余	-8389
之地	-8390
也好	-8391
亲友	-8392
仓单	-8393
付款	-8394
代替	-8395
伍德	-8396
低估	-8397
你会	-8398
元旦	-8399
克服	-8400
全家	-8401
减轻	-8402
分成	-8403
分散	-8404
刻录	-8405
升本	-8406
协商	-8407
原理	-8408
发改	-8409
合肥	-8410
后场	-8411
地图	-8412
均可	-8413
墨西	-8414
复核	-8415
套保	-8416
奥会	-8417
她是	-8418
宁波	-8419
属性	-8420
座位	-8421
我能	-8422
挖掘	-8423
晚报	-8424
每周	-8425
清淡	-8426
特鲁	-8427
申办	-8428
男孩	-8429
眼中	-8430
突击	-8431
答卷	-8432
终场	-8433
脚步	-8434
艰苦	-8435
花了	-8436
菜籽	-8437
评审	-8438
课改	-8439
较快	-8440
追踪	-8441
送给	-8442
适度	-8443
重现	-8444
量为	-8445
门户	-8446
阵营	-8447
陌生	-8448
顶盖	-8449
预备	-8450
2.2	-8451
512	-8452
FIA	-8453
ink	-8454
per	-8455
▁ex	-8456
▁网络	-8457
为主题	-8458
主流的	-8459
了一下	-8460
了这一	-8461
云计算	-8462
低风险	-8463
使用的	-8464
保持在	-8465
农民工	-8466
分钟内	-8467
占据了	-8468
发改委	-8469
受益于	-8470
合作的	-8471
和社会	-8472
商务部	-8473
基金和	-8474
墨西哥	-8475
多媒体	-8476
姚明的	-8477
学院的	-8478
实验班	-8479
小朋友	-8480
平均分	-8481
开工率	-8482
我们是	-8483
我只是	-8484
或者是	-8485
日收盘	-8486
是一场	-8487
注意力	-8488
物联网	-8489
球迷的	-8490
甄子丹	-8491
用户在	-8492
的人才	-8493
的人物	-8494
的做法	-8495
的形象	-8496
的明星	-8497
的歌曲	-8498
的调整	-8499
的调查	-8500
的转会	-8501
的迹象	-8502
的风格	-8503
积极性	-8504
经济体	-8505
经理人	-8506
结构性	-8507
绝对是	-8508
被问及	-8509
讲述了	-8510
较上一	-8511
销售额	-8512
问题是	-8513
ment	-8514
▁记者从	-8515
三分命中	-8516
中国球员	-8517
偏股基金	-8518
同比下降	-8519
年下半年	-8520
情况来看	-8521
用户可以	-8522
第一季度	-8523
结束募集	-8524
记者了解	-8525
通胀压力	-8526
Force	-8527
▁2007	-8528
份基金份额	-8529
英特尔酷睿	-8530
UNGSTAR	-8531
,(	-8532
ix	-8533
▁年	-8534
▁胜	-8535
▁苏	-8536
一所	-8537
一杆	-8538
上游	-8539
不开	-8540
不止	-8541
东亚	-8542
中东	-8543
中金	-8544
丰田	-8545
二批	-8546
仿佛	-8547
保安	-8548
克鲁	-8549
公园	-8550
关爱	-8551
再到	-8552
几分	-8553
初三	-8554
制的	-8555
前四	-8556
前者	-8557
加时	-8558
勒夫	-8559
午后	-8560
发力	-8561
变身	-8562
句子	-8563
后续	-8564
场合	-8565
场馆	-8566
天翼	-8567
宣称	-8568
小型	-8569
尽力	-8570
工信	-8571
带给	-8572
帽子	-8573
很小	-8574
户籍	-8575
房屋	-8576
所需	-8577
招标	-8578
换上	-8579
推高	-8580
支出	-8581
教室	-8582
教训	-8583
新书	-8584
机遇	-8585
极端	-8586
框架	-8587
歌舞	-8588
毒品	-8589
比价	-8590
沪铝	-8591
测算	-8592
港口	-8593
热闹	-8594
狗仔	-8595
用心	-8596
田径	-8597
的名	-8598
磨合	-8599
终止	-8600
老人	-8601
肖恩	-8602
能量	-8603
脸部	-8604
警告	-8605
警惕	-8606
赴美	-8607
转播	-8608
这件	-8609
迟迟	-8610
遵守	-8611
都已	-8612
金曲	-8613
难忘	-8614
雪峰	-8615
雷西	-8616
震撼	-8617
预算	-8618
首场	-8619
高效	-8620
龙头	-8621
1%。	-8622
21-	-8623
380	-8624
470	-8625
5.6	-8626
’。”	-8627
▁HS	-8628
▁广州	-8629
▁而在	-8630
▁进入	-8631
一下子	-8632
一般的	-8633
不应该	-8634
个人的	-8635
为球队	-8636
举行了	-8637
也无法	-8638
了这个	-8639
于今年	-8640
其实是	-8641
剧中的	-8642
副主席	-8643
只产品	-8644
在市场	-8645
在日本	-8646
大学等	-8647
好男人	-8648
定位球	-8649
客户端	-8650
小时的	-8651
小语种	-8652
平方米	-8653
开幕式	-8654
当时的	-8655
总数的	-8656
我喜欢	-8657
持有的	-8658
指数的	-8659
文理科	-8660
斯内德	-8661
时代的	-8662
有记者	-8663
的焦点	-8664
的电话	-8665
结束时	-8666
给出的	-8667
能不能	-8668
舞台上	-8669
要注意	-8670
需要的	-8671
首次在	-8672
高中的	-8673
1300	-8674
1998	-8675
Book	-8676
ESPN	-8677
为投资者	-8678
商业模式	-8679
布莱恩特	-8680
平板电视	-8681
我们必须	-8682
报名参加	-8683
搜索引擎	-8684
移民政策	-8685
经济增长	-8686
adeon	-8687
▁with	-8688
全球最大的	-8689
南非世界杯	-8690
招生办公室	-8691
在接受采访时	-8692
(2	-8693
ER	-8694
RA	-8695
SN	-8696
▁v	-8697
▁和	-8698
一笔	-8699
万台	-8700
上诉	-8701
不小	-8702
不易	-8703
不良	-8704
严峻	-8705
乐基	-8706
亲切	-8707
人为	-8708
今夏	-8709
会儿	-8710
伟大	-8711
伦萨	-8712
但也	-8713
几何	-8714
切换	-8715
刊登	-8716
力挺	-8717
加州	-8718
单身	-8719
占了	-8720
原文	-8721
双重	-8722
名叫	-8723
境内	-8724
大阪	-8725
天天	-8726
央票	-8727
奉献	-8728
她也	-8729
好多	-8730
妮可	-8731
学员	-8732
学子	-8733
害怕	-8734
工行	-8735
巴里	-8736
市中	-8737
幼儿	-8738
弱的	-8739
总部	-8740
恩斯	-8741
打的	-8742
扭转	-8743
拉里	-8744
持卡	-8745
攻门	-8746
教科	-8747
暑期	-8748
暴力	-8749
期铜	-8750
模糊	-8751
每秒	-8752
气的	-8753
求职	-8754
法人	-8755
消耗	-8756
灾害	-8757
热卖	-8758
疾病	-8759
石化	-8760
神话	-8761
票据	-8762
稻谷	-8763
纠纷	-8764
线条	-8765
组的	-8766
维德	-8767
美金	-8768
胜出	-8769
自购	-8770
舍尔	-8771
苏伟	-8772
迟到	-8773
追加	-8774
邓丽	-8775
那天	-8776
郜林	-8777
阴影	-8778
颠覆	-8779
餐饮	-8780
135	-8781
7%,	-8782
RIM	-8783
ave	-8784
ost	-8785
▁>>	-8786
▁Ch	-8787
▁an	-8788
▁华硕	-8789
▁曼联	-8790
▁重庆	-8791
与中国	-8792
乐基儿	-8793
也同样	-8794
交易商	-8795
产生的	-8796
体育报	-8797
关键词	-8798
前一周	-8799
剩下的	-8800
反映了	-8801
四六级	-8802
场上的	-8803
大地震	-8804
大屏幕	-8805
太大的	-8806
子公司	-8807
家公司	-8808
工程师	-8809
年轻的	-8810
当前的	-8811
很高的	-8812
怎样的	-8813
新产品	-8814
最终以	-8815
最高分	-8816
本泽马	-8817
消费类	-8818
留下了	-8819
的因素	-8820
的外形	-8821
的条件	-8822
的爱情	-8823
目前已	-8824
相结合	-8825
积分榜	-8826
第一场	-8827
致力于	-8828
说自己	-8829
这次的	-8830
部门的	-8831
韩国队	-8832
1210	-8833
1366	-8834
▁全景网	-8835
世界纪录	-8836
今天笔者	-8837
佛罗伦萨	-8838
助理教练	-8839
帮助球队	-8840
投资管理	-8841
新兴市场	-8842
最受欢迎	-8843
理查德森	-8844
经济数据	-8845
统计数据	-8846
考试大纲	-8847
职业学院	-8848
记者昨日	-8849
这个赛季	-8850
非常出色	-8851
业内人士表示	-8852
▁Radeon	-8853
TUNGSTAR	-8854
3)	-8855
GP	-8856
LU	-8857
PK	-8858
RJ	-8859
TX	-8860
ah	-8861
▁○	-8862
▁任	-8863
▁另	-8864
▁最	-8865
▁艾	-8866
。6	-8867
上班	-8868
不堪	-8869
中断	-8870
主观	-8871
从容	-8872
但其	-8873
但对	-8874
何况	-8875
佳的	-8876
便捷	-8877
元老	-8878
克利	-8879
典型	-8880
内需	-8881
分球	-8882
刑事	-8883
删除	-8884
力宏	-8885
动荡	-8886
华中	-8887
华丽	-8888
又被	-8889
各校	-8890
周日	-8891
和陈	-8892
咏麟	-8893
商量	-8894
团结	-8895
图库	-8896
在该	-8897
基站	-8898
多夫	-8899
多方	-8900
妙的	-8901
学籍	-8902
尤为	-8903
常昊	-8904
年期	-8905
张宁	-8906
德拉	-8907
打分	-8908
抢下	-8909
捕捉	-8910
攻势	-8911
文军	-8912
既有	-8913
早早	-8914
是的	-8915
智利	-8916
暴露	-8917
曹格	-8918
未有	-8919
未知	-8920
案的	-8921
正当	-8922
此款	-8923
步骤	-8924
水货	-8925
永久	-8926
法学	-8927
流失	-8928
深受	-8929
添利	-8930
清新	-8931
港币	-8932
特区	-8933
省外	-8934
看似	-8935
看涨	-8936
童话	-8937
精品	-8938
糖市	-8939
罗西	-8940
聚集	-8941
致命	-8942
虚假	-8943
计入	-8944
设定	-8945
贫困	-8946
赢了	-8947
走红	-8948
赶紧	-8949
跨年	-8950
银色	-8951
阿拉	-8952
隔夜	-8953
雷诺	-8954
靓颖	-8955
风景	-8956
马乔	-8957
,14	-8958
,16	-8959
,26	-8960
IFI	-8961
▁as	-8962
▁一位	-8963
▁因此	-8964
▁当天	-8965
一样的	-8966
上世纪	-8967
上个月	-8968
上周末	-8969
中心的	-8970
为考生	-8971
事业部	-8972
会出现	-8973
伴随着	-8974
体育场	-8975
做什么	-8976
做好了	-8977
全运会	-8978
关注度	-8979
利比亚	-8980
卡佩罗	-8981
原来的	-8982
在台湾	-8983
在最近	-8984
在韩国	-8985
奥兰多	-8986
工信部	-8987
并不会	-8988
得益于	-8989
必要的	-8990
我不是	-8991
打出了	-8992
据介绍	-8993
排名第	-8994
是我们	-8995
满文军	-8996
的一份	-8997
的微博	-8998
的心理	-8999
的最佳	-9000
的核心	-9001
组织的	-9002
经济的	-9003
计划的	-9004
谭咏麟	-9005
近几年	-9006
还支持	-9007
这首歌	-9008
遭到了	-9009
镜头的	-9010
预录取	-9011
高招办	-9012
1010	-9013
1201	-9014
LDPE	-9015
▁张柏芝	-9016
亿美元的	-9017
原油库存	-9018
受到影响	-9019
可以说是	-9020
在自己的	-9021
将比分追	-9022
我不知道	-9023
截至目前	-9024
投资机会	-9025
的收益率	-9026
股票仓位	-9027
视频网站	-9028
交银施罗德	-9029
索尼爱立信	-9030
记者了解到	-9031
Mobile	-9032
▁Mobile	-9033
iversity	-9034
DA	-9035
GF	-9036
、9	-9037
。2	-9038
不含	-9039
不法	-9040
不禁	-9041
不绝	-9042
不行	-9043
买盘	-9044
亚运	-9045
低分	-9046
住宿	-9047
倍的	-9048
借此	-9049
公寓	-9050
冠王	-9051
准则	-9052
利文	-9053
前五	-9054
卡斯	-9055
却被	-9056
原始	-9057
又在	-9058
双手	-9059
台词	-9060
叶问	-9061
合成	-9062
周六	-9063
在对	-9064
垫底	-9065
埃弗	-9066
夏雨	-9067
多项	-9068
大同	-9069
天堂	-9070
女郎	-9071
宗宪	-9072
宝盈	-9073
就曾	-9074
差点	-9075
布里	-9076
庞大	-9077
康佳	-9078
弗雷	-9079
影帝	-9080
很强	-9081
德利	-9082
情的	-9083
拉诺	-9084
指控	-9085
推理	-9086
日程	-9087
时光	-9088
旺盛	-9089
杨昊	-9090
查分	-9091
格鲁	-9092
档线	-9093
梅尔	-9094
欢乐	-9095
每位	-9096
沉稳	-9097
热议	-9098
熊猫	-9099
片段	-9100
王宝	-9101
理光	-9102
用人	-9103
白棋	-9104
第八	-9105
等于	-9106
筹码	-9107
网讯	-9108
而从	-9109
能有	-9110
至关	-9111
至此	-9112
苗菲	-9113
落幕	-9114
蓝光	-9115
蓝军	-9116
西装	-9117
见习	-9118
详情	-9119
还得	-9120
这三	-9121
这首	-9122
进去	-9123
通货	-9124
重重	-9125
风光	-9126
饮食	-9127
首播	-9128
高额	-9129
(11	-9130
22.	-9131
3%。	-9132
ICE	-9133
ast	-9134
ich	-9135
son	-9136
▁前锋	-9137
▁因为	-9138
▁国家	-9139
▁广东	-9140
▁昨晚	-9141
万亿元	-9142
也需要	-9143
事件的	-9144
他自己	-9145
何润东	-9146
加大了	-9147
卡马乔	-9148
双方的	-9149
取景器	-9150
各高校	-9151
同样的	-9152
国内的	-9153
在我省	-9154
多年来	-9155
好成绩	-9156
孙继海	-9157
对我们	-9158
幅震荡	-9159
强烈的	-9160
很强的	-9161
时报讯	-9162
显示器	-9163
有消息	-9164
毕业于	-9165
海耶斯	-9166
的印象	-9167
的安全	-9168
的角度	-9169
站出来	-9170
第一名	-9171
银行业	-9172
阿德里	-9173
50%。	-9174
mart	-9175
uper	-9176
▁100	-9177
中国大学	-9178
中国选手	-9179
出场时间	-9180
分析认为	-9181
可以选择	-9182
基金产品	-9183
工业大学	-9184
我们现在	-9185
招商银行	-9186
招生单位	-9187
数字电视	-9188
未成年人	-9189
等效焦距	-9190
经济新闻	-9191
觉得自己	-9192
该基金的	-9193
量化宽松	-9194
1/2.3	-9195
Phone	-9196
根据自己的	-9197
▁值得一提的是	-9198
)”	-9199
-4	-9200
-7	-9201
HS	-9202
SE	-9203
”?	-9204
▁要	-9205
、5	-9206
一台	-9207
一记	-9208
一道	-9209
不下	-9210
不像	-9211
不胜	-9212
丝毫	-9213
两款	-9214
个子	-9215
主人	-9216
主播	-9217
产销	-9218
人力	-9219
代价	-9220
偏好	-9221
军人	-9222
出行	-9223
利多	-9224
前辈	-9225
加以	-9226
加尔	-9227
华东	-9228
华仔	-9229
南美	-9230
厂家	-9231
又将	-9232
发烧	-9233
回避	-9234
国防	-9235
基层	-9236
墨菲	-9237
多久	-9238
太空	-9239
夫人	-9240
奥沙	-9241
女王	-9242
字号	-9243
孙海	-9244
学士	-9245
就已	-9246
履行	-9247
帕托	-9248
年会	-9249
开唱	-9250
弗森	-9251
当作	-9252
感冒	-9253
我没	-9254
拍了	-9255
招呼	-9256
改版	-9257
救灾	-9258
数为	-9259
旋律	-9260
时隔	-9261
春季	-9262
格莱	-9263
江南	-9264
海关	-9265
温柔	-9266
港姐	-9267
热衷	-9268
照相	-9269
珍惜	-9270
珠宝	-9271
瓦伦	-9272
疲劳	-9273
眼光	-9274
短缺	-9275
碰到	-9276
立案	-9277
米尔	-9278
精准	-9279
红牛	-9280
羽毛	-9281
节前	-9282
节后	-9283
被判	-9284
要是	-9285
视听	-9286
记住	-9287
试用	-9288
赶上	-9289
身后	-9290
远射	-9291
追逐	-9292
配对	-9293
鉴定	-9294
铅笔	-9295
降级	-9296
院系	-9297
险胜	-9298
隐藏	-9299
,15	-9300
39.	-9301
ous	-9302
und	-9303
——“	-9304
▁LG	-9305
▁OS	-9306
▁关于	-9307
▁经过	-9308
、12	-9309
一年期	-9310
三巨头	-9311
不少人	-9312
不断地	-9313
为基础	-9314
主办的	-9315
了一种	-9316
倾向于	-9317
冯远征	-9318
几年的	-9319
到最后	-9320
加内特	-9321
北师大	-9322
博斯克	-9323
将进入	-9324
将通过	-9325
平台的	-9326
开始的	-9327
很喜欢	-9328
拍摄时	-9329
据统计	-9330
控制在	-9331
林俊杰	-9332
标志着	-9333
甚至是	-9334
百分之	-9335
的业绩	-9336
的成功	-9337
的报道	-9338
相机包	-9339
福布斯	-9340
给他们	-9341
维斯特	-9342
网络的	-9343
联合会	-9344
自动化	-9345
自己对	-9346
蓝筹股	-9347
表现的	-9348
被称为	-9349
还不能	-9350
这句话	-9351
都是在	-9352
队友们	-9353
专业考试	-9354
两场比赛	-9355
中国人民	-9356
人民法院	-9357
入学考试	-9358
大幅增加	-9359
奥沙利文	-9360
奥运冠军	-9361
安切洛蒂	-9362
完全没有	-9363
本科院校	-9364
本赛季的	-9365
极有可能	-9366
经济复苏	-9367
自由球员	-9368
虽然没有	-9369
通货膨胀	-9370
队的比赛	-9371
18-55	-9372
LLDPE	-9373
Touch	-9374
earch	-9375
▁Mark	-9376
▁外观方面	-9377
期货市场的	-9378
本科毕业生	-9379
的工作人员	-9380
ational	-9381
喜欢的朋友不妨	-9382
RS	-9383
TI	-9384
th	-9385
ve	-9386
▁再	-9387
▁因	-9388
。9	-9389
一生	-9390
万色	-9391
乔治	-9392
书的	-9393
人类	-9394
他有	-9395
代销	-9396
以轩	-9397
但仍	-9398
便于	-9399
倒数	-9400
克兰	-9401
军队	-9402
几率	-9403
出门	-9404
到处	-9405
副总	-9406
卡萨	-9407
却不	-9408
受此	-9409
变为	-9410
名牌	-9411
周董	-9412
嘉颖	-9413
圈中	-9414
地铁	-9415
坐镇	-9416
大了	-9417
大增	-9418
头的	-9419
她和	-9420
婚宴	-9421
实录	-9422
居住	-9423
巴特	-9424
弟子	-9425
当家	-9426
影院	-9427
您的	-9428
意图	-9429
慧敏	-9430
戴着	-9431
手持	-9432
扑出	-9433
折扣	-9434
拉动	-9435
拉米	-9436
拍完	-9437
指纹	-9438
挪威	-9439
更像	-9440
曾是	-9441
未见	-9442
朱骏	-9443
杀毒	-9444
李晓	-9445
柏林	-9446
某个	-9447
模样	-9448
气势	-9449
波拉	-9450
流向	-9451
消除	-9452
烤漆	-9453
热销	-9454
片内	-9455
用品	-9456
的口	-9457
监局	-9458
眼前	-9459
神州	-9460
稳固	-9461
第九	-9462
红包	-9463
细胞	-9464
细致	-9465
网报	-9466
羽泉	-9467
老大	-9468
老虎	-9469
胜率	-9470
舜天	-9471
节日	-9472
花钱	-9473
董洁	-9474
西奇	-9475
誉为	-9476
设在	-9477
误导	-9478
诸如	-9479
贴水	-9480
足坛	-9481
跟进	-9482
连线	-9483
连豆	-9484
通报	-9485
部队	-9486
酒井	-9487
酝酿	-9488
集结	-9489
预科	-9490
颖颖	-9491
鲜明	-9492
鸟巢	-9493
1.4	-9494
15%	-9495
3.3	-9496
30.	-9497
410	-9498
6.8	-9499
GSM	-9500
man	-9501
ork	-9502
ton	-9503
ymb	-9504
▁后卫	-9505
▁湖北	-9506
▁篮网	-9507
上一场	-9508
下跌了	-9509
专升本	-9510
丝毫不	-9511
为代表	-9512
交易中	-9513
他现在	-9514
代言人	-9515
供应商	-9516
保监会	-9517
信息的	-9518
倍光变	-9519
具备了	-9520
内蒙古	-9521
国际化	-9522
塞尔比	-9523
增长率	-9524
大会上	-9525
就是在	-9526
工业品	-9527
市盈率	-9528
应该说	-9529
开发者	-9530
开始后	-9531
我们也	-9532
所说的	-9533
找不到	-9534
收购价	-9535
本年度	-9536
朱丽倩	-9537
江苏队	-9538
法国队	-9539
的心态	-9540
禁区内	-9541
类型的	-9542
给予了	-9543
而且还	-9544
被对手	-9545
让孩子	-9546
费舍尔	-9547
这几天	-9548
阶段性	-9549
陈一冰	-9550
降低了	-9551
面临的	-9552
ould	-9553
▁据台湾	-9554
世界大赛	-9555
世界第一	-9556
中国队在	-9557
产品报价	-9558
元的价格	-9559
另外一个	-9560
大幅下挫	-9561
技术统计	-9562
有一定的	-9563
有关规定	-9564
综艺节目	-9565
股票市场	-9566
遗憾的是	-9567
部分基金	-9568
首发出场	-9569
▁与此同时	-9570
▁据新华社	-9571
任基金经理	-9572
关注的焦点	-9573
新增开户数	-9574
年硕士研究生	-9575
)》	-9576
:5	-9577
ON	-9578
RM	-9579
og	-9580
oy	-9581
×5	-9582
一手	-9583
上前	-9584
不一	-9585
不动	-9586
专卖	-9587
专心	-9588
中了	-9589
中海	-9590
乡村	-9591
众所	-9592
伴随	-9593
保存	-9594
修复	-9595
兰帕	-9596
写的	-9597
几名	-9598
分值	-9599
利于	-9600
力求	-9601
动感	-9602
匹配	-9603
发球	-9604
台下	-9605
向前	-9606
喜悦	-9607
嘉玲	-9608
回头	-9609
在中	-9610
均线	-9611
埃托	-9612
大举	-9613
夸张	-9614
孙祥	-9615
季前	-9616
学制	-9617
定于	-9618
平平	-9619
延期	-9620
式耳	-9621
强麦	-9622
微距	-9623
心如	-9624
惩罚	-9625
愉快	-9626
我有	-9627
战平	-9628
找出	-9629
掌声	-9630
提议	-9631
揭幕	-9632
斯图	-9633
斯汀	-9634
旁边	-9635
旧爱	-9636
星光	-9637
是指	-9638
景气	-9639
更强	-9640
朝伟	-9641
机的	-9642
棋院	-9643
气温	-9644
水浒	-9645
汪洋	-9646
汽油	-9647
沉默	-9648
法语	-9649
港台	-9650
热烈	-9651
热爱	-9652
焦虑	-9653
直击	-9654
神舟	-9655
税务	-9656
端子	-9657
缓存	-9658
职责	-9659
联袂	-9660
自律	-9661
自杀	-9662
色情	-9663
色调	-9664
芳雨	-9665
菲斯	-9666
营造	-9667
著称	-9668
蒂亚	-9669
蛋糕	-9670
表格	-9671
被打	-9672
被曝	-9673
装备	-9674
转投	-9675
转折	-9676
违约	-9677
陈楚	-9678
额外	-9679
风声	-9680
首届	-9681
麦基	-9682
黑人	-9683
00-	-9684
114	-9685
20-	-9686
260	-9687
37.	-9688
610	-9689
VIP	-9690
ner	-9691
▁Un	-9692
▁东芝	-9693
▁其次	-9694
▁学校	-9695
▁沪铜	-9696
一对一	-9697
也可能	-9698
也因此	-9699
先进的	-9700
兰帕德	-9701
刚开始	-9702
只是在	-9703
因为我	-9704
在国际	-9705
在目前	-9706
在自己	-9707
培训班	-9708
大商所	-9709
大学和	-9710
富士通	-9711
导致了	-9712
庞大的	-9713
很简单	-9714
情况看	-9715
惊人的	-9716
成交额	-9717
我们都	-9718
我可以	-9719
所学校	-9720
摩根士	-9721
收到了	-9722
是我的	-9723
格里芬	-9724
梁朝伟	-9725
概念股	-9726
次抢断	-9727
此前的	-9728
没办法	-9729
注意到	-9730
流通股	-9731
特维斯	-9732
球场上	-9733
电脑网	-9734
留下的	-9735
的一段	-9736
的事实	-9737
的人数	-9738
的性能	-9739
的表演	-9740
的费用	-9741
秘书长	-9742
第三者	-9743
第二大	-9744
级别的	-9745
老百姓	-9746
胡雪峰	-9747
自然是	-9748
虽然在	-9749
被媒体	-9750
这使得	-9751
选择的	-9752
采取了	-9753
,000	-9754
20%,	-9755
rome	-9756
×768	-9757
一如既往	-9758
主管部门	-9759
信托公司	-9760
分类监管	-9761
只是一个	-9762
基金分红	-9763
奥运会上	-9764
学习成绩	-9765
年轻球员	-9766
所有人都	-9767
本科三批	-9768
本科录取	-9769
欧债危机	-9770
相关部门	-9771
结果显示	-9772
统一考试	-9773
考虑一下	-9774
还有一些	-9775
通过网络	-9776
金融市场	-9777
阿里纳斯	-9778
非常重要	-9779
WCDMA	-9780
ffice	-9781
indle	-9782
▁上市时间	-9783
▁接口方面	-9784
▁数据显示	-9785
▁本场比赛	-9786
。2007	-9787
不错的选择	-9788
巡回演唱会	-9789
建议投资者	-9790
接受采访时	-9791
日早间消息	-9792
本场比赛中	-9793
这款笔记本	-9794
阿德里亚诺	-9795
ymbian	-9796
▁信息时报讯	-9797
▁记者了解到	-9798
分析人士指出	-9799
每日经济新闻	-9800
公布的数据显示	-9801
▁GeForce	-9802
??	-9803
OK	-9804
RB	-9805
▁许	-9806
。4	-9807
一句	-9808
一方	-9809
一日	-9810
一颗	-9811
七成	-9812
下课	-9813
不准	-9814
与之	-9815
中途	-9816
为她	-9817
为您	-9818
主板	-9819
于震	-9820
云集	-9821
五个	-9822
会长	-9823
使其	-9824
供求	-9825
借鉴	-9826
共识	-9827
再说	-9828
几家	-9829
出题	-9830
分量	-9831
刘烨	-9832
削减	-9833
卢克	-9834
印尼	-9835
历年	-9836
又要	-9837
受损	-9838
同为	-9839
后果	-9840
天娱	-9841
头上	-9842
奇尼	-9843
好看	-9844
宁夏	-9845
定为	-9846
客串	-9847
展览	-9848
左脚	-9849
已成	-9850
并与	-9851
广阔	-9852
引援	-9853
强制	-9854
得太	-9855
忘了	-9856
忙碌	-9857
悄悄	-9858
戏中	-9859
我市	-9860
招行	-9861
按钮	-9862
换人	-9863
操纵	-9864
收录	-9865
敬明	-9866
新款	-9867
无所	-9868
是从	-9869
更能	-9870
月上	-9871
油厂	-9872
波段	-9873
海德	-9874
片场	-9875
猫王	-9876
珞丹	-9877
瑞银	-9878
病情	-9879
百年	-9880
硬汉	-9881
祖国	-9882
立波	-9883
约旦	-9884
细则	-9885
翻盘	-9886
脚下	-9887
脱颖	-9888
致敬	-9889
艾伦	-9890
节省	-9891
萃雯	-9892
观赏	-9893
视线	-9894
解除	-9895
设有	-9896
话说	-9897
说他	-9898
谢晋	-9899
贴近	-9900
费尔	-9901
赞成	-9902
跌势	-9903
跳舞	-9904
车祸	-9905
选出	-9906
逐年	-9907
那一	-9908
都对	-9909
配售	-9910
酷派	-9911
银信	-9912
银幕	-9913
错了	-9914
长远	-9915
队医	-9916
阿密	-9917
阿曼	-9918
随身	-9919
高新	-9920
魔鬼	-9921
黄磊	-9922
默默	-9923
,17	-9924
1.0	-9925
118	-9926
211	-9927
264	-9928
28-	-9929
288	-9930
6%。	-9931
760	-9932
BOT	-9933
ish	-9934
net	-9935
▁(-	-9936
▁SD	-9937
▁do	-9938
▁这个	-9939
一季报	-9940
中国人	-9941
之一的	-9942
但最终	-9943
关键的	-9944
出租车	-9945
半小时	-9946
及家长	-9947
发生的	-9948
受影响	-9949
可以让	-9950
同时还	-9951
在哪里	-9952
在客场	-9953
在广州	-9954
埃托奥	-9955
多利亚	-9956
大家的	-9957
如今的	-9958
孙燕姿	-9959
学校长	-9960
实验室	-9961
家长和	-9962
对此事	-9963
将进行	-9964
就是要	-9965
尽全力	-9966
希望赛	-9967
张学友	-9968
当记者	-9969
总规模	-9970
指定的	-9971
提到了	-9972
日报道	-9973
明年的	-9974
是一部	-9975
有一点	-9976
李宗伟	-9977
条件的	-9978
比较大	-9979
涉及到	-9980
漂亮的	-9981
的冠军	-9982
的反弹	-9983
的射门	-9984
的有效	-9985
的模式	-9986
的涨幅	-9987
的精神	-9988
的记者	-9989
的镜头	-9990
第一位	-9991
第二位	-9992
答题卡	-9993
经验的	-9994
给孩子	-9995
艺术家	-9996
起到了	-9997
较强的	-9998
近期的	-9999
邓萃雯	-10000
都会有	-10001
阿尔法	-10002
陈伟霆	-10003
非周期	-10004
高考生	-10005
人才培养	-10006
公安机关	-10007
刻录光驱	-10008
实习记者	-10009
市场上的	-10010
投资基金	-10011
报名人数	-10012
招生政策	-10013
择优录取	-10014
旗下基金	-10015
最后一轮	-10016
的时间内	-10017
第一财经	-10018
经济发展	-10019
ility	-10020
▁What	-10021
主要是因为	-10022
伦敦奥运会	-10023
到目前为止	-10024
应届毕业生	-10025
很大程度上	-10026
比去年同期	-10027
笔记本采用	-10028
roupon	-10029
太平洋电脑网	-10030
Cl	-10031
FC	-10032
eg	-10033
▁x	-10034
▁唐	-10035
▁商	-10036
。8	-10037
一心	-10038
一改	-10039
万名	-10040
不败	-10041
与李	-10042
中欧	-10043
为由	-10044
举例	-10045
书记	-10046
交出	-10047
人人	-10048
价的	-10049
余额	-10050
倪萍	-10051
免考	-10052
共和	-10053
出征	-10054
出示	-10055
出自	-10056
加里	-10057
劲爆	-10058
北海	-10059
单月	-10060
南勇	-10061
占有	-10062
又一	-10063
双利	-10064
受邀	-10065
各家	-10066
同台	-10067
和大	-10068
唯物	-10069
善于	-10070
大将	-10071
婷婷	-10072
季军	-10073
安慰	-10074
实物	-10075
富有	-10076
小子	-10077
局长	-10078
常见	-10079
并称	-10080
延伸	-10081
开车	-10082
当今	-10083
当你	-10084
律宾	-10085
德隆	-10086
忙于	-10087
悉尼	-10088
意的	-10089
才有	-10090
拉圭	-10091
改为	-10092
敬腾	-10093
新剧	-10094
新星	-10095
春天	-10096
橄榄	-10097
欢喜	-10098
每场	-10099
没法	-10100
泄露	-10101
注定	-10102
流传	-10103
浦东	-10104
海报	-10105
清洗	-10106
演练	-10107
点半	-10108
犹如	-10109
琳娜	-10110
的有	-10111
的说	-10112
相恋	-10113
睡觉	-10114
穿越	-10115
等奖	-10116
米利	-10117
红魔	-10118
缩减	-10119
考务	-10120
背诵	-10121
能让	-10122
自费	-10123
见过	-10124
讲座	-10125
试行	-10126
诚意	-10127
该股	-10128
调价	-10129
超额	-10130
跟他	-10131
转战	-10132
送到	-10133
逛街	-10134
造假	-10135
那场	-10136
金牛	-10137
长大	-10138
除外	-10139
险些	-10140
雅捷	-10141
静初	-10142
非凡	-10143
飘红	-10144
首尔	-10145
马赫	-10146
黑马	-10147
1.1	-10148
2.1	-10149
23.	-10150
9%。	-10151
APS	-10152
MVP	-10153
TCL	-10154
ens	-10155
ini	-10156
omm	-10157
▁30	-10158
▁sh	-10159
▁中场	-10160
▁价格	-10161
▁总分	-10162
▁来自	-10163
▁福建	-10164
下一代	-10165
不断的	-10166
与去年	-10167
交易量	-10168
产品中	-10169
享受到	-10170
以至于	-10171
做准备	-10172
凭借着	-10173
创纪录	-10174
别人的	-10175
即将在	-10176
原则上	-10177
只需要	-10178
可拍摄	-10179
合约报	-10180
名人堂	-10181
向媒体	-10182
国联安	-10183
声明中	-10184
如果有	-10185
如果说	-10186
将会在	-10187
尼尔森	-10188
巴西队	-10189
希望在	-10190
年考研	-10191
并支持	-10192
张靓颖	-10193
很开心	-10194
所在的	-10195
是可以	-10196
更多地	-10197
本人的	-10198
来到了	-10199
来形容	-10200
江苏省	-10201
流行的	-10202
淘宝网	-10203
然后再	-10204
的两个	-10205
的原则	-10206
的基本	-10207
的女孩	-10208
的推出	-10209
的理解	-10210
的研究	-10211
的经历	-10212
的股权	-10213
看不到	-10214
经历过	-10215
结束前	-10216
自己是	-10217
菲律宾	-10218
贡献了	-10219
迈阿密	-10220
近距离	-10221
郑秀文	-10222
1100	-10223
1700	-10224
2600	-10225
9:00	-10226
iPod	-10227
ople	-10228
▁Pro	-10229
上篮得手	-10230
个篮板和	-10231
中国女足	-10232
主力阵容	-10233
他们已经	-10234
体育考试	-10235
养老保险	-10236
募集规模	-10237
在市场上	-10238
实名推荐	-10239
尤其是在	-10240
我们可以	-10241
技术移民	-10242
报名时间	-10243
摩根士丹	-10244
无论如何	-10245
景顺长城	-10246
最大光圈	-10247
有所下降	-10248
瓦伦西亚	-10249
的前提下	-10250
纽约时报	-10251
续航时间	-10252
负面影响	-10253
还有很多	-10254
长焦相机	-10255
领先优势	-10256
高清摄像	-10257
▁摩托罗拉	-10258
不同程度的	-10259
基金开户数	-10260
影像处理器	-10261
招生计划为	-10262
Chrome	-10263
货币市场基金	-10264
esearch	-10265
▁ThinkPad	-10266
3、	-10267
AN	-10268
BM	-10269
CX	-10270
FO	-10271
vs	-10272
▁Z	-10273
▁易	-10274
上期	-10275
不成	-10276
不说	-10277
丢失	-10278
两度	-10279
为之	-10280
主创	-10281
买断	-10282
买进	-10283
了近	-10284
事先	-10285
亚泰	-10286
以待	-10287
仪器	-10288
作物	-10289
停产	-10290
停赛	-10291
健身	-10292
充当	-10293
出人	-10294
募资	-10295
包揽	-10296
升初	-10297
卖家	-10298
南钢	-10299
博阿	-10300
古天	-10301
各省	-10302
同胞	-10303
周的	-10304
和新	-10305
器材	-10306
垂直	-10307
基德	-10308
处处	-10309
天价	-10310
她又	-10311
宿舍	-10312
尔和	-10313
尖叫	-10314
就把	-10315
屡屡	-10316
巴洛	-10317
市的	-10318
并于	-10319
弗朗	-10320
急需	-10321
总会	-10322
恩怨	-10323
扎实	-10324
托尼	-10325
报酬	-10326
拼音	-10327
指南	-10328
损害	-10329
接入	-10330
接应	-10331
接待	-10332
推杆	-10333
携程	-10334
支招	-10335
攻防	-10336
敲定	-10337
斯诺	-10338
更低	-10339
极致	-10340
核准	-10341
法官	-10342
游客	-10343
热潮	-10344
玫瑰	-10345
珠海	-10346
班人	-10347
生效	-10348
略显	-10349
眼泪	-10350
着实	-10351
离去	-10352
突发	-10353
维也	-10354
美棉	-10355
考上	-10356
航天	-10357
装扮	-10358
负的	-10359
起步	-10360
越狱	-10361
车主	-10362
轮换	-10363
辈子	-10364
过高	-10365
还说	-10366
重申	-10367
长信	-10368
闪存	-10369
预赛	-10370
颇具	-10371
魔兽	-10372
鲨鱼	-10373
齐全	-10374
430	-10375
45.	-10376
Mac	-10377
ace	-10378
▁21	-10379
▁全球	-10380
▁北大	-10381
▁新快	-10382
▁韩国	-10383
不过他	-10384
主产区	-10385
主要的	-10386
也正是	-10387
信用债	-10388
做一个	-10389
分别在	-10390
北京的	-10391
参与者	-10392
发生后	-10393
咨询会	-10394
在昨天	-10395
在英国	-10396
在进攻	-10397
在高考	-10398
存在着	-10399
安德鲁	-10400
完整的	-10401
对学生	-10402
将持续	-10403
将迎来	-10404
就业率	-10405
已开始	-10406
建立了	-10407
开发的	-10408
很不错	-10409
我们有	-10410
我非常	-10411
所在地	-10412
执行官	-10413
收盘于	-10414
效力于	-10415
月开始	-10416
有针对	-10417
未婚夫	-10418
正处于	-10419
海淀区	-10420
狄波拉	-10421
班主任	-10422
的热身	-10423
的看法	-10424
的突破	-10425
确定的	-10426
突出的	-10427
终场前	-10428
舒马赫	-10429
营业厅	-10430
萧敬腾	-10431
蒲式耳	-10432
西门子	-10433
许可证	-10434
论坛上	-10435
诺维奇	-10436
跌停板	-10437
还不够	-10438
通过对	-10439
那时候	-10440
金球奖	-10441
阿拉伯	-10442
黄维德	-10443
1999	-10444
2014	-10445
ever	-10446
hina	-10447
▁-0.	-10448
▁Mob	-10449
▁四六级	-10450
中国证券	-10451
中考频道	-10452
优秀学生	-10453
兴业银行	-10454
助学贷款	-10455
同时表示	-10456
商家名称	-10457
家庭经济	-10458
密切关注	-10459
尽管如此	-10460
所以我们	-10461
投资策略	-10462
显得有些	-10463
每日邮报	-10464
海外市场	-10465
的新基金	-10466
的时间里	-10467
的消费者	-10468
紧随其后	-10469
还有一个	-10470
通胀预期	-10471
高考作文	-10472
elina	-10473
press	-10474
▁中考论坛	-10475
新基金发行	-10476
日晚间消息	-10477
最重要的是	-10478
本场比赛的	-10479
高中毕业生	-10480
Kindle	-10481
▁中考博客圈	-10482
原油期货价格	-10483
新浪中考频道	-10484
▁Mobility	-10485
5,	-10486
9%	-10487
CH	-10488
bo	-10489
ep	-10490
gr	-10491
▁k	-10492
▁余	-10493
▁宋	-10494
▁无	-10495
▁杜	-10496
一篇	-10497
一经	-10498
三成	-10499
三本	-10500
下达	-10501
不予	-10502
不让	-10503
中天	-10504
之初	-10505
之称	-10506
交代	-10507
亮的	-10508
人事	-10509
从此	-10510
以太	-10511
侯瓒	-10512
保健	-10513
信诚	-10514
倒地	-10515
光明	-10516
克里	-10517
入住	-10518
全身	-10519
八强	-10520
冒险	-10521
出入	-10522
出资	-10523
出身	-10524
则为	-10525
则说	-10526
到货	-10527
制约	-10528
前提	-10529
前途	-10530
加重	-10531
劣势	-10532
勇敢	-10533
勒斯	-10534
单场	-10535
南昌	-10536
友情	-10537
友谊	-10538
反馈	-10539
受害	-10540
只为	-10541
可用	-10542
合照	-10543
名词	-10544
后才	-10545
和解	-10546
哈佛	-10547
哪怕	-10548
唐山	-10549
回了	-10550
困惑	-10551
图案	-10552
在和	-10553
场所	-10554
处的	-10555
备案	-10556
好奇	-10557
宝石	-10558
将和	-10559
左手	-10560
巩固	-10561
巴约	-10562
帅气	-10563
带球	-10564
干脆	-10565
幸好	-10566
建行	-10567
开会	-10568
弱点	-10569
当月	-10570
彰显	-10571
很想	-10572
徐静	-10573
志强	-10574
快女	-10575
恶搞	-10576
惊叹	-10577
投连	-10578
护肤	-10579
拼命	-10580
探望	-10581
推测	-10582
撰文	-10583
收涨	-10584
整天	-10585
整整	-10586
斥资	-10587
斯通	-10588
无比	-10589
替换	-10590
杀入	-10591
李健	-10592
梅内	-10593
棋圣	-10594
欧联	-10595
汤姆	-10596
沙溢	-10597
注入	-10598
灵魂	-10599
热拍	-10600
熟知	-10601
留给	-10602
疲弱	-10603
监制	-10604
监狱	-10605
看空	-10606
破产	-10607
离队	-10608
符号	-10609
等着	-10610
耀眼	-10611
老牌	-10612
聚会	-10613
落下	-10614
要么	-10615
计时	-10616
诊断	-10617
说我	-10618
谈起	-10619
过年	-10620
这边	-10621
进驻	-10622
金钟	-10623
阻挡	-10624
陷阱	-10625
静态	-10626
领涨	-10627
首募	-10628
高涨	-10629
24-	-10630
248	-10631
7.5	-10632
act	-10633
fps	-10634
ley	-10635
ohn	-10636
▁4、	-10637
▁we	-10638
▁就在	-10639
▁手机	-10640
▁湖人	-10641
▁百度	-10642
▁综合	-10643
▁自从	-10644
▁部分	-10645
▁黄金	-10646
下跌的	-10647
中小学	-10648
也十分	-10649
了一条	-10650
了一款	-10651
产品线	-10652
亿英镑	-10653
以下的	-10654
候选人	-10655
兑美元	-10656
制定的	-10657
前不久	-10658
华莱士	-10659
古天乐	-10660
同性恋	-10661
和市场	-10662
图库供	-10663
在今天	-10664
在场边	-10665
女歌手	-10666
好消息	-10667
如果在	-10668
季节性	-10669
安排了	-10670
完成的	-10671
完美的	-10672
客户的	-10673
对后市	-10674
将增加	-10675
岁生日	-10676
引人注	-10677
弗莱彻	-10678
打造的	-10679
推荐的	-10680
日晚上	-10681
日本的	-10682
是一支	-10683
曾志伟	-10684
有一天	-10685
极高的	-10686
每一次	-10687
比利时	-10688
深交所	-10689
演艺圈	-10690
的希望	-10691
的帮助	-10692
的意思	-10693
的收益	-10694
的最高	-10695
的热门	-10696
的父亲	-10697
的这一	-10698
看到的	-10699
真的是	-10700
硕士生	-10701
第一大	-10702
第三轮	-10703
第二场	-10704
类产品	-10705
类似于	-10706
维也纳	-10707
老师说	-10708
股市的	-10709
被取消	-10710
语言学	-10711
辽宁队	-10712
郭晶晶	-10713
都需要	-10714
重庆市	-10715
错过了	-10716
集团的	-10717
非常大	-10718
高性能	-10719
50%,	-10720
▁HTC	-10721
▁are	-10722
▁con	-10723
▁北京市	-10724
▁第二节	-10725
信息服务	-10726
刚刚结束	-10727
印象深刻	-10728
发布时间	-10729
国内市场	-10730
基金规模	-10731
基金资产	-10732
市场人士	-10733
成立以来	-10734
新浪科技	-10735
昨日下午	-10736
生活中的	-10737
的重要性	-10738
联系地址	-10739
脱颖而出	-10740
证券公司	-10741
语言文学	-10742
风险控制	-10743
高考状元	-10744
1920×	-10745
Droid	-10746
▁more	-10747
双核处理器	-10748
摩根士丹利	-10749
日凌晨消息	-10750
货币型基金	-10751
存款准备金率	-10752
Symbian	-10753
年普通高校招生	-10754
FL	-10755
ky	-10756
zk	-10757
▁现	-10758
▁除	-10759
一味	-10760
一斑	-10761
一行	-10762
丁格	-10763
万多	-10764
下月	-10765
不减	-10766
不宜	-10767
不对	-10768
不然	-10769
丑闻	-10770
两张	-10771
中外	-10772
临床	-10773
之作	-10774
之情	-10775
亨利	-10776
他更	-10777
们在	-10778
伊特	-10779
低廉	-10780
佣金	-10781
侦探	-10782
倪震	-10783
偶尔	-10784
养殖	-10785
内在	-10786
内幕	-10787
内托	-10788
冯绍	-10789
冲动	-10790
决战	-10791
出厂	-10792
出院	-10793
出面	-10794
切实	-10795
前两	-10796
前进	-10797
勿扰	-10798
匆匆	-10799
北方	-10800
华的	-10801
印刷	-10802
压榨	-10803
只在	-10804
可观	-10805
各科	-10806
合一	-10807
周知	-10808
地域	-10809
备用	-10810
夜店	-10811
大楼	-10812
夫兰	-10813
女婿	-10814
姿态	-10815
定存	-10816
宣告	-10817
家有	-10818
导向	-10819
局的	-10820
工人	-10821
并以	-10822
开打	-10823
弗洛	-10824
强力	-10825
很是	-10826
很棒	-10827
悬疑	-10828
想起	-10829
慎重	-10830
我最	-10831
打过	-10832
抗议	-10833
抢先	-10834
探班	-10835
提案	-10836
揭开	-10837
揭秘	-10838
放到	-10839
整数	-10840
易立	-10841
曾被	-10842
有何	-10843
服饰	-10844
本质	-10845
李玮	-10846
校方	-10847
格尔	-10848
桂纶	-10849
欲望	-10850
歌坛	-10851
永不	-10852
求证	-10853
海啸	-10854
海尔	-10855
涵予	-10856
渗透	-10857
温和	-10858
点或	-10859
特定	-10860
献唱	-10861
球馆	-10862
甘肃	-10863
白领	-10864
皮尔	-10865
相识	-10866
睢冉	-10867
秒的	-10868
粮油	-10869
约占	-10870
能为	-10871
自豪	-10872
落地	-10873
西方	-10874
要把	-10875
订购	-10876
赢家	-10877
走弱	-10878
走访	-10879
跑步	-10880
转为	-10881
转而	-10882
轮动	-10883
过半	-10884
近两	-10885
还需	-10886
远期	-10887
适时	-10888
里皮	-10889
间接	-10890
隐患	-10891
震惊	-10892
非诚	-10893
韩红	-10894
飞行	-10895
首部	-10896
,13	-10897
1/4	-10898
123	-10899
190	-10900
50.	-10901
660	-10902
:15	-10903
>>>	-10904
PEG	-10905
bps	-10906
▁17	-10907
▁最高	-10908
▁赛后	-10909
▁这次	-10910
三分线	-10911
上升至	-10912
不是很	-10913
中学生	-10914
中长期	-10915
为了让	-10916
乔布斯	-10917
也认为	-10918
也许是	-10919
了中国	-10920
了他的	-10921
了许多	-10922
人物的	-10923
他可以	-10924
会继续	-10925
你可以	-10926
信证券	-10927
冯绍峰	-10928
即便是	-10929
在赛后	-10930
大中华	-10931
存在的	-10932
已超过	-10933
弗兰克	-10934
当地的	-10935
感受到	-10936
所以在	-10937
日前在	-10938
时尚的	-10939
晚报讯	-10940
最终的	-10941
有多少	-10942
李宇春	-10943
桂纶镁	-10944
欧联杯	-10945
生孩子	-10946
的售价	-10947
的应用	-10948
的教练	-10949
的责任	-10950
第一轮	-10951
考生须	-10952
背后的	-10953
自由人	-10954
转移到	-10955
还不错	-10956
还剩下	-10957
郭敬明	-10958
重量为	-10959
阿里汉	-10960
陈慧琳	-10961
风格的	-10962
15%,	-10963
30%。	-10964
CBOT	-10965
WIFI	-10966
andy	-10967
▁2.0	-10968
▁our	-10969
不确定性	-10970
主要原因	-10971
众所周知	-10972
但是我们	-10973
作为一款	-10974
信息技术	-10975
只基金的	-10976
国际象棋	-10977
实际情况	-10978
富国天丰	-10979
巴洛特利	-10980
形象大使	-10981
心目中的	-10982
手机上网	-10983
批次录取	-10984
早些时候	-10985
流通股东	-10986
短时间内	-10987
管理部门	-10988
继续保持	-10989
记者发现	-10990
记者获悉	-10991
进一步的	-10992
非诚勿扰	-10993
黄金期货	-10994
1280×	-10995
eople	-10996
▁配置方面	-10997
基金分析师	-10998
将比分追成	-10999
较去年同期	-11000
Office	-11001
▁about	-11002
万有效像素的	-11003
普通高等学校	-11004
日太平洋电脑网	-11005
1366×768	-11006
1920×1080	-11007
;2	-11008
EP	-11009
HK	-11010
ct	-11011
pv	-11012
zs	-11013
一到	-11014
一组	-11015
一脚	-11016
万个	-11017
三级	-11018
上也	-11019
不做	-11020
与他	-11021
业的	-11022
两项	-11023
严禁	-11024
个大	-11025
乐团	-11026
了吗	-11027
仍需	-11028
令她	-11029
伦铜	-11030
低谷	-11031
使馆	-11032
倾斜	-11033
做人	-11034
全胜	-11035
关机	-11036
剑桥	-11037
力申	-11038
动向	-11039
勇气	-11040
包夹	-11041
化解	-11042
单元	-11043
单日	-11044
博格	-11045
原有	-11046
古代	-11047
启刚	-11048
吴尊	-11049
和我	-11050
商标	-11051
嘉伯	-11052
回放	-11053
在第	-11054
填空	-11055
士兵	-11056
多万	-11057
多样	-11058
大唐	-11059
大有	-11060
头寸	-11061
女队	-11062
子弹	-11063
子里	-11064
定在	-11065
将向	-11066
小区	-11067
就好	-11068
尺度	-11069
峰会	-11070
已婚	-11071
巴尔	-11072
帕切	-11073
影星	-11074
得起	-11075
恐惧	-11076
惯例	-11077
意志	-11078
我从	-11079
执黑	-11080
扬州	-11081
承办	-11082
拥抱	-11083
探底	-11084
收低	-11085
收高	-11086
斗志	-11087
新颖	-11088
时要	-11089
是其	-11090
晚间	-11091
曲线	-11092
校考	-11093
格拉	-11094
欠缺	-11095
歌唱	-11096
止损	-11097
正版	-11098
殷桃	-11099
泰格	-11100
港股	-11101
源于	-11102
火花	-11103
熟练	-11104
王晶	-11105
生气	-11106
男星	-11107
盘点	-11108
着重	-11109
精炼	-11110
累积	-11111
维权	-11112
罗比	-11113
耐力	-11114
肩膀	-11115
背靠	-11116
胜一	-11117
自如	-11118
荷银	-11119
菲特	-11120
薪金	-11121
要到	-11122
要多	-11123
误差	-11124
说服	-11125
谁能	-11126
财年	-11127
跳绳	-11128
过大	-11129
还好	-11130
远程	-11131
迭戈	-11132
道格	-11133
里奥	-11134
金钱	-11135
铁路	-11136
锋芝	-11137
附属	-11138
随便	-11139
露面	-11140
面部	-11141
音效	-11142
颁发	-11143
风雨	-11144
马云	-11145
201	-11146
4.3	-11147
8.5	-11148
now	-11149
pvc	-11150
▁08	-11151
▁22	-11152
▁8.	-11153
▁徕卡	-11154
▁替补	-11155
▁点评	-11156
▁通过	-11157
。11	-11158
。19	-11159
一句话	-11160
不具备	-11161
不能再	-11162
为中国	-11163
也有所	-11164
产量为	-11165
他们是	-11166
佩德罗	-11167
健康的	-11168
公安局	-11169
其实我	-11170
冠军杯	-11171
博客中	-11172
召开的	-11173
史蒂夫	-11174
合约的	-11175
在他的	-11176
在片中	-11177
城市的	-11178
大奖赛	-11179
实用的	-11180
宽松的	-11181
小时候	-11182
就不会	-11183
属高校	-11184
巴拉克	-11185
巴西人	-11186
很明显	-11187
很显然	-11188
得不到	-11189
意义上	-11190
成功率	-11191
成都市	-11192
截止到	-11193
播出的	-11194
斯诺克	-11195
日公布	-11196
曼奇尼	-11197
李冰冰	-11198
河北省	-11199
活动中	-11200
满意的	-11201
王力宏	-11202
王珞丹	-11203
申请者	-11204
的一幕	-11205
的人生	-11206
的唯一	-11207
的粉丝	-11208
的网站	-11209
的职业	-11210
的评价	-11211
知名度	-11212
稳定性	-11213
等相关	-11214
而目前	-11215
能源署	-11216
落榜生	-11217
赞助商	-11218
辅导班	-11219
还拥有	-11220
这样做	-11221
进行到	-11222
郑嘉颖	-11223
金额为	-11224
霍启刚	-11225
韦斯特	-11226
首先要	-11227
2013	-11228
ical	-11229
mail	-11230
东方卫视	-11231
中国市场	-11232
了一定的	-11233
交易中心	-11234
准备工作	-11235
前段时间	-11236
华夏策略	-11237
反弹行情	-11238
和信息化	-11239
在这样的	-11240
基准利率	-11241
大幅下降	-11242
小幅下跌	-11243
已经结束	-11244
已经超过	-11245
建筑钢材	-11246
快门速度	-11247
投资公司	-11248
投资者可	-11249
接受采访	-11250
本科一批	-11251
欧洲央行	-11252
清洁套装	-11253
申请材料	-11254
电影学院	-11255
目前该机	-11256
研究报告	-11257
种植面积	-11258
见习记者	-11259
达成协议	-11260
这些都是	-11261
进入考场	-11262
媒体采访时	-11263
感光度范围	-11264
投篮命中率	-11265
新泽西篮网	-11266
的市场份额	-11267
首席执行官	-11268
第一财经日报	-11269
上海期货交易所	-11270
%)	-11271
?,	-11272
CB	-11273
ey	-11274
▁)	-11275
▁曹	-11276
▁沈	-11277
▁钱	-11278
一再	-11279
一脸	-11280
丁子	-11281
万国	-11282
不来	-11283
不着	-11284
不计	-11285
与张	-11286
两岸	-11287
中盘	-11288
为首	-11289
之势	-11290
之星	-11291
云天	-11292
交投	-11293
令营	-11294
以其	-11295
住院	-11296
侧面	-11297
光线	-11298
兑现	-11299
农场	-11300
出路	-11301
刘炜	-11302
前夕	-11303
前所	-11304
功力	-11305
加权	-11306
动能	-11307
千克	-11308
华纳	-11309
单招	-11310
参展	-11311
可比	-11312
号位	-11313
同庆	-11314
名次	-11315
后就	-11316
哈哈	-11317
四国	-11318
回购	-11319
增产	-11320
增利	-11321
外部	-11322
大事	-11323
天治	-11324
太过	-11325
奖牌	-11326
如愿	-11327
它是	-11328
实战	-11329
对着	-11330
就没	-11331
尼克	-11332
带到	-11333
并有	-11334
强硬	-11335
徒刑	-11336
得不	-11337
德文	-11338
心思	-11339
忙着	-11340
急于	-11341
成招	-11342
所说	-11343
手指	-11344
扩散	-11345
折合	-11346
抽签	-11347
担当	-11348
捧场	-11349
排列	-11350
搞怪	-11351
改造	-11352
斯蒂	-11353
新娘	-11354
施工	-11355
无一	-11356
日语	-11357
时就	-11358
时至	-11359
昌镐	-11360
曾与	-11361
最爱	-11362
月期	-11363
杀青	-11364
李霄	-11365
条例	-11366
杨千	-11367
杨幂	-11368
梳理	-11369
模板	-11370
此役	-11371
殷铁	-11372
汇报	-11373
法定	-11374
波兰	-11375
洛斯	-11376
流出	-11377
深深	-11378
清单	-11379
清理	-11380
父子	-11381
王学	-11382
申万	-11383
申银	-11384
的总	-11385
的长	-11386
监护	-11387
目击	-11388
相较	-11389
看不	-11390
磨砂	-11391
空白	-11392
立陶	-11393
米雪	-11394
紧缺	-11395
纠正	-11396
线索	-11397
美股	-11398
而据	-11399
联动	-11400
脾气	-11401
艺谋	-11402
花旦	-11403
苏州	-11404
茅斯	-11405
落泪	-11406
薄弱	-11407
装饰	-11408
要对	-11409
言语	-11410
订婚	-11411
认知	-11412
课题	-11413
象征	-11414
赛迪	-11415
越位	-11416
较弱	-11417
输掉	-11418
这与	-11419
迫使	-11420
退市	-11421
道具	-11422
郁闷	-11423
配音	-11424
重磅	-11425
钢巴	-11426
镜片	-11427
阳刚	-11428
陈小	-11429
除息	-11430
难有	-11431
靠近	-11432
飞人	-11433
黄健	-11434
(10	-11435
,18	-11436
---	-11437
125	-11438
399	-11439
710	-11440
888	-11441
IPS	-11442
ube	-11443
ver	-11444
”。“	-11445
▁Ed	-11446
▁le	-11447
▁天相	-11448
▁所以	-11449
▁法国	-11450
▁科比	-11451
▁雅思	-11452
下一轮	-11453
不再是	-11454
不符合	-11455
不足以	-11456
专注于	-11457
东南亚	-11458
个考点	-11459
中后卫	-11460
之外的	-11461
人生的	-11462
他们将	-11463
他还是	-11464
他透露	-11465
仪式上	-11466
但是他	-11467
侯耀文	-11468
八一队	-11469
内维尔	-11470
十年代	-11471
半年报	-11472
反映出	-11473
可以用	-11474
可实现	-11475
史上最	-11476
周海滨	-11477
和大家	-11478
在机身	-11479
在赛季	-11480
埃弗顿	-11481
夫斯基	-11482
安以轩	-11483
完全是	-11484
家企业	-11485
将根据	-11486
就知道	-11487
巴丁格	-11488
布拉德	-11489
帕切科	-11490
并不多	-11491
幼儿园	-11492
张照片	-11493
成熟的	-11494
我感觉	-11495
我还是	-11496
或许是	-11497
手中的	-11498
拒绝了	-11499
提高到	-11500
新台币	-11501
新能源	-11502
日期间	-11503
日结束	-11504
朱芳雨	-11505
欧洲杯	-11506
每年的	-11507
演员的	-11508
王雅捷	-11509
电子盘	-11510
的一对	-11511
的方向	-11512
的最后	-11513
的消费	-11514
的生产	-11515
的精彩	-11516
的综合	-11517
的配置	-11518
确定了	-11519
社会的	-11520
立陶宛	-11521
第一节	-11522
等方式	-11523
系统性	-11524
组成的	-11525
经验和	-11526
考生们	-11527
肯定是	-11528
获得过	-11529
较多的	-11530
达不到	-11531
附近的	-11532
马刺队	-11533
15%。	-11534
9000	-11535
NCAA	-11536
ital	-11537
ream	-11538
▁据香港	-11539
一直处于	-11540
万人民币	-11541
专业志愿	-11542
中华台北	-11543
也不知道	-11544
今年我省	-11545
从业人员	-11546
克里斯蒂	-11547
冲刺阶段	-11548
千万不要	-11549
国际学生	-11550
基金旗下	-11551
定期存款	-11552
小幅上涨	-11553
广大考生	-11554
所带来的	-11555
投篮命中	-11556
拍摄功能	-11557
推荐商家	-11558
新浪娱乐	-11559
新赛季的	-11560
替补出场	-11561
期货品种	-11562
正在进行	-11563
毕业证书	-11564
派发红利	-11565
申银万国	-11566
管理学院	-11567
英格兰队	-11568
表现出色	-11569
财经大学	-11570
进行调整	-11571
连拍速度	-11572
重点关注	-11573
阿德巴约	-11574
高位震荡	-11575
inked	-11576
喜欢的朋友	-11577
复试分数线	-11578
液晶显示屏	-11579
铁矿石价格	-11580
国内期货市场	-11581
大宗商品价格	-11582
拟任基金经理	-11583
知情人士透露	-11584
较上一交易日	-11585
7%	-11586
:2	-11587
FX	-11588
Ga	-11589
SA	-11590
ef	-11591
ks	-11592
no	-11593
ug	-11594
▁e	-11595
▁亚	-11596
▁省	-11597
、6	-11598
。。	-11599
一声	-11600
一连	-11601
一面	-11602
三段	-11603
不适	-11604
与众	-11605
东道	-11606
两球	-11607
九城	-11608
书籍	-11609
了几	-11610
二中	-11611
二度	-11612
人是	-11613
人脸	-11614
令他	-11615
低走	-11616
倡导	-11617
偏空	-11618
停摆	-11619
储存	-11620
兆旭	-11621
六婶	-11622
列为	-11623
则以	-11624
刚好	-11625
制订	-11626
勉强	-11627
华富	-11628
南开	-11629
压轴	-11630
可怕	-11631
吃惊	-11632
各级	-11633
同城	-11634
同日	-11635
后防	-11636
和平	-11637
哪儿	-11638
回事	-11639
均是	-11640
坚固	-11641
增量	-11642
复古	-11643
复查	-11644
多彩	-11645
女单	-11646
子弟	-11647
定额	-11648
家伙	-11649
家辉	-11650
巧妙	-11651
布尔	-11652
帖子	-11653
带队	-11654
常务	-11655
庆典	-11656
开球	-11657
归来	-11658
当我	-11659
心得	-11660
志安	-11661
志浩	-11662
悉数	-11663
感人	-11664
战的	-11665
手上	-11666
扣除	-11667
抖动	-11668
拉齐	-11669
拍的	-11670
按时	-11671
据说	-11672
推行	-11673
收官	-11674
文凭	-11675
文理	-11676
旭日	-11677
星级	-11678
月起	-11679
有三	-11680
期内	-11681
木马	-11682
杰森	-11683
核对	-11684
格罗	-11685
楼市	-11686
此项	-11687
比联	-11688
沉重	-11689
注明	-11690
海清	-11691
温州	-11692
滑盖	-11693
炮轰	-11694
生成	-11695
甲型	-11696
电容	-11697
留住	-11698
疲惫	-11699
的球	-11700
的非	-11701
盛宴	-11702
站上	-11703
端的	-11704
约什	-11705
纯债	-11706
终极	-11707
缩短	-11708
缺陷	-11709
罗恩	-11710
美好	-11711
美食	-11712
而又	-11713
职称	-11714
胶价	-11715
脚架	-11716
艺考	-11717
英皇	-11718
荣幸	-11719
莱昂	-11720
获准	-11721
补录	-11722
西斯	-11723
话语	-11724
语法	-11725
败给	-11726
贴膜	-11727
走过	-11728
跳槽	-11729
踢得	-11730
还为	-11731
逢低	-11732
遏制	-11733
道题	-11734
采集	-11735
钢企	-11736
降息	-11737
限量	-11738
预示	-11739
饱受	-11740
首家	-11741
马可	-11742
,23	-11743
,30	-11744
102	-11745
104	-11746
119	-11747
35.	-11748
370	-11749
420	-11750
620	-11751
CDC	-11752
LUX	-11753
You	-11754
dea	-11755
ony	-11756
ult	-11757
▁lo	-11758
▁——	-11759
▁专业	-11760
▁四川	-11761
▁河南	-11762
▁这款	-11763
▁门将	-11764
一切都	-11765
一口气	-11766
一定是	-11767
一直被	-11768
不会再	-11769
为主要	-11770
为他们	-11771
主持的	-11772
主裁判	-11773
也纷纷	-11774
了起来	-11775
今年在	-11776
从技术	-11777
会选择	-11778
信息网	-11779
公司和	-11780
其他人	-11781
净值的	-11782
刘嘉玲	-11783
则认为	-11784
即使在	-11785
即将于	-11786
反垄断	-11787
另一种	-11788
只股票	-11789
右后卫	-11790
回来的	-11791
在电影	-11792
大前锋	-11793
大比分	-11794
她认为	-11795
孙菲菲	-11796
学专业	-11797
对不起	-11798
对比度	-11799
将出现	-11800
工作室	-11801
年年底	-11802
库伊特	-11803
库存的	-11804
往往是	-11805
德里克	-11806
我不想	-11807
拉斯维	-11808
择校生	-11809
收盘报	-11810
无线电	-11811
日举行	-11812
是一位	-11813
是美国	-11814
普林斯	-11815
林心如	-11816
格莱美	-11817
模式下	-11818
殷铁生	-11819
水平的	-11820
洗衣机	-11821
点左右	-11822
特有的	-11823
现场的	-11824
的一点	-11825
的主题	-11826
的传球	-11827
的女儿	-11828
的录取	-11829
的操作	-11830
的认可	-11831
的重点	-11832
知情人	-11833
确实是	-11834
第一天	-11835
等离子	-11836
给观众	-11837
荷兰队	-11838
表达了	-11839
边后卫	-11840
这部戏	-11841
银监会	-11842
非常的	-11843
高质量	-11844
3100	-11845
ance	-11846
▁(2)	-11847
▁-1.	-11848
▁pro	-11849
▁上赛季	-11850
上市以来	-11851
交易平台	-11852
产业发展	-11853
什么样的	-11854
他是一个	-11855
保险保障	-11856
出人意料	-11857
券商集合	-11858
发布公告	-11859
国际金价	-11860
就是这样	-11861
已经不是	-11862
成交均价	-11863
手机市场	-11864
投资咨询	-11865
整体来看	-11866
服务中心	-11867
演唱会的	-11868
相关人士	-11869
绝大部分	-11870
证明自己	-11871
迄今为止	-11872
,2006	-11873
Super	-11874
▁中国移动	-11875
▁记者昨日	-11876
前一交易日	-11877
向记者透露	-11878
基金资产的	-11879
征求意见稿	-11880
招生计划的	-11881
更重要的是	-11882
约合人民币	-11883
维斯特伍德	-11884
这也意味着	-11885
deaPad	-11886
商品期货市场	-11887
inkedIn	-11888
万像素的摄像头	-11889
▁University	-11890
6,	-11891
EA	-11892
EL	-11893
Op	-11894
Sc	-11895
VA	-11896
dv	-11897
▁。	-11898
▁就	-11899
▁程	-11900
▁范	-11901
一届	-11902
丁宁	-11903
三围	-11904
三地	-11905
下称	-11906
不尽	-11907
不明	-11908
不该	-11909
中山	-11910
主编	-11911
之多	-11912
之道	-11913
也与	-11914
争抢	-11915
五一	-11916
五月	-11917
亚鹏	-11918
人工	-11919
亿万	-11920
仍以	-11921
会场	-11922
体质	-11923
作风	-11924
佩慈	-11925
佩西	-11926
信念	-11927
倒闭	-11928
偏紧	-11929
儿女	-11930
八卦	-11931
公交	-11932
分组	-11933
初衷	-11934
前妻	-11935
剔除	-11936
单向	-11937
博弈	-11938
却又	-11939
卷入	-11940
去的	-11941
叶童	-11942
名义	-11943
名誉	-11944
含义	-11945
吴金	-11946
周转	-11947
噪音	-11948
图拔	-11949
圆润	-11950
处境	-11951
大厅	-11952
大宝	-11953
大郅	-11954
奔腾	-11955
妇女	-11956
存量	-11957
对她	-11958
小小	-11959
小生	-11960
小贝	-11961
少的	-11962
尔默	-11963
局限	-11964
已与	-11965
建国	-11966
张琳	-11967
往事	-11968
徐国	-11969
得出	-11970
恭喜	-11971
恰好	-11972
我只	-11973
才华	-11974
扎克	-11975
打到	-11976
打气	-11977
承旭	-11978
把它	-11979
抓紧	-11980
担纲	-11981
掌控	-11982
排序	-11983
播种	-11984
改观	-11985
放开	-11986
时空	-11987
普森	-11988
普涨	-11989
月和	-11990
有余	-11991
本的	-11992
本色	-11993
朴文	-11994
杜绝	-11995
架构	-11996
欣慰	-11997
欺诈	-11998
止跌	-11999
泰信	-12000
泰勒	-12001
浓厚	-12002
火力	-12003
灵通	-12004
灾难	-12005
爵爷	-12006
特价	-12007
王志	-12008
生前	-12009
电机	-12010
电气	-12011
的戏	-12012
皮肤	-12013
福田	-12014
种类	-12015
秘诀	-12016
稍微	-12017
粤语	-12018
糖厂	-12019
纪中	-12020
纳德	-12021
细分	-12022
统治	-12023
绿卡	-12024
网点	-12025
美容	-12026
胜任	-12027
致使	-12028
艺体	-12029
苦战	-12030
荣获	-12031
菜单	-12032
落选	-12033
触屏	-12034
评为	-12035
谢赫	-12036
谦虚	-12037
贴心	-12038
贵阳	-12039
赫尔	-12040
跳空	-12041
转发	-12042
轻质	-12043
辽足	-12044
过快	-12045
迎合	-12046
退税	-12047
遗忘	-12048
部委	-12049
配套	-12050
门外	-12051
难怪	-12052
靠前	-12053
顶部	-12054
首局	-12055
高企	-12056
高走	-12057
-12	-12058
1.9	-12059
2.6	-12060
256	-12061
27-	-12062
35%	-12063
8%。	-12064
:11	-12065
App	-12066
isa	-12067
orm	-12068
red	-12069
ung	-12070
▁AC	-12071
▁at	-12072
▁by	-12073
▁南方	-12074
▁巴萨	-12075
▁德国	-12076
▁明星	-12077
▁这一	-12078
▁银河	-12079
、14	-12080
。10	-12081
。12	-12082
一时间	-12083
上期所	-12084
不允许	-12085
也应该	-12086
了一把	-12087
元比联	-12088
兰多夫	-12089
净资本	-12090
博士生	-12091
博阿滕	-12092
发出了	-12093
取消了	-12094
只有在	-12095
可爱的	-12096
和他的	-12097
和发展	-12098
商学院	-12099
在上周	-12100
均超过	-12101
埃文斯	-12102
多元化	-12103
大师赛	-12104
夺得了	-12105
如果能	-12106
带领下	-12107
并不大	-12108
开门红	-12109
张专辑	-12110
张静初	-12111
得到的	-12112
成品油	-12113
成本的	-12114
成都商	-12115
我们还	-12116
才知道	-12117
打比赛	-12118
排名前	-12119
控制线	-12120
文化部	-12121
新世纪	-12122
明星的	-12123
曝光的	-12124
更容易	-12125
月上旬	-12126
有些人	-12127
有更多	-12128
有能力	-12129
期徒刑	-12130
梁文博	-12131
深圳市	-12132
混合型	-12133
演出的	-12134
环境中	-12135
的发挥	-12136
的客户	-12137
的心情	-12138
的成本	-12139
的机型	-12140
的行情	-12141
的造型	-12142
看好的	-12143
知识的	-12144
科学与	-12145
科目的	-12146
管理局	-12147
紧接着	-12148
经过了	-12149
统一的	-12150
统计局	-12151
菜籽油	-12152
要求的	-12153
该怎么	-12154
谈恋爱	-12155
过去了	-12156
这么做	-12157
遭遇了	-12158
采用的	-12159
陈楚生	-12160
颁发的	-12161
0909	-12162
1994	-12163
:00,	-12164
:30,	-12165
Mark	-12166
▁(1)	-12167
▁And	-12168
▁今年的	-12169
▁农产品	-12170
▁利物浦	-12171
专家建议	-12172
中国人寿	-12173
也得到了	-12174
任何一个	-12175
但是由于	-12176
全线上涨	-12177
公益活动	-12178
初试成绩	-12179
可以获得	-12180
可见一斑	-12181
基金业绩	-12182
天津泰达	-12183
学士学位	-12184
对我来说	-12185
将于近期	-12186
广播电视	-12187
投资组合	-12188
投资顾问	-12189
招生专业	-12190
斯图加特	-12191
日在北京	-12192
更多的是	-12193
有自己的	-12194
法律硕士	-12195
继续上涨	-12196
考生报考	-12197
英语水平	-12198
通过微博	-12199
重新回到	-12200
非常不错	-12201
▁2006	-12202
▁Home	-12203
今年一季度	-12204
低于标准杆	-12205
凯尔特人的	-12206
期货公司的	-12207
移动互联网	-12208
负责人介绍	-12209
采用了一块	-12210
基金新增开户数	-12211
纽约商品交易所	-12212
7,	-12213
FR	-12214
GO	-12215
Qu	-12216
SO	-12217
te	-12218
▁可	-12219
▁她	-12220
》)	-12221
一族	-12222
一期	-12223
一遍	-12224
不幸	-12225
专电	-12226
东湖	-12227
两国	-12228
两类	-12229
之争	-12230
之队	-12231
亲手	-12232
人意	-12233
任命	-12234
会将	-12235
伯尼	-12236
住房	-12237
何种	-12238
借读	-12239
值为	-12240
偏低	-12241
偏高	-12242
偿还	-12243
傅家	-12244
充值	-12245
光是	-12246
入球	-12247
全英	-12248
公办	-12249
分拆	-12250
划定	-12251
创建	-12252
动手	-12253
助威	-12254
,	-12255
的	-12256
▁	-12257
。	-12258
0	-12259
一	-12260
1	-12261
在	-12262
是	-12263
2	-12264
有	-12265
了	-12266
不	-12267
中	-12268
、	-12269
大	-12270
上	-12271
人	-12272
为	-12273
国	-12274
年	-12275
“	-12276
”	-12277
3	-12278
时	-12279
生	-12280
5	-12281
这	-12282
分	-12283
考	-12284
金	-12285
出	-12286
和	-12287
场	-12288
以	-12289
个	-12290
学	-12291
对	-12292
到	-12293
.	-12294
日	-12295
高	-12296
4	-12297
会	-12298
他	-12299
8	-12300
能	-12301
新	-12302
来	-12303
后	-12304
基	-12305
6	-12306
我	-12307
9	-12308
前	-12309
:	-12310
下	-12311
成	-12312
行	-12313
于	-12314
)	-12315
业	-12316
(	-12317
也	-12318
要	-12319
月	-12320
7	-12321
多	-12322
现	-12323
可	-12324
比	-12325
赛	-12326
球	-12327
将	-12328
本	-12329
市	-12330
过	-12331
经	-12332
发	-12333
得	-12334
最	-12335
e	-12336
自	-12337
公	-12338
期	-12339
机	-12340
家	-12341
而	-12342
者	-12343
报	-12344
们	-12345
方	-12346
用	-12347
元	-12348
作	-12349
开	-12350
就	-12351
队	-12352
进	-12353
表	-12354
-	-12355
价	-12356
还	-12357
网	-12358
面	-12359
主	-12360
理	-12361
o	-12362
与	-12363
说	-12364
但	-12365
资	-12366
i	-12367
体	-12368
加	-12369
之	-12370
内	-12371
全	-12372
天	-12373
都	-12374
手	-12375
力	-12376
数	-12377
次	-12378
同	-12379
a	-12380
名	-12381
动	-12382
外	-12383
其	-12384
间	-12385
地	-12386
美	-12387
部	-12388
合	-12389
电	-12390
定	-12391
所	-12392
好	-12393
n	-12394
小	-12395
度	-12396
第	-12397
此	-12398
点	-12399
很	-12400
已	-12401
示	-12402
%	-12403
产	-12404
信	-12405
相	-12406
实	-12407
斯	-12408
情	-12409
目	-12410
格	-12411
位	-12412
等	-12413
三	-12414
利	-12415
投	-12416
品	-12417
》	-12418
关	-12419
明	-12420
《	-12421
看	-12422
重	-12423
因	-12424
记	-12425
当	-12426
长	-12427
特	-12428
今	-12429
更	-12430
然	-12431
并	-12432
通	-12433
据	-12434
心	-12435
如	-12436
万	-12437
没	-12438
子	-12439
两	-12440
t	-12441
员	-12442
计	-12443
入	-12444
文	-12445
从	-12446
试	-12447
只	-12448
r	-12449
提	-12450
持	-12451
联	-12452
校	-12453
科	-12454
尔	-12455
司	-12456
C	-12457
工	-12458
收	-12459
A	-12460
息	-12461
布	-12462
道	-12463
股	-12464
及	-12465
事	-12466
S	-12467
交	-12468
法	-12469
正	-12470
专	-12471
被	-12472
题	-12473
商	-12474
周	-12475
北	-12476
意	-12477
去	-12478
性	-12479
保	-12480
身	-12481
D	-12482
s	-12483
选	-12484
取	-12485
至	-12486
影	-12487
演	-12488
平	-12489
着	-12490
打	-12491
接	-12492
教	-12493
近	-12494
里	-12495
己	-12496
视	-12497
受	-12498
应	-12499
T	-12500
京	-12501
果	-12502
线	-12503
式	-12504
l	-12505
乐	-12506
该	-12507
她	-12508
达	-12509
问	-12510
证	-12511
回	-12512
I	-12513
些	-12514
认	-12515
起	-12516
海	-12517
华	-12518
由	-12519
量	-12520
德	-12521
增	-12522
无	-12523
招	-12524
强	-12525
育	-12526
;	-12527
女	-12528
讯	-12529
感	-12530
货	-12531
P	-12532
调	-12533
结	-12534
门	-12535
样	-12536
显	-12537
/	-12538
首	-12539
指	-12540
季	-12541
西	-12542
易	-12543
化	-12544
续	-12545
让	-12546
常	-12547
M	-12548
安	-12549
务	-12550
总	-12551
制	-12552
浪	-12553
想	-12554
m	-12555
较	-12556
约	-12557
参	-12558
单	-12559
?	-12560
别	-12561
系	-12562
费	-12563
d	-12564
管	-12565
张	-12566
种	-12567
少	-12568
二	-12569
战	-12570
解	-12571
消	-12572
h	-12573
录	-12574
向	-12575
东	-12576
做	-12577
马	-12578
原	-12579
克	-12580
英	-12581
传	-12582
再	-12583
给	-12584
率	-12585
整	-12586
友	-12587
亚	-12588
E	-12589
户	-12590
B	-12591
求	-12592
直	-12593
变	-12594
低	-12595
份	-12596
c	-12597
区	-12598
势	-12599
士	-12600
非	-12601
么	-12602
院	-12603
那	-12604
头	-12605
节	-12606
各	-12607
拉	-12608
术	-12609
称	-12610
涨	-12611
型	-12612
G	-12613
像	-12614
需	-12615
色	-12616
展	-12617
超	-12618
片	-12619
台	-12620
老	-12621
准	-12622
知	-12623
运	-12624
博	-12625
观	-12626
规	-12627
拍	-12628
获	-12629
组	-12630
支	-12631
任	-12632
先	-12633
卡	-12634
类	-12635
民	-12636
足	-12637
王	-12638
阿	-12639
望	-12640
每	-12641
活	-12642
师	-12643
星	-12644
程	-12645
推	-12646
世	-12647
光	-12648
备	-12649
建	-12650
论	-12651
值	-12652
统	-12653
未	-12654
广	-12655
四	-12656
级	-12657
代	-12658
使	-12659
技	-12660
件	-12661
处	-12662
设	-12663
银	-12664
供	-12665
评	-12666
仅	-12667
跌	-12668
风	-12669
幅	-12670
连	-12671
反	-12672
复	-12673
尼	-12674
图	-12675
放	-12676
始	-12677
口	-12678
请	-12679
F	-12680
预	-12681
罗	-12682
u	-12683
或	-12684
注	-12685
话	-12686
完	-12687
款	-12688
立	-12689
采	-12690
李	-12691
研	-12692
盘	-12693
界	-12694
剧	-12695
则	-12696
走	-12697
告	-12698
带	-12699
绩	-12700
转	-12701
确	-12702
办	-12703
难	-12704
况	-12705
决	-12706
优	-12707
导	-12708
昨	-12709
标	-12710
排	-12711
你	-12712
政	-12713
配	-12714
歌	-12715
亿	-12716
几	-12717
购	-12718
热	-12719
才	-12720
十	-12721
南	-12722
言	-12723
容	-12724
际	-12725
均	-12726
升	-12727
集	-12728
练	-12729
段	-12730
存	-12731
军	-12732
具	-12733
客	-12734
真	-12735
水	-12736
语	-12737
志	-12738
巴	-12739
O	-12740
快	-12741
L	-12742
模	-12743
油	-12744
划	-12745
功	-12746
爱	-12747
又	-12748
奥	-12749
何	-12750
—	-12751
篮	-12752
随	-12753
清	-12754
流	-12755
查	-12756
局	-12757
半	-12758
助	-12759
创	-12760
置	-12761
物	-12762
微	-12763
g	-12764
服	-12765
且	-12766
终	-12767
希	-12768
步	-12769
胜	-12770
领	-12771
红	-12772
习	-12773
险	-12774
空	-12775
维	-12776
省	-12777
摄	-12778
益	-12779
照	-12780
N	-12781
男	-12782
火	-12783
黄	-12784
板	-12785
形	-12786
普	-12787
太	-12788
米	-12789
媒	-12790
冠	-12791
响	-12792
林	-12793
即	-12794
权	-12795
深	-12796
素	-12797
造	-12798
站	-12799
陈	-12800
仍	-12801
兰	-12802
气	-12803
质	-12804
效	-12805
根	-12806
把	-12807
引	-12808
车	-12809
票	-12810
曾	-12811
戏	-12812
p	-12813
申	-12814
继	-12815
却	-12816
愿	-12817
态	-12818
H	-12819
售	-12820
y	-12821
包	-12822
见	-12823
择	-12824
号	-12825
频	-12826
留	-12827
路	-12828
港	-12829
w	-12830
失	-12831
游	-12832
!	-12833
券	-12834
除	-12835
众	-12836
双	-12837
城	-12838
项	-12839
吨	-12840
移	-12841
买	-12842
降	-12843
b	-12844
断	-12845
销	-12846
职	-12847
改	-12848
角	-12849
速	-12850
另	-12851
济	-12852
构	-12853
山	-12854
晚	-12855
V	-12856
艺	-12857
仓	-12858
举	-12859
精	-12860
露	-12861
击	-12862
攻	-12863
虽	-12864
儿	-12865
什	-12866
究	-12867
算	-12868
议	-12869
够	-12870
许	-12871
企	-12872
营	-12873
限	-12874
越	-12875
底	-12876
批	-12877
满	-12878
历	-12879
额	-12880
争	-12881
婚	-12882
音	-12883
牌	-12884
候	-12885
书	-12886
债	-12887
短	-12888
兴	-12889
减	-12890
器	-12891
R	-12892
必	-12893
否	-12894
离	-12895
料	-12896
象	-12897
波	-12898
访	-12899
尽	-12900
觉	-12901
防	-12902
刘	-12903
纳	-12904
佳	-12905
团	-12906
破	-12907
刚	-12908
共	-12909
依	-12910
策	-12911
拿	-12912
五	-12913
欧	-12914
花	-12915
负	-12916
奖	-12917
络	-12918
早	-12919
案	-12920
州	-12921
版	-12922
便	-12923
往	-12924
范	-12925
监	-12926
笔	-12927
测	-12928
喜	-12929
托	-12930
财	-12931
香	-12932
卫	-12933
唱	-12934
初	-12935
娱	-12936
迷	-12937
W	-12938
轮	-12939
透	-12940
列	-12941
富	-12942
夫	-12943
白	-12944
听	-12945
思	-12946
致	-12947
钟	-12948
声	-12949
社	-12950
压	-12951
江	-12952
欢	-12953
景	-12954
奇	-12955
训	-12956
控	-12957
轻	-12958
环	-12959
突	-12960
远	-12961
孩	-12962
纪	-12963
属	-12964
极	-12965
净	-12966
错	-12967
材	-12968
边	-12969
席	-12970
责	-12971
切	-12972
析	-12973
福	-12974
读	-12975
稳	-12976
源	-12977
协	-12978
验	-12979
担	-12980
焦	-12981
条	-12982
状	-12983
围	-12984
落	-12985
午	-12986
百	-12987
伤	-12988
字	-12989
索	-12990
按	-12991
黑	-12992
k	-12993
史	-12994
X	-12995
杯	-12996
差	-12997
播	-12998
雷	-12999
班	-13000
装	-13001
钢	-13002
跟	-13003
亲	-13004
宝	-13005
融	-13006
送	-13007
韩	-13008
f	-13009
写	-13010
宣	-13011
束	-13012
威	-13013
独	-13014
例	-13015
闻	-13016
洲	-13017
屏	-13018
笑	-13019
命	-13020
悉	-13021
康	-13022
待	-13023
神	-13024
尚	-13025
识	-13026
补	-13027
介	-13028
紧	-13029
币	-13030
积	-13031
答	-13032
谈	-13033
朋	-13034
青	-13035
括	-13036
适	-13037
占	-13038
令	-13039
曼	-13040
诺	-13041
停	-13042
杰	-13043
眼	-13044
U	-13045
秀	-13046
左	-13047
换	-13048
码	-13049
拥	-13050
森	-13051
绝	-13052
夏	-13053
寸	-13054
签	-13055
岁	-13056
阵	-13057
右	-13058
湖	-13059
亮	-13060
互	-13061
伊	-13062
毕	-13063
锋	-13064
课	-13065
镜	-13066
判	-13067
它	-13068
找	-13069
幕	-13070
密	-13071
诉	-13072
糖	-13073
须	-13074
松	-13075
v	-13076
房	-13077
龙	-13078
豆	-13079
套	-13080
帮	-13081
背	-13082
竞	-13083
核	-13084
卖	-13085
六	-13086
伦	-13087
钱	-13088
泰	-13089
·	-13090
免	-13091
施	-13092
略	-13093
智	-13094
震	-13095
承	-13096
春	-13097
杨	-13098
阳	-13099
箭	-13100
圈	-13101
住	-13102
募	-13103
守	-13104
届	-13105
谢	-13106
严	-13107
充	-13108
坛	-13109
询	-13110
乎	-13111
追	-13112
库	-13113
庆	-13114
操	-13115
境	-13116
农	-13117
迎	-13118
止	-13119
编	-13120
[	-13121
]	-13122
苏	-13123
石	-13124
端	-13125
萨	-13126
冲	-13127
官	-13128
临	-13129
似	-13130
软	-13131
甚	-13132
健	-13133
医	-13134
登	-13135
俱	-13136
嘉	-13137
细	-13138
键	-13139
Q	-13140
夺	-13141
余	-13142
店	-13143
麦	-13144
缺	-13145
档	-13146
疑	-13147
沪	-13148
委	-13149
律	-13150
简	-13151
截	-13152
云	-13153
绍	-13154
输	-13155
虑	-13156
礼	-13157
汉	-13158
层	-13159
姆	-13160
某	-13161
帅	-13162
洛	-13163
赵	-13164
静	-13165
吧	-13166
章	-13167
辑	-13168
孙	-13169
彩	-13170
私	-13171
治	-13172
K	-13173
爆	-13174
遇	-13175
姚	-13176
义	-13177
填	-13178
蒂	-13179
败	-13180
哈	-13181
阶	-13182
铁	-13183
莱	-13184
激	-13185
卷	-13186
巨	-13187
念	-13188
瑞	-13189
雅	-13190
汇	-13191
曲	-13192
晶	-13193
飞	-13194
假	-13195
养	-13196
弹	-13197
印	-13198
千	-13199
域	-13200
征	-13201
裁	-13202
棋	-13203
伟	-13204
温	-13205
画	-13206
付	-13207
刻	-13208
鲁	-13209
迪	-13210
宁	-13211
倍	-13212
盛	-13213
吴	-13214
尤	-13215
般	-13216
晓	-13217
休	-13218
偏	-13219
执	-13220
铜	-13221
退	-13222
良	-13223
贝	-13224
封	-13225
罚	-13226
室	-13227
综	-13228
述	-13229
脑	-13230
坚	-13231
牛	-13232
储	-13233
搭	-13234
顿	-13235
典	-13236
居	-13237
护	-13238
菲	-13239
盟	-13240
遭	-13241
丽	-13242
逐	-13243
陆	-13244
舞	-13245
郑	-13246
审	-13247
恩	-13248
借	-13249
澳	-13250
干	-13251
讲	-13252
善	-13253
弱	-13254
妈	-13255
旗	-13256
故	-13257
府	-13258
估	-13259
武	-13260
抢	-13261
吸	-13262
央	-13263
姐	-13264
肯	-13265
纷	-13266
误	-13267
+	-13268
久	-13269
距	-13270
触	-13271
扩	-13272
厂	-13273
庭	-13274
赢	-13275
检	-13276
射	-13277
J	-13278
趣	-13279
顺	-13280
牙	-13281
脚	-13282
酒	-13283
八	-13284
玉	-13285
盖	-13286
胶	-13287
块	-13288
母	-13289
玩	-13290
塞	-13291
础	-13292
河	-13293
病	-13294
荡	-13295
享	-13296
郭	-13297
启	-13298
惊	-13299
损	-13300
硕	-13301
味	-13302
秒	-13303
丹	-13304
佩	-13305
培	-13306
古	-13307
词	-13308
载	-13309
延	-13310
替	-13311
梅	-13312
顶	-13313
峰	-13314
敬	-13315
丁	-13316
谷	-13317
×	-13318
怎	-13319
危	-13320
跳	-13321
吃	-13322
刺	-13323
惠	-13324
末	-13325
贴	-13326
挑	-13327
竟	-13328
朗	-13329
z	-13330
警	-13331
湾	-13332
修	-13333
蓝	-13334
顾	-13335
杆	-13336
父	-13337
丝	-13338
丰	-13339
派	-13340
宽	-13341
烈	-13342
跑	-13343
靠	-13344
熟	-13345
凯	-13346
衣	-13347
莫	-13348
暂	-13349
宏	-13350
累	-13351
异	-13352
趋	-13353
食	-13354
副	-13355
哥	-13356
阅	-13357
旧	-13358
避	-13359
折	-13360
’	-13361
灵	-13362
织	-13363
晨	-13364
徐	-13365
映	-13366
荐	-13367
杀	-13368
冰	-13369
榜	-13370
永	-13371
挥	-13372
群	-13373
穿	-13374
困	-13375
弗	-13376
针	-13377
曝	-13378
著	-13379
旦	-13380
缩	-13381
归	-13382
皇	-13383
摩	-13384
液	-13385
七	-13386
吉	-13387
迅	-13388
棉	-13389
皮	-13390
俊	-13391
暴	-13392
释	-13393
宗	-13394
旅	-13395
禁	-13396
硬	-13397
附	-13398
x	-13399
坦	-13400
犯	-13401
倒	-13402
琳	-13403
贵	-13404
探	-13405
握	-13406
急	-13407
塔	-13408
怀	-13409
滑	-13410
恋	-13411
锦	-13412
幸	-13413
润	-13414
哪	-13415
涉	-13416
勒	-13417
川	-13418
津	-13419
予	-13420
苦	-13421
芝	-13422
董	-13423
含	-13424
戴	-13425
座	-13426
渐	-13427
‘	-13428
扬	-13429
柏	-13430
醒	-13431
饰	-13432
谁	-13433
唯	-13434
欣	-13435
呢	-13436
若	-13437
馆	-13438
弟	-13439
携	-13440
努	-13441
咨	-13442
沙	-13443
夜	-13444
梦	-13445
豪	-13446
九	-13447
粉	-13448
埃	-13449
朱	-13450
村	-13451
航	-13452
邀	-13453
齐	-13454
察	-13455
苹	-13456
胡	-13457
序	-13458
撑	-13459
翻	-13460
园	-13461
鹏	-13462
献	-13463
田	-13464
勇	-13465
遍	-13466
楼	-13467
_	-13468
句	-13469
促	-13470
死	-13471
洋	-13472
讨	-13473
叫	-13474
掌	-13475
坐	-13476
账	-13477
邓	-13478
宾	-13479
族	-13480
赞	-13481
劲	-13482
杂	-13483
违	-13484
抗	-13485
缓	-13486
梁	-13487
凭	-13488
酷	-13489
伯	-13490
怕	-13491
概	-13492
赶	-13493
逊	-13494
筹	-13495
闭	-13496
盈	-13497
霍	-13498
弃	-13499
圳	-13500
冷	-13501
土	-13502
掉	-13503
杜	-13504
秘	-13505
纽	-13506
>	-13507
订	-13508
甲	-13509
障	-13510
仪	-13511
贷	-13512
吗	-13513
娜	-13514
固	-13515
邮	-13516
雪	-13517
隆	-13518
劳	-13519
巧	-13520
魔	-13521
雨	-13522
遗	-13523
泽	-13524
毫	-13525
Y	-13526
剩	-13527
雄	-13528
寻	-13529
赎	-13530
楚	-13531
亏	-13532
害	-13533
【	-13534
】	-13535
革	-13536
扣	-13537
潮	-13538
童	-13539
荣	-13540
谓	-13541
Z	-13542
呼	-13543
唐	-13544
淘	-13545
沈	-13546
既	-13547
符	-13548
帕	-13549
搜	-13550
灾	-13551
税	-13552
绿	-13553
聚	-13554
脸	-13555
薪	-13556
祝	-13557
零	-13558
授	-13559
圣	-13560
矿	-13561
慢	-13562
呈	-13563
默	-13564
药	-13565
恢	-13566
散	-13567
救	-13568
祖	-13569
拟	-13570
蒙	-13571
忙	-13572
纯	-13573
诚	-13574
援	-13575
宇	-13576
混	-13577
侧	-13578
妻	-13579
虎	-13580
浦	-13581
扎	-13582
乔	-13583
厚	-13584
狂	-13585
鲜	-13586
薄	-13587
餐	-13588
淡	-13589
辨	-13590
桶	-13591
毒	-13592
您	-13593
敏	-13594
爸	-13595
兼	-13596
伴	-13597
潜	-13598
艾	-13599
冯	-13600
叶	-13601
尺	-13602
耳	-13603
兵	-13604
胀	-13605
拔	-13606
扮	-13607
斗	-13608
跃	-13609
挂	-13610
黎	-13611
堂	-13612
忧	-13613
洪	-13614
韦	-13615
措	-13616
沃	-13617
晋	-13618
伍	-13619
舒	-13620
册	-13621
拜	-13622
衡	-13623
瓦	-13624
翔	-13625
凌	-13626
召	-13627
颖	-13628
厅	-13629
返	-13630
添	-13631
藏	-13632
迹	-13633
励	-13634
振	-13635
亦	-13636
冬	-13637
熊	-13638
缘	-13639
踢	-13640
迈	-13641
霆	-13642
址	-13643
秋	-13644
忘	-13645
朝	-13646
诗	-13647
恐	-13648
腾	-13649
尾	-13650
拒	-13651
妹	-13652
畅	-13653
颁	-13654
奋	-13655
摆	-13656
乏	-13657
岛	-13658
巡	-13659
辛	-13660
县	-13661
慧	-13662
仔	-13663
穆	-13664
洁	-13665
疗	-13666
纲	-13667
贾	-13668
鼓	-13669
戈	-13670
毛	-13671
脱	-13672
途	-13673
鱼	-13674
陷	-13675
忆	-13676
圆	-13677
宜	-13678
拓	-13679
辉	-13680
偶	-13681
抱	-13682
血	-13683
汽	-13684
街	-13685
饭	-13686
拼	-13687
敦	-13688
贸	-13689
猫	-13690
绪	-13691
颇	-13692
妇	-13693
廷	-13694
慎	-13695
怡	-13696
池	-13697
涯	-13698
乱	-13699
惜	-13700
搞	-13701
炒	-13702
迟	-13703
渠	-13704
署	-13705
木	-13706
橡	-13707
暖	-13708
赴	-13709
艳	-13710
薇	-13711
暗	-13712
陪	-13713
凡	-13714
籍	-13715
蔡	-13716
跨	-13717
抛	-13718
朴	-13719
浙	-13720
隐	-13721
宋	-13722
纹	-13723
菜	-13724
惯	-13725
架	-13726
漫	-13727
荷	-13728
詹	-13729
恶	-13730
抓	-13731
猛	-13732
芯	-13733
龄	-13734
挺	-13735
闪	-13736
塑	-13737
拖	-13738
兄	-13739
辅	-13740
炭	-13741
详	-13742
贡	-13743
坡	-13744
敢	-13745
敌	-13746
佛	-13747
婆	-13748
翰	-13749
尝	-13750
赫	-13751
卢	-13752
甘	-13753
锌	-13754
览	-13755
摸	-13756
赏	-13757
啊	-13758
番	-13759
乡	-13760
玲	-13761
痛	-13762
铝	-13763
兹	-13764
赔	-13765
仁	-13766
沉	-13767
聘	-13768
赚	-13769
扰	-13770
谨	-13771
灯	-13772
祥	-13773
耀	-13774
披	-13775
捷	-13776
揭	-13777
雯	-13778
页	-13779
彻	-13780
抵	-13781
捐	-13782
旬	-13783
曹	-13784
鹰	-13785
尊	-13786
洗	-13787
君	-13788
慈	-13789
船	-13790
递	-13791
坏	-13792
捧	-13793
覆	-13794
刊	-13795
树	-13796
野	-13797
乌	-13798
懂	-13799
粮	-13800
迫	-13801
侯	-13802
奕	-13803
罪	-13804
阻	-13805
掘	-13806
憾	-13807
横	-13808
潘	-13809
桑	-13810
燃	-13811
纸	-13812
缴	-13813
寒	-13814
肉	-13815
俄	-13816
恰	-13817
燕	-13818
猜	-13819
睿	-13820
虚	-13821
诞	-13822
殊	-13823
妮	-13824
稍	-13825
篇	-13826
栏	-13827
誉	-13828
诸	-13829
怪	-13830
汪	-13831
挫	-13832
辽	-13833
逼	-13834
炼	-13835
珠	-13836
哲	-13837
爷	-13838
抽	-13839
谊	-13840
奏	-13841
晰	-13842
稿	-13843
蕾	-13844
洞	-13845
骗	-13846
疆	-13847
伙	-13848
宴	-13849
莉	-13850
奔	-13851
冒	-13852
妨	-13853
役	-13854
欲	-13855
锁	-13856
疲	-13857
耐	-13858
草	-13859
骑	-13860
偿	-13861
译	-13862
孔	-13863
甜	-13864
链	-13865
侵	-13866
廉	-13867
妙	-13868
氛	-13869
泛	-13870
颜	-13871
灰	-13872
逆	-13873
逾	-13874
抖	-13875
悦	-13876
旺	-13877
姜	-13878
尖	-13879
悬	-13880
沟	-13881
镇	-13882
吕	-13883
植	-13884
踪	-13885
俗	-13886
嫌	-13887
筑	-13888
茨	-13889
邦	-13890
隔	-13891
拨	-13892
箱	-13893
割	-13894
奈	-13895
径	-13896
羽	-13897
煤	-13898
瓜	-13899
奶	-13900
徒	-13901
插	-13902
患	-13903
磨	-13904
聊	-13905
卓	-13906
麻	-13907
倾	-13908
鉴	-13909
枚	-13910
汤	-13911
浮	-13912
涛	-13913
忠	-13914
恒	-13915
租	-13916
帝	-13917
珍	-13918
芬	-13919
刀	-13920
攀	-13921
晖	-13922
仿	-13923
堪	-13924
芳	-13925
乘	-13926
允	-13927
烦	-13928
磊	-13929
骨	-13930
俐	-13931
娘	-13932
忽	-13933
刑	-13934
哭	-13935
赌	-13936
扫	-13937
昌	-13938
汰	-13939
粕	-13940
毅	-13941
滨	-13942
鹿	-13943
党	-13944
娇	-13945
浩	-13946
肖	-13947
镑	-13948
厦	-13949
描	-13950
旭	-13951
棒	-13952
贺	-13953
泉	-13954
繁	-13955
丢	-13956
涵	-13957
睡	-13958
杭	-13959
酬	-13960
愈	-13961
郎	-13962
剂	-13963
墨	-13964
疯	-13965
翼	-13966
赠	-13967
饮	-13968
亨	-13969
旁	-13970
枪	-13971
榨	-13972
贯	-13973
琴	-13974
绕	-13975
泪	-13976
驾	-13977
剑	-13978
寿	-13979
澄	-13980
烟	-13981
耗	-13982
泡	-13983
悲	-13984
艰	-13985
斤	-13986
玛	-13987
督	-13988
腰	-13989
鸿	-13990
耶	-13991
姓	-13992
怒	-13993
撞	-13994
昆	-13995
摇	-13996
舍	-13997
忍	-13998
残	-13999
溢	-14000
蜂	-14001
勤	-14002
漂	-14003
漏	-14004
蛋	-14005
j	-14006
□	-14007
乒	-14008
绯	-14009
浓	-14010
琼	-14011
糕	-14012
脂	-14013
昂	-14014
琪	-14015
锐	-14016
惨	-14017
桥	-14018
~	-14019
喝	-14020
裸	-14021
蹈	-14022
孕	-14023
庄	-14024
爵	-14025
凤	-14026
碰	-14027
姿	-14028
杉	-14029
谋	-14030
兑	-14031
嫁	-14032
拆	-14033
浏	-14034
莎	-14035
葡	-14036
闹	-14037
嘴	-14038
牵	-14039
铅	-14040
阴	-14041
斌	-14042
犹	-14043
腿	-14044
袁	-14045
帽	-14046
柔	-14047
盗	-14048
刷	-14049
胁	-14050
螺	-14051
辈	-14052
逢	-14053
鞋	-14054
楠	-14055
裙	-14056
谭	-14057
闲	-14058
炮	-14059
稻	-14060
绎	-14061
袋	-14062
寄	-14063
框	-14064
纠	-14065
肩	-14066
胎	-14067
偷	-14068
叹	-14069
柱	-14070
秦	-14071
邵	-14072
陶	-14073
颗	-14074
侠	-14075
岗	-14076
挡	-14077
抑	-14078
谱	-14079
辞	-14080
炉	-14081
蒋	-14082
辆	-14083
床	-14084
鼠	-14085
宿	-14086
崔	-14087
欠	-14088
衔	-14089
赖	-14090
伏	-14091
咏	-14092
昊	-14093
烧	-14094
邱	-14095
窗	-14096
膜	-14097
逃	-14098
扑	-14099
染	-14100
紫	-14101
坤	-14102
姻	-14103
歉	-14104
矶	-14105
萄	-14106
踏	-14107
遥	-14108
岩	-14109
肥	-14110
契	-14111
帖	-14112
怨	-14113
盾	-14114
舰	-14115
驱	-14116
妆	-14117
宫	-14118
睐	-14119
彭	-14120
泳	-14121
驰	-14122
魏	-14123
旋	-14124
聪	-14125
弄	-14126
纵	-14127
轩	-14128
鬼	-14129
孟	-14130
屡	-14131
擎	-14132
尬	-14133
尴	-14134
涂	-14135
徽	-14136
狼	-14137
蜜	-14138
袭	-14139
践	-14140
轰	-14141
滚	-14142
疾	-14143
驻	-14144
厉	-14145
屋	-14146
碍	-14147
铺	-14148
裕	-14149
鑫	-14150
冕	-14151
婷	-14152
糟	-14153
靓	-14154
鼎	-14155
幻	-14156
牢	-14157
贤	-14158
鸟	-14159
丈	-14160
吹	-14161
夸	-14162
庞	-14163
沿	-14164
胸	-14165
骂	-14166
俩	-14167
狱	-14168
矛	-14169
胆	-14170
钻	-14171
井	-14172
吻	-14173
坎	-14174
悄	-14175
惑	-14176
挖	-14177
苗	-14178
傅	-14179
捕	-14180
戒	-14181
斥	-14182
郁	-14183
飙	-14184
壳	-14185
摘	-14186
纱	-14187
喊	-14188
岸	-14189
槛	-14190
泄	-14191
诱	-14192
循	-14193
症	-14194
铭	-14195
尘	-14196
虹	-14197
霸	-14198
熙	-14199
肃	-14200
霞	-14201
魅	-14202
q	-14203
⊙	-14204
巩	-14205
狗	-14206
串	-14207
弊	-14208
暑	-14209
羊	-14210
豫	-14211
骏	-14212
啦	-14213
奎	-14214
扭	-14215
械	-14216
扳	-14217
玮	-14218
稀	-14219
莞	-14220
逸	-14221
"	-14222
乃	-14223
奢	-14224
彼	-14225
闵	-14226
倩	-14227
傲	-14228
兆	-14229
吁	-14230
殷	-14231
猪	-14232
貌	-14233
闯	-14234
媛	-14235
搬	-14236
柯	-14237
皆	-14238
舟	-14239
擅	-14240
歧	-14241
滕	-14242
闷	-14243
陕	-14244
宅	-14245
淇	-14246
睛	-14247
莓	-14248
鲍	-14249
鸣	-14250
宠	-14251
彦	-14252
亡	-14253
抄	-14254
碟	-14255
诊	-14256
～	-14257
粗	-14258
辣	-14259
弥	-14260
拳	-14261
狠	-14262
盎	-14263
荧	-14264
萧	-14265
倪	-14266
奉	-14267
徕	-14268
涌	-14269
诈	-14270
圾	-14271
垃	-14272
慰	-14273
珊	-14274
瑶	-14275
胞	-14276
伸	-14277
匹	-14278
壮	-14279
桌	-14280
炫	-14281
瞬	-14282
垫	-14283
媳	-14284
幽	-14285
撤	-14286
袖	-14287
锡	-14288
锻	-14289
噪	-14290
杠	-14291
渡	-14292
臣	-14293
丧	-14294
坞	-14295
棕	-14296
滞	-14297
飘	-14298
驶	-14299
挤	-14300
柳	-14301
盲	-14302
讼	-14303
辩	-14304
兽	-14305
堡	-14306
巢	-14307
旱	-14308
磅	-14309
谦	-14310
饱	-14311
麟	-14312
峻	-14313
烨	-14314
砍	-14315
腊	-14316
乙	-14317
孝	-14318
掀	-14319
揽	-14320
衷	-14321
迁	-14322
侣	-14323
娃	-14324
敲	-14325
湘	-14326
窄	-14327
孤	-14328
遵	-14329
丑	-14330
墙	-14331
壁	-14332
尹	-14333
桂	-14334
赋	-14335
■	-14336
莲	-14337
轨	-14338
&	-14339
'	-14340
槽	-14341
涅	-14342
肌	-14343
*	-14344
吓	-14345
悍	-14346
愤	-14347
掩	-14348
栋	-14349
★	-14350
夹	-14351
瓶	-14352
郅	-14353
慕	-14354
拘	-14355
旨	-14356
碧	-14357
衍	-14358
兔	-14359
冻	-14360
屈	-14361
惹	-14362
琦	-14363
霜	-14364
姑	-14365
幼	-14366
废	-14367
悠	-14368
瘦	-14369
肤	-14370
腻	-14371
薛	-14372
侦	-14373
氏	-14374
葛	-14375
劣	-14376
桃	-14377
碑	-14378
纤	-14379
黛	-14380
崇	-14381
庚	-14382
泥	-14383
罢	-14384
脉	-14385
阔	-14386
恨	-14387
惧	-14388
煌	-14389
衰	-14390
谐	-14391
仙	-14392
忌	-14393
慌	-14394
昔	-14395
榈	-14396
爽	-14397
狄	-14398
鸡	-14399
削	-14400
膝	-14401
匆	-14402
垄	-14403
岭	-14404
御	-14405
抬	-14406
擦	-14407
梯	-14408
欺	-14409
渴	-14410
澜	-14411
瘾	-14412
籼	-14413
翁	-14414
赤	-14415
逛	-14416
镁	-14417
仇	-14418
夕	-14419
寓	-14420
悔	-14421
沫	-14422
甄	-14423
腹	-14424
萌	-14425
馨	-14426
傻	-14427
凸	-14428
吊	-14429
庾	-14430
斜	-14431
糊	-14432
逻	-14433
伐	-14434
堵	-14435
宪	-14436
恼	-14437
朔	-14438
缠	-14439
谍	-14440
函	-14441
堆	-14442
撰	-14443
浅	-14444
盯	-14445
穷	-14446
荒	-14447
蔗	-14448
贫	-14449
伪	-14450
巾	-14451
彰	-14452
扶	-14453
淀	-14454
狐	-14455
盼	-14456
萍	-14457
裂	-14458
讶	-14459
铃	-14460
韵	-14461
剪	-14462
岳	-14463
炸	-14464
粒	-14465
轴	-14466
删	-14467
吐	-14468
墅	-14469
婉	-14470
汀	-14471
瑟	-14472
粤	-14473
绘	-14474
蒿	-14475
霄	-14476
哨	-14477
璇	-14478
莹	-14479
蓉	-14480
骄	-14481
寨	-14482
弯	-14483
磁	-14484
缝	-14485
羡	-14486
脏	-14487
佘	-14488
侃	-14489
勾	-14490
慨	-14491
晴	-14492
茅	-14493
蓄	-14494
凑	-14495
押	-14496
挣	-14497
挪	-14498
罕	-14499
舆	-14500
蝶	-14501
裤	-14502
趁	-14503
酸	-14504
锂	-14505
骤	-14506
乓	-14507
厨	-14508
圭	-14509
娟	-14510
悟	-14511
沸	-14512
炎	-14513
烂	-14514
雇	-14515
佐	-14516
侨	-14517
叔	-14518
坊	-14519
埋	-14520
挽	-14521
捉	-14522
眉	-14523
祸	-14524
腕	-14525
臂	-14526
骚	-14527
俞	-14528
履	-14529
茶	-14530
贬	-14531
仰	-14532
催	-14533
冉	-14534
劝	-14535
砸	-14536
纺	-14537
胖	-14538
@	-14539
倡	-14540
呀	-14541
妍	-14542
嫩	-14543
汗	-14544
玻	-14545
萎	-14546
=	-14547
岑	-14548
盒	-14549
罩	-14550
脆	-14551
郝	-14552
喻	-14553
帆	-14554
晃	-14555
渝	-14556
疼	-14557
迭	-14558
邻	-14559
馈	-14560
垂	-14561
晒	-14562
柴	-14563
毁	-14564
碎	-14565
喷	-14566
宥	-14567
惩	-14568
扇	-14569
斑	-14570
楷	-14571
烤	-14572
灭	-14573
皓	-14574
窝	-14575
筐	-14576
醉	-14577
颠	-14578
饼	-14579
俏	-14580
劫	-14581
勿	-14582
囊	-14583
弘	-14584
弧	-14585
撼	-14586
枝	-14587
烯	-14588
猴	-14589
蔚	-14590
辰	-14591
雕	-14592
饲	-14593
凉	-14594
妥	-14595
恭	-14596
惟	-14597
牲	-14598
璃	-14599
肚	-14600
衫	-14601
裔	-14602
谣	-14603
躁	-14604
陌	-14605
魂	-14606
凶	-14607
呆	-14608
呵	-14609
嘛	-14610
彤	-14611
桐	-14612
泼	-14613
漆	-14614
甩	-14615
祭	-14616
膨	-14617
躲	-14618
厌	-14619
唤	-14620
彬	-14621
毯	-14622
潇	-14623
炜	-14624
牺	-14625
仕	-14626
侈	-14627
垒	-14628
崩	-14629
柜	-14630
瞩	-14631
藤	-14632
踝	-14633
钩	-14634
勋	-14635
歇	-14636
粹	-14637
绑	-14638
蒲	-14639
跻	-14640
逝	-14641
锅	-14642
愉	-14643
撒	-14644
玫	-14645
逗	-14646
遮	-14647
酿	-14648
僵	-14649
勃	-14650
婕	-14651
斩	-14652
眠	-14653
臧	-14654
踩	-14655
辖	-14656
辱	-14657
阪	-14658
∶	-14659
仑	-14660
叙	-14661
搏	-14662
湿	-14663
疏	-14664
秩	-14665
竹	-14666
腐	-14667
迄	-14668
嘲	-14669
廖	-14670
朵	-14671
洽	-14672
籽	-14673
肿	-14674
仗	-14675
凳	-14676
婧	-14677
弈	-14678
拐	-14679
狮	-14680
肢	-14681
芒	-14682
芸	-14683
钰	-14684
乳	-14685
佣	-14686
叠	-14687
啸	-14688
婴	-14689
寂	-14690
巅	-14691
杏	-14692
溃	-14693
滩	-14694
熬	-14695
耍	-14696
聂	-14697
诵	-14698
谅	-14699
霖	-14700
韧	-14701
颈	-14702
乖	-14703
乾	-14704
怜	-14705
暨	-14706
棚	-14707
滋	-14708
滤	-14709
矩	-14710
菁	-14711
袍	-14712
谎	-14713
钦	-14714
驳	-14715
剔	-14716
昕	-14717
爬	-14718
痴	-14719
砂	-14720
秉	-14721
萃	-14722
讽	-14723
辟	-14724
○	-14725
●	-14726
冈	-14727
帷	-14728
愁	-14729
拦	-14730
淑	-14731
渤	-14732
璐	-14733
癌	-14734
茂	-14735
萱	-14736
誓	-14737
诀	-14738
鄂	-14739
顽	-14740
宛	-14741
岚	-14742
彪	-14743
徊	-14744
徘	-14745
怖	-14746
恤	-14747
摔	-14748
畏	-14749
痕	-14750
碳	-14751
蔓	-14752
诠	-14753
铲	-14754
龚	-14755
冶	-14756
凰	-14757
嫂	-14758
崛	-14759
抹	-14760
枫	-14761
淫	-14762
纶	-14763
膀	-14764
茜	-14765
郜	-14766
闸	-14767
阮	-14768
鲨	-14769
°	-14770
仲	-14771
卧	-14772
厄	-14773
咬	-14774
姥	-14775
愧	-14776
拯	-14777
撕	-14778
梓	-14779
浸	-14780
窃	-14781
筒	-14782
腔	-14783
苑	-14784
酋	-14785
闫	-14786
鼻	-14787
庸	-14788
扔	-14789
扯	-14790
昏	-14791
滴	-14792
碌	-14793
舜	-14794
铮	-14795
锣	-14796
•	-14797
亩	-14798
匪	-14799
妃	-14800
惕	-14801
拾	-14802
摊	-14803
桓	-14804
污	-14805
灌	-14806
衬	-14807
镐	-14808
冤	-14809
奠	-14810
婿	-14811
媚	-14812
崎	-14813
抚	-14814
舌	-14815
芭	-14816
蓬	-14817
虫	-14818
隋	-14819
叉	-14820
吵	-14821
咪	-14822
帐	-14823
愚	-14824
汶	-14825
渗	-14826
灿	-14827
雾	-14828
鹤	-14829
勉	-14830
卸	-14831
吞	-14832
巍	-14833
殿	-14834
珞	-14835
瑜	-14836
笼	-14837
钮	-14838
啥	-14839
喔	-14840
嘘	-14841
幂	-14842
殖	-14843
氧	-14844
瑰	-14845
耿	-14846
饶	-14847
椅	-14848
牧	-14849
缆	-14850
翠	-14851
耻	-14852
酝	-14853
靡	-14854
儒	-14855
剖	-14856
娶	-14857
帧	-14858
懈	-14859
柄	-14860
浒	-14861
涩	-14862
溯	-14863
甸	-14864
絮	-14865
绳	-14866
袂	-14867
贪	-14868
靴	-14869
吼	-14870
喀	-14871
妖	-14872
弦	-14873
昭	-14874
梳	-14875
瘤	-14876
筛	-14877
羞	-14878
脾	-14879
裹	-14880
轶	-14881
哄	-14882
哑	-14883
嗓	-14884
宵	-14885
曦	-14886
榄	-14887
橄	-14888
渊	-14889
溜	-14890
滥	-14891
蒸	-14892
蕴	-14893
魁	-14894
☆	-14895
佼	-14896
厘	-14897
寥	-14898
浑	-14899
湛	-14900
疫	-14901
瞄	-14902
竭	-14903
绵	-14904
肆	-14905
菊	-14906
蔬	-14907
虐	-14908
蛮	-14909
贞	-14910
遏	-14911
邹	-14912
丘	-14913
卦	-14914
哀	-14915
哦	-14916
娴	-14917
屠	-14918
懒	-14919
栩	-14920
橙	-14921
漠	-14922
犀	-14923
琢	-14924
瓒	-14925
瞻	-14926
觅	-14927
跪	-14928
阱	-14929
陵	-14930
鞍	-14931
#	-14932
啡	-14933
峡	-14934
拭	-14935
浴	-14936
玄	-14937
睢	-14938
睹	-14939
瞒	-14940
翟	-14941
胃	-14942
茫	-14943
遂	-14944
雀	-14945
凝	-14946
刮	-14947
吾	-14948
唇	-14949
噗	-14950
宙	-14951
巷	-14952
洒	-14953
浚	-14954
淳	-14955
炳	-14956
碗	-14957
艇	-14958
逮	-14959
颓	-14960
刃	-14961
卜	-14962
厕	-14963
咖	-14964
坑	-14965
婶	-14966
掷	-14967
殴	-14968
煮	-14969
祺	-14970
稽	-14971
肋	-14972
葬	-14973
蝉	-14974
贿	-14975
遣	-14976
咕	-14977
奸	-14978
惫	-14979
戛	-14980
株	-14981
沛	-14982
瘫	-14983
矢	-14984
秽	-14985
蔽	-14986
蠢	-14987
讳	-14988
◆	-14989
咱	-14990
囤	-14991
坠	-14992
姨	-14993
捏	-14994
掏	-14995
曙	-14996
泣	-14997
溪	-14998
熠	-14999
粘	-15000
绮	-15001
肇	-15002
肠	-15003
脖	-15004
茆	-15005
茵	-15006
蓓	-15007
辙	-15008
靖	-15009
颐	-15010
佑	-15011
俪	-15012
嘱	-15013
岂	-15014
抒	-15015
棠	-15016
汹	-15017
沾	-15018
狭	-15019
猎	-15020
硒	-15021
筋	-15022
簿	-15023
豹	-15024
邢	-15025
钉	-15026
隙	-15027
韬	-15028
齿	-15029
|	-15030
佟	-15031
寞	-15032
尧	-15033
戚	-15034
晕	-15035
沧	-15036
涤	-15037
瓣	-15038
耽	-15039
苛	-15040
黯	-15041
亥	-15042
叛	-15043
喘	-15044
嘟	-15045
垮	-15046
沦	-15047
洙	-15048
淮	-15049
狙	-15050
砖	-15051
禹	-15052
绚	-15053
翩	-15054
苍	-15055
蹄	-15056
郊	-15057
钓	-15058
锈	-15059
镀	-15060
霏	-15061
鞠	-15062
颂	-15063
魄	-15064
麒	-15065
丫	-15066
佬	-15067
兜	-15068
咽	-15069
夷	-15070
奴	-15071
尸	-15072
尿	-15073
揣	-15074
汝	-15075
淋	-15076
牟	-15077
痊	-15078
荃	-15079
阐	-15080
隶	-15081
俨	-15082
兮	-15083
喉	-15084
寡	-15085
嵌	-15086
懿	-15087
挚	-15088
敛	-15089
敞	-15090
歆	-15091
泊	-15092
灶	-15093
猩	-15094
矫	-15095
藻	-15096
阎	-15097
鸭	-15098
卑	-15099
娥	-15100
寝	-15101
扛	-15102
泻	-15103
涡	-15104
瀚	-15105
焱	-15106
犬	-15107
珀	-15108
瓷	-15109
甫	-15110
荆	-15111
菱	-15112
虞	-15113
轧	-15114
钊	-15115
铎	-15116
镖	-15117
闺	-15118
$	-15119
姗	-15120
嫣	-15121
宸	-15122
抉	-15123
斐	-15124
暇	-15125
汁	-15126
渣	-15127
澎	-15128
炙	-15129
瑾	-15130
皱	-15131
祈	-15132
禅	-15133
穴	-15134
绊	-15135
耕	-15136
聿	-15137
肾	-15138
裴	-15139
邪	-15140
邬	-15141
霉	-15142
鞭	-15143
髓	-15144
亭	-15145
傍	-15146
噱	-15147
坝	-15148
壹	-15149
姊	-15150
媲	-15151
寺	-15152
恳	-15153
拢	-15154
敖	-15155
榻	-15156
煎	-15157
琅	-15158
缔	-15159
脊	-15160
蹭	-15161
辜	-15162
郡	-15163
匿	-15164
咒	-15165
捞	-15166
擂	-15167
毋	-15168
漾	-15169
盆	-15170
睁	-15171
禾	-15172
绰	-15173
翘	-15174
肺	-15175
芊	-15176
茹	-15177
钧	-15178
颤	-15179
伺	-15180
倚	-15181
倦	-15182
姬	-15183
崭	-15184
嵩	-15185
帜	-15186
搁	-15187
枭	-15188
淼	-15189
煞	-15190
瞎	-15191
穗	-15192
窥	-15193
笃	-15194
藉	-15195
谜	-15196
阁	-15197
飚	-15198
驴	-15199
丸	-15200
伞	-15201
卵	-15202
卿	-15203
哇	-15204
哉	-15205
噩	-15206
坪	-15207
壶	-15208
宕	-15209
慷	-15210
桩	-15211
棱	-15212
樱	-15213
沮	-15214
潭	-15215
炬	-15216
煜	-15217
畔	-15218
畴	-15219
盐	-15220
笨	-15221
绽	-15222
缪	-15223
舵	-15224
蝴	-15225
贱	-15226
跷	-15227
踊	-15228
躬	-15229
醇	-15230
隽	-15231
鹅	-15232
丛	-15233
匀	-15234
叮	-15235
埔	-15236
墓	-15237
恺	-15238
挨	-15239
捡	-15240
昧	-15241
棵	-15242
渔	-15243
烹	-15244
焰	-15245
瑛	-15246
矮	-15247
祁	-15248
竖	-15249
绒	-15250
缀	-15251
肘	-15252
诫	-15253
酯	-15254
钗	-15255
咋	-15256
嘎	-15257
孰	-15258
巫	-15259
帼	-15260
拇	-15261
捆	-15262
晟	-15263
枢	-15264
浆	-15265
淆	-15266
澡	-15267
烽	-15268
痪	-15269
芹	-15270
蕙	-15271
蚁	-15272
袜	-15273
蹿	-15274
闽	-15275
饪	-15276
饽	-15277
骆	-15278
乍	-15279
僧	-15280
冀	-15281
匠	-15282
哒	-15283
嚣	-15284
妩	-15285
娆	-15286
庐	-15287
悚	-15288
悼	-15289
撇	-15290
攒	-15291
枕	-15292
栽	-15293
梨	-15294
梭	-15295
玟	-15296
硅	-15297
磕	-15298
筱	-15299
缉	-15300
荼	-15301
蛇	-15302
蜕	-15303
蜗	-15304
躺	-15305
迥	-15306
丙	-15307
凹	-15308
剃	-15309
哗	-15310
喂	-15311
壤	-15312
寇	-15313
岬	-15314
崖	-15315
憋	-15316
戟	-15317
扼	-15318
昱	-15319
晤	-15320
柬	-15321
棍	-15322
殡	-15323
滔	-15324
漩	-15325
濠	-15326
熄	-15327
璧	-15328
痒	-15329
禄	-15330
窦	-15331
纬	-15332
绅	-15333
翅	-15334
肝	-15335
腥	-15336
臻	-15337
舅	-15338
芙	-15339
荔	-15340
菌	-15341
蚀	-15342
蚕	-15343
袱	-15344
诡	-15345
趟	-15346
蹦	-15347
鄢	-15348
钞	-15349
馏	-15350
鸽	-15351
\	-15352
伽	-15353
侥	-15354
俘	-15355
刁	-15356
剥	-15357
劈	-15358
咳	-15359
哽	-15360
啤	-15361
塌	-15362
妄	-15363
娲	-15364
宰	-15365
屿	-15366
挠	-15367
捍	-15368
搀	-15369
搅	-15370
晏	-15371
暧	-15372
灞	-15373
炯	-15374
燥	-15375
爹	-15376
琛	-15377
硝	-15378
筝	-15379
翡	-15380
胚	-15381
萦	-15382
蜡	-15383
铂	-15384
鲸	-15385
μ	-15386
俭	-15387
俯	-15388
兢	-15389
娓	-15390
嫔	-15391
屁	-15392
岌	-15393
怠	-15394
怯	-15395
憧	-15396
憬	-15397
枯	-15398
栗	-15399
潍	-15400
炀	-15401
炅	-15402
焕	-15403
猕	-15404
痞	-15405
砝	-15406
窍	-15407
绣	-15408
绸	-15409
腺	-15410
诟	-15411
贼	-15412
蹲	-15413
辐	-15414
醋	-15415
釜	-15416
陋	-15417
霾	-15418
顷	-15419
飓	-15420
乞	-15421
侮	-15422
刹	-15423
匮	-15424
咸	-15425
娅	-15426
屹	-15427
彝	-15428
忐	-15429
忑	-15430
慑	-15431
憨	-15432
抨	-15433
掺	-15434
摧	-15435
桦	-15436
椎	-15437
槟	-15438
沂	-15439
溶	-15440
漓	-15441
熹	-15442
璨	-15443
睫	-15444
禽	-15445
窒	-15446
窘	-15447
笈	-15448
绷	-15449
聆	-15450
膊	-15451
臭	-15452
蔷	-15453
褒	-15454
襟	-15455
譬	-15456
貂	-15457
贩	-15458
赁	-15459
赈	-15460
赐	-15461
踹	-15462
遐	-15463
镶	-15464
陡	-15465
饥	-15466
龟	-15467
é	-15468
亟	-15469
勘	-15470
厢	-15471
嗽	-15472
囚	-15473
堕	-15474
塾	-15475
岙	-15476
廊	-15477
廓	-15478
忡	-15479
捣	-15480
揪	-15481
樊	-15482
歹	-15483
毓	-15484
沽	-15485
漕	-15486
瞠	-15487
瞧	-15488
禧	-15489
窜	-15490
篡	-15491
缅	-15492
缇	-15493
缚	-15494
羲	-15495
膏	-15496
茱	-15497
荫	-15498
蚌	-15499
蜀	-15500
诛	-15501
蹊	-15502
酌	-15503
钥	-15504
锤	-15505
骁	-15506
麾	-15507
丞	-15508
凄	-15509
匡	-15510
卉	-15511
呕	-15512
呛	-15513
喧	-15514
坷	-15515
埠	-15516
寰	-15517
庙	-15518
弓	-15519
惋	-15520
拷	-15521
挟	-15522
撮	-15523
敷	-15524
楂	-15525
歪	-15526
渺	-15527
烙	-15528
烛	-15529
牡	-15530
狡	-15531
猾	-15532
癖	-15533
癫	-15534
睦	-15535
硫	-15536
稚	-15537
笛	-15538
紊	-15539
罄	-15540
羁	-15541
胳	-15542
腩	-15543
舱	-15544
茧	-15545
蟹	-15546
衅	-15547
褪	-15548
诙	-15549
诧	-15550
谙	-15551
豁	-15552
酱	-15553
铸	-15554
锵	-15555
饺	-15556
〈	-15557
侍	-15558
倔	-15559
倘	-15560
偕	-15561
凿	-15562
匈	-15563
匙	-15564
卒	-15565
厮	-15566
叱	-15567
吆	-15568
吟	-15569
呐	-15570
咤	-15571
哼	-15572
喇	-15573
喋	-15574
堤	-15575
塘	-15576
墉	-15577
娄	-15578
悴	-15579
憔	-15580
拽	-15581
搡	-15582
攘	-15583
昵	-15584
橱	-15585
沐	-15586
涝	-15587
漪	-15588
濒	-15589
瑕	-15590
眷	-15591
瞑	-15592
瞿	-15593
碱	-15594
磋	-15595
祷	-15596
缭	-15597
膳	-15598
芦	-15599
苟	-15600
荟	-15601
蚂	-15602
诋	-15603
逅	-15604
邂	-15605
锯	-15606
黏	-15607
亢	-15608
伎	-15609
匾	-15610
卞	-15611
叨	-15612
叭	-15613
咀	-15614
咫	-15615
哎	-15616
孵	-15617
屯	-15618
忻	-15619
恍	-15620
愣	-15621
拎	-15622
拙	-15623
捂	-15624
捅	-15625
搂	-15626
擒	-15627
暮	-15628
梧	-15629
殆	-15630
毙	-15631
汲	-15632
洼	-15633
浇	-15634
浔	-15635
淅	-15636
烘	-15637
煲	-15638
煽	-15639
珑	-15640
琐	-15641
璀	-15642
疚	-15643
疵	-15644
眨	-15645
缕	-15646
虾	-15647
蛛	-15648
蝙	-15649
蝠	-15650
觑	-15651
讧	-15652
谌	-15653
轿	-15654
辄	-15655
酣	-15656
钵	-15657
镍	-15658
隧	-15659
霁	-15660
饿	-15661
馅	-15662
骅	-15663
髦	-15664
鳄	-15665
▲	-15666
侗	-15667
剿	-15668
咔	-15669
哮	-15670
啪	-15671
啼	-15672
嘿	-15673
噬	-15674
墟	-15675
奚	-15676
屑	-15677
岐	-15678
弛	-15679
忱	-15680
愕	-15681
愫	-15682
拗	-15683
挝	-15684
揍	-15685
晔	-15686
柒	-15687
栓	-15688
氙	-15689
湃	-15690
澈	-15691
烁	-15692
烫	-15693
焚	-15694
熏	-15695
猝	-15696
玺	-15697
篑	-15698
籁	-15699
糙	-15700
艘	-15701
苯	-15702
葱	-15703
蛊	-15704
蛰	-15705
蝇	-15706
诣	-15707
诽	-15708
谤	-15709
谴	-15710
赘	-15711
趴	-15712
躯	-15713
辫	-15714
迸	-15715
邸	-15716
铨	-15717
雁	-15718
雍	-15719
驭	-15720
鸦	-15721
〉	-15722
俺	-15723
僻	-15724
叁	-15725
咎	-15726
咧	-15727
唏	-15728
嗅	-15729
嗣	-15730
嗷	-15731
圻	-15732
坂	-15733
夯	-15734
妒	-15735
娩	-15736
孀	-15737
幌	-15738
幢	-15739
惬	-15740
懵	-15741
戳	-15742
扁	-15743
抠	-15744
捺	-15745
揉	-15746
曰	-15747
枉	-15748
栈	-15749
榴	-15750
氟	-15751
淹	-15752
渲	-15753
燮	-15754
町	-15755
疮	-15756
眩	-15757
祀	-15758
祚	-15759
筵	-15760
箍	-15761
簧	-15762
粥	-15763
绞	-15764
缄	-15765
腆	-15766
腼	-15767
膺	-15768
舶	-15769
芜	-15770
莠	-15771
葫	-15772
蔼	-15773
薰	-15774
覃	-15775
讥	-15776
豌	-15777
跆	-15778
辗	-15779
遴	-15780
铐	-15781
锏	-15782
阀	-15783
靳	-15784
骥	-15785
鸯	-15786
鸳	-15787
^	-15788
α	-15789
′	-15790
イ	-15791
伶	-15792
侬	-15793
冥	-15794
吝	-15795
咆	-15796
咯	-15797
啃	-15798
嘶	-15799
嘻	-15800
嚼	-15801
圃	-15802
坯	-15803
奂	-15804
姣	-15805
娣	-15806
嫉	-15807
嬉	-15808
孽	-15809
寅	-15810
寐	-15811
岔	-15812
峙	-15813
峥	-15814
帘	-15815
庶	-15816
彷	-15817
忏	-15818
懊	-15819
扉	-15820
扒	-15821
掐	-15822
掰	-15823
撬	-15824
昙	-15825
暄	-15826
榕	-15827
榷	-15828
槌	-15829
殃	-15830
泓	-15831
渥	-15832
漳	-15833
澍	-15834
灏	-15835
灼	-15836
炽	-15837
熔	-15838
狸	-15839
甥	-15840
畜	-15841
痹	-15842
瘸	-15843
皎	-15844
眈	-15845
矣	-15846
祯	-15847
秃	-15848
竿	-15849
纫	-15850
缤	-15851
罐	-15852
罹	-15853
胰	-15854
茄	-15855
茏	-15856
菠	-15857
葆	-15858
蜘	-15859
襄	-15860
讹	-15861
豚	-15862
贻	-15863
踵	-15864
迢	-15865
鄙	-15866
鏖	-15867
钛	-15868
铉	-15869
锟	-15870
阑	-15871
陀	-15872
颊	-15873
骋	-15874
骞	-15875
鳌	-15876
鹃	-15877
麓	-15878
黔	-15879
<	-15880
│	-15881
仆	-15882
仨	-15883
匣	-15884
呜	-15885
咐	-15886
唠	-15887
嘀	-15888
噎	-15889
妓	-15890
婵	-15891
屎	-15892
嵘	-15893
帚	-15894
庇	-15895
恬	-15896
惰	-15897
拣	-15898
拧	-15899
掠	-15900
掣	-15901
摒	-15902
斟	-15903
栖	-15904
棘	-15905
檀	-15906
汛	-15907
泌	-15908
泗	-15909
浃	-15910
涕	-15911
溏	-15912
溱	-15913
溺	-15914
滢	-15915
焊	-15916
珂	-15917
珈	-15918
皋	-15919
瞅	-15920
瞪	-15921
砺	-15922
稠	-15923
篷	-15924
粳	-15925
翌	-15926
耘	-15927
聋	-15928
肮	-15929
腱	-15930
臃	-15931
苓	-15932
莽	-15933
蒜	-15934
蕊	-15935
虔	-15936
蛙	-15937
蜚	-15938
裘	-15939
觊	-15940
觎	-15941
讪	-15942
赡	-15943
趸	-15944
趾	-15945
跋	-15946
蹶	-15947
轲	-15948
辍	-15949
逞	-15950
邃	-15951
邡	-15952
酗	-15953
钇	-15954
钙	-15955
钯	-15956
阚	-15957
韶	-15958
鹭	-15959
è	-15960
丐	-15961
剌	-15962
吒	-15963
咄	-15964
咙	-15965
唉	-15966
嗯	-15967
堰	-15968
妤	-15969
尉	-15970
峪	-15971
怵	-15972
恪	-15973
惘	-15974
惭	-15975
惮	-15976
惺	-15977
憎	-15978
戮	-15979
拌	-15980
拱	-15981
挛	-15982
摁	-15983
攥	-15984
於	-15985
晦	-15986
朦	-15987
札	-15988
柁	-15989
棺	-15990
樟	-15991
氓	-15992
汐	-15993
汕	-15994
沁	-15995
