<unk>	0
<pad>	0
<s>	0
</s>	0
00	-0
基金	-1
10	-2
。”	-3
中国	-4
市场	-5
20	-6
一个	-7
公司	-8
200	-9
时间	-10
记者	-11
自己	-12
我们	-13
表示	-14
没有	-15
考生	-16
比赛	-17
11	-18
投资	-19
已经	-20
可以	-21
北京	-22
新浪	-23
:“	-24
今年	-25
目前	-26
进行	-27
考试	-28
价格	-29
他们	-30
大学	-31
12	-32
可能	-33
方面	-34
,“	-35
高考	-36
学生	-37
产品	-38
信息	-39
期货	-40
专业	-41
美元	-42
现在	-43
▁新浪	-44
开始	-45
对于	-46
工作	-47
因为	-48
招生	-49
交易	-50
”,	-51
同时	-52
50	-53
第一	-54
美国	-55
..	-56
不过	-57
如果	-58
30	-59
认为	-60
问题	-61
情况	-62
这个	-63
就是	-64
成为	-65
教育	-66
%,	-67
表现	-68
录取	-69
到了	-70
球队	-71
还是	-72
消息	-73
非常	-74
体育	-75
由于	-76
球员	-77
以及	-78
in	-79
的是	-80
通过	-81
”。	-82
不是	-83
的一	-84
计划	-85
显示	-86
出现	-87
15	-88
之后	-89
学校	-90
手机	-91
▁“	-92
世界	-93
1.	-94
16	-95
但是	-96
2.	-97
大的	-98
其中	-99
19	-100
国家	-101
赛季	-102
媒体	-103
▁(	-104
国内	-105
影响	-106
选择	-107
国际	-108
部分	-109
成绩	-110
%。	-111
希望	-112
这样	-113
电视	-114
18	-115
自己的	-116
上海	-117
银行	-118
管理	-119
经济	-120
on	-121
获得	-122
上涨	-123
14	-124
提供	-125
很多	-126
用户	-127
了一	-128
需要	-129
虽然	-130
数据	-131
13	-132
技术	-133
去年	-134
报道	-135
也是	-136
100	-137
主要	-138
2010	-139
网络	-140
发展	-141
参加	-142
什么	-143
一直	-144
研究	-145
公布	-146
他的	-147
时候	-148
er	-149
娱乐	-150
最后	-151
作为	-152
▁北京	-153
一些	-154
企业	-155
这一	-156
第二	-157
2009	-158
拍摄	-159
机会	-160
不会	-161
继续	-162
0.	-163
采用	-164
所有	-165
▁据	-166
支持	-167
▁在	-168
了解	-169
微博	-170
要求	-171
25	-172
关注	-173
昨日	-174
中的	-175
增长	-176
好的	-177
服务	-178
80	-179
更多	-180
这些	-181
重要	-182
以来	-183
调整	-184
17	-185
特别	-186
还有	-187
进入	-188
相关	-189
3.	-190
发布	-191
分析	-192
人士	-193
所以	-194
场比赛	-195
香港	-196
大家	-197
能力	-198
60	-199
人的	-200
指数	-201
能够	-202
。“	-203
今天	-204
投资者	-205
因此	-206
志愿	-207
都是	-208
冠军	-209
年的	-210
行业	-211
分钟	-212
全球	-213
现场	-214
设计	-215
一定	-216
正式	-217
比较	-218
结束	-219
透露	-220
机构	-221
电影	-222
收益	-223
24	-224
增加	-225
活动	-226
不能	-227
报名	-228
下跌	-229
包括	-230
。(	-231
经理	-232
▁本	-233
an	-234
其他	-235
高校	-236
朋友	-237
26	-238
使用	-239
消费	-240
股票	-241
上的	-242
商品	-243
根据	-244
系统	-245
之前	-246
),	-247
生活	-248
网站	-249
不同	-250
的人	-251
28	-252
合约	-253
基本	-254
达到	-255
这是	-256
2008	-257
超过	-258
000	-259
接受	-260
——	-261
孩子	-262
月份	-263
部门	-264
▁北京时间	-265
功能	-266
99	-267
推出	-268
而且	-269
全国	-270
学院	-271
不断	-272
政策	-273
拥有	-274
需求	-275
▁新浪体育	-276
23	-277
业务	-278
第三	-279
个人	-280
来说	-281
方式	-282
▁新浪体育讯	-283
申请	-284
火箭	-285
资金	-286
亿元	-287
为了	-288
不少	-289
变化	-290
分别	-291
网上	-292
基金公司	-293
来的	-294
最终	-295
2011	-296
只有	-297
应该	-298
昨天	-299
知道	-300
移动	-301
季度	-302
处理	-303
90	-304
学习	-305
训练	-306
40	-307
准备	-308
证券	-309
▁t	-310
像素	-311
合作	-312
教练	-313
来看	-314
规模	-315
最高	-316
参考	-317
个月	-318
并不	-319
ar	-320
中心	-321
对手	-322
上市	-323
除了	-324
新的	-325
联赛	-326
原因	-327
结果	-328
的时候	-329
水平	-330
院校	-331
▁新浪娱乐	-332
只是	-333
人员	-334
正在	-335
一次	-336
俱乐	-337
27	-338
俱乐部	-339
▁新浪娱乐讯	-340
风险	-341
发行	-342
相机	-343
这种	-344
是否	-345
电话	-346
科技	-347
报讯	-348
队的	-349
那么	-350
....	-351
此外	-352
另外	-353
完成	-354
万元	-355
日本	-356
评论	-357
介绍	-358
大幅	-359
4.	-360
黄金	-361
甚至	-362
一起	-363
得到	-364
优势	-365
连续	-366
明星	-367
有关	-368
出了	-369
21	-370
压力	-371
or	-372
这样的	-373
必须	-374
资产	-375
是一	-376
随着	-377
社会	-378
两个	-379
负责	-380
将在	-381
近期	-382
提高	-383
发现	-384
喜欢	-385
尽管	-386
22	-387
阶段	-388
明显	-389
未来	-390
这次	-391
日前	-392
金融	-393
en	-394
老师	-395
上周	-396
内容	-397
销售	-398
决定	-399
其实	-400
看到	-401
标准	-402
)、	-403
考虑	-404
游戏	-405
艺术	-406
最近	-407
具有	-408
本科	-409
状态	-410
配置	-411
排名	-412
保持	-413
型基金	-414
70	-415
净值	-416
取得	-417
视频	-418
分数	-419
此前	-420
一步	-421
我的	-422
平均	-423
普通	-424
行情	-425
毕业	-426
不仅	-427
人民	-428
音乐	-429
mm	-430
觉得	-431
操作	-432
职业	-433
5.	-434
es	-435
举行	-436
成功	-437
决赛	-438
下降	-439
近日	-440
的新	-441
整体	-442
论坛	-443
帮助	-444
报价	-445
镜头	-446
代表	-447
说明	-448
再次	-449
参与	-450
电子	-451
报记者	-452
29	-453
系列	-454
的情况	-455
主力	-456
一样	-457
网友	-458
历史	-459
直接	-460
也有	-461
球迷	-462
债券	-463
预计	-464
高中	-465
的比赛	-466
基础	-467
预期	-468
过程	-469
完全	-470
统计	-471
时尚	-472
实现	-473
500	-474
》,	-475
政府	-476
以上	-477
原油	-478
报考	-479
300	-480
的大	-481
左右	-482
观众	-483
首次	-484
ro	-485
之间	-486
两人	-487
此次	-488
面对	-489
家长	-490
规定	-491
依然	-492
市场的	-493
节目	-494
英寸	-495
▁记者	-496
it	-497
采访	-498
发生	-499
业绩	-500
无法	-501
le	-502
更加	-503
不错	-504
任何	-505
保险	-506
机身	-507
相比	-508
持续	-509
演员	-510
期间	-511
基金的	-512
万吨	-513
突破	-514
公布的	-515
如何	-516
一位	-517
目标	-518
▁中	-519
如此	-520
下午	-521
客户	-522
II	-523
奥运	-524
成交	-525
he	-526
模式	-527
专家	-528
十分	-529
截至	-530
联系	-531
英语	-532
关系	-533
6.	-534
领先	-535
之一	-536
存在	-537
并且	-538
最大	-539
半年	-540
带来	-541
反弹	-542
大利	-543
!”	-544
因素	-545
有限	-546
TF	-547
笔记	-548
at	-549
韩国	-550
安排	-551
公开	-552
同样	-553
受到	-554
进攻	-555
减少	-556
当时	-557
有些	-558
项目	-559
▁4	-560
▁S	-561
品牌	-562
地区	-563
防守	-564
这款	-565
ou	-566
互联	-567
姚明	-568
感觉	-569
也不	-570
演唱	-571
考研	-572
注意	-573
的高	-574
▁3	-575
过去	-576
▁[	-577
宣布	-578
建议	-579
提前	-580
来自	-581
一般	-582
位置	-583
比例	-584
重点	-585
▁高考	-586
进一步	-587
确定	-588
BA	-589
报告	-590
资格	-591
ad	-592
▁《	-593
告诉	-594
的考生	-595
竞争	-596
调查	-597
篮板	-598
有效	-599
相当	-600
足球	-601
ic	-602
仍然	-603
新闻	-604
涨幅	-605
起来	-606
is	-607
博客	-608
是在	-609
移民	-610
产业	-611
笔记本	-612
al	-613
一下	-614
关键	-615
内地	-616
全部	-617
的事	-618
访问	-619
导致	-620
持有	-621
推荐	-622
库存	-623
最新	-624
导演	-625
综合	-626
将于	-627
7.	-628
有所	-629
相对	-630
45	-631
万像素	-632
随后	-633
按照	-634
购买	-635
测试	-636
稳定	-637
运动	-638
更是	-639
el	-640
▁本报讯	-641
或者	-642
效果	-643
不要	-644
当然	-645
基金经理	-646
实际	-647
英国	-648
控制	-649
价值	-650
出色	-651
om	-652
台湾	-653
对此	-654
集团	-655
)。	-656
CD	-657
值得	-658
文化	-659
事件	-660
35	-661
电脑	-662
照片	-663
ETF	-664
互联网	-665
今日	-666
成立	-667
主场	-668
填报	-669
品种	-670
成了	-671
指出	-672
频道	-673
性能	-674
电信	-675
是一个	-676
索尼	-677
理财	-678
相信	-679
三分	-680
的话	-681
双方	-682
安全	-683
条件	-684
▁M	-685
经过	-686
日消息	-687
环境	-688
短期	-689
速度	-690
第四	-691
88	-692
后的	-693
出的	-694
▁C	-695
数码	-696
得分	-697
成本	-698
一年	-699
液晶	-700
份额	-701
处于	-702
走势	-703
实力	-704
成长	-705
肯定	-706
咨询	-707
行为	-708
世界杯	-709
组织	-710
运营	-711
震荡	-712
利用	-713
选手	-714
下的	-715
另一	-716
米兰	-717
负责人	-718
数据显示	-719
具体	-720
货币	-721
最低	-722
金属	-723
身份	-724
小时	-725
主持	-726
对方	-727
广告	-728
积极	-729
范围	-730
id	-731
平台	-732
年轻	-733
空间	-734
接口	-735
复习	-736
多的	-737
广东	-738
one	-739
尤其	-740
人民币	-741
留学	-742
8.	-743
的朋友	-744
,《	-745
不得	-746
解决	-747
55	-748
他在	-749
危机	-750
知识	-751
并没有	-752
只要	-753
研究生	-754
iP	-755
硕士	-756
角色	-757
lo	-758
只能	-759
经验	-760
▁b	-761
应用	-762
33	-763
几乎	-764
经历	-765
许多	-766
兴趣	-767
整个	-768
努力	-769
队员	-770
的表现	-771
as	-772
家庭	-773
欧洲	-774
中学	-775
苹果	-776
针对	-777
自然	-778
通知	-779
屏幕	-780
提供的	-781
出来	-782
9.	-783
保证	-784
华夏	-785
改变	-786
31	-787
国家队	-788
不到	-789
出席	-790
吸引	-791
现货	-792
都有	-793
业内	-794
明年	-795
▁A	-796
将会	-797
当地	-798
提升	-799
软件	-800
re	-801
城市	-802
处理器	-803
46	-804
创新	-805
收入	-806
计算	-807
消费者	-808
▁T	-809
会上	-810
怎么	-811
的问题	-812
全面	-813
年度	-814
程度	-815
即将	-816
外观	-817
无线	-818
深圳	-819
自主	-820
重新	-821
上升	-822
的时间	-823
高清	-824
亿美元	-825
分析师	-826
一场	-827
最大的	-828
经纪	-829
确认	-830
2007	-831
ac	-832
发挥	-833
多数	-834
关于	-835
曾经	-836
跌幅	-837
中国队	-838
越来	-839
产生	-840
地方	-841
我国	-842
权威	-843
▁从	-844
湖人	-845
电视剧	-846
越来越	-847
▁H	-848
▁新	-849
--	-850
亚洲	-851
女儿	-852
进行了	-853
佳能	-854
股市	-855
名单	-856
这位	-857
作用	-858
趋势	-859
使得	-860
让人	-861
产量	-862
编辑	-863
天津	-864
组合	-865
这么	-866
进球	-867
优秀	-868
法国	-869
该机	-870
都会	-871
36	-872
图片	-873
而在	-874
高的	-875
合同	-876
最佳	-877
命中	-878
上午	-879
以下	-880
结婚	-881
传统	-882
商业	-883
▁张	-884
收购	-885
智能	-886
ing	-887
同学	-888
他们的	-889
欢迎	-890
长期	-891
他说	-892
加上	-893
阵容	-894
各方面	-895
%;	-896
无论	-897
我们的	-898
ww	-899
之外	-900
开放	-901
才能	-902
有的	-903
监管	-904
离开	-905
支撑	-906
▁对于	-907
人数	-908
助攻	-909
工程	-910
......	-911
发表	-912
媒体报道	-913
风格	-914
hone	-915
单位	-916
后卫	-917
出场	-918
▁I	-919
新浪网	-920
尼康	-921
自动	-922
采用了	-923
主题	-924
岁的	-925
面临	-926
的不断	-927
▁L	-928
宣传	-929
真正	-930
下来	-931
都在	-932
为准	-933
形成	-934
的基金	-935
的学生	-936
建设	-937
策略	-938
oo	-939
本赛季	-940
人们	-941
斯特	-942
有一	-943
私募	-944
三星	-945
持仓	-946
篮网	-947
办法	-948
听歌	-949
德国	-950
责任	-951
38	-952
中小	-953
具备	-954
生产	-955
真的	-956
il	-957
数量	-958
广州	-959
敬请	-960
演唱会	-961
山东	-962
心理	-963
方案	-964
维持	-965
造成	-966
09	-967
76	-968
GB	-969
▁P	-970
仅供	-971
分红	-972
各种	-973
监会	-974
先生	-975
▁s	-976
主帅	-977
令人	-978
曼联	-979
理科	-980
刚刚	-981
性的	-982
西班	-983
仅供参考	-984
收盘	-985
评价	-986
西班牙	-987
▁G	-988
恢复	-989
有限公司	-990
半场	-991
材料	-992
在这	-993
容易	-994
挑战	-995
首发	-996
75	-997
开发	-998
提醒	-999
US	-1000
似乎	-1001
担任	-1002
数学	-1003
▁中国	-1004
▁李	-1005
就业	-1006
胜利	-1007
分数线	-1008
信心	-1009
而是	-1010
感到	-1011
担心	-1012
旗下	-1013
ind	-1014
简单	-1015
高达	-1016
考试信息	-1017
不可	-1018
进口	-1019
▁特别	-1020
万美元	-1021
▁D	-1022
低于	-1023
曝光	-1024
至于	-1025
总经理	-1026
大豆	-1027
摄像	-1028
申购	-1029
领域	-1030
110	-1031
▁今年	-1032
ow	-1033
方向	-1034
QD	-1035
▁【	-1036
本周	-1037
有可能	-1038
所提供的	-1039
32	-1040
作文	-1041
一名	-1042
儿子	-1043
属于	-1044
巴萨	-1045
绝对	-1046
交易所	-1047
▁我	-1048
前的	-1049
国外	-1050
期待	-1051
股指	-1052
还要	-1053
方法	-1054
终于	-1055
表演	-1056
证明	-1057
▁更多	-1058
34	-1059
严重	-1060
中考	-1061
也在	-1062
年来	-1063
考生以	-1064
公告	-1065
时代	-1066
核心	-1067
率为	-1068
资料	-1069
赎回	-1070
事实	-1071
她的	-1072
形象	-1073
主动	-1074
快速	-1075
科比	-1076
资源	-1077
权威部门	-1078
再度	-1079
如今	-1080
很大	-1081
拿下	-1082
》、	-1083
商务	-1084
QDII	-1085
信息为准	-1086
然而	-1087
与变化	-1088
毕业生	-1089
仓位	-1090
故事	-1091
查询	-1092
▁the	-1093
▁特别说明	-1094
公布的正式	-1095
▁7	-1096
不足	-1097
商家	-1098
谷歌	-1099
请访问	-1100
各方面情况	-1101
敬请考生以	-1102
的不断调整	-1103
所提供的所有	-1104
由于各方面情况	-1105
的不断调整与变化	-1106
考试信息仅供参考	-1107
公布的正式信息为准	-1108
敬请考生以权威部门	-1109
新浪网所提供的所有	-1110
由于各方面情况的不断调整与变化	-1111
37	-1112
比如	-1113
实施	-1114
明确	-1115
同比	-1116
海外	-1117
48	-1118
考场	-1119
的情况下	-1120
信息请访问	-1121
结构	-1122
博客圈	-1123
第一次	-1124
▁王	-1125
启动	-1126
log	-1127
江苏	-1128
而言	-1129
光学	-1130
售价	-1131
然后	-1132
目的	-1133
更多的	-1134
举办	-1135
会议	-1136
利率	-1137
加强	-1138
紧张	-1139
了一个	-1140
只基金	-1141
文章	-1142
首先	-1143
供应	-1144
培养	-1145
降低	-1146
ch	-1147
▁5	-1148
上述	-1149
我省	-1150
纪录	-1151
足协	-1152
就会	-1153
独立	-1154
?”	-1155
一家	-1156
文科	-1157
配备	-1158
▁B	-1159
联盟	-1160
制作	-1161
很难	-1162
演的	-1163
66	-1164
克斯	-1165
适合	-1166
一度	-1167
也会	-1168
NBA	-1169
过程中	-1170
▁2	-1171
、“	-1172
法律	-1173
个篮板	-1174
每天	-1175
纽约	-1176
重庆	-1177
比分	-1178
课程	-1179
数字	-1180
身体	-1181
公司的	-1182
意味	-1183
点评	-1184
联想	-1185
的一个	-1186
85	-1187
坚持	-1188
正常	-1189
统一	-1190
队友	-1191
OS	-1192
看来	-1193
科学	-1194
段时间	-1195
加盟	-1196
姆斯	-1197
有了	-1198
前锋	-1199
确实	-1200
设备	-1201
ion	-1202
08	-1203
客场	-1204
推动	-1205
400	-1206
奥运会	-1207
▁新浪科技	-1208
为主	-1209
利润	-1210
同期	-1211
招办	-1212
董事	-1213
ay	-1214
精神	-1215
联合	-1216
费用	-1217
尤其是	-1218
的影响	-1219
招生计划	-1220
分辨	-1221
即使	-1222
巴西	-1223
皇马	-1224
裁判	-1225
语言	-1226
在北京	-1227
nd	-1228
健康	-1229
已有	-1230
邀请	-1231
难以	-1232
▁据悉	-1233
以后	-1234
保护	-1235
普遍	-1236
阅读	-1237
的价格	-1238
专辑	-1239
回应	-1240
遭遇	-1241
面试	-1242
com	-1243
▁w	-1244
方便	-1245
显得	-1246
证监会	-1247
亮相	-1248
人才	-1249
内的	-1250
地产	-1251
态度	-1252
支付	-1253
转会	-1254
工作人员	-1255
▁新浪科技讯	-1256
42	-1257
MA	-1258
▁-	-1259
出口	-1260
满足	-1261
iPhone	-1262
ed	-1263
▁1	-1264
专科	-1265
众多	-1266
作者	-1267
大量	-1268
正是	-1269
著名	-1270
那些	-1271
制造	-1272
加入	-1273
卫视	-1274
采取	-1275
升级	-1276
变焦	-1277
开心	-1278
有人	-1279
了解到	-1280
1000	-1281
上网	-1282
的小	-1283
纷纷	-1284
至少	-1285
场上	-1286
主教练	-1287
获悉	-1288
较大	-1289
意大利	-1290
上证	-1291
妈妈	-1292
接近	-1293
阿联	-1294
800	-1295
人物	-1296
官方	-1297
质量	-1298
较为	-1299
▁昨日	-1300
▁编辑	-1301
ED	-1302
显然	-1303
作品	-1304
协会	-1305
意见	-1306
替补	-1307
欧元	-1308
也将	-1309
有望	-1310
理解	-1311
粉丝	-1312
自由	-1313
》、《	-1314
幅度	-1315
艺人	-1316
一种	-1317
尔特	-1318
扩大	-1319
柏芝	-1320
精彩	-1321
阿里	-1322
两年	-1323
保障	-1324
观点	-1325
采访时	-1326
展开	-1327
年底	-1328
集中	-1329
业内人士	-1330
唯一	-1331
▁不过	-1332
大盘	-1333
承认	-1334
符合	-1335
经营	-1336
轻松	-1337
配合	-1338
▁陈	-1339
愿意	-1340
成都	-1341
是个	-1342
机型	-1343
逐渐	-1344
都不	-1345
教育部	-1346
意外	-1347
找到	-1348
有着	-1349
油价	-1350
锦赛	-1351
面的	-1352
享受	-1353
状况	-1354
距离	-1355
里斯	-1356
比赛中	-1357
的球员	-1358
am	-1359
放弃	-1360
意味着	-1361
还没有	-1362
免费	-1363
现象	-1364
▁而	-1365
▁o	-1366
困难	-1367
当天	-1368
背景	-1369
限制	-1370
收益率	-1371
的同时	-1372
点击	-1373
笔者	-1374
清华	-1375
迅速	-1376
运营商	-1377
一旦	-1378
一点	-1379
回到	-1380
形式	-1381
影片	-1382
每个	-1383
的前	-1384
钢材	-1385
市场上	-1386
▁6	-1387
▁W	-1388
一款	-1389
事业	-1390
据悉	-1391
考点	-1392
高等	-1393
坦言	-1394
强调	-1395
酒店	-1396
49	-1397
▁f	-1398
赢得	-1399
大利亚	-1400
的机会	-1401
经纪人	-1402
2000	-1403
出版	-1404
特点	-1405
可能会	-1406
澳大利亚	-1407
动作	-1408
体验	-1409
渠道	-1410
赛后	-1411
创造	-1412
微软	-1413
歌手	-1414
男篮	-1415
结合	-1416
考试院	-1417
募集	-1418
特尔	-1419
玉米	-1420
生的	-1421
经常	-1422
罗斯	-1423
解释	-1424
利亚	-1425
在中国	-1426
的投资	-1427
股指期货	-1428
休息	-1429
很好	-1430
日至	-1431
经典	-1432
能源	-1433
通胀	-1434
不再	-1435
协议	-1436
学位	-1437
当前	-1438
感情	-1439
战胜	-1440
股份	-1441
us	-1442
三个	-1443
下滑	-1444
理工	-1445
答案	-1446
单反	-1447
累计	-1448
目前的	-1449
充分	-1450
就在	-1451
日晚	-1452
大部分	-1453
日的	-1454
起了	-1455
”、“	-1456
重要的	-1457
▁据了解	-1458
▁F	-1459
共同	-1460
延续	-1461
本次	-1462
还在	-1463
▁此外	-1464
加拿	-1465
提出	-1466
黑色	-1467
并不是	-1468
▁周	-1469
意义	-1470
知名	-1471
的事情	-1472
▁R	-1473
东方	-1474
及时	-1475
夺冠	-1476
搭载	-1477
造型	-1478
TD	-1479
制度	-1480
对焦	-1481
拿到	-1482
本人	-1483
:00	-1484
ht	-1485
▁一	-1486
总裁	-1487
或许	-1488
斯科	-1489
联通	-1490
东西	-1491
场的	-1492
时刻	-1493
,3	-1494
et	-1495
▁刘	-1496
亏损	-1497
内部	-1498
冲击	-1499
剧中	-1500
受伤	-1501
强的	-1502
落后	-1503
是因为	-1504
,”	-1505
年前	-1506
球队的	-1507
事情	-1508
几个	-1509
情绪	-1510
歌迷	-1511
HD	-1512
难度	-1513
会有	-1514
内线	-1515
反映	-1516
资本	-1517
自主招生	-1518
主席	-1519
内置	-1520
击败	-1521
团队	-1522
执行	-1523
改革	-1524
注册	-1525
生涯	-1526
设置	-1527
告诉记者	-1528
39	-1529
ol	-1530
则是	-1531
父亲	-1532
男友	-1533
达到了	-1534
47	-1535
AC	-1536
两位	-1537
在线	-1538
无疑	-1539
新基金	-1540
86	-1541
歌曲	-1542
演出	-1543
爱情	-1544
犯规	-1545
的热	-1546
顺利	-1547
今年的	-1548
电视台	-1549
信用	-1550
办理	-1551
四川	-1552
大宗	-1553
招收	-1554
根本	-1555
自考	-1556
该校	-1557
上半年	-1558
出现在	-1559
IS	-1560
做出	-1561
凭借	-1562
力的	-1563
德里	-1564
股东	-1565
▁p	-1566
传媒	-1567
投入	-1568
指导	-1569
精选	-1570
最后一	-1571
2006	-1572
56	-1573
你们	-1574
委员	-1575
小组	-1576
教学	-1577
来了	-1578
角度	-1579
贡献	-1580
还将	-1581
▁10	-1582
产品的	-1583
共有	-1584
呈现	-1585
并未	-1586
批次	-1587
武汉	-1588
给了	-1589
and	-1590
上赛季	-1591
一切	-1592
中超	-1593
前期	-1594
加大	-1595
工业	-1596
并非	-1597
运行	-1598
棉花	-1599
上了	-1600
也许	-1601
月底	-1602
橡胶	-1603
iv	-1604
丰富	-1605
更为	-1606
真实	-1607
行动	-1608
的主要	-1609
定位	-1610
未能	-1611
来到	-1612
中国移动	-1613
TC	-1614
cn	-1615
否认	-1616
尔夫	-1617
当年	-1618
摄影	-1619
199	-1620
教师	-1621
账户	-1622
那样	-1623
▁我要	-1624
▁a	-1625
▁m	-1626
交流	-1627
每年	-1628
加拿大	-1629
▁我要评论	-1630
播放	-1631
组图	-1632
43	-1633
CE	-1634
从而	-1635
以前	-1636
基亚	-1637
所在	-1638
新增	-1639
细节	-1640
预测	-1641
这也是	-1642
下了	-1643
培训	-1644
尺寸	-1645
很快	-1646
避免	-1647
之间的	-1648
出现了	-1649
日下午	-1650
主角	-1651
回答	-1652
完美	-1653
投档	-1654
满意	-1655
热火	-1656
得到了	-1657
的原因	-1658
液晶电视	-1659
TA	-1660
▁E	-1661
▁华	-1662
合理	-1663
回落	-1664
好友	-1665
小幅	-1666
建立	-1667
措施	-1668
格兰	-1669
流动	-1670
老板	-1671
ter	-1672
▁of	-1673
一定要	-1674
Wind	-1675
本场比赛	-1676
做好	-1677
板块	-1678
涉及	-1679
以往	-1680
南方	-1681
清楚	-1682
球场	-1683
依旧	-1684
封闭	-1685
引发	-1686
杂志	-1687
阿尔	-1688
的可能	-1689
57	-1690
失误	-1691
实行	-1692
差距	-1693
44	-1694
不好	-1695
两次	-1696
婚礼	-1697
很有	-1698
通信	-1699
力量	-1700
强势	-1701
白糖	-1702
的成绩	-1703
roid	-1704
1-	-1705
女子	-1706
实验	-1707
政治	-1708
不同的	-1709
不知道	-1710
一周	-1711
体现	-1712
电池	-1713
财经	-1714
学生的	-1715
诺基亚	-1716
本报记者	-1717
89	-1718
▁与	-1719
主任	-1720
体系	-1721
动力	-1722
南京	-1723
国安	-1724
突然	-1725
今年以来	-1726
乐观	-1727
区域	-1728
周期	-1729
影像	-1730
总体	-1731
摩托	-1732
收视	-1733
时的	-1734
程序	-1735
主持人	-1736
事实上	-1737
英特尔	-1738
65	-1739
但在	-1740
全场	-1741
增强	-1742
打造	-1743
自身	-1744
身上	-1745
传闻	-1746
收于	-1747
提供了	-1748
多少	-1749
大赛	-1750
的中	-1751
类似	-1752
逐步	-1753
金额	-1754
高兴	-1755
交易日	-1756
的消息	-1757
充满	-1758
央行	-1759
附近	-1760
▁2.	-1761
该基金	-1762
52	-1763
之中	-1764
争夺	-1765
估值	-1766
保本	-1767
掌握	-1768
日电	-1769
理想	-1770
等待	-1771
特别是	-1772
大宗商品	-1773
仅仅	-1774
切尔	-1775
尼奥	-1776
物浦	-1777
百度	-1778
也没有	-1779
▁2010	-1780
▁8	-1781
幸福	-1782
打出	-1783
概念	-1784
高位	-1785
120	-1786
▁目前	-1787
利物浦	-1788
张柏芝	-1789
光学变焦	-1790
优惠	-1791
沪深	-1792
里的	-1793
▁根据	-1794
上一	-1795
不久	-1796
加坡	-1797
开展	-1798
发布会	-1799
最好的	-1800
的方式	-1801
获得了	-1802
你的	-1803
投篮	-1804
母亲	-1805
>>	-1806
IP	-1807
下一	-1808
买入	-1809
办公	-1810
女生	-1811
至今	-1812
认识	-1813
雅思	-1814
▁c	-1815
会在	-1816
兄弟	-1817
员工	-1818
季后	-1819
搜索	-1820
浙江	-1821
讨论	-1822
通讯	-1823
魔术	-1824
多次	-1825
定的	-1826
把握	-1827
汽车	-1828
申花	-1829
选拔	-1830
切尔西	-1831
的重要	-1832
詹姆斯	-1833
▁这	-1834
万人	-1835
她说	-1836
小姐	-1837
看看	-1838
遗憾	-1839
厂商	-1840
取消	-1841
拒绝	-1842
毕竟	-1843
表达	-1844
▁虽然	-1845
也很	-1846
对象	-1847
律师	-1848
考生的	-1849
87	-1850
判断	-1851
学科	-1852
贷款	-1853
期货市场	-1854
Hz	-1855
一天	-1856
信托	-1857
成熟	-1858
我想	-1859
领导	-1860
季后赛	-1861
结束后	-1862
3000	-1863
但他	-1864
局面	-1865
搭配	-1866
最好	-1867
禁区	-1868
能否	-1869
让他	-1870
那个	-1871
高于	-1872
记录	-1873
▁图片	-1874
我觉得	-1875
59	-1876
任务	-1877
伦敦	-1878
素质	-1879
罗拉	-1880
主要是	-1881
日起	-1882
And	-1883
%、	-1884
三年	-1885
分为	-1886
北大	-1887
在于	-1888
收费	-1889
旅游	-1890
百分	-1891
石油	-1892
这也	-1893
感兴趣	-1894
1/	-1895
将是	-1896
尝试	-1897
战略	-1898
现实	-1899
▁上海	-1900
在接受	-1901
高尔夫	-1902
IT	-1903
地址	-1904
少年	-1905
形势	-1906
现身	-1907
生源	-1908
股价	-1909
多头	-1910
易建	-1911
股权	-1912
高职	-1913
ent	-1914
现在的	-1915
教育考试院	-1916
,6	-1917
入学	-1918
创业	-1919
力度	-1920
声明	-1921
影视	-1922
灵活	-1923
重视	-1924
颁奖	-1925
▁有	-1926
不大	-1927
分的	-1928
刺激	-1929
华德	-1930
父母	-1931
谨慎	-1932
中国的	-1933
大多数	-1934
易建联	-1935
▁0	-1936
▁国	-1937
三大	-1938
召开	-1939
各地	-1940
女友	-1941
当中	-1942
成人	-1943
战术	-1944
指标	-1945
新生	-1946
热门	-1947
贸易	-1948
参考价格	-1949
央视	-1950
波动	-1951
给予	-1952
贴吧	-1953
hin	-1954
方面的	-1955
指数基金	-1956
数码相机	-1957
一对	-1958
复出	-1959
想要	-1960
斯的	-1961
ook	-1962
日上午	-1963
▁编辑点评	-1964
ME	-1965
回报	-1966
强劲	-1967
损失	-1968
的外	-1969
舞台	-1970
式基金	-1971
摄像头	-1972
次助攻	-1973
上场	-1974
回归	-1975
晚上	-1976
表明	-1977
这两	-1978
钢铁	-1979
题目	-1980
im	-1981
》。	-1982
交通	-1983
先后	-1984
去了	-1985
后者	-1986
LED	-1987
ows	-1988
www	-1989
他表示	-1990
▁blog	-1991
SD	-1992
ir	-1993
习惯	-1994
心态	-1995
松下	-1996
科目	-1997
足够	-1998
比赛的	-1999
摩托罗拉	-2000
//	-2001
CO	-2002
ob	-2003
亿份	-2004
医院	-2005
后来	-2006
始终	-2007
就能	-2008
篮球	-2009
色彩	-2010
西亚	-2011
证书	-2012
身边	-2013
▁另外	-2014
身份证	-2015
分享	-2016
剧组	-2017
印象	-2018
地位	-2019
太阳	-2020
清晰	-2021
环保	-2022
类型	-2023
警方	-2024
为什么	-2025
,2010	-2026
3-	-2027
▁d	-2028
可谓	-2029
家人	-2030
追求	-2031
都要	-2032
第一个	-2033
不妨	-2034
到底	-2035
参赛	-2036
棋手	-2037
签约	-2038
该公司	-2039
中场	-2040
偏股	-2041
偶像	-2042
各大	-2043
展示	-2044
平板	-2045
广角	-2046
德华	-2047
总是	-2048
披露	-2049
有点	-2050
约翰	-2051
这部	-2052
适应	-2053
600	-2054
,5	-2055
不想	-2056
主流	-2057
年初	-2058
感光	-2059
更好	-2060
特色	-2061
该剧	-2062
就可以	-2063
不够	-2064
前往	-2065
可是	-2066
等多	-2067
都很	-2068
不错的	-2069
分辨率	-2070
▁大	-2071
后市	-2072
后期	-2073
感谢	-2074
成员	-2075
熟悉	-2076
盈利	-2077
分别为	-2078
股票型基金	-2079
,7	-2080
UN	-2081
促销	-2082
合格	-2083
实习	-2084
往往	-2085
方达	-2086
此后	-2087
法院	-2088
新赛季	-2089
良好的	-2090
大型	-2091
存款	-2092
总监	-2093
才是	-2094
看好	-2095
支球队	-2096
新加坡	-2097
显示屏	-2098
2012	-2099
68	-2100
世纪	-2101
代言	-2102
位于	-2103
出手	-2104
占据	-2105
反应	-2106
版本	-2107
男子	-2108
的首	-2109
荷兰	-2110
重量	-2111
陆续	-2112
易方达	-2113
,1	-2114
创作	-2115
嘉宾	-2116
布朗	-2117
必要	-2118
杰克	-2119
校长	-2120
用于	-2121
队在	-2122
阿泰	-2123
集体	-2124
委员会	-2125
的产品	-2126
基金管理	-2127
操作系统	-2128
传感	-2129
出台	-2130
变得	-2131
焦点	-2132
相应	-2133
美术	-2134
▁to	-2135
▁作者	-2136
▁昨天	-2137
也可以	-2138
凯尔特	-2139
基本面	-2140
》(	-2141
就要	-2142
教授	-2143
文件	-2144
沈阳	-2145
特殊	-2146
答题	-2147
考证	-2148
认可	-2149
证实	-2150
马刺	-2151
▁9	-2152
中央	-2153
地震	-2154
外界	-2155
平时	-2156
日在	-2157
激烈	-2158
矿石	-2159
的球队	-2160
另一方面	-2161
67	-2162
AT	-2163
PE	-2164
传球	-2165
参数	-2166
富士	-2167
射门	-2168
放在	-2169
网民	-2170
Windows	-2171
上演	-2172
之下	-2173
公益	-2174
名字	-2175
夏天	-2176
存储	-2177
开户	-2178
男人	-2179
缺乏	-2180
营销	-2181
规范	-2182
质疑	-2183
饰演	-2184
10-	-2185
实际上	-2186
有机会	-2187
4-	-2188
82	-2189
严格	-2190
做到	-2191
心情	-2192
时期	-2193
规则	-2194
超级	-2195
主力合约	-2196
发表评论	-2197
VC	-2198
▁h	-2199
主办	-2200
凌晨	-2201
性价	-2202
慈善	-2203
月的	-2204
根廷	-2205
签证	-2206
阿森	-2207
马上	-2208
不得不	-2209
传感器	-2210
阿根廷	-2211
73	-2212
全新	-2213
公安	-2214
农业	-2215
周一	-2216
对比	-2217
对阵	-2218
开盘	-2219
引进	-2220
登录	-2221
营业	-2222
连胜	-2223
下半年	-2224
Android	-2225
95	-2226
们的	-2227
太多	-2228
引起	-2229
快乐	-2230
格局	-2231
正确	-2232
淘汰	-2233
硬盘	-2234
阳光	-2235
世锦赛	-2236
准考证	-2237
北京市	-2238
很好的	-2239
阿森纳	-2240
,2009	-2241
eb	-2242
tp	-2243
▁但	-2244
下调	-2245
公募	-2246
内存	-2247
几天	-2248
十年	-2249
尚未	-2250
日报	-2251
行的	-2252
规划	-2253
成为了	-2254
净值增长	-2255
st	-2256
攻击	-2257
民族	-2258
沪铜	-2259
生物	-2260
短信	-2261
维奇	-2262
▁11	-2263
CDMA	-2264
http	-2265
倍光学变焦	-2266
不管	-2267
听力	-2268
图像	-2269
本山	-2270
爆发	-2271
画面	-2272
3.5	-2273
在美国	-2274
增加了	-2275
的中国	-2276
▁2009	-2277
83	-2278
ag	-2279
利益	-2280
广大	-2281
最为	-2282
有利	-2283
检查	-2284
湖南	-2285
的女	-2286
稳健	-2287
▁由于	-2288
一定的	-2289
计算机	-2290
2-	-2291
PS	-2292
不了	-2293
专门	-2294
想到	-2295
新高	-2296
混合	-2297
环节	-2298
英雄	-2299
150	-2300
▁论坛	-2301
在今年	-2302
带来的	-2303
很多人	-2304
几年	-2305
国奥	-2306
打算	-2307
暂时	-2308
沟通	-2309
突出	-2310
终端	-2311
运会	-2312
▁12	-2313
性价比	-2314
艺术类	-2315
▁三	-2316
一致	-2317
万手	-2318
人气	-2319
场景	-2320
天气	-2321
担忧	-2322
显卡	-2323
融资	-2324
试题	-2325
USB	-2326
很大的	-2327
期货公司	-2328
刘翔	-2329
发言	-2330
就有	-2331
惠普	-2332
确保	-2333
辽宁	-2334
金牌	-2335
农产品	-2336
流动性	-2337
新浪高考	-2338
▁更多信息请访问	-2339
伊朗	-2340
工具	-2341
年龄	-2342
怎样	-2343
春节	-2344
赛前	-2345
://	-2346
一代	-2347
上调	-2348
他是	-2349
他还	-2350
大会	-2351
福建	-2352
红利	-2353
组成	-2354
能在	-2355
认真	-2356
迎来	-2357
霆锋	-2358
青年	-2359
麦蒂	-2360
英格兰	-2361
新浪高考频道	-2362
TV	-2363
原本	-2364
就像	-2365
带着	-2366
覆盖	-2367
也就是	-2368
比去年	-2369
,4	-2370
一本	-2371
仅为	-2372
仪式	-2373
分配	-2374
原则	-2375
收到	-2376
暂停	-2377
杭州	-2378
见面	-2379
Pad	-2380
▁尽管	-2381
▁欢迎	-2382
铁矿石	-2383
智能手机	-2384
98	-2385
ig	-2386
▁自	-2387
总结	-2388
推广	-2389
本身	-2390
让我	-2391
问到	-2392
,2	-2393
77	-2394
也要	-2395
出演	-2396
别人	-2397
寻找	-2398
展现	-2399
想法	-2400
打得	-2401
播出	-2402
晋级	-2403
芯片	-2404
观看	-2405
谈到	-2406
豆粕	-2407
陷入	-2408
取得了	-2409
5000	-2410
券商	-2411
建筑	-2412
河南	-2413
练习	-2414
英超	-2415
面积	-2416
CEO	-2417
在一起	-2418
总决赛	-2419
房地产	-2420
的基础	-2421
▁更多高考	-2422
▁高考论坛	-2423
▁高考贴吧	-2424
▁高考博客圈	-2425
▁欢迎发表评论	-2426
▁更多高考信息请访问	-2427
.5	-2428
ab	-2429
ce	-2430
▁文	-2431
巨大	-2432
接触	-2433
的发展	-2434
的第一	-2435
un	-2436
做的	-2437
安东	-2438
感受	-2439
截止	-2440
所谓	-2441
昨晚	-2442
炒作	-2443
详细	-2444
说法	-2445
遇到	-2446
ISO	-2447
▁近日	-2448
的需求	-2449
董事长	-2450
人生	-2451
传出	-2452
低调	-2453
加分	-2454
安德	-2455
对抗	-2456
试卷	-2457
辅导	-2458
▁索尼	-2459
大学生	-2460
留学生	-2461
网上报名	-2462
72	-2463
为此	-2464
公平	-2465
印度	-2466
多年	-2467
女排	-2468
实在	-2469
小的	-2470
生日	-2471
的确	-2472
离婚	-2473
观察	-2474
走出	-2475
进步	-2476
银河	-2477
雷斯	-2478
▁1.	-2479
不可能	-2480
专业的	-2481
GA	-2482
更有	-2483
淘宝	-2484
还会	-2485
高级	-2486
:30	-2487
有一个	-2488
运动员	-2489
保险公司	-2490
41	-2491
PC	-2492
ot	-2493
场均	-2494
手段	-2495
手续	-2496
机制	-2497
梦想	-2498
银华	-2499
高端	-2500
高速	-2501
三季度	-2502
时间为	-2503
的市场	-2504
MB	-2505
▁□	-2506
一路	-2507
外援	-2508
女士	-2509
承诺	-2510
拍戏	-2511
格式	-2512
现代	-2513
绯闻	-2514
赛事	-2515
错误	-2516
门将	-2517
2.0	-2518
发布的	-2519
杰克逊	-2520
理财产品	-2521
一线	-2522
不知	-2523
两天	-2524
关心	-2525
减仓	-2526
各类	-2527
地说	-2528
意识	-2529
扮演	-2530
曼城	-2531
率先	-2532
的好	-2533
直播	-2534
违规	-2535
ess	-2536
▁考研	-2537
可以说	-2538
据了解	-2539
97	-2540
不用	-2541
个性	-2542
于是	-2543
化学	-2544
唱片	-2545
布鲁	-2546
性感	-2547
意思	-2548
输入	-2549
▁th	-2550
拉斯	-2551
提交	-2552
模特	-2553
▁佳能	-2554
更好的	-2555
的地方	-2556
个股	-2557
互动	-2558
债务	-2559
元的	-2560
卡特	-2561
外国	-2562
届时	-2563
新疆	-2564
服装	-2565
老公	-2566
都能	-2567
鼓励	-2568
▁尼康	-2569
价格的	-2570
2005	-2571
凯尔特人	-2572
▁N	-2573
兴奋	-2574
前景	-2575
命题	-2576
并在	-2577
思想	-2578
月中	-2579
查看	-2580
理念	-2581
豆油	-2582
▁美国	-2583
是一款	-2584
原油期货	-2585
这场比赛	-2586
69	-2587
▁小	-2588
不太	-2589
但我	-2590
出国	-2591
嘉实	-2592
复试	-2593
效率	-2594
新兴	-2595
现金	-2596
行政	-2597
这里	-2598
酷睿	-2599
一直在	-2600
出色的	-2601
,9	-2602
54	-2603
专户	-2604
今后	-2605
名校	-2606
基于	-2607
她们	-2608
结算	-2609
英镑	-2610
记忆	-2611
重大	-2612
防抖	-2613
面向	-2614
▁作为	-2615
赵本山	-2616
都没有	-2617
债券基金	-2618
58	-2619
IA	-2620
In	-2621
不多	-2622
从来	-2623
例如	-2624
债基	-2625
允许	-2626
化的	-2627
周二	-2628
在此	-2629
子的	-2630
学历	-2631
师范	-2632
开拓	-2633
强烈	-2634
手术	-2635
湖北	-2636
留在	-2637
量的	-2638
据香港	-2639
是不是	-2640
还可以	-2641
78	-2642
MI	-2643
也能	-2644
出售	-2645
固定	-2646
大连	-2647
对外	-2648
用的	-2649
相同	-2650
研发	-2651
维斯	-2652
者的	-2653
话题	-2654
阅卷	-2655
面前	-2656
的工作	-2657
▁当	-2658
以为	-2659
做了	-2660
写作	-2661
卡片	-2662
尔顿	-2663
星期	-2664
称为	-2665
观望	-2666
语文	-2667
一方面	-2668
将继续	-2669
中有	-2670
争取	-2671
其余	-2672
完善	-2673
应对	-2674
浏览	-2675
章子	-2676
良好	-2677
运作	-2678
金价	-2679
麦克	-2680
180	-2681
俄罗斯	-2682
关注的	-2683
接下来	-2684
公众	-2685
复旦	-2686
学费	-2687
拍照	-2688
掘金	-2689
热情	-2690
直到	-2691
的要求	-2692
填报志愿	-2693
不如	-2694
休斯	-2695
各个	-2696
宏观	-2697
最多	-2698
爸爸	-2699
节奏	-2700
队长	-2701
公布了	-2702
无论是	-2703
火箭队	-2704
百分点	-2705
的位置	-2706
程度上	-2707
万像素的	-2708
的可能性	-2709
DV	-2710
▁第	-2711
万股	-2712
下载	-2713
到期	-2714
女人	-2715
打击	-2716
月初	-2717
期价	-2718
队伍	-2719
下半场	-2720
大学的	-2721
此同时	-2722
62	-2723
▁前	-2724
丁俊	-2725
克尔	-2726
到来	-2727
动态	-2728
区间	-2729
声音	-2730
处罚	-2731
外语	-2732
少数	-2733
活跃	-2734
画质	-2735
考查	-2736
触摸	-2737
赵薇	-2738
▁in	-2739
丁俊晖	-2740
刘德华	-2741
安东尼	-2742
最高的	-2743
考生可	-2744
国际米兰	-2745
的比赛中	-2746
64	-2747
上看	-2748
二级	-2749
传奇	-2750
农村	-2751
多家	-2752
威胁	-2753
它的	-2754
富国	-2755
接到	-2756
穆里	-2757
▁中新	-2758
最新的	-2759
短期内	-2760
个百分点	-2761
分析人士	-2762
高考成绩	-2763
74	-2764
IX	-2765
▁高	-2766
在场	-2767
地点	-2768
年内	-2769
建仓	-2770
新人	-2771
状元	-2772
以上的	-2773
可能是	-2774
在上海	-2775
章子怡	-2776
考虑到	-2777
谢霆锋	-2778
有效像素	-2779
▁V	-2780
会员	-2781
全线	-2782
其次	-2783
没能	-2784
理由	-2785
设立	-2786
这对	-2787
迹象	-2788
首席	-2789
一季度	-2790
斯科拉	-2791
▁杨	-2792
位的	-2793
保罗	-2794
团购	-2795
战绩	-2796
打了	-2797
打进	-2798
批准	-2799
摩根	-2800
的两	-2801
92	-2802
IC	-2803
▁黄	-2804
全景	-2805
单独	-2806
博士	-2807
反而	-2808
尼尔	-2809
扩展	-2810
漂亮	-2811
球星	-2812
球的	-2813
登记	-2814
积分	-2815
转换	-2816
骑士	-2817
另一个	-2818
在香港	-2819
娱乐圈	-2820
尼克斯	-2821
情况下	-2822
考生在	-2823
下游	-2824
为何	-2825
伤病	-2826
准确	-2827
增持	-2828
总分	-2829
梅西	-2830
白色	-2831
成交量	-2832
53	-2833
63	-2834
二人	-2835
储备	-2836
发放	-2837
学术	-2838
携带	-2839
此时	-2840
油脂	-2841
治疗	-2842
演绎	-2843
独特	-2844
糖价	-2845
考察	-2846
舞蹈	-2847
办公室	-2848
金融危机	-2849
,2008	-2850
封闭式基金	-2851
”(	-2852
一份	-2853
不满	-2854
估计	-2855
兴业	-2856
分手	-2857
及其	-2858
句话	-2859
回来	-2860
富通	-2861
收获	-2862
曾在	-2863
本届	-2864
调控	-2865
重仓	-2866
传言	-2867
公牛	-2868
出战	-2869
医生	-2870
十足	-2871
华谊	-2872
原来	-2873
可见	-2874
合适	-2875
大纲	-2876
奇才	-2877
布斯	-2878
明天	-2879
澳洲	-2880
这场	-2881
键盘	-2882
马克	-2883
700	-2884
推出了	-2885
债券型基金	-2886
不但	-2887
作出	-2888
便携	-2889
国足	-2890
圣诞	-2891
复杂	-2892
往年	-2893
得了	-2894
打破	-2895
执教	-2896
爱的	-2897
瑞和	-2898
谈判	-2899
较高	-2900
还能	-2901
释放	-2902
长焦	-2903
雅虎	-2904
art	-2905
▁基金	-2906
▁已有	-2907
一个人	-2908
▁2011	-2909
up	-2910
名为	-2911
周三	-2912
复苏	-2913
学金	-2914
工商	-2915
广西	-2916
应届	-2917
线上	-2918
过了	-2919
通常	-2920
10.	-2921
720	-2922
一个月	-2923
可以在	-2924
命中率	-2925
而不是	-2926
据香港媒体报道	-2927
▁O	-2928
亲自	-2929
他也	-2930
优先	-2931
减产	-2932
制定	-2933
即便	-2934
大陆	-2935
妻子	-2936
年代	-2937
彻底	-2938
提到	-2939
效力	-2940
文学	-2941
校园	-2942
每日	-2943
洪波	-2944
深入	-2945
约为	-2946
螺纹	-2947
贝尔	-2948
达成	-2949
随时	-2950
将成为	-2951
推出的	-2952
选择了	-2953
▁and	-2954
一段时间	-2955
证券投资	-2956
,2011	-2957
84	-2958
ec	-2959
em	-2960
ur	-2961
大跌	-2962
女孩	-2963
女星	-2964
承担	-2965
每次	-2966
看出	-2967
美分	-2968
CBA	-2969
UNT	-2970
三分球	-2971
记者从	-2972
hink	-2973
COUNT	-2974
ly	-2975
下去	-2976
云南	-2977
尤文	-2978
尽快	-2979
层次	-2980
平衡	-2981
开通	-2982
我是	-2983
此事	-2984
爆料	-2985
特长	-2986
葡萄	-2987
颜色	-2988
▁听歌	-2989
▁报价	-2990
上半场	-2991
学校的	-2992
让我们	-2993
普通高校	-2994
阿泰斯特	-2995
一是	-2996
即可	-2997
名人	-2998
思路	-2999
文字	-3000
杉矶	-3001
热身	-3002
留下	-3003
盘中	-3004
站在	-3005
统考	-3006
走高	-3007
销量	-3008
鲁能	-3009
洛杉矶	-3010
仅有	-3011
依据	-3012
信号	-3013
全队	-3014
名的	-3015
名称	-3016
外形	-3017
多个	-3018
布莱	-3019
弱势	-3020
性格	-3021
整理	-3022
无奈	-3023
澳门	-3024
腾讯	-3025
西部	-3026
说的	-3027
赛中	-3028
举行的	-3029
一边	-3030
不住	-3031
不在	-3032
争议	-3033
失望	-3034
威廉	-3035
情感	-3036
我会	-3037
早已	-3038
晓明	-3039
欧冠	-3040
焦炭	-3041
竟然	-3042
给他	-3043
财政	-3044
首轮	-3045
职业生涯	-3046
51	-3047
71	-3048
79	-3049
av	-3050
嘉欣	-3051
回升	-3052
成龙	-3053
绿色	-3054
转型	-3055
迎战	-3056
了很多	-3057
半决赛	-3058
▁中新网	-3059
当地时间	-3060
,8	-3061
一部	-3062
万桶	-3063
上映	-3064
不利	-3065
二是	-3066
多种	-3067
带领	-3068
录制	-3069
恋情	-3070
折价	-3071
招考	-3072
讲述	-3073
身材	-3074
车队	-3075
郑州	-3076
销商	-3077
长的	-3078
3.0	-3079
ore	-3080
。”(	-3081
最后的	-3082
较大的	-3083
上市公司	-3084
的朋友不妨	-3085
IF	-3086
ul	-3087
两名	-3088
临时	-3089
台北	-3090
家的	-3091
广发	-3092
本市	-3093
本来	-3094
青睐	-3095
13.	-3096
ity	-3097
全新的	-3098
分别是	-3099
的内容	-3100
近年来	-3101
场比赛中	-3102
主义	-3103
其它	-3104
千万	-3105
备受	-3106
她在	-3107
婚姻	-3108
尊重	-3109
常规	-3110
征集	-3111
流通	-3112
祝福	-3113
等等	-3114
足联	-3115
了一些	-3116
__	-3117
▁吴	-3118
上去	-3119
保留	-3120
修改	-3121
全力	-3122
封基	-3123
得手	-3124
权益	-3125
爱心	-3126
环比	-3127
超越	-3128
跌破	-3129
降至	-3130
IXUS	-3131
ut	-3132
一张	-3133
世博	-3134
中信	-3135
中期	-3136
中锋	-3137
主演	-3138
别的	-3139
双核	-3140
发出	-3141
备战	-3142
女性	-3143
尴尬	-3144
得知	-3145
搭档	-3146
本月	-3147
疯狂	-3148
看法	-3149
究竟	-3150
美丽	-3151
过的	-3152
韦德	-3153
999	-3154
在内的	-3155
据国外	-3156
有很多	-3157
未来的	-3158
的手机	-3159
第二次	-3160
CM	-3161
上篮	-3162
关村	-3163
初中	-3164
可惜	-3165
平安	-3166
度的	-3167
技巧	-3168
拉开	-3169
招商	-3170
改善	-3171
教材	-3172
秒时	-3173
较低	-3174
过后	-3175
ers	-3176
配备了	-3177
94	-3178
下挫	-3179
中文	-3180
从事	-3181
低迷	-3182
入门	-3183
四个	-3184
大战	-3185
小麦	-3186
我在	-3187
推进	-3188
男生	-3189
神秘	-3190
运用	-3191
进了	-3192
,10	-3193
▁除了	-3194
巨大的	-3195
一事	-3196
供需	-3197
助理	-3198
塞尔	-3199
密码	-3200
情人	-3201
拍卖	-3202
老鹰	-3203
资讯	-3204
15.	-3205
了不少	-3206
商品市场	-3207
ation	-3208
07	-3209
SP	-3210
uc	-3211
博时	-3212
多名	-3213
春晚	-3214
的日	-3215
红色	-3216
西安	-3217
触控	-3218
过于	-3219
青岛	-3220
18-	-3221
也表示	-3222
强大的	-3223
所有的	-3224
上扬	-3225
人都	-3226
会计	-3227
商城	-3228
尽量	-3229
广泛	-3230
当日	-3231
永远	-3232
猜测	-3233
空头	-3234
纪念	-3235
纳斯	-3236
考核	-3237
这项	-3238
铜价	-3239
14.	-3240
our	-3241
他们在	-3242
发展的	-3243
开拓者	-3244
球员的	-3245
的专业	-3246
1,	-3247
也被	-3248
保送	-3249
剧本	-3250
各自	-3251
外盘	-3252
大大	-3253
实践	-3254
成像	-3255
打开	-3256
是不	-3257
的三	-3258
美女	-3259
蓝筹	-3260
高分	-3261
1.5	-3262
550	-3263
之所以	-3264
在这个	-3265
应该是	-3266
我希望	-3267
的机身	-3268
葡萄牙	-3269
螺纹钢	-3270
穆里尼奥	-3271
AM	-3272
Sa	-3273
ev	-3274
ex	-3275
▁孙	-3276
交所	-3277
小学	-3278
工艺	-3279
庆祝	-3280
引擎	-3281
态势	-3282
放松	-3283
河北	-3284
注重	-3285
生命	-3286
立信	-3287
罚球	-3288
股的	-3289
轻薄	-3290
马丁	-3291
▁如果	-3292
▁相关	-3293
发布了	-3294
第三节	-3295
2004	-3296
中华	-3297
为止	-3298
入选	-3299
分类	-3300
塑料	-3301
大涨	-3302
尼亚	-3303
开幕	-3304
我和	-3305
我很	-3306
气质	-3307
题材	-3308
高开	-3309
▁上周	-3310
以来的	-3311
值得一	-3312
消息称	-3313
的目标	-3314
第四节	-3315
两大	-3316
国王	-3317
失败	-3318
将来	-3319
感动	-3320
我也	-3321
我就	-3322
手中	-3323
泰达	-3324
照顾	-3325
立即	-3326
第五	-3327
都将	-3328
VGA	-3329
爱立信	-3330
的一些	-3331
这一点	-3332
第一时间	-3333
写真	-3334
号码	-3335
回调	-3336
大多	-3337
暴跌	-3338
机关	-3339
笔试	-3340
说道	-3341
龙江	-3342
▁点击	-3343
奖学金	-3344
的设计	-3345
经销商	-3346
青少年	-3347
同比增长	-3348
注意的是	-3349
MV	-3350
ap	-3351
一轮	-3352
不变	-3353
业界	-3354
体检	-3355
六级	-3356
化工	-3357
哪些	-3358
大师	-3359
天的	-3360
客观	-3361
排在	-3362
排除	-3363
汇率	-3364
监督	-3365
算是	-3366
缺席	-3367
考验	-3368
赛的	-3369
还没	-3370
背景下	-3371
中国电信	-3372
平板电脑	-3373
▁2008	-3374
亚军	-3375
促进	-3376
公务	-3377
公斤	-3378
受益	-3379
审查	-3380
征求	-3381
数的	-3382
演艺	-3383
煤炭	-3384
物理	-3385
特征	-3386
理论	-3387
网游	-3388
试点	-3389
购物	-3390
身高	-3391
退出	-3392
适当	-3393
逆转	-3394
邮件	-3395
350	-3396
之前的	-3397
再加上	-3398
月中旬	-3399
华夏基金	-3400
hinkPad	-3401
不及	-3402
仍有	-3403
信任	-3404
冰冰	-3405
变成	-3406
奖项	-3407
排行	-3408
时报	-3409
案件	-3410
禁止	-3411
长城	-3412
高层	-3413
▁随着	-3414
克里斯	-3415
参加了	-3416
约翰逊	-3417
独立显卡	-3418
硕士研究生	-3419
05	-3420
op	-3421
两种	-3422
十大	-3423
域名	-3424
基地	-3425
外线	-3426
宽松	-3427
将有	-3428
平稳	-3429
打球	-3430
按键	-3431
标志	-3432
登陆	-3433
纳尔	-3434
背后	-3435
自学	-3436
营收	-3437
识别	-3438
360	-3439
50%	-3440
▁3.	-3441
▁日前	-3442
他认为	-3443
行业的	-3444
了自己的	-3445
值得一提	-3446
研究中心	-3447
考试成绩	-3448
货币政策	-3449
高等教育	-3450
CP	-3451
▁对	-3452
一段	-3453
代理	-3454
依靠	-3455
全省	-3456
加息	-3457
加速	-3458
周杰	-3459
回家	-3460
完整	-3461
很少	-3462
手感	-3463
整机	-3464
斯塔	-3465
时机	-3466
有多	-3467
欣赏	-3468
沪胶	-3469
独家	-3470
真是	-3471
续约	-3472
远远	-3473
采购	-3474
10%	-3475
20%	-3476
▁4.	-3477
很可能	-3478
打电话	-3479
拍摄的	-3480
持仓量	-3481
04	-3482
ee	-3483
以外	-3484
勇士	-3485
医疗	-3486
卖出	-3487
可在	-3488
审核	-3489
来源	-3490
礼物	-3491
给我	-3492
跟踪	-3493
锦标	-3494
▁13	-3495
一定会	-3496
公务员	-3497
开户数	-3498
第二节	-3499
这一次	-3500
iPad	-3501
分辨率为	-3502
统计显示	-3503
91	-3504
▁为	-3505
▁四	-3506
▁该	-3507
。《	-3508
万户	-3509
中间	-3510
低价	-3511
儿童	-3512
公共	-3513
周四	-3514
好好	-3515
委会	-3516
小将	-3517
带动	-3518
惊喜	-3519
抢断	-3520
的不	-3521
立刻	-3522
缓解	-3523
过来	-3524
进展	-3525
CCD	-3526
也不会	-3527
出来的	-3528
是什么	-3529
机构的	-3530
的态度	-3531
的感觉	-3532
全球经济	-3533
电子商务	-3534
GS	-3535
ie	-3536
一块	-3537
不上	-3538
主管	-3539
交割	-3540
出线	-3541
分化	-3542
品质	-3543
环球	-3544
跌停	-3545
高出	-3546
GHz	-3547
▁is	-3548
已经在	-3549
感光度	-3550
我认为	-3551
英寸的	-3552
邓华德	-3553
od	-3554
▁⊙	-3555
▁每	-3556
▁马	-3557
一人	-3558
下面	-3559
不停	-3560
减持	-3561
区的	-3562
反击	-3563
均为	-3564
尔的	-3565
巨头	-3566
得很	-3567
心里	-3568
思维	-3569
托管	-3570
旗舰	-3571
榨季	-3572
流畅	-3573
盛大	-3574
评估	-3575
说到	-3576
阿德	-3577
面板	-3578
有没有	-3579
看起来	-3580
1500	-3581
▁本报记者	-3582
值得一提的是	-3583
DC	-3584
也没	-3585
产能	-3586
低开	-3587
却是	-3588
否则	-3589
在家	-3590
填写	-3591
大约	-3592
头球	-3593
巴斯	-3594
强化	-3595
成就	-3596
拉德	-3597
本节	-3598
爵士	-3599
秘密	-3600
自我	-3601
评委	-3602
顶级	-3603
预选	-3604
在国内	-3605
海富通	-3606
的信息	-3607
的生活	-3608
1200	-3609
HDMI	-3610
联系方式	-3611
96	-3612
▁二	-3613
中等	-3614
前三	-3615
发自	-3616
变动	-3617
周末	-3618
学业	-3619
布局	-3620
并将	-3621
我不	-3622
效应	-3623
早在	-3624
有色	-3625
本土	-3626
检测	-3627
深刻	-3628
的全	-3629
诸多	-3630
零售	-3631
企业的	-3632
受到了	-3633
基本上	-3634
我们在	-3635
手机的	-3636
的数据	-3637
问题的	-3638
资产管理	-3639
的朋友可以	-3640
ff	-3641
▁林	-3642
今晚	-3643
会的	-3644
名额	-3645
听到	-3646
增仓	-3647
备考	-3648
夫妇	-3649
夺得	-3650
套机	-3651
定期	-3652
怀孕	-3653
总额	-3654
想象	-3655
本地	-3656
毫不	-3657
涨停	-3658
矛盾	-3659
美联	-3660
财务	-3661
赛车	-3662
门槛	-3663
顾问	-3664
高点	-3665
11.	-3666
▁19	-3667
出版社	-3668
总冠军	-3669
报价为	-3670
考试的	-3671
饰演的	-3672
与此同时	-3673
师范大学	-3674
时报记者	-3675
、1	-3676
上下	-3677
从未	-3678
初步	-3679
同意	-3680
图文	-3681
基准	-3682
容量	-3683
差异	-3684
接着	-3685
早前	-3686
格里	-3687
牛市	-3688
由此	-3689
看着	-3690
破门	-3691
穿着	-3692
赛场	-3693
通道	-3694
历史上	-3695
最重要	-3696
有利于	-3697
的训练	-3698
股市场	-3699
黑龙江	-3700
Tw	-3701
Wi	-3702
ge	-3703
▁J	-3704
▁金	-3705
上线	-3706
亮点	-3707
优质	-3708
优选	-3709
但这	-3710
分级	-3711
天然	-3712
官员	-3713
将球	-3714
开场	-3715
提示	-3716
构成	-3717
比亚	-3718
气氛	-3719
流行	-3720
潜力	-3721
热点	-3722
等人	-3723
糟糕	-3724
纳入	-3725
要在	-3726
亚洲杯	-3727
交易的	-3728
媒体的	-3729
日凌晨	-3730
相当于	-3731
普通高中	-3732
清华大学	-3733
网络游戏	-3734
据国外媒体报道	-3735
▁U	-3736
丈夫	-3737
也就	-3738
发的	-3739
多了	-3740
如下	-3741
尔斯	-3742
市值	-3743
开局	-3744
心的	-3745
或是	-3746
战争	-3747
投诉	-3748
新华	-3749
本报	-3750
获利	-3751
获取	-3752
足以	-3753
连败	-3754
▁三星	-3755
▁证券	-3756
上海市	-3757
但由于	-3758
将比分	-3759
长时间	-3760
aceb	-3761
偏股型基金	-3762
acebook	-3763
临近	-3764
件事	-3765
八一	-3766
出去	-3767
到场	-3768
取景	-3769
喜剧	-3770
安徽	-3771
必然	-3772
机器	-3773
材质	-3774
模拟	-3775
民生	-3776
火爆	-3777
篮下	-3778
约合	-3779
自从	-3780
认购	-3781
走向	-3782
转移	-3783
选项	-3784
面上	-3785
320	-3786
ile	-3787
一对多	-3788
中关村	-3789
发言人	-3790
大家都	-3791
带来了	-3792
AA	-3793
QF	-3794
▁l	-3795
一支	-3796
上行	-3797
个别	-3798
卫冕	-3799
周五	-3800
型号	-3801
增值	-3802
定制	-3803
将对	-3804
投机	-3805
提问	-3806
新品	-3807
片中	-3808
的她	-3809
相似	-3810
美的	-3811
补充	-3812
违法	-3813
2.8	-3814
900	-3815
有什么	-3816
用户的	-3817
类专业	-3818
阿里扎	-3819
4000	-3820
QFII	-3821
RE	-3822
▁X	-3823
东莞	-3824
也让	-3825
人在	-3826
全文	-3827
利空	-3828
单词	-3829
大使	-3830
奥林	-3831
子女	-3832
小刚	-3833
小孩	-3834
山西	-3835
巴黎	-3836
异常	-3837
当晚	-3838
收报	-3839
新秀	-3840
每桶	-3841
版权	-3842
硬件	-3843
网吧	-3844
词汇	-3845
财富	-3846
频频	-3847
高度	-3848
ill	-3849
tel	-3850
▁国内	-3851
女主角	-3852
工作的	-3853
投资的	-3854
月以来	-3855
进行的	-3856
高洪波	-3857
一批	-3858
予以	-3859
仍在	-3860
传中	-3861
传播	-3862
停止	-3863
创下	-3864
医药	-3865
取胜	-3866
大奖	-3867
思考	-3868
批评	-3869
是最	-3870
正面	-3871
每月	-3872
百万	-3873
罗德	-3874
返回	-3875
还不	-3876
30%	-3877
▁be	-3878
▁同时	-3879
两个月	-3880
会不会	-3881
价格上涨	-3882
北京时间	-3883
私募基金	-3884
股票基金	-3885
itter	-3886
负责人表示	-3887
TE	-3888
iz	-3889
制片	-3890
加快	-3891
哈维	-3892
场面	-3893
增幅	-3894
大小	-3895
失去	-3896
女足	-3897
将与	-3898
师大	-3899
幸运	-3900
明白	-3901
期望	-3902
格斯	-3903
这类	-3904
退役	-3905
亚运会	-3906
信用卡	-3907
向记者	-3908
和家长	-3909
日开始	-3910
湖人队	-3911
的照片	-3912
的状态	-3913
罗纳尔	-3914
较高的	-3915
通知书	-3916
Ch	-3917
MP	-3918
▁阿	-3919
下行	-3920
亚冠	-3921
光圈	-3922
光大	-3923
农民	-3924
出任	-3925
占比	-3926
夫妻	-3927
好了	-3928
密切	-3929
山猫	-3930
巡回	-3931
强大	-3932
快门	-3933
总统	-3934
持平	-3935
日常	-3936
粮食	-3937
老将	-3938
自信	-3939
自行	-3940
预估	-3941
马拉	-3942
160	-3943
2.5	-3944
一直是	-3945
为大家	-3946
所高校	-3947
的压力	-3948
知识点	-3949
结束了	-3950
人士透露	-3951
已经开始	-3952
志愿填报	-3953
自动对焦	-3954
):	-3955
势头	-3956
反对	-3957
垃圾	-3958
复制	-3959
天王	-3960
季报	-3961
小牛	-3962
当初	-3963
才会	-3964
整合	-3965
日期	-3966
最快	-3967
每吨	-3968
皮球	-3969
询问	-3970
食品	-3971
HTC	-3972
微博上	-3973
搭载了	-3974
旗下的	-3975
明显的	-3976
的一次	-3977
发布会上	-3978
期货价格	-3979
家基金公司	-3980
81	-3981
?)	-3982
▁郑	-3983
一波	-3984
不佳	-3985
东芝	-3986
九段	-3987
仍是	-3988
优雅	-3989
出发	-3990
功夫	-3991
医学	-3992
南非	-3993
多元	-3994
多单	-3995
工资	-3996
市民	-3997
徕卡	-3998
恐怕	-3999
机械	-4000
的主	-4001
盎司	-4002
等级	-4003
融合	-4004
评卷	-4005
赚钱	-4006
输给	-4007
锁定	-4008
错过	-4009
ina	-4010
上周五	-4011
在这里	-4012
完成了	-4013
已经是	-4014
每个人	-4015
的最新	-4016
银行的	-4017
锦标赛	-4018
CMOS	-4019
▁据介绍	-4020
关注一下	-4021
基金份额	-4022
01	-4023
’,	-4024
▁y	-4025
上方	-4026
不敌	-4027
伊布	-4028
伊能	-4029
做法	-4030
出炉	-4031
创意	-4032
十二	-4033
卡卡	-4034
回忆	-4035
堪称	-4036
扣篮	-4037
氛围	-4038
海南	-4039
省市	-4040
票房	-4041
私人	-4042
缩小	-4043
罗马	-4044
见到	-4045
规律	-4046
那里	-4047
都市	-4048
陕西	-4049
频繁	-4050
首度	-4051
马斯	-4052
est	-4053
ive	-4054
一开始	-4055
伊能静	-4056
持有人	-4057
的拍摄	-4058
----	-4059
1080	-4060
ia	-4061
▁K	-4062
业余	-4063
失利	-4064
对他	-4065
将为	-4066
承受	-4067
文史	-4068
旅行	-4069
有意	-4070
有过	-4071
毫无	-4072
节能	-4073
遭到	-4074
降价	-4075
12.	-4076
的优势	-4077
的用户	-4078
东北	-4079
之内	-4080
介入	-4081
价位	-4082
便宜	-4083
冲刺	-4084
出道	-4085
十一	-4086
反复	-4087
合并	-4088
围绕	-4089
多人	-4090
学会	-4091
弗格	-4092
的他	-4093
社交	-4094
翻译	-4095
转债	-4096
重组	-4097
钢厂	-4098
食糖	-4099
马来	-4100
黑莓	-4101
ard	-4102
her	-4103
弗格森	-4104
托雷斯	-4105
经历了	-4106
中国足球	-4107
公募基金	-4108
Facebook	-4109
06	-4110
DR	-4111
IG	-4112
▁上	-4113
优异	-4114
原装	-4115
又是	-4116
呼吁	-4117
国庆	-4118
导师	-4119
开工	-4120
我校	-4121
是对	-4122
晚会	-4123
激动	-4124
灾区	-4125
相反	-4126
科特	-4127
竞技	-4128
而已	-4129
联接	-4130
身价	-4131
进的	-4132
PVC	-4133
不低于	-4134
创业板	-4135
哈里斯	-4136
教练组	-4137
时间内	-4138
的关系	-4139
-5	-4140
93	-4141
IM	-4142
▁n	-4143
不起	-4144
之旅	-4145
五年	-4146
全市	-4147
加试	-4148
区别	-4149
国泰	-4150
大众	-4151
太大	-4152
奕迅	-4153
巨星	-4154
底部	-4155
显著	-4156
最受	-4157
本轮	-4158
澄清	-4159
留言	-4160
直言	-4161
祖儿	-4162
福州	-4163
空调	-4164
联考	-4165
表态	-4166
要想	-4167
评级	-4168
调剂	-4169
转变	-4170
选秀	-4171
ark	-4172
▁此前	-4173
一系列	-4174
全景网	-4175
地区的	-4176
没想到	-4177
第二轮	-4178
还表示	-4179
6000	-4180
7000	-4181
人士表示	-4182
科技大学	-4183
61	-4184
St	-4185
TO	-4186
]:	-4187
三位	-4188
他和	-4189
任意	-4190
保值	-4191
入围	-4192
全年	-4193
利好	-4194
史上	-4195
各国	-4196
同一	-4197
哪里	-4198
围棋	-4199
奖金	-4200
录音	-4201
微笑	-4202
戴尔	-4203
放缓	-4204
新股	-4205
期市	-4206
涉嫌	-4207
英文	-4208
超出	-4209
进取	-4210
道歉	-4211
▁今天	-4212
▁今日	-4213
▁其实	-4214
▁新华	-4215
▁组图	-4216
公开赛	-4217
净申购	-4218
副总裁	-4219
四季度	-4220
在网上	-4221
实习生	-4222
录取的	-4223
是一种	-4224
第一批	-4225
证券投资基金	-4226
▁证券时报记者	-4227
os	-4228
▁徐	-4229
一身	-4230
信贷	-4231
其后	-4232
加剧	-4233
加索	-4234
在了	-4235
在前	-4236
它们	-4237
对其	-4238
投影	-4239
抵达	-4240
提振	-4241
早盘	-4242
短短	-4243
示范	-4244
背光	-4245
获批	-4246
问及	-4247
防线	-4248
除此	-4249
高三	-4250
黎明	-4251
PTA	-4252
▁去年	-4253
中小盘	-4254
发生了	-4255
实现了	-4256
拿下了	-4257
接受了	-4258
最多的	-4259
的关键	-4260
的电影	-4261
blog	-4262
马来西亚	-4263
EX	-4264
不敢	-4265
专访	-4266
仍将	-4267
他就	-4268
伤害	-4269
办学	-4270
加油	-4271
发起	-4272
居民	-4273
广播	-4274
招聘	-4275
攀升	-4276
的海	-4277
筹备	-4278
简称	-4279
网卡	-4280
衣服	-4281
诉讼	-4282
钢价	-4283
ire	-4284
她表示	-4285
如果你	-4286
年高考	-4287
成立的	-4288
液晶屏	-4289
的风险	-4290
霍华德	-4291
第三季度	-4292
仔细	-4293
入场	-4294
区县	-4295
周刊	-4296
四大	-4297
塞罗	-4298
外汇	-4299
天胶	-4300
太太	-4301
奥拉	-4302
宽带	-4303
性和	-4304
恋爱	-4305
我要	-4306
期限	-4307
积累	-4308
签订	-4309
让她	-4310
资助	-4311
资深	-4312
输出	-4313
韩寒	-4314
130	-4315
18.	-4316
———	-4317
下来的	-4318
已经有	-4319
申请人	-4320
的交易	-4321
的相关	-4322
第三方	-4323
都可以	-4324
保本基金	-4325
现场确认	-4326
商品交易所	-4327
录取分数线	-4328
5%	-4329
一向	-4330
不俗	-4331
两周	-4332
二本	-4333
元素	-4334
加仓	-4335
加工	-4336
史密	-4337
名将	-4338
处在	-4339
实用	-4340
开设	-4341
打压	-4342
担保	-4343
更大	-4344
某些	-4345
样的	-4346
病毒	-4347
的李	-4348
空中	-4349
类的	-4350
获胜	-4351
走强	-4352
2.7	-4353
▁IS	-4354
▁中考	-4355
月合约	-4356
的股票	-4357
威廉姆斯	-4358
的基础上	-4359
值得注意的是	-4360
:9	-4361
▁g	-4362
▁他	-4363
为例	-4364
主打	-4365
京东	-4366
作家	-4367
入了	-4368
吃饭	-4369
哈尔	-4370
境外	-4371
姐姐	-4372
应当	-4373
的那	-4374
知情	-4375
调研	-4376
还剩	-4377
鹏华	-4378
▁In	-4379
了自己	-4380
冯小刚	-4381
净赎回	-4382
失去了	-4383
年轻人	-4384
的支持	-4385
的选择	-4386
看到了	-4387
简单的	-4388
联赛中	-4389
1600	-4390
也就是说	-4391
国家队的	-4392
03	-4393
5-	-4394
ak	-4395
一同	-4396
世石	-4397
也对	-4398
伙伴	-4399
卡塔	-4400
场内	-4401
套餐	-4402
奥巴	-4403
审批	-4404
引导	-4405
怀疑	-4406
抑制	-4407
拓展	-4408
挂牌	-4409
收取	-4410
敏感	-4411
无限	-4412
既然	-4413
日均	-4414
焦距	-4415
登场	-4416
眼睛	-4417
第六	-4418
被动	-4419
评分	-4420
连接	-4421
锻炼	-4422
麻烦	-4423
黄蜂	-4424
”,“	-4425
个赛季	-4426
主演的	-4427
全明星	-4428
原因是	-4429
月份的	-4430
真正的	-4431
这就是	-4432
去年同期	-4433
理工大学	-4434
这个问题	-4435
与其	-4436
又有	-4437
古力	-4438
国债	-4439
国米	-4440
在其	-4441
官网	-4442
就读	-4443
尼特	-4444
巴蒂	-4445
希腊	-4446
录像	-4447
快船	-4448
打印	-4449
携手	-4450
无缘	-4451
溢价	-4452
玩家	-4453
相继	-4454
缺少	-4455
群体	-4456
认定	-4457
负面	-4458
进军	-4459
避险	-4460
随即	-4461
高峰	-4462
业务的	-4463
塞罗那	-4464
相关的	-4465
预选赛	-4466
北京大学	-4467
外观设计	-4468
巴塞罗那	-4469
投资者的	-4470
现货市场	-4471
自学考试	-4472
Twitter	-4473
ID	-4474
ST	-4475
▁不	-4476
一举	-4477
他对	-4478
出生	-4479
包含	-4480
合计	-4481
回合	-4482
好像	-4483
将从	-4484
就此	-4485
江西	-4486
的老	-4487
精力	-4488
编剧	-4489
而这	-4490
聊天	-4491
联手	-4492
魅力	-4493
ail	-4494
ell	-4495
ine	-4496
▁图文	-4497
万英镑	-4498
中小板	-4499
但是在	-4500
是否会	-4501
的防守	-4502
2003	-4503
中国联通	-4504
联系电话	-4505
02	-4506
ov	-4507
ps	-4508
▁天	-4509
一号	-4510
上有	-4511
可爱	-4512
困扰	-4513
国脚	-4514
复读	-4515
学期	-4516
定价	-4517
对待	-4518
射手	-4519
巨人	-4520
并列	-4521
建业	-4522
投中	-4523
榜首	-4524
洛佩	-4525
爱好	-4526
犯罪	-4527
瞬间	-4528
维护	-4529
获奖	-4530
090	-4531
▁HD	-4532
不仅仅	-4533
主办方	-4534
加索尔	-4535
吸引力	-4536
孩子的	-4537
的话题	-4538
管理的	-4539
净值增长率	-4540
BO	-4541
中午	-4542
体能	-4543
何时	-4544
养老	-4545
前一	-4546
司法	-4547
命运	-4548
回暖	-4549
在校	-4550
大概	-4551
形容	-4552
投放	-4553
有时	-4554
机场	-4555
演技	-4556
用了	-4557
缴费	-4558
耳机	-4559
财产	-4560
走低	-4561
重的	-4562
防止	-4563
▁0.	-4564
▁st	-4565
在比赛	-4566
电影节	-4567
看上去	-4568
美联储	-4569
超过了	-4570
世界冠军	-4571
原油价格	-4572
Intel	-4573
▁赵	-4574
▁郭	-4575
下场	-4576
专用	-4577
住了	-4578
佳一	-4579
公正	-4580
助于	-4581
发售	-4582
各项	-4583
型的	-4584
家族	-4585
布兰	-4586
底线	-4587
拨打	-4588
日讯	-4589
是我	-4590
汉姆	-4591
点球	-4592
短片	-4593
等到	-4594
紧缩	-4595
考前	-4596
见的	-4597
说话	-4598
走了	-4599
跳投	-4600
踢球	-4601
里面	-4602
青春	-4603
17.	-4604
450	-4605
▁松下	-4606
二季度	-4607
多年的	-4608
收视率	-4609
理工类	-4610
能够在	-4611
那就是	-4612
经纪公司	-4613
美元指数	-4614
万有效像素	-4615
期货分析师	-4616
二十	-4617
人选	-4618
但她	-4619
位居	-4620
后面	-4621
喜爱	-4622
好在	-4623
巴巴	-4624
张国	-4625
执法	-4626
抢眼	-4627
挑选	-4628
早就	-4629
昆明	-4630
添富	-4631
港元	-4632
玩笑	-4633
群众	-4634
谈及	-4635
这份	-4636
这支	-4637
重返	-4638
首批	-4639
2.3	-4640
LCD	-4641
ome	-4642
安德森	-4643
的合作	-4644
自己在	-4645
▁事实上	-4646
其中包括	-4647
最后时刻	-4648
除此之外	-4649
)(	-4650
AP	-4651
DP	-4652
ub	-4653
也可	-4654
仅售	-4655
作战	-4656
佩克	-4657
做客	-4658
分歧	-4659
判罚	-4660
右侧	-4661
困境	-4662
在京	-4663
威尔	-4664
实质	-4665
忘记	-4666
想买	-4667
是他	-4668
更衣	-4669
短线	-4670
种植	-4671
签署	-4672
级的	-4673
缺阵	-4674
罗伊	-4675
而不	-4676
联邦	-4677
致电	-4678
读书	-4679
难得	-4680
,19	-4681
TVB	-4682
ang	-4683
ice	-4684
丰富的	-4685
也不是	-4686
了一场	-4687
史密斯	-4688
孩子们	-4689
我现在	-4690
欧佩克	-4691
的就是	-4692
结算价	-4693
观众的	-4694
中国男篮	-4695
俱乐部的	-4696
已经成为	-4697
采访时表示	-4698
ThinkPad	-4699
QQ	-4700
SL	-4701
一中	-4702
一大	-4703
一片	-4704
下旬	-4705
东部	-4706
中证	-4707
之处	-4708
但从	-4709
位列	-4710
关口	-4711
关闭	-4712
危险	-4713
坐在	-4714
好转	-4715
就算	-4716
总局	-4717
投票	-4718
新版	-4719
杠杆	-4720
林丹	-4721
沃尔	-4722
续航	-4723
缩水	-4724
自治	-4725
评测	-4726
资费	-4727
路线	-4728
隆索	-4729
领取	-4730
16.	-4731
▁专家	-4732
▁近期	-4733
发行的	-4734
在去年	-4735
折价率	-4736
排行榜	-4737
是为了	-4738
更衣室	-4739
比例为	-4740
的东西	-4741
美元的	-4742
贝尼特	-4743
▁for	-4744
技术学院	-4745
考试时间	-4746
obile	-4747
2%	-4748
AV	-4749
▁r	-4750
、2	-4751
一套	-4752
体制	-4753
受理	-4754
国产	-4755
增速	-4756
大方	-4757
开机	-4758
拉克	-4759
方正	-4760
破坏	-4761
社区	-4762
网页	-4763
表情	-4764
豆类	-4765
起到	-4766
身为	-4767
辛苦	-4768
阿娇	-4769
陆毅	-4770
集成	-4771
题的	-4772
▁本报	-4773
三个月	-4774
吸引了	-4775
在剧中	-4776
奥巴马	-4777
希望能	-4778
每一个	-4779
特长生	-4780
的能力	-4781
竞争力	-4782
8000	-4783
最重要的	-4784
没有任何	-4785
▁业内人士	-4786
NY	-4787
▁晨	-4788
▁朱	-4789
》《	-4790
一条	-4791
事务	-4792
互相	-4793
产区	-4794
从业	-4795
优化	-4796
听说	-4797
告别	-4798
国民	-4799
孙悦	-4800
实名	-4801
将被	-4802
就不	-4803
工银	-4804
席位	-4805
来讲	-4806
温格	-4807
燃料	-4808
网购	-4809
艰难	-4810
花费	-4811
言论	-4812
认证	-4813
试图	-4814
过剩	-4815
这笔	-4816
长沙	-4817
雷霆	-4818
首歌	-4819
高管	-4820
,12	-4821
240	-4822
480	-4823
▁为了	-4824
一年的	-4825
传统的	-4826
保送生	-4827
净利润	-4828
出现的	-4829
同时也	-4830
奥尼尔	-4831
就开始	-4832
引起了	-4833
技术的	-4834
是非常	-4835
李世石	-4836
汇添富	-4837
的新闻	-4838
的结果	-4839
的行为	-4840
商品期货	-4841
国际油价	-4842
录取工作	-4843
最后一个	-4844
罗纳尔多	-4845
:1	-4846
▁以	-4847
▁由	-4848
一流	-4849
东家	-4850
人群	-4851
假期	-4852
充足	-4853
全程	-4854
典礼	-4855
分和	-4856
前场	-4857
合法	-4858
团体	-4859
夏普	-4860
天后	-4861
太平	-4862
左侧	-4863
并购	-4864
式的	-4865
悬念	-4866
打法	-4867
拍到	-4868
捐款	-4869
新鲜	-4870
更换	-4871
更新	-4872
朝鲜	-4873
林峰	-4874
棕榈	-4875
活塞	-4876
派出	-4877
球手	-4878
疑问	-4879
签字	-4880
网址	-4881
解析	-4882
豪门	-4883
跟随	-4884
车手	-4885
长盛	-4886
题型	-4887
高招	-4888
ist	-4889
▁II	-4890
一部分	-4891
了一块	-4892
优秀的	-4893
就已经	-4894
年以来	-4895
必须要	-4896
新专辑	-4897
更大的	-4898
的学校	-4899
陈奕迅	-4900
黄晓明	-4901
大幅上涨	-4902
目前正在	-4903
机构投资者	-4904
▁海	-4905
一项	-4906
不出	-4907
代码	-4908
伍兹	-4909
做得	-4910
几次	-4911
周年	-4912
国有	-4913
大于	-4914
大成	-4915
天下	-4916
套装	-4917
寻求	-4918
打入	-4919
拜仁	-4920
旺季	-4921
易斯	-4922
此举	-4923
的王	-4924
的第	-4925
被人	-4926
证据	-4927
贵州	-4928
起诉	-4929
进程	-4930
首节	-4931
高潮	-4932
,11	-4933
out	-4934
下赛季	-4935
全世界	-4936
则表示	-4937
大规模	-4938
市场对	-4939
有一些	-4940
的故事	-4941
范围内	-4942
邵佳一	-4943
商业银行	-4944
);	-4945
-3	-4946
ry	-4947
一半	-4948
两队	-4949
中招	-4950
低点	-4951
保守	-4952
冠希	-4953
决心	-4954
出于	-4955
四年	-4956
垄断	-4957
对我	-4958
尔曼	-4959
岗位	-4960
帕克	-4961
年末	-4962
幽默	-4963
慢慢	-4964
户口	-4965
报到	-4966
更高	-4967
毫米	-4968
水准	-4969
济南	-4970
激情	-4971
特意	-4972
相互	-4973
笑着	-4974
笑称	-4975
精致	-4976
结局	-4977
荣誉	-4978
被告	-4979
视觉	-4980
诚信	-4981
黄牌	-4982
60%	-4983
ant	-4984
▁参考	-4985
▁当然	-4986
▁推荐	-4987
▁火箭	-4988
亚锦赛	-4989
今天的	-4990
几个月	-4991
加入了	-4992
招生办	-4993
条评论	-4994
的作用	-4995
的经济	-4996
间消息	-4997
显示效果	-4998
这款手机	-4999
基金公司的	-5000
统计数据显示	-5001
......”	-5002
-6	-5003
LG	-5004
pr	-5005
一级	-5006
两市	-5007
主频	-5008
也都	-5009
升至	-5010
卡尔	-5011
声称	-5012
家里	-5013
小心	-5014
引入	-5015
很高	-5016
拿出	-5017
是有	-5018
最具	-5019
每股	-5020
泰国	-5021
生意	-5022
白银	-5023
的张	-5024
籼稻	-5025
统招	-5026
维尔	-5027
而出	-5028
衍生	-5029
解放	-5030
评选	-5031
还未	-5032
追捧	-5033
鉴于	-5034
链接	-5035
问他	-5036
雄鹿	-5037
风暴	-5038
首个	-5039
▁发自	-5040
▁截至	-5041
不需要	-5042
基金在	-5043
差不多	-5044
的平均	-5045
相应的	-5046
给大家	-5047
阿里巴巴	-5048
高等学校	-5049
▁编辑观点	-5050
一定程度上	-5051
▁Y	-5052
▁■	-5053
之上	-5054
人寿	-5055
从小	-5056
冬季	-5057
冰箱	-5058
千元	-5059
各位	-5060
回顾	-5061
地理	-5062
就被	-5063
年薪	-5064
德勒	-5065
德纲	-5066
或将	-5067
振荡	-5068
收储	-5069
档案	-5070
理查	-5071
界面	-5072
精英	-5073
职位	-5074
莱坞	-5075
菲尔	-5076
解读	-5077
读卡	-5078
-10	-5079
CPI	-5080
ort	-5081
个小时	-5082
也非常	-5083
哈尔滨	-5084
在内地	-5085
小组赛	-5086
已经被	-5087
巴蒂尔	-5088
等方面	-5089
2002	-5090
ouch	-5091
单反相机	-5092
招生考试	-5093
职业技术学院	-5094
MS	-5095
ha	-5096
。[	-5097
一球	-5098
万的	-5099
不中	-5100
东南	-5101
东吴	-5102
举报	-5103
之路	-5104
了对	-5105
他又	-5106
以内	-5107
但却	-5108
冲突	-5109
台上	-5110
场地	-5111
对话	-5112
执导	-5113
掉了	-5114
探索	-5115
极为	-5116
法庭	-5117
的心	-5118
赠送	-5119
连拍	-5120
门口	-5121
黑客	-5122
MEX	-5123
ack	-5124
两人的	-5125
举办的	-5126
在全国	-5127
活动的	-5128
独特的	-5129
的过程	-5130
让他们	-5131
迈克尔	-5132
10-8	-5133
竞争对手	-5134
首发阵容	-5135
▁点击查看	-5136
-2	-5137
为他	-5138
亚伟	-5139
他将	-5140
低位	-5141
依林	-5142
候选	-5143
前来	-5144
名师	-5145
奖励	-5146
宝宝	-5147
延长	-5148
征战	-5149
循环	-5150
放大	-5151
明的	-5152
晶晶	-5153
林志	-5154
模仿	-5155
泡沫	-5156
点的	-5157
签名	-5158
紧急	-5159
纳什	-5160
蓝牙	-5161
许可	-5162
该片	-5163
身穿	-5164
转向	-5165
边缘	-5166
0.5	-5167
▁对此	-5168
上网本	-5169
周杰伦	-5170
正确的	-5171
洛佩斯	-5172
的预期	-5173
网站上	-5174
考生要	-5175
肯定会	-5176
还需要	-5177
2001	-5178
参加高考	-5179
现货价格	-5180
这意味着	-5181
高清视频	-5182
▁----	-5183
CF	-5184
TS	-5185
一共	-5186
上月	-5187
不愿	-5188
两家	-5189
为其	-5190
主导	-5191
伦特	-5192
供给	-5193
到达	-5194
右路	-5195
大戏	-5196
家电	-5197
尾盘	-5198
弥补	-5199
择校	-5200
指定	-5201
接收	-5202
日为	-5203
替代	-5204
最有	-5205
男女	-5206
的超	-5207
给人	-5208
老婆	-5209
老鼠	-5210
负担	-5211
跟着	-5212
跳水	-5213
逻辑	-5214
道路	-5215
风云	-5216
DVD	-5217
LTE	-5218
▁我们	-5219
不一样	-5220
世界上	-5221
保证金	-5222
公告称	-5223
同学们	-5224
蔡依林	-5225
过去的	-5226
通讯员	-5227
征集志愿	-5228
▁何	-5229
▁美	-5230
一只	-5231
上传	-5232
上面	-5233
为人	-5234
之际	-5235
价为	-5236
兰多	-5237
创出	-5238
利息	-5239
华硕	-5240
却在	-5241
响应	-5242
哪个	-5243
在与	-5244
外的	-5245
多空	-5246
套利	-5247
安装	-5248
定了	-5249
得以	-5250
德森	-5251
忽视	-5252
意愿	-5253
意料	-5254
成年	-5255
所得	-5256
描述	-5257
提及	-5258
暗示	-5259
泽西	-5260
浪漫	-5261
电力	-5262
的后	-5263
竞赛	-5264
耐心	-5265
边路	-5266
还款	-5267
都没	-5268
问她	-5269
革命	-5270
韩庚	-5271
MBA	-5272
rom	-5273
▁5.	-5274
▁St	-5275
休斯顿	-5276
名球员	-5277
容祖儿	-5278
年中国	-5279
我知道	-5280
投资人	-5281
有兴趣	-5282
的增长	-5283
高中生	-5284
复旦大学	-5285
新浪体育	-5286
联接基金	-5287
货币市场	-5288
资产配置	-5289
这款产品	-5290
万像素摄像头	-5291
-1	-5292
3,	-5293
4%	-5294
SH	-5295
上半	-5296
下方	-5297
之战	-5298
买卖	-5299
债市	-5300
别墅	-5301
前晚	-5302
同步	-5303
和他	-5304
大牌	-5305
家中	-5306
富城	-5307
带有	-5308
开考	-5309
愿望	-5310
戏剧	-5311
提名	-5312
最初	-5313
洛瑞	-5314
看了	-5315
落实	-5316
蓝色	-5317
说是	-5318
静雯	-5319
21.	-5320
▁最近	-5321
名单中	-5322
延续了	-5323
报道称	-5324
的一年	-5325
的最大	-5326
的进攻	-5327
被录取	-5328
读卡器	-5329
资产的	-5330
中国足协	-5331
很有可能	-5332
有色金属	-5333
计划招生	-5334
相关负责人	-5335
1%	-5336
2》	-5337
?“	-5338
NC	-5339
▁受	-5340
▁近	-5341
下半	-5342
不已	-5343
乐队	-5344
人心	-5345
依赖	-5346
先是	-5347
其在	-5348
凯文	-5349
化妆	-5350
土耳	-5351
均衡	-5352
大力	-5353
小巧	-5354
居然	-5355
已于	-5356
影迷	-5357
惊讶	-5358
成果	-5359
战斗	-5360
抓住	-5361
有个	-5362
本场	-5363
汇丰	-5364
猛龙	-5365
的双	-5366
监控	-5367
省级	-5368
萨尔	-5369
表面	-5370
语音	-5371
赞助	-5372
这让	-5373
退休	-5374
那种	-5375
非法	-5376
IPO	-5377
▁外观	-5378
▁姚明	-5379
之后的	-5380
也不能	-5381
但我们	-5382
制造业	-5383
土耳其	-5384
广东省	-5385
开放式	-5386
我没有	-5387
找到了	-5388
更好地	-5389
李嘉欣	-5390
的部分	-5391
等因素	-5392
精彩的	-5393
股票型	-5394
能力的	-5395
被问到	-5396
设计的	-5397
有关部门	-5398
第一志愿	-5399
贝尼特斯	-5400
日上午消息	-5401
2)	-5402
3%	-5403
也曾	-5404
从中	-5405
以此	-5406
会对	-5407
倾向	-5408
光灯	-5409
初试	-5410
剧情	-5411
加斯	-5412
华安	-5413
压制	-5414
发达	-5415
取代	-5416
在他	-5417
多纳	-5418
姚晨	-5419
常常	-5420
开学	-5421
总数	-5422
情节	-5423
指责	-5424
无数	-5425
早上	-5426
显现	-5427
派对	-5428
立体	-5429
舒淇	-5430
航空	-5431
跌至	-5432
道理	-5433
长假	-5434
长达	-5435
附中	-5436
250	-5437
650	-5438
Ver	-5439
▁2、	-5440
▁6.	-5441
、11	-5442
万欧元	-5443
卡塔尔	-5444
去年的	-5445
因为他	-5446
在主场	-5447
太平洋	-5448
好莱坞	-5449
尺寸为	-5450
年全国	-5451
早籼稻	-5452
球员们	-5453
的网络	-5454
管理层	-5455
重仓股	-5456
▁you	-5457
天然橡胶	-5458
货币基金	-5459
录取通知书	-5460
期货交易所	-5461
▁---->	-5462
ud	-5463
一分	-5464
两场	-5465
之时	-5466
人口	-5467
付出	-5468
借助	-5469
共计	-5470
到位	-5471
前后	-5472
反超	-5473
取决	-5474
士顿	-5475
夏季	-5476
局势	-5477
工厂	-5478
庾澄	-5479
德罗	-5480
新年	-5481
新西	-5482
最强	-5483
步行	-5484
版的	-5485
物价	-5486
物流	-5487
瑞典	-5488
短暂	-5489
笑容	-5490
订单	-5491
赔偿	-5492
里奇	-5493
量化	-5494
钢琴	-5495
障碍	-5496
领衔	-5497
首日	-5498
140	-5499
2%,	-5500
20.	-5501
▁18	-5502
▁1、	-5503
▁联想	-5504
卡片机	-5505
布莱恩	-5506
庾澄庆	-5507
政策的	-5508
时间里	-5509
棕榈油	-5510
的学习	-5511
维持在	-5512
自治区	-5513
规定的	-5514
1105	-5515
奥林巴斯	-5516
投资移民	-5517
金融机构	-5518
1)	-5519
ew	-5520
”“	-5521
▁Q	-5522
下发	-5523
不时	-5524
中职	-5525
主体	-5526
传递	-5527
作弊	-5528
侵权	-5529
俊闵	-5530
做多	-5531
卡西	-5532
地的	-5533
对冲	-5534
小康	-5535
巡赛	-5536
平行	-5537
平静	-5538
待遇	-5539
我对	-5540
抛售	-5541
收藏	-5542
斯坦	-5543
智慧	-5544
栏目	-5545
森林	-5546
民办	-5547
沪锌	-5548
涨势	-5549
理性	-5550
疲软	-5551
社保	-5552
科研	-5553
空单	-5554
签下	-5555
缺口	-5556
背面	-5557
西南	-5558
视野	-5559
走进	-5560
转让	-5561
较多	-5562
里克	-5563
长春	-5564
难题	-5565
26.	-5566
▁但是	-5567
但现在	-5568
信息化	-5569
取决于	-5570
富国天	-5571
市场中	-5572
是中国	-5573
的球迷	-5574
省教育	-5575
经济学	-5576
经记者	-5577
网站的	-5578
蒿俊闵	-5579
个交易日	-5580
基金净值	-5581
这是一个	-5582
日下午消息	-5583
考生和家长	-5584
:0	-5585
BS	-5586
HC	-5587
SR	-5588
ik	-5589
▁·	-5590
▁罗	-5591
三人	-5592
乒乓	-5593
人和	-5594
低端	-5595
出品	-5596
因而	-5597
大胜	-5598
好事	-5599
将由	-5600
已被	-5601
广电	-5602
开播	-5603
引人	-5604
房间	-5605
欧美	-5606
消化	-5607
灰熊	-5608
熊市	-5609
痛苦	-5610
的原	-5611
简直	-5612
类别	-5613
级别	-5614
给出	-5615
认同	-5616
语种	-5617
贝克	-5618
这名	-5619
途径	-5620
通话	-5621
道德	-5622
郑智	-5623
集合	-5624
颇为	-5625
27.	-5626
3%,	-5627
aby	-5628
ick	-5629
▁然而	-5630
体育馆	-5631
决赛中	-5632
基金会	-5633
影响力	-5634
我们将	-5635
投资于	-5636
提高了	-5637
新一代	-5638
没什么	-5639
的一款	-5640
的技术	-5641
的标准	-5642
的现象	-5643
的资金	-5644
赢得了	-5645
选择题	-5646
郭德纲	-5647
布鲁克斯	-5648
的经纪人	-5649
▁that	-5650
指数型基金	-5651
有关负责人	-5652
一一	-5653
一件	-5654
中介	-5655
他会	-5656
几十	-5657
出局	-5658
可达	-5659
城区	-5660
奥多	-5661
婆婆	-5662
将其	-5663
干部	-5664
总量	-5665
成的	-5666
房子	-5667
拖累	-5668
授权	-5669
斯基	-5670
新片	-5671
无人	-5672
概率	-5673
热播	-5674
率领	-5675
球衣	-5676
生存	-5677
略有	-5678
离职	-5679
米勒	-5680
细腻	-5681
薪酬	-5682
设施	-5683
较小	-5684
辉煌	-5685
连杰	-5686
遭受	-5687
重心	-5688
集训	-5689
音频	-5690
飞机	-5691
1.8	-5692
TFT	-5693
are	-5694
▁3、	-5695
▁市场	-5696
▁此次	-5697
不超过	-5698
制片人	-5699
和中国	-5700
在未来	-5701
我们会	-5702
投摩根	-5703
摄像机	-5704
欧元区	-5705
涨幅为	-5706
的速度	-5707
的音乐	-5708
程度的	-5709
范冰冰	-5710
贾静雯	-5711
造成的	-5712
▁实习生	-5713
控制分数线	-5714
普通高校招生	-5715
(3	-5716
2,	-5717
LA	-5718
LD	-5719
ld	-5720
一体	-5721
交给	-5722
会否	-5723
保密	-5724
则在	-5725
利的	-5726
动物	-5727
华商	-5728
卡佩	-5729
卫星	-5730
吉林	-5731
周围	-5732
媳妇	-5733
对应	-5734
左路	-5735
戏份	-5736
报收	-5737
日元	-5738
日内	-5739
日到	-5740
是由	-5741
期的	-5742
此类	-5743
法拉	-5744
流感	-5745
热线	-5746
的多	-5747
皇帝	-5748
稳步	-5749
第七	-5750
而被	-5751
莫雷	-5752
裁员	-5753
跑赢	-5754
较量	-5755
这就	-5756
难免	-5757
飙升	-5758
▁(+	-5759
不确定	-5760
为自己	-5761
也开始	-5762
介绍说	-5763
仍然是	-5764
任意球	-5765
吉格斯	-5766
基金业	-5767
拿到了	-5768
日正式	-5769
的关注	-5770
的同学	-5771
研究员	-5772
稳定的	-5773
中国经济	-5774
商品价格	-5775
市场份额	-5776
湖南卫视	-5777
的过程中	-5778
这个角色	-5779
重要的是	-5780
混合型基金	-5781
越来越多的	-5782
][	-5783
三次	-5784
上学	-5785
交银	-5786
产权	-5787
俊杰	-5788
协调	-5789
台币	-5790
向上	-5791
周边	-5792
在外	-5793
多月	-5794
大气	-5795
头号	-5796
季节	-5797
小说	-5798
层面	-5799
已是	-5800
开拍	-5801
情侣	-5802
惊人	-5803
战中	-5804
扩张	-5805
流入	-5806
流程	-5807
满分	-5808
申报	-5809
监考	-5810
盘面	-5811
笑言	-5812
综艺	-5813
补偿	-5814
触及	-5815
让你	-5816
说了	-5817
转身	-5818
重建	-5819
2%。	-5820
edu	-5821
int	-5822
▁考生	-5823
到现在	-5824
地表示	-5825
基础上	-5826
基金中	-5827
录取线	-5828
浏览器	-5829
生活中	-5830
的角色	-5831
的走势	-5832
董事会	-5833
郭富城	-5834
都非常	-5835
麦克风	-5836
1400	-5837
izon	-5838
万美元的	-5839
从来没有	-5840
合作伙伴	-5841
宏观经济	-5842
接下来的	-5843
新浪考研	-5844
的投资者	-5845
监管部门	-5846
硕士学位	-5847
SCDMA	-5848
8-	-5849
LO	-5850
ip	-5851
▁南	-5852
▁特	-5853
三角	-5854
交换	-5855
佛罗	-5856
内心	-5857
内衣	-5858
再现	-5859
减弱	-5860
华为	-5861
博文	-5862
周迅	-5863
唱歌	-5864
在大	-5865
坚决	-5866
定向	-5867
将以	-5868
感应	-5869
拉蒂	-5870
接力	-5871
是要	-5872
未婚	-5873
极大	-5874
林斯	-5875
民间	-5876
浪费	-5877
犹豫	-5878
瓜迪	-5879
百姓	-5880
目光	-5881
科大	-5882
紧密	-5883
范德	-5884
视为	-5885
费率	-5886
迈克	-5887
选购	-5888
酒吧	-5889
领袖	-5890
鲁尼	-5891
4%,	-5892
LME	-5893
▁比赛	-5894
专业课	-5895
伟大的	-5896
体现了	-5897
依然是	-5898
冠军的	-5899
准备金	-5900
在一个	-5901
外国语	-5902
就没有	-5903
市教育	-5904
常规赛	-5905
所院校	-5906
新华社	-5907
有网友	-5908
的一种	-5909
考试中	-5910
资金的	-5911
进入了	-5912
陈冠希	-5913
ucas	-5914
▁The	-5915
债务危机	-5916
大幅下跌	-5917
市场预期	-5918
瓜迪奥拉	-5919
高尔夫球	-5920
4,	-5921
IE	-5922
Sh	-5923
万余	-5924
不必	-5925
中邮	-5926
事故	-5927
亲密	-5928
仍旧	-5929
做题	-5930
公民	-5931
几位	-5932
分开	-5933
华人	-5934
发票	-5935
发送	-5936
同类	-5937
和李	-5938
国储	-5939
均在	-5940
基指	-5941
大片	-5942
封面	-5943
就连	-5944
布帅	-5945
当事	-5946
德斯	-5947
技能	-5948
掀起	-5949
控股	-5950
摆脱	-5951
期权	-5952
正好	-5953
温度	-5954
温暖	-5955
王菲	-5956
省内	-5957
福德	-5958
离场	-5959
种种	-5960
笑说	-5961
等效	-5962
虚拟	-5963
记得	-5964
这段	-5965
都被	-5966
重复	-5967
院长	-5968
默契	-5969
210	-5970
220	-5971
25.	-5972
80%	-5973
gle	-5974
▁he	-5975
伊朗队	-5976
将达到	-5977
小沈阳	-5978
我们要	-5979
提前批	-5980
新西兰	-5981
有效的	-5982
杰拉德	-5983
波士顿	-5984
的一切	-5985
的准备	-5986
的变化	-5987
的规定	-5988
的说法	-5989
相对于	-5990
研究所	-5991
表现出	-5992
触摸屏	-5993
记者在	-5994
较好的	-5995
还是要	-5996
颁奖礼	-5997
领域的	-5998
光学防抖	-5999
南方基金	-6000
有消息称	-6001
综合素质	-6002
解决方案	-6003
▁考研论坛	-6004
▁考研博客圈	-6005
新浪考研频道	-6006
HO	-6007
NV	-6008
ra	-6009
▁五	-6010
▁安	-6011
▁问	-6012
不论	-6013
东京	-6014
价差	-6015
依法	-6016
先发	-6017
创维	-6018
剩余	-6019
华尔	-6020
单纯	-6021
厚的	-6022
商所	-6023
因伤	-6024
圈内	-6025
多位	-6026
奖杯	-6027
姜文	-6028
实的	-6029
尔克	-6030
幕后	-6031
开出	-6032
德甲	-6033
懂得	-6034
拍拖	-6035
持股	-6036
控卫	-6037
控球	-6038
教委	-6039
斯卡	-6040
时装	-6041
最早	-6042
次数	-6043
歌词	-6044
流量	-6045
海洋	-6046
特性	-6047
琼斯	-6048
的风	-6049
监测	-6050
窗口	-6051
缴纳	-6052
罗伯	-6053
自称	-6054
规格	-6055
角球	-6056
读者	-6057
轻易	-6058
运价	-6059
运气	-6060
送上	-6061
首款	-6062
马尔	-6063
-11	-6064
28.	-6065
▁09	-6066
▁苹果	-6067
▁观望	-6068
万元的	-6069
上市的	-6070
做出了	-6071
名考生	-6072
录取率	-6073
影响到	-6074
我相信	-6075
托马斯	-6076
投影机	-6077
文史类	-6078
有助于	-6079
瑞和远	-6080
生活的	-6081
的一大	-6082
这一切	-6083
这件事	-6084
非常好	-6085
关键时刻	-6086
出国留学	-6087
华谊兄弟	-6088
可以通过	-6089
市场价格	-6090
配置方面	-6091
:《	-6092
Fi	-6093
▁,	-6094
、7	-6095
专栏	-6096
人家	-6097
伤势	-6098
名列	-6099
均价	-6100
大胆	-6101
委托	-6102
对决	-6103
将近	-6104
应试	-6105
开启	-6106
打好	-6107
托福	-6108
推迟	-6109
无需	-6110
星驰	-6111
是很	-6112
更具	-6113
清洁	-6114
火热	-6115
熊黛	-6116
牌照	-6117
物质	-6118
绿城	-6119
考官	-6120
胜负	-6121
补贴	-6122
西游	-6123
说过	-6124
转载	-6125
较好	-6126
还可	-6127
顺序	-6128
马琳	-6129
验证	-6130
1%,	-6131
19.	-6132
ear	-6133
▁想买	-6134
。”“	-6135
上涨的	-6136
不过在	-6137
产业链	-6138
位用户	-6139
兰德里	-6140
和其他	-6141
因为在	-6142
国家的	-6143
对手的	-6144
情人节	-6145
提出了	-6146
新一轮	-6147
新泽西	-6148
熊黛林	-6149
环境下	-6150
的对手	-6151
的局面	-6152
的热情	-6153
美国的	-6154
芯片组	-6155
还透露	-6156
阿隆索	-6157
北京行情	-6158
录取结果	-6159
成人高校	-6160
我们认为	-6161
第四季度	-6162
阿德尔曼	-6163
。2008	-6164
位用户评论	-6165
▁点击查看评论	-6166
()	-6167
MC	-6168
cm	-6169
if	-6170
ll	-6171
oc	-6172
▁总	-6173
、4	-6174
不受	-6175
专项	-6176
了两	-6177
交手	-6178
他能	-6179
佘诗	-6180
俐俐	-6181
元件	-6182
内斯	-6183
分差	-6184
前十	-6185
务院	-6186
卖场	-6187
卫生	-6188
受访	-6189
只需	-6190
向下	-6191
回复	-6192
增发	-6193
复合	-6194
大关	-6195
家用	-6196
已在	-6197
已达	-6198
当当	-6199
志云	-6200
恶意	-6201
成考	-6202
打工	-6203
指引	-6204
指挥	-6205
收紧	-6206
有线	-6207
期指	-6208
格雷	-6209
比重	-6210
深度	-6211
潜在	-6212
甜蜜	-6213
盖帽	-6214
盛顿	-6215
网下	-6216
美豆	-6217
职务	-6218
舒服	-6219
莫斯	-6220
莱曼	-6221
试验	-6222
象棋	-6223
起点	-6224
身影	-6225
这张	-6226
通用	-6227
部的	-6228
队和	-6229
风波	-6230
首只	-6231
首映	-6232
ian	-6233
下降了	-6234
分钟的	-6235
又一次	-6236
售价为	-6237
志愿者	-6238
的决定	-6239
的名字	-6240
的网友	-6241
的高清	-6242
衍生品	-6243
部电影	-6244
▁新华网	-6245
可以看出	-6246
固定收益	-6247
绝大多数	-6248
oogle	-6249
▁北京考试	-6250
▁新浪教育	-6251
▁相关报道	-6252
。2009	-6253
新闻发布会	-6254
笔记本电脑	-6255
基金研究中心	-6256
(6	-6257
-8	-6258
BC	-6259
um	-6260
▁胡	-6261
▁西	-6262
一贯	-6263
三种	-6264
上课	-6265
与前	-6266
人大	-6267
免试	-6268
冷静	-6269
分布	-6270
到的	-6271
厦门	-6272
口语	-6273
图书	-6274
大批	-6275
套期	-6276
妹妹	-6277
就将	-6278
年纪	-6279
应付	-6280
心目	-6281
总共	-6282
报纸	-6283
拉拉	-6284
攻读	-6285
放心	-6286
文斯	-6287
晚宴	-6288
普及	-6289
最小	-6290
权利	-6291
来临	-6292
极具	-6293
标的	-6294
样子	-6295
此番	-6296
渴望	-6297
演戏	-6298
独显	-6299
的金	-6300
简约	-6301
胜局	-6302
般的	-6303
良机	-6304
荧屏	-6305
论文	-6306
说起	-6307
账号	-6308
身的	-6309
输球	-6310
过渡	-6311
递交	-6312
门前	-6313
餐厅	-6314
105	-6315
29.	-6316
90%	-6317
ect	-6318
▁15	-6319
▁国际	-6320
▁文章	-6321
上涨了	-6322
不会有	-6323
他已经	-6324
以下为	-6325
佘诗曼	-6326
分以上	-6327
创造了	-6328
名学生	-6329
宝兴业	-6330
左右的	-6331
日进行	-6332
王亚伟	-6333
男主角	-6334
的企业	-6335
的身份	-6336
给我们	-6337
跌幅为	-6338
这对于	-6339
集中在	-6340
30%,	-6341
套期保值	-6342
报告显示	-6343
表示自己	-6344
▁每经记者	-6345
开放式基金	-6346
基金管理公司	-6347
省教育考试院	-6348
倍光学变焦镜头	-6349
北京教育考试院	-6350
(7	-6351
se	-6352
▁”	-6353
、3	-6354
万亿	-6355
万份	-6356
专利	-6357
中兴	-6358
事项	-6359
体力	-6360
全日	-6361
加之	-6362
同事	-6363
地下	-6364
均有	-6365
大厦	-6366
婚后	-6367
尼斯	-6368
干扰	-6369
年在	-6370
开门	-6371
意甲	-6372
打响	-6373
探讨	-6374
接连	-6375
文并	-6376
时段	-6377
植物	-6378
民营	-6379
波罗	-6380
盛典	-6381
看过	-6382
眼球	-6383
给她	-6384
色的	-6385
要比	-6386
车辆	-6387
较强	-6388
钻石	-6389
长江	-6390
顶尖	-6391
AMD	-6392
GRE	-6393
ade	-6394
all	-6395
ith	-6396
▁14	-6397
▁第二	-6398
人士称	-6399
变成了	-6400
奥多姆	-6401
尤文图	-6402
影响了	-6403
成功的	-6404
有不少	-6405
本科生	-6406
来自于	-6407
科学家	-6408
联赛的	-6409
能力和	-6410
贸易商	-6411
这不是	-6412
院校的	-6413
1109	-6414
icro	-6415
一直以来	-6416
京东商城	-6417
场比赛的	-6418
提醒考生	-6419
江苏卫视	-6420
没有什么	-6421
联赛冠军	-6422
资本市场	-6423
越来越多	-6424
艺术类专业	-6425
基金管理有限公司	-6426
(4	-6427
SX	-6428
de	-6429
▁热	-6430
▁老	-6431
▁被	-6432
三十	-6433
三国	-6434
不算	-6435
中路	-6436
也为	-6437
事宜	-6438
亮度	-6439
仍未	-6440
他与	-6441
他人	-6442
几款	-6443
判决	-6444
前卫	-6445
前日	-6446
原创	-6447
友人	-6448
商用	-6449
基民	-6450
外资	-6451
小编	-6452
席尔	-6453
年中	-6454
年后	-6455
广场	-6456
引来	-6457
性质	-6458
恰恰	-6459
悲观	-6460
扳平	-6461
抱怨	-6462
拿着	-6463
无效	-6464
日益	-6465
是为	-6466
是以	-6467
涨价	-6468
淡季	-6469
漫游	-6470
现任	-6471
现有	-6472
祝贺	-6473
神奇	-6474
称号	-6475
策划	-6476
纳姆	-6477
网的	-6478
肌肉	-6479
落榜	-6480
要有	-6481
要看	-6482
这条	-6483
逼近	-6484
部长	-6485
门票	-6486
阿布	-6487
额度	-6488
高调	-6489
鼠标	-6490
1.6	-6491
2.4	-6492
24.	-6493
▁re	-6494
▁武汉	-6495
▁面对	-6496
不小的	-6497
也希望	-6498
了一次	-6499
人们的	-6500
其他的	-6501
可通过	-6502
国内外	-6503
对记者	-6504
开玩笑	-6505
燃料油	-6506
的孩子	-6507
的形式	-6508
的日子	-6509
等功能	-6510
资格的	-6511
轮比赛	-6512
迎来了	-6513
这两个	-6514
队员们	-6515
orce	-6516
世界排名	-6517
中国女排	-6518
单位净值	-6519
灵活配置	-6520
股份有限公司	-6521
▁北京考试报讯	-6522
:6	-6523
▁曾	-6524
下周	-6525
主权	-6526
亚马	-6527
交往	-6528
以便	-6529
企稳	-6530
休闲	-6531
传输	-6532
但不	-6533
体重	-6534
单曲	-6535
去做	-6536
发了	-6537
各方	-6538
向来	-6539
在我	-6540
复印	-6541
家乡	-6542
导航	-6543
巡演	-6544
快攻	-6545
意向	-6546
更快	-6547
棉价	-6548
榜单	-6549
步伐	-6550
王子	-6551
玻璃	-6552
电器	-6553
直至	-6554
真题	-6555
稀土	-6556
等地	-6557
简章	-6558
组建	-6559
结论	-6560
综指	-6561
聪明	-6562
诺安	-6563
调节	-6564
追究	-6565
遗产	-6566
里亚	-6567
间的	-6568
ond	-6569
▁20	-6570
▁天津	-6571
▁第一	-6572
会议上	-6573
创新高	-6574
大量的	-6575
席尔瓦	-6576
年开始	-6577
开发商	-6578
改变了	-6579
日本队	-6580
有时候	-6581
的一位	-6582
的实力	-6583
营业部	-6584
表现得	-6585
高校的	-6586
16:9	-6587
不同的是	-6588
今年高考	-6589
值得关注	-6590
历史新高	-6591
。2010	-6592
CN	-6593
pp	-6594
▁早	-6595
一枚	-6596
上台	-6597
专注	-6598
举措	-6599
书写	-6600
二代	-6601
交锋	-6602
何超	-6603
全天	-6604
加哥	-6605
升值	-6606
卓越	-6607
单一	-6608
厚度	-6609
去世	-6610
同等	-6611
四强	-6612
天才	-6613
婚变	-6614
宥嘉	-6615
密集	-6616
年金	-6617
影音	-6618
扫描	-6619
换下	-6620
搜狐	-6621
文艺	-6622
朝阳	-6623
气息	-6624
法规	-6625
牺牲	-6626
电台	-6627
目录	-6628
网通	-6629
联安	-6630
联络	-6631
诈骗	-6632
质感	-6633
重回	-6634
金鹰	-6635
隐私	-6636
青海	-6637
预装	-6638
食物	-6639
3.7	-6640
ust	-6641
▁第三	-6642
▁香港	-6643
个月的	-6644
也比较	-6645
亚马逊	-6646
保持着	-6647
另一位	-6648
合适的	-6649
对中国	-6650
戴维斯	-6651
报告中	-6652
收盘价	-6653
文并图	-6654
曾表示	-6655
林志玲	-6656
正收益	-6657
热身赛	-6658
的复习	-6659
的大学	-6660
的比例	-6661
的第二	-6662
芝加哥	-6663
解释说	-6664
记者的	-6665
造成了	-6666
1101	-6667
上证指数	-6668
什么时候	-6669
感光元件	-6670
明确表示	-6671
相比之下	-6672
这段时间	-6673
颁奖典礼	-6674
北京奥运会	-6675
eB	-6676
上限	-6677
不懂	-6678
举动	-6679
义务	-6680
乐坛	-6681
体坛	-6682
作答	-6683
佩岑	-6684
刷新	-6685
刻意	-6686
动画	-6687
助手	-6688
即时	-6689
口碑	-6690
合金	-6691
后再	-6692
哥哥	-6693
哲学	-6694
增添	-6695
天赋	-6696
奢侈	-6697
好处	-6698
宝贝	-6699
康复	-6700
开了	-6701
很不	-6702
德比	-6703
恒大	-6704
揭晓	-6705
日子	-6706
昔日	-6707
星爷	-6708
未必	-6709
条款	-6710
混乱	-6711
瑞信	-6712
甘蔗	-6713
盗版	-6714
盲目	-6715
相差	-6716
着手	-6717
财报	-6718
赛区	-6719
赛程	-6720
辅助	-6721
输了	-6722
雷拉	-6723
EOS	-6724
GDP	-6725
GPS	-6726
ans	-6727
了一份	-6728
了一枚	-6729
侯佩岑	-6730
全高清	-6731
其中的	-6732
华尔街	-6733
品牌的	-6734
并表示	-6735
有一定	-6736
来看看	-6737
比利亚	-6738
的外观	-6739
的服务	-6740
的特点	-6741
的考试	-6742
目前在	-6743
等多种	-6744
老师的	-6745
莫拉蒂	-6746
计划在	-6747
1280	-6748
____	-6749
ight	-6750
中信证券	-6751
国际教育	-6752
在比赛中	-6753
应用程序	-6754
新浪微博	-6755
的背景下	-6756
调查显示	-6757
这样一个	-6758
的主要原因	-6759
▁新浪教育讯	-6760
分析人士认为	-6761
qu	-6762
买家	-6763
事后	-6764
亚太	-6765
人文	-6766
伦斯	-6767
先进	-6768
兼容	-6769
出一	-6770
利斯	-6771
另有	-6772
可选	-6773
和小	-6774
图为	-6775
士强	-6776
外壳	-6777
大卫	-6778
奋斗	-6779
嫌疑	-6780
学友	-6781
宇航	-6782
干旱	-6783
当选	-6784
得好	-6785
戴琳	-6786
投保	-6787
提起	-6788
改进	-6789
新机	-6790
有趣	-6791
模块	-6792
沙特	-6793
没人	-6794
治理	-6795
洗衣	-6796
涵盖	-6797
物品	-6798
特地	-6799
瑞士	-6800
登上	-6801
的发	-6802
的美	-6803
省份	-6804
看见	-6805
种子	-6806
秘书	-6807
线下	-6808
绝杀	-6809
维茨	-6810
网店	-6811
脸上	-6812
膨胀	-6813
菲菲	-6814
融入	-6815
行列	-6816
行程	-6817
试训	-6818
谢谢	-6819
这家	-6820
这将	-6821
透过	-6822
郑糖	-6823
难道	-6824
首都	-6825
驾驶	-6826
高手	-6827
鱼鱼	-6828
4.5	-6829
40%	-6830
70%	-6831
:10	-6832
ite	-6833
lay	-6834
▁本周	-6835
▁现在	-6836
不愿意	-6837
但对于	-6838
充满了	-6839
入门级	-6840
减少了	-6841
勒布朗	-6842
参与了	-6843
国务院	-6844
在拍摄	-6845
在这种	-6846
对他的	-6847
山东队	-6848
心理学	-6849
我们就	-6850
所有人	-6851
是目前	-6852
更高的	-6853
的效果	-6854
省招办	-6855
而对于	-6856
节目中	-6857
让大家	-6858
赛场上	-6859
高水平	-6860
一直没有	-6861
副总经理	-6862
只新基金	-6863
可以看到	-6864
收益率为	-6865
英语考试	-6866
6%	-6867
:4	-6868
PP	-6869
ne	-6870
▁市	-6871
上任	-6872
不高	-6873
中卫	-6874
久的	-6875
五大	-6876
众人	-6877
体积	-6878
保级	-6879
入市	-6880
公立	-6881
创始	-6882
初期	-6883
助阵	-6884
升水	-6885
原料	-6886
口气	-6887
各界	-6888
回国	-6889
地球	-6890
塑造	-6891
天空	-6892
她与	-6893
定投	-6894
富豪	-6895
平常	-6896
得上	-6897
总计	-6898
感叹	-6899
成分	-6900
手里	-6901
投研	-6902
擅长	-6903
暑假	-6904
校区	-6905
欧盟	-6906
每一	-6907
汉语	-6908
波尔	-6909
泽楷	-6910
清盘	-6911
爆出	-6912
玩具	-6913
瑞福	-6914
生死	-6915
的反	-6916
相处	-6917
破解	-6918
礼服	-6919
科尔	-6920
红楼	-6921
耶斯	-6922
联网	-6923
衡量	-6924
装置	-6925
规避	-6926
诞生	-6927
谈论	-6928
边的	-6929
达克	-6930
过多	-6931
还原	-6932
还算	-6933
追问	-6934
队中	-6935
阻止	-6936
限于	-6937
随意	-6938
顾客	-6939
6.5	-6940
640	-6941
768	-6942
▁16	-6943
▁wh	-6944
乒乓球	-6945
使用了	-6946
分钟后	-6947
副主任	-6948
却没有	-6949
同样是	-6950
圣诞节	-6951
复印件	-6952
学生在	-6953
必须在	-6954
摄影师	-6955
放弃了	-6956
步行者	-6957
的人员	-6958
的游戏	-6959
的院校	-6960
的高考	-6961
组委会	-6962
路易斯	-6963
都已经	-6964
钱德勒	-6965
需求的	-6966
马德里	-6967
IDIA	-6968
不仅仅是	-6969
卫冕冠军	-6970
同时也是	-6971
对自己的	-6972
平行志愿	-6973
成人高考	-6974
投资者对	-6975
省教育厅	-6976
资料显示	-6977
钢材期货	-6978
银河证券	-6979
马拉多纳	-6980
Lucas	-6981
亿元人民币	-6982
净值增长率为	-6983
-0	-6984
”)	-6985
★★	-6986
严肃	-6987
个唱	-6988
乃至	-6989
也已	-6990
交大	-6991
以免	-6992
伊涅	-6993
体操	-6994
便是	-6995
修正	-6996
克拉	-6997
全体	-6998
出货	-6999
剧的	-7000
助学	-7001
劳动	-7002
升学	-7003
去看	-7004
参观	-7005
双双	-7006
发动	-7007
合影	-7008
合资	-7009
增至	-7010
大赞	-7011
她还	-7012
孔杰	-7013
实地	-7014
客服	-7015
布拉	-7016
布雷	-7017
干散	-7018
并无	-7019
当场	-7020
得主	-7021
德克	-7022
心中	-7023
成品	-7024
打扮	-7025
打新	-7026
故意	-7027
标配	-7028
梁文	-7029
比利	-7030
治郅	-7031
消失	-7032
漏洞	-7033
燕姿	-7034
特利	-7035
电源	-7036
看得	-7037
眼下	-7038
第十	-7039
答应	-7040
终结	-7041
萎缩	-7042
角逐	-7043
证件	-7044
话费	-7045
走到	-7046
边锋	-7047
迎接	-7048
进而	-7049
金山	-7050
金斯	-7051
随机	-7052
,20	-7053
1.7	-7054
168	-7055
8%,	-7056
MHz	-7057
ate	-7058
ech	-7059
▁7.	-7060
▁外形	-7061
▁按照	-7062
▁现场	-7063
▁至于	-7064
与其他	-7065
两个人	-7066
严重的	-7067
以下是	-7068
制造商	-7069
可能性	-7070
可转债	-7071
周星驰	-7072
唯一的	-7073
回到了	-7074
在微博	-7075
在网络	-7076
布伦特	-7077
干散货	-7078
开始了	-7079
很容易	-7080
投档线	-7081
操作上	-7082
森林狼	-7083
沙尔克	-7084
没有人	-7085
的想法	-7086
的目的	-7087
的计划	-7088
管理费	-7089
给自己	-7090
要知道	-7091
▁参考价	-7092
上市时间	-7093
主场迎战	-7094
以下简称	-7095
伊涅斯塔	-7096
尤文图斯	-7097
次新基金	-7098
的电视剧	-7099
贝克汉姆	-7100
资产规模	-7101
采用的是	-7102
,2007	-7103
▁值得注意的是	-7104
ib	-7105
▁主	-7106
▁同	-7107
。3	-7108
。5	-7109
一来	-7110
万家	-7111
两罚	-7112
严厉	-7113
会是	-7114
传说	-7115
侯耀	-7116
侵犯	-7117
内外	-7118
剩下	-7119
单打	-7120
原件	-7121
变更	-7122
只好	-7123
只想	-7124
可供	-7125
名气	-7126
和谐	-7127
外围	-7128
大哥	-7129
失业	-7130
夺取	-7131
好于	-7132
姐妹	-7133
婚纱	-7134
实体	-7135
宾得	-7136
少了	-7137
平仓	-7138
庆鹏	-7139
开支	-7140
当周	-7141
忽略	-7142
性地	-7143
感染	-7144
我都	-7145
把球	-7146
排队	-7147
搞笑	-7148
男士	-7149
画幅	-7150
看点	-7151
看重	-7152
红牌	-7153
约定	-7154
维拉	-7155
股基	-7156
脚踝	-7157
舒适	-7158
衰退	-7159
被罚	-7160
见证	-7161
解答	-7162
诱惑	-7163
课堂	-7164
豪华	-7165
赌王	-7166
过度	-7167
近来	-7168
连锁	-7169
那就	-7170
锋线	-7171
陈琳	-7172
领跑	-7173
首战	-7174
骄傲	-7175
106	-7176
▁Ge	-7177
▁it	-7178
一志愿	-7179
不久前	-7180
个专业	-7181
中移动	-7182
些时候	-7183
但他们	-7184
作文题	-7185
其中有	-7186
华盛顿	-7187
太多的	-7188
对自己	-7189
广东队	-7190
报收于	-7191
拍电影	-7192
招考办	-7193
时表示	-7194
月下旬	-7195
有媒体	-7196
毫无疑	-7197
爱好者	-7198
的功能	-7199
的所有	-7200
的水平	-7201
的行业	-7202
的视频	-7203
称自己	-7204
第三次	-7205
第二批	-7206
系列的	-7207
给出了	-7208
著名的	-7209
还是在	-7210
进口量	-7211
面临着	-7212
SDHC	-7213
业绩表现	-7214
中国队的	-7215
基金销售	-7216
工银瑞信	-7217
成像能力	-7218
新兴产业	-7219
本科专业	-7220
电子邮件	-7221
Google	-7222
NVIDIA	-7223
▁010-8	-7224
Verizon	-7225
8%	-7226
AF	-7227
IN	-7228
TM	-7229
oh	-7230
▁六	-7231
▁韩	-7232
上次	-7233
不怕	-7234
两者	-7235
了他	-7236
保费	-7237
倒是	-7238
做工	-7239
克莱	-7240
公示	-7241
兰州	-7242
内特	-7243
凸显	-7244
出众	-7245
占到	-7246
厉害	-7247
参照	-7248
各有	-7249
同行	-7250
实惠	-7251
宽屏	-7252
对口	-7253
少女	-7254
席上	-7255
干净	-7256
度假	-7257
弗莱	-7258
强悍	-7259
快捷	-7260
恐慌	-7261
房贷	-7262
所属	-7263
所能	-7264
扩容	-7265
投顾	-7266
斯托	-7267
未经	-7268
枪手	-7269
正规	-7270
残疾	-7271
毕比	-7272
涨跌	-7273
渐渐	-7274
火车	-7275
的情	-7276
盛世	-7277
秩序	-7278
蒙斯	-7279
请求	-7280
豪宅	-7281
超值	-7282
迄今	-7283
邓肯	-7284
那是	-7285
饲料	-7286
黑棋	-7287
1.2	-7288
1.3	-7289
SAT	-7290
The	-7291
▁富士	-7292
▁惠普	-7293
▁最后	-7294
▁本次	-7295
▁这是	-7296
▁针对	-7297
业协会	-7298
为用户	-7299
亚足联	-7300
以前的	-7301
但如果	-7302
只不过	-7303
可能在	-7304
在现场	-7305
扮演的	-7306
李连杰	-7307
的上涨	-7308
的个人	-7309
的具体	-7310
的空间	-7311
的进球	-7312
等问题	-7313
认为是	-7314
这部分	-7315
都比较	-7316
roup	-7317
▁诺基亚	-7318
上投摩根	-7319
完全可以	-7320
接口方面	-7321
民生银行	-7322
知识产权	-7323
这个时候	-7324
这支球队	-7325
雅思考试	-7326
NYMEX	-7327
ivers	-7328
▁外形尺寸	-7329
中国证监会	-7330
参与股指期货	-7331
(5	-7332
(8	-7333
/3	-7334
:7	-7335
MO	-7336
ng	-7337
上年	-7338
上来	-7339
上阵	-7340
不容	-7341
不惜	-7342
专题	-7343
为期	-7344
书面	-7345
二次	-7346
仅次	-7347
充裕	-7348
先行	-7349
光变	-7350
克的	-7351
前面	-7352
加特	-7353
升温	-7354
协助	-7355
司机	-7356
商店	-7357
国投	-7358
在新	-7359
外出	-7360
外地	-7361
大致	-7362
定义	-7363
巩俐	-7364
平方	-7365
弟弟	-7366
强度	-7367
得益	-7368
快递	-7369
所致	-7370
找回	-7371
授予	-7372
无可	-7373
暴风	-7374
更改	-7375
最少	-7376
月末	-7377
李小	-7378
检察	-7379
死亡	-7380
现状	-7381
球后	-7382
用来	-7383
的陈	-7384
称赞	-7385
简洁	-7386
纯粹	-7387
营养	-7388
融通	-7389
被迫	-7390
资质	-7391
身着	-7392
较少	-7393
边框	-7394
违反	-7395
连连	-7396
配有	-7397
阻力	-7398
陈坤	-7399
降幅	-7400
首选	-7401
黄奕	-7402
101	-7403
170	-7404
6%,	-7405
DIG	-7406
age	-7407
ass	-7408
old	-7409
▁on	-7410
不仅是	-7411
不排除	-7412
准备了	-7413
几乎是	-7414
可谓是	-7415
形成了	-7416
德国队	-7417
是一名	-7418
显示出	-7419
最喜欢	-7420
毕业后	-7421
的一场	-7422
的美国	-7423
的趋势	-7424
目的是	-7425
第二天	-7426
自身的	-7427
西游记	-7428
闪光灯	-7429
非常有	-7430
2.11	-7431
eBay	-7432
▁通讯员	-7433
交通大学	-7434
准备金率	-7435
唱片公司	-7436
基本金属	-7437
基金投资	-7438
性能方面	-7439
排名第一	-7440
有限责任	-7441
毫无疑问	-7442
消费者的	-7443
瑞和小康	-7444
纳斯达克	-7445
考试中心	-7446
还是比较	-7447
:2009	-7448
DIGIC	-7449
艺术特长生	-7450
:8	-7451
Ex	-7452
ym	-7453
”、	-7454
▁多	-7455
▁称	-7456
▁答	-7457
一番	-7458
作业	-7459
例子	-7460
入网	-7461
全能	-7462
兰特	-7463
出击	-7464
剧烈	-7465
华语	-7466
合唱	-7467
国青	-7468
在上	-7469
坚定	-7470
增多	-7471
多达	-7472
大为	-7473
奇迹	-7474
安静	-7475
官司	-7476
巅峰	-7477
差别	-7478
帮忙	-7479
年化	-7480
年起	-7481
广厦	-7482
强队	-7483
彩排	-7484
改编	-7485
新低	-7486
日早	-7487
普斯	-7488
最差	-7489
期末	-7490
构建	-7491
波特	-7492
洛蒂	-7493
活力	-7494
海淀	-7495
深证	-7496
游泳	-7497
王刚	-7498
球门	-7499
精心	-7500
红军	-7501
红歌	-7502
纺织	-7503
继承	-7504
而非	-7505
被指	-7506
装修	-7507
警察	-7508
贬值	-7509
贵的	-7510
运输	-7511
连得	-7512
迪拜	-7513
追平	-7514
那时	-7515
部署	-7516
附加	-7517
陆川	-7518
除非	-7519
陪伴	-7520
陪同	-7521
25%	-7522
ure	-7523
▁Wh	-7524
▁日本	-7525
▁谷歌	-7526
上一次	-7527
不管是	-7528
也已经	-7529
仍处于	-7530
保证了	-7531
呈现出	-7532
在场上	-7533
存储卡	-7534
并不能	-7535
总成绩	-7536
成立于	-7537
拉莫斯	-7538
收益为	-7539
是否有	-7540
的到来	-7541
的前提	-7542
的方法	-7543
的演员	-7544
系统的	-7545
维茨基	-7546
老鼠仓	-7547
而且在	-7548
该产品	-7549
郭士强	-7550
配置上	-7551
采访中	-7552
锂电池	-7553
10%,	-7554
4500	-7555
▁DDR	-7556
专业学位	-7557
作为一个	-7558
分级基金	-7559
华宝兴业	-7560
官方网站	-7561
年世界杯	-7562
最后一次	-7563
瑞和远见	-7564
的一部分	-7565
考试科目	-7566
诺维茨基	-7567
+1	-7568
pe	-7569
”;	-7570
▁i	-7571
▁沪	-7572
▁继	-7573
一时	-7574
三是	-7575
不应	-7576
不见	-7577
两轮	-7578
中基	-7579
乘坐	-7580
乙烯	-7581
付费	-7582
伤情	-7583
伤愈	-7584
便利	-7585
促使	-7586
光驱	-7587
公关	-7588
分校	-7589
创办	-7590
北美	-7591
单边	-7592
卡拉	-7593
原糖	-7594
史玉	-7595
号召	-7596
名模	-7597
哈利	-7598
四级	-7599
在职	-7600
埃尔	-7601
增大	-7602
好评	-7603
学者	-7604
宾馆	-7605
年级	-7606
彼此	-7607
忧虑	-7608
患者	-7609
感慨	-7610
我爱	-7611
我说	-7612
房产	-7613
放宽	-7614
放量	-7615
日和	-7616
李宗	-7617
格外	-7618
案例	-7619
检验	-7620
步入	-7621
武器	-7622
温馨	-7623
热刺	-7624
生子	-7625
的最	-7626
直销	-7627
眼镜	-7628
秀文	-7629
紧随	-7630
纪律	-7631
终身	-7632
给你	-7633
药品	-7634
薪水	-7635
观念	-7636
解题	-7637
赛道	-7638
赢球	-7639
赶到	-7640
跻身	-7641
轮胎	-7642
送出	-7643
闪电	-7644
露出	-7645
靓丽	-7646
韦迪	-7647
预料	-7648
频率	-7649
饭店	-7650
饮料	-7651
马竞	-7652
高价	-7653
ATI	-7654
end	-7655
ime	-7656
▁24	-7657
▁信息	-7658
▁自考	-7659
▁首先	-7660
一个是	-7661
世博会	-7662
两人在	-7663
中国男	-7664
主题曲	-7665
产生了	-7666
仅次于	-7667
从今年	-7668
从去年	-7669
再一次	-7670
分公司	-7671
创始人	-7672
北京队	-7673
博尔特	-7674
原材料	-7675
史玉柱	-7676
国奥队	-7677
当事人	-7678
意识到	-7679
所谓的	-7680
技术和	-7681
提升了	-7682
播放器	-7683
曾经在	-7684
服务的	-7685
未成年	-7686
极大的	-7687
林宥嘉	-7688
标准的	-7689
法拉利	-7690
的历史	-7691
的政策	-7692
监管层	-7693
财经讯	-7694
上证综指	-7695
中小企业	-7696
二级市场	-7697
市教育局	-7698
录取分数	-7699
我们已经	-7700
招生简章	-7701
招生院校	-7702
无线网卡	-7703
期货合约	-7704
结束之后	-7705
美国经济	-7706
自主选拔	-7707
今年上半年	-7708
▁新浪财经讯	-7709
感兴趣的朋友不妨	-7710
LE	-7711
PA	-7712
VS	-7713
io	-7714
▁叶	-7715
▁巴	-7716
一把	-7717
一看	-7718
三天	-7719
不等	-7720
不难	-7721
中秋	-7722
丹麦	-7723
乔丹	-7724
书中	-7725
会被	-7726
你要	-7727
供电	-7728
依次	-7729
做空	-7730
公里	-7731
兰克	-7732
军团	-7733
前天	-7734
势必	-7735
原定	-7736
可靠	-7737
启用	-7738
和高	-7739
商场	-7740
图形	-7741
天相	-7742
头衔	-7743
奇怪	-7744
如同	-7745
孙兴	-7746
室内	-7747
富翁	-7748
小菲	-7749
尔兰	-7750
尽显	-7751
山寨	-7752
当代	-7753
很久	-7754
怀特	-7755
惊艳	-7756
愤怒	-7757
我还	-7758
收集	-7759
无关	-7760
既往	-7761
旨在	-7762
明朗	-7763
景顺	-7764
暴涨	-7765
服从	-7766
杀手	-7767
极其	-7768
格林	-7769
梁洛	-7770
激励	-7771
片酬	-7772
牵手	-7773
离子	-7774
租借	-7775
竞价	-7776
网银	-7777
羡慕	-7778
西甲	-7779
说不	-7780
赛上	-7781
走上	-7782
起伏	-7783
超薄	-7784
趋于	-7785
过关	-7786
这时	-7787
远征	-7788
郑棉	-7789
错失	-7790
随之	-7791
风情	-7792
115	-7793
230	-7794
460	-7795
SPN	-7796
ord	-7797
▁英国	-7798
▁随后	-7799
位置上	-7800
体育类	-7801
全日制	-7802
制作人	-7803
发生在	-7804
受欢迎	-7805
合理的	-7806
国家和	-7807
在全球	-7808
在第一	-7809
对方的	-7810
当年的	-7811
忍不住	-7812
我不会	-7813
我自己	-7814
战胜了	-7815
新疆队	-7816
无疑是	-7817
服务器	-7818
李泽楷	-7819
梁洛施	-7820
的代表	-7821
的声音	-7822
的意见	-7823
的整体	-7824
研究院	-7825
经典的	-7826
让自己	-7827
训练中	-7828
这么多	-7829
陈志云	-7830
10%。	-7831
1920	-7832
2500	-7833
▁教育部	-7834
中国学生	-7835
如果没有	-7836
少数民族	-7837
征求意见	-7838
报名信息	-7839
报考人数	-7840
月份以来	-7841
目前已经	-7842
西班牙队	-7843
:2008	-7844
的基金公司	-7845
ok	-7846
ue	-7847
▁●	-7848
▁于	-7849
▁传	-7850
▁谢	-7851
、8	-7852
一出	-7853
一如	-7854
一律	-7855
一战	-7856
三名	-7857
三家	-7858
上报	-7859
不失	-7860
丧失	-7861
中端	-7862
人性	-7863
伊万	-7864
偏出	-7865
做过	-7866
停牌	-7867
写道	-7868
分子	-7869
列入	-7870
力争	-7871
压缩	-7872
只会	-7873
后悔	-7874
在那	-7875
天朔	-7876
奶奶	-7877
完了	-7878
实时	-7879
展望	-7880
岁月	-7881
布置	-7882
度过	-7883
当红	-7884
徒弟	-7885
手动	-7886
打动	-7887
把他	-7888
抛储	-7889
挂钩	-7890
数十	-7891
新政	-7892
晋亨	-7893
板凳	-7894
某种	-7895
树立	-7896
正如	-7897
民众	-7898
水泥	-7899
润东	-7900
火山	-7901
特里	-7902
独自	-7903
眼神	-7904
篮协	-7905
给力	-7906
继海	-7907
老总	-7908
聘请	-7909
膝盖	-7910
花园	-7911
蒙古	-7912
街头	-7913
视角	-7914
转入	-7915
过分	-7916
近年	-7917
还以	-7918
进场	-7919
透明	-7920
逾期	-7921
非洲	-7922
页面	-7923
预告	-7924
预订	-7925
颇有	-7926
首位	-7927
25-	-7928
ain	-7929
ong	-7930
▁26	-7931
▁上述	-7932
▁其中	-7933
下一个	-7934
不容易	-7935
也成为	-7936
农业部	-7937
击败了	-7938
到目前	-7939
和专业	-7940
增长的	-7941
大幅度	-7942
天津队	-7943
好朋友	-7944
安排在	-7945
对市场	-7946
尽可能	-7947
引发了	-7948
张国立	-7949
录取时	-7950
很高兴	-7951
性能上	-7952
感应器	-7953
成交价	-7954
我已经	-7955
拜纳姆	-7956
时间的	-7957
杜兰特	-7958
爱尔兰	-7959
王治郅	-7960
球迷们	-7961
的合同	-7962
的对象	-7963
的活动	-7964
的高度	-7965
臧天朔	-7966
训练营	-7967
记者会	-7968
许晋亨	-7969
足够的	-7970
遇到了	-7971
100%	-7972
工商银行	-7973
年上半年	-7974
我们需要	-7975
投资总监	-7976
瑞福进取	-7977
目前国内	-7978
运价指数	-7979
阳光私募	-7980
中关村在线	-7981
My	-7982
▁两	-7983
万部	-7984
不乏	-7985
中最	-7986
乐趣	-7987
人均	-7988
介意	-7989
例外	-7990
信达	-7991
共享	-7992
决策	-7993
剧集	-7994
功臣	-7995
华泰	-7996
发帖	-7997
古装	-7998
告知	-7999
味道	-8000
场外	-8001
坚挺	-8002
大门	-8003
头发	-8004
姓名	-8005
宇春	-8006
实德	-8007
审理	-8008
封盖	-8009
尾声	-8010
年报	-8011
应急	-8012
康永	-8013
建信	-8014
形态	-8015
徘徊	-8016
恐怖	-8017
悄然	-8018
感恩	-8019
扩招	-8020
抄底	-8021
拘留	-8022
摇滚	-8023
日后	-8024
是谁	-8025
档期	-8026
横扫	-8027
气候	-8028
汉密	-8029
海滨	-8030
理事	-8031
留意	-8032
疑似	-8033
的本	-8034
的重	-8035
皇家	-8036
看待	-8037
祖德	-8038
神经	-8039
私下	-8040
编译	-8041
而来	-8042
自曝	-8043
莱士	-8044
诠释	-8045
调侃	-8046
谷物	-8047
负于	-8048
越南	-8049
路上	-8050
这在	-8051
这点	-8052
进度	-8053
邮报	-8054
金球	-8055
隆重	-8056
4%。	-8057
iam	-8058
ide	-8059
ies	-8060
、10	-8061
一本线	-8062
上升到	-8063
下一步	-8064
亿元的	-8065
保持了	-8066
元左右	-8067
内置了	-8068
出席了	-8069
切洛蒂	-8070
功能的	-8071
已成为	-8072
很重要	-8073
所以我	-8074
报告称	-8075
施罗德	-8076
有两个	-8077
标准杆	-8078
汪小菲	-8079
熟悉的	-8080
电子书	-8081
的公司	-8082
目标是	-8083
相机的	-8084
真实的	-8085
红楼梦	-8086
美国队	-8087
联赛第	-8088
还是有	-8089
那么多	-8090
采访了	-8091
阶段的	-8092
▁can	-8093
也是一个	-8094
咨询电话	-8095
在微博上	-8096
普通高考	-8097
汉密尔顿	-8098
移动通信	-8099
笔者认为	-8100
第二季度	-8101
有限责任公司	-8102
感兴趣的朋友可以	-8103
6-	-8104
BD	-8105
FZ	-8106
RO	-8107
。7	-8108
一冰	-8109
下探	-8110
不去	-8111
亿吨	-8112
任职	-8113
会给	-8114
体会	-8115
修订	-8116
先锋	-8117
全美	-8118
凤凰	-8119
十字	-8120
南下	-8121
史蒂	-8122
同性	-8123
后台	-8124
吸毒	-8125
地上	-8126
地面	-8127
子丹	-8128
完毕	-8129
小布	-8130
崛起	-8131
市盈	-8132
帷幕	-8133
并对	-8134
引领	-8135
当下	-8136
得多	-8137
志伟	-8138
想过	-8139
慧琳	-8140
抱着	-8141
拉升	-8142
择优	-8143
捐赠	-8144
故障	-8145
方的	-8146
权重	-8147
柯达	-8148
欧债	-8149
水星	-8150
求婚	-8151
江湖	-8152
派发	-8153
满了	-8154
烦恼	-8155
生态	-8156
的手	-8157
的爱	-8158
盘整	-8159
真相	-8160
着急	-8161
砍下	-8162
秋季	-8163
篮筐	-8164
精确	-8165
线材	-8166
维亚	-8167
网易	-8168
罚款	-8169
考题	-8170
致力	-8171
舆论	-8172
西门	-8173
足总	-8174
过往	-8175
迪亚	-8176
长途	-8177
防范	-8178
阿伦	-8179
顶替	-8180
5%,	-8181
990	-8182
?”“	-8183
▁23	-8184
▁台湾	-8185
▁山东	-8186
▁微软	-8187
▁网友	-8188
▁谈到	-8189
一次性	-8190
不喜欢	-8191
也只有	-8192
从目前	-8193
价格为	-8194
价格在	-8195
但随着	-8196
偶像剧	-8197
分之一	-8198
创新的	-8199
告诉我	-8200
在这一	-8201
奥斯卡	-8202
学习的	-8203
布鲁克	-8204
张庆鹏	-8205
怎么样	-8206
提出的	-8207
的一面	-8208
的人选	-8209
的使用	-8210
的担忧	-8211
的黄金	-8212
第三批	-8213
而现在	-8214
自考办	-8215
较去年	-8216
还包括	-8217
都不会	-8218
都不是	-8219
都知道	-8220
银行卡	-8221
项目的	-8222
20%。	-8223
hing	-8224
▁证监会	-8225
华夏大盘	-8226
国际足联	-8227
将进一步	-8228
希望大家	-8229
希望通过	-8230
新基金的	-8231
本节还有	-8232
电视节目	-8233
科特布斯	-8234
万元人民币	-8235
802.11	-8236
▁德	-8237
▁方	-8238
三批	-8239
两只	-8240
中投	-8241
亚诺	-8242
假如	-8243
克劳	-8244
公主	-8245
兼顾	-8246
内德	-8247
冲高	-8248
出租	-8249
制糖	-8250
包装	-8251
南宁	-8252
历程	-8253
只得	-8254
可信	-8255
可视	-8256
后腰	-8257
在一	-8258
在内	-8259
在本	-8260
坚强	-8261
多点	-8262
天使	-8263
姑娘	-8264
学分	-8265
巨额	-8266
希尔	-8267
年和	-8268
成名	-8269
我跟	-8270
手的	-8271
抗跌	-8272
拯救	-8273
排位	-8274
操控	-8275
救市	-8276
数百	-8277
斯克	-8278
新型	-8279
旋转	-8280
月度	-8281
有传	-8282
朱丽	-8283
来得	-8284
果然	-8285
查处	-8286
次的	-8287
比起	-8288
波什	-8289
泽马	-8290
演讲	-8291
潮流	-8292
特拉	-8293
男性	-8294
的四	-8295
研讨	-8296
礼仪	-8297
穿上	-8298
约会	-8299
缓慢	-8300
翻唱	-8301
考区	-8302
而他	-8303
自家	-8304
艳照	-8305
若琳	-8306
蔓延	-8307
行货	-8308
解约	-8309
访谈	-8310
辞职	-8311
队内	-8312
陈伟	-8313
驱动	-8314
...	-8315
3.2	-8316
5%。	-8317
580	-8318
7%。	-8319
9%,	-8320
TAR	-8321
▁ab	-8322
▁深圳	-8323
个城市	-8324
仅仅是	-8325
以往的	-8326
休斯敦	-8327
但目前	-8328
具体的	-8329
决定了	-8330
加强对	-8331
卡西欧	-8332
国安队	-8333
在过去	-8334
女演员	-8335
如果是	-8336
对考生	-8337
封闭式	-8338
把自己	-8339
报名点	-8340
招生的	-8341
支付宝	-8342
教育的	-8343
日均线	-8344
时间和	-8345
正常的	-8346
激烈的	-8347
的一项	-8348
的人气	-8349
的传闻	-8350
的出现	-8351
的感情	-8352
的观点	-8353
真的很	-8354
笑着说	-8355
第二个	-8356
获得的	-8357
蔡康永	-8358
见面会	-8359
让观众	-8360
设计师	-8361
赛季的	-8362
输给了	-8363
郑中基	-8364
预期的	-8365
1800	-8366
UNGS	-8367
sina	-8368
▁晨报讯	-8369
债券市场	-8370
全场比赛	-8371
参加考试	-8372
基础知识	-8373
基金发行	-8374
就是一个	-8375
希望能够	-8376
征求志愿	-8377
波罗的海	-8378
管理中心	-8379
这种情况	-8380
中国互联网	-8381
记者采访时	-8382
;“	-8383
LP	-8384
ax	-8385
sh	-8386
sp	-8387
”:	-8388
之余	-8389
之地	-8390
也好	-8391
亲友	-8392
仓单	-8393
付款	-8394
代替	-8395
伍德	-8396
低估	-8397
你会	-8398
元旦	-8399
克服	-8400
全家	-8401
减轻	-8402
分成	-8403
分散	-8404
刻录	-8405
升本	-8406
协商	-8407
原理	-8408
发改	-8409
合肥	-8410
后场	-8411
地图	-8412
均可	-8413
墨西	-8414
复核	-8415
套保	-8416
奥会	-8417
她是	-8418
宁波	-8419
属性	-8420
座位	-8421
我能	-8422
挖掘	-8423
晚报	-8424
每周	-8425
清淡	-8426
特鲁	-8427
申办	-8428
男孩	-8429
眼中	-8430
突击	-8431
答卷	-8432
终场	-8433
脚步	-8434
艰苦	-8435
花了	-8436
菜籽	-8437
评审	-8438
课改	-8439
较快	-8440
追踪	-8441
送给	-8442
适度	-8443
重现	-8444
量为	-8445
门户	-8446
阵营	-8447
陌生	-8448
顶盖	-8449
预备	-8450
2.2	-8451
512	-8452
FIA	-8453
ink	-8454
per	-8455
▁ex	-8456
▁网络	-8457
为主题	-8458
主流的	-8459
了一下	-8460
了这一	-8461
云计算	-8462
低风险	-8463
使用的	-8464
保持在	-8465
农民工	-8466
分钟内	-8467
占据了	-8468
发改委	-8469
受益于	-8470
合作的	-8471
和社会	-8472
商务部	-8473
基金和	-8474
墨西哥	-8475
多媒体	-8476
姚明的	-8477
学院的	-8478
实验班	-8479
小朋友	-8480
平均分	-8481
开工率	-8482
我们是	-8483
我只是	-8484
或者是	-8485
日收盘	-8486
是一场	-8487
注意力	-8488
物联网	-8489
球迷的	-8490
甄子丹	-8491
用户在	-8492
的人才	-8493
的人物	-8494
的做法	-8495
的形象	-8496
的明星	-8497
的歌曲	-8498
的调整	-8499
的调查	-8500
的转会	-8501
的迹象	-8502
的风格	-8503
积极性	-8504
经济体	-8505
经理人	-8506
结构性	-8507
绝对是	-8508
被问及	-8509
讲述了	-8510
较上一	-8511
销售额	-8512
问题是	-8513
ment	-8514
▁记者从	-8515
三分命中	-8516
中国球员	-8517
偏股基金	-8518
同比下降	-8519
年下半年	-8520
情况来看	-8521
用户可以	-8522
第一季度	-8523
结束募集	-8524
记者了解	-8525
通胀压力	-8526
Force	-8527
▁2007	-8528
份基金份额	-8529
英特尔酷睿	-8530
UNGSTAR	-8531
,(	-8532
ix	-8533
▁年	-8534
▁胜	-8535
▁苏	-8536
一所	-8537
一杆	-8538
上游	-8539
不开	-8540
不止	-8541
东亚	-8542
中东	-8543
中金	-8544
丰田	-8545
二批	-8546
仿佛	-8547
保安	-8548
克鲁	-8549
公园	-8550
关爱	-8551
再到	-8552
几分	-8553
初三	-8554
制的	-8555
前四	-8556
前者	-8557
加时	-8558
勒夫	-8559
午后	-8560
发力	-8561
变身	-8562
句子	-8563
后续	-8564
场合	-8565
场馆	-8566
天翼	-8567
宣称	-8568
小型	-8569
尽力	-8570
工信	-8571
带给	-8572
帽子	-8573
很小	-8574
户籍	-8575
房屋	-8576
所需	-8577
招标	-8578
换上	-8579
推高	-8580
支出	-8581
教室	-8582
教训	-8583
新书	-8584
机遇	-8585
极端	-8586
框架	-8587
歌舞	-8588
毒品	-8589
比价	-8590
沪铝	-8591
测算	-8592
港口	-8593
热闹	-8594
狗仔	-8595
用心	-8596
田径	-8597
的名	-8598
磨合	-8599
终止	-8600
老人	-8601
肖恩	-8602
能量	-8603
脸部	-8604
警告	-8605
警惕	-8606
赴美	-8607
转播	-8608
这件	-8609
迟迟	-8610
遵守	-8611
都已	-8612
金曲	-8613
难忘	-8614
雪峰	-8615
雷西	-8616
震撼	-8617
预算	-8618
首场	-8619
高效	-8620
龙头	-8621
1%。	-8622
21-	-8623
380	-8624
470	-8625
5.6	-8626
’。”	-8627
▁HS	-8628
▁广州	-8629
▁而在	-8630
▁进入	-8631
一下子	-8632
一般的	-8633
不应该	-8634
个人的	-8635
为球队	-8636
举行了	-8637
也无法	-8638
了这个	-8639
于今年	-8640
其实是	-8641
剧中的	-8642
副主席	-8643
只产品	-8644
在市场	-8645
在日本	-8646
大学等	-8647
好男人	-8648
定位球	-8649
客户端	-8650
小时的	-8651
小语种	-8652
平方米	-8653
开幕式	-8654
当时的	-8655
总数的	-8656
我喜欢	-8657
持有的	-8658
指数的	-8659
文理科	-8660
斯内德	-8661
时代的	-8662
有记者	-8663
的焦点	-8664
的电话	-8665
结束时	-8666
给出的	-8667
能不能	-8668
舞台上	-8669
要注意	-8670
需要的	-8671
首次在	-8672
高中的	-8673
1300	-8674
1998	-8675
Book	-8676
ESPN	-8677
为投资者	-8678
商业模式	-8679
布莱恩特	-8680
平板电视	-8681
我们必须	-8682
报名参加	-8683
搜索引擎	-8684
移民政策	-8685
经济增长	-8686
adeon	-8687
▁with	-8688
全球最大的	-8689
南非世界杯	-8690
招生办公室	-8691
在接受采访时	-8692
(2	-8693
ER	-8694
RA	-8695
SN	-8696
▁v	-8697
▁和	-8698
一笔	-8699
万台	-8700
上诉	-8701
不小	-8702
不易	-8703
不良	-8704
严峻	-8705
乐基	-8706
亲切	-8707
人为	-8708
今夏	-8709
会儿	-8710
伟大	-8711
伦萨	-8712
但也	-8713
几何	-8714
切换	-8715
刊登	-8716
力挺	-8717
加州	-8718
单身	-8719
占了	-8720
原文	-8721
双重	-8722
名叫	-8723
境内	-8724
大阪	-8725
天天	-8726
央票	-8727
奉献	-8728
她也	-8729
好多	-8730
妮可	-8731
学员	-8732
学子	-8733
害怕	-8734
工行	-8735
巴里	-8736
市中	-8737
幼儿	-8738
弱的	-8739
总部	-8740
恩斯	-8741
打的	-8742
扭转	-8743
拉里	-8744
持卡	-8745
攻门	-8746
教科	-8747
暑期	-8748
暴力	-8749
期铜	-8750
模糊	-8751
每秒	-8752
气的	-8753
求职	-8754
法人	-8755
消耗	-8756
灾害	-8757
热卖	-8758
疾病	-8759
石化	-8760
神话	-8761
票据	-8762
稻谷	-8763
纠纷	-8764
线条	-8765
组的	-8766
维德	-8767
美金	-8768
胜出	-8769
自购	-8770
舍尔	-8771
苏伟	-8772
迟到	-8773
追加	-8774
邓丽	-8775
那天	-8776
郜林	-8777
阴影	-8778
颠覆	-8779
餐饮	-8780
135	-8781
7%,	-8782
RIM	-8783
ave	-8784
ost	-8785
▁>>	-8786
▁Ch	-8787
▁an	-8788
▁华硕	-8789
▁曼联	-8790
▁重庆	-8791
与中国	-8792
乐基儿	-8793
也同样	-8794
交易商	-8795
产生的	-8796
体育报	-8797
关键词	-8798
前一周	-8799
剩下的	-8800
反映了	-8801
四六级	-8802
场上的	-8803
大地震	-8804
大屏幕	-8805
太大的	-8806
子公司	-8807
家公司	-8808
工程师	-8809
年轻的	-8810
当前的	-8811
很高的	-8812
怎样的	-8813
新产品	-8814
最终以	-8815
最高分	-8816
本泽马	-8817
消费类	-8818
留下了	-8819
的因素	-8820
的外形	-8821
的条件	-8822
的爱情	-8823
目前已	-8824
相结合	-8825
积分榜	-8826
第一场	-8827
致力于	-8828
说自己	-8829
这次的	-8830
部门的	-8831
韩国队	-8832
1210	-8833
1366	-8834
▁全景网	-8835
世界纪录	-8836
今天笔者	-8837
佛罗伦萨	-8838
助理教练	-8839
帮助球队	-8840
投资管理	-8841
新兴市场	-8842
最受欢迎	-8843
理查德森	-8844
经济数据	-8845
统计数据	-8846
考试大纲	-8847
职业学院	-8848
记者昨日	-8849
这个赛季	-8850
非常出色	-8851
业内人士表示	-8852
▁Radeon	-8853
TUNGSTAR	-8854
3)	-8855
GP	-8856
LU	-8857
PK	-8858
RJ	-8859
TX	-8860
ah	-8861
▁○	-8862
▁任	-8863
▁另	-8864
▁最	-8865
▁艾	-8866
。6	-8867
上班	-8868
不堪	-8869
中断	-8870
主观	-8871
从容	-8872
但其	-8873
但对	-8874
何况	-8875
佳的	-8876
便捷	-8877
元老	-8878
克利	-8879
典型	-8880
内需	-8881
分球	-8882
刑事	-8883
删除	-8884
力宏	-8885
动荡	-8886
华中	-8887
华丽	-8888
又被	-8889
各校	-8890
周日	-8891
和陈	-8892
咏麟	-8893
商量	-8894
团结	-8895
图库	-8896
在该	-8897
基站	-8898
多夫	-8899
多方	-8900
妙的	-8901
学籍	-8902
尤为	-8903
常昊	-8904
年期	-8905
张宁	-8906
德拉	-8907
打分	-8908
抢下	-8909
捕捉	-8910
攻势	-8911
文军	-8912
既有	-8913
早早	-8914
是的	-8915
智利	-8916
暴露	-8917
曹格	-8918
未有	-8919
未知	-8920
案的	-8921
正当	-8922
此款	-8923
步骤	-8924
水货	-8925
永久	-8926
法学	-8927
流失	-8928
深受	-8929
添利	-8930
清新	-8931
港币	-8932
特区	-8933
省外	-8934
看似	-8935
看涨	-8936
童话	-8937
精品	-8938
糖市	-8939
罗西	-8940
聚集	-8941
致命	-8942
虚假	-8943
计入	-8944
设定	-8945
贫困	-8946
赢了	-8947
走红	-8948
赶紧	-8949
跨年	-8950
银色	-8951
阿拉	-8952
隔夜	-8953
雷诺	-8954
靓颖	-8955
风景	-8956
马乔	-8957
,14	-8958
,16	-8959
,26	-8960
IFI	-8961
▁as	-8962
▁一位	-8963
▁因此	-8964
▁当天	-8965
一样的	-8966
上世纪	-8967
上个月	-8968
上周末	-8969
中心的	-8970
为考生	-8971
事业部	-8972
会出现	-8973
伴随着	-8974
体育场	-8975
做什么	-8976
做好了	-8977
全运会	-8978
关注度	-8979
利比亚	-8980
卡佩罗	-8981
原来的	-8982
在台湾	-8983
在最近	-8984
在韩国	-8985
奥兰多	-8986
工信部	-8987
并不会	-8988
得益于	-8989
必要的	-8990
我不是	-8991
打出了	-8992
据介绍	-8993
排名第	-8994
是我们	-8995
满文军	-8996
的一份	-8997
的微博	-8998
的心理	-8999
的最佳	-9000
的核心	-9001
组织的	-9002
经济的	-9003
计划的	-9004
谭咏麟	-9005
近几年	-9006
还支持	-9007
这首歌	-9008
遭到了	-9009
镜头的	-9010
预录取	-9011
高招办	-9012
1010	-9013
1201	-9014
LDPE	-9015
▁张柏芝	-9016
亿美元的	-9017
原油库存	-9018
受到影响	-9019
可以说是	-9020
在自己的	-9021
将比分追	-9022
我不知道	-9023
截至目前	-9024
投资机会	-9025
的收益率	-9026
股票仓位	-9027
视频网站	-9028
交银施罗德	-9029
索尼爱立信	-9030
记者了解到	-9031
Mobile	-9032
▁Mobile	-9033
iversity	-9034
DA	-9035
GF	-9036
、9	-9037
。2	-9038
不含	-9039
不法	-9040
不禁	-9041
不绝	-9042
不行	-9043
买盘	-9044
亚运	-9045
低分	-9046
住宿	-9047
倍的	-9048
借此	-9049
公寓	-9050
冠王	-9051
准则	-9052
利文	-9053
前五	-9054
卡斯	-9055
却被	-9056
原始	-9057
又在	-9058
双手	-9059
台词	-9060
叶问	-9061
合成	-9062
周六	-9063
在对	-9064
垫底	-9065
埃弗	-9066
夏雨	-9067
多项	-9068
大同	-9069
天堂	-9070
女郎	-9071
宗宪	-9072
宝盈	-9073
就曾	-9074
差点	-9075
布里	-9076
庞大	-9077
康佳	-9078
弗雷	-9079
影帝	-9080
很强	-9081
德利	-9082
情的	-9083
拉诺	-9084
指控	-9085
推理	-9086
日程	-9087
时光	-9088
旺盛	-9089
杨昊	-9090
查分	-9091
格鲁	-9092
档线	-9093
梅尔	-9094
欢乐	-9095
每位	-9096
沉稳	-9097
热议	-9098
熊猫	-9099
片段	-9100
王宝	-9101
理光	-9102
用人	-9103
白棋	-9104
第八	-9105
等于	-9106
筹码	-9107
网讯	-9108
而从	-9109
能有	-9110
至关	-9111
至此	-9112
苗菲	-9113
落幕	-9114
蓝光	-9115
蓝军	-9116
西装	-9117
见习	-9118
详情	-9119
还得	-9120
这三	-9121
这首	-9122
进去	-9123
通货	-9124
重重	-9125
风光	-9126
饮食	-9127
首播	-9128
高额	-9129
(11	-9130
22.	-9131
3%。	-9132
ICE	-9133
ast	-9134
ich	-9135
son	-9136
▁前锋	-9137
▁因为	-9138
▁国家	-9139
▁广东	-9140
▁昨晚	-9141
万亿元	-9142
也需要	-9143
事件的	-9144
他自己	-9145
何润东	-9146
加大了	-9147
卡马乔	-9148
双方的	-9149
取景器	-9150
各高校	-9151
同样的	-9152
国内的	-9153
在我省	-9154
多年来	-9155
好成绩	-9156
孙继海	-9157
对我们	-9158
幅震荡	-9159
强烈的	-9160
很强的	-9161
时报讯	-9162
显示器	-9163
有消息	-9164
毕业于	-9165
海耶斯	-9166
的印象	-9167
的安全	-9168
的角度	-9169
站出来	-9170
第一名	-9171
银行业	-9172
阿德里	-9173
50%。	-9174
mart	-9175
uper	-9176
▁100	-9177
中国大学	-9178
中国选手	-9179
出场时间	-9180
分析认为	-9181
可以选择	-9182
基金产品	-9183
工业大学	-9184
我们现在	-9185
招商银行	-9186
招生单位	-9187
数字电视	-9188
未成年人	-9189
等效焦距	-9190
经济新闻	-9191
觉得自己	-9192
该基金的	-9193
量化宽松	-9194
1/2.3	-9195
Phone	-9196
根据自己的	-9197
▁值得一提的是	-9198
)”	-9199
-4	-9200
-7	-9201
HS	-9202
SE	-9203
”?	-9204
▁要	-9205
、5	-9206
一台	-9207
一记	-9208
一道	-9209
不下	-9210
不像	-9211
不胜	-9212
丝毫	-9213
两款	-9214
个子	-9215
主人	-9216
主播	-9217
产销	-9218
人力	-9219
代价	-9220
偏好	-9221
军人	-9222
出行	-9223
利多	-9224
前辈	-9225
加以	-9226
加尔	-9227
华东	-9228
华仔	-9229
南美	-9230
厂家	-9231
又将	-9232
发烧	-9233
回避	-9234
国防	-9235
基层	-9236
墨菲	-9237
多久	-9238
太空	-9239
夫人	-9240
奥沙	-9241
女王	-9242
字号	-9243
孙海	-9244
学士	-9245
就已	-9246
履行	-9247
帕托	-9248
年会	-9249
开唱	-9250
弗森	-9251
当作	-9252
感冒	-9253
我没	-9254
拍了	-9255
招呼	-9256
改版	-9257
救灾	-9258
数为	-9259
旋律	-9260
时隔	-9261
春季	-9262
格莱	-9263
江南	-9264
海关	-9265
温柔	-9266
港姐	-9267
热衷	-9268
照相	-9269
珍惜	-9270
珠宝	-9271
瓦伦	-9272
疲劳	-9273
眼光	-9274
短缺	-9275
碰到	-9276
立案	-9277
米尔	-9278
精准	-9279
红牛	-9280
羽毛	-9281
节前	-9282
节后	-9283
被判	-9284
要是	-9285
视听	-9286
记住	-9287
试用	-9288
赶上	-9289
身后	-9290
远射	-9291
追逐	-9292
配对	-9293
鉴定	-9294
铅笔	-9295
降级	-9296
院系	-9297
险胜	-9298
隐藏	-9299
,15	-9300
39.	-9301
ous	-9302
und	-9303
——“	-9304
▁LG	-9305
▁OS	-9306
▁关于	-9307
▁经过	-9308
、12	-9309
一年期	-9310
三巨头	-9311
不少人	-9312
不断地	-9313
为基础	-9314
主办的	-9315
了一种	-9316
倾向于	-9317
冯远征	-9318
几年的	-9319
到最后	-9320
加内特	-9321
北师大	-9322
博斯克	-9323
将进入	-9324
将通过	-9325
平台的	-9326
开始的	-9327
很喜欢	-9328
拍摄时	-9329
据统计	-9330
控制在	-9331
林俊杰	-9332
标志着	-9333
甚至是	-9334
百分之	-9335
的业绩	-9336
的成功	-9337
的报道	-9338
相机包	-9339
福布斯	-9340
给他们	-9341
维斯特	-9342
网络的	-9343
联合会	-9344
自动化	-9345
自己对	-9346
蓝筹股	-9347
表现的	-9348
被称为	-9349
还不能	-9350
这句话	-9351
都是在	-9352
队友们	-9353
专业考试	-9354
两场比赛	-9355
中国人民	-9356
人民法院	-9357
入学考试	-9358
大幅增加	-9359
奥沙利文	-9360
奥运冠军	-9361
安切洛蒂	-9362
完全没有	-9363
本科院校	-9364
本赛季的	-9365
极有可能	-9366
经济复苏	-9367
自由球员	-9368
虽然没有	-9369
通货膨胀	-9370
队的比赛	-9371
18-55	-9372
LLDPE	-9373
Touch	-9374
earch	-9375
▁Mark	-9376
▁外观方面	-9377
期货市场的	-9378
本科毕业生	-9379
的工作人员	-9380
ational	-9381
喜欢的朋友不妨	-9382
RS	-9383
TI	-9384
th	-9385
ve	-9386
▁再	-9387
▁因	-9388
。9	-9389
一生	-9390
万色	-9391
乔治	-9392
书的	-9393
人类	-9394
他有	-9395
代销	-9396
以轩	-9397
但仍	-9398
便于	-9399
倒数	-9400
克兰	-9401
军队	-9402
几率	-9403
出门	-9404
到处	-9405
副总	-9406
卡萨	-9407
却不	-9408
受此	-9409
变为	-9410
名牌	-9411
周董	-9412
嘉颖	-9413
圈中	-9414
地铁	-9415
坐镇	-9416
大了	-9417
大增	-9418
头的	-9419
她和	-9420
婚宴	-9421
实录	-9422
居住	-9423
巴特	-9424
弟子	-9425
当家	-9426
影院	-9427
您的	-9428
意图	-9429
慧敏	-9430
戴着	-9431
手持	-9432
扑出	-9433
折扣	-9434
拉动	-9435
拉米	-9436
拍完	-9437
指纹	-9438
挪威	-9439
更像	-9440
曾是	-9441
未见	-9442
朱骏	-9443
杀毒	-9444
李晓	-9445
柏林	-9446
某个	-9447
模样	-9448
气势	-9449
波拉	-9450
流向	-9451
消除	-9452
烤漆	-9453
热销	-9454
片内	-9455
用品	-9456
的口	-9457
监局	-9458
眼前	-9459
神州	-9460
稳固	-9461
第九	-9462
红包	-9463
细胞	-9464
细致	-9465
网报	-9466
羽泉	-9467
老大	-9468
老虎	-9469
胜率	-9470
舜天	-9471
节日	-9472
花钱	-9473
董洁	-9474
西奇	-9475
誉为	-9476
设在	-9477
误导	-9478
诸如	-9479
贴水	-9480
足坛	-9481
跟进	-9482
连线	-9483
连豆	-9484
通报	-9485
部队	-9486
酒井	-9487
酝酿	-9488
集结	-9489
预科	-9490
颖颖	-9491
鲜明	-9492
鸟巢	-9493
1.4	-9494
15%	-9495
3.3	-9496
30.	-9497
410	-9498
6.8	-9499
GSM	-9500
man	-9501
ork	-9502
ton	-9503
ymb	-9504
▁后卫	-9505
▁湖北	-9506
▁篮网	-9507
上一场	-9508
下跌了	-9509
专升本	-9510
丝毫不	-9511
为代表	-9512
交易中	-9513
他现在	-9514
代言人	-9515
供应商	-9516
保监会	-9517
信息的	-9518
倍光变	-9519
具备了	-9520
内蒙古	-9521
国际化	-9522
塞尔比	-9523
增长率	-9524
大会上	-9525
就是在	-9526
工业品	-9527
市盈率	-9528
应该说	-9529
开发者	-9530
开始后	-9531
我们也	-9532
所说的	-9533
找不到	-9534
收购价	-9535
本年度	-9536
朱丽倩	-9537
江苏队	-9538
法国队	-9539
的心态	-9540
禁区内	-9541
类型的	-9542
给予了	-9543
而且还	-9544
被对手	-9545
让孩子	-9546
费舍尔	-9547
这几天	-9548
阶段性	-9549
陈一冰	-9550
降低了	-9551
面临的	-9552
ould	-9553
▁据台湾	-9554
世界大赛	-9555
世界第一	-9556
中国队在	-9557
产品报价	-9558
元的价格	-9559
另外一个	-9560
大幅下挫	-9561
技术统计	-9562
有一定的	-9563
有关规定	-9564
综艺节目	-9565
股票市场	-9566
遗憾的是	-9567
部分基金	-9568
首发出场	-9569
▁与此同时	-9570
▁据新华社	-9571
任基金经理	-9572
关注的焦点	-9573
新增开户数	-9574
年硕士研究生	-9575
)》	-9576
:5	-9577
ON	-9578
RM	-9579
og	-9580
oy	-9581
×5	-9582
一手	-9583
上前	-9584
不一	-9585
不动	-9586
专卖	-9587
专心	-9588
中了	-9589
中海	-9590
乡村	-9591
众所	-9592
伴随	-9593
保存	-9594
修复	-9595
兰帕	-9596
写的	-9597
几名	-9598
分值	-9599
利于	-9600
力求	-9601
动感	-9602
匹配	-9603
发球	-9604
台下	-9605
向前	-9606
喜悦	-9607
嘉玲	-9608
回头	-9609
在中	-9610
均线	-9611
埃托	-9612
大举	-9613
夸张	-9614
孙祥	-9615
季前	-9616
学制	-9617
定于	-9618
平平	-9619
延期	-9620
式耳	-9621
强麦	-9622
微距	-9623
心如	-9624
惩罚	-9625
愉快	-9626
我有	-9627
战平	-9628
找出	-9629
掌声	-9630
提议	-9631
揭幕	-9632
斯图	-9633
斯汀	-9634
旁边	-9635
旧爱	-9636
星光	-9637
是指	-9638
景气	-9639
更强	-9640
朝伟	-9641
机的	-9642
棋院	-9643
气温	-9644
水浒	-9645
汪洋	-9646
汽油	-9647
沉默	-9648
法语	-9649
港台	-9650
热烈	-9651
热爱	-9652
焦虑	-9653
直击	-9654
神舟	-9655
税务	-9656
端子	-9657
缓存	-9658
职责	-9659
联袂	-9660
自律	-9661
自杀	-9662
色情	-9663
色调	-9664
芳雨	-9665
菲斯	-9666
营造	-9667
著称	-9668
蒂亚	-9669
蛋糕	-9670
表格	-9671
被打	-9672
被曝	-9673
装备	-9674
转投	-9675
转折	-9676
违约	-9677
陈楚	-9678
额外	-9679
风声	-9680
首届	-9681
麦基	-9682
黑人	-9683
00-	-9684
114	-9685
20-	-9686
260	-9687
37.	-9688
610	-9689
VIP	-9690
ner	-9691
▁Un	-9692
▁东芝	-9693
▁其次	-9694
▁学校	-9695
▁沪铜	-9696
一对一	-9697
也可能	-9698
也因此	-9699
先进的	-9700
兰帕德	-9701
刚开始	-9702
只是在	-9703
因为我	-9704
在国际	-9705
在目前	-9706
在自己	-9707
培训班	-9708
大商所	-9709
大学和	-9710
富士通	-9711
导致了	-9712
庞大的	-9713
很简单	-9714
情况看	-9715
惊人的	-9716
成交额	-9717
我们都	-9718
我可以	-9719
所学校	-9720
摩根士	-9721
收到了	-9722
是我的	-9723
格里芬	-9724
梁朝伟	-9725
概念股	-9726
次抢断	-9727
此前的	-9728
没办法	-9729
注意到	-9730
流通股	-9731
特维斯	-9732
球场上	-9733
电脑网	-9734
留下的	-9735
的一段	-9736
的事实	-9737
的人数	-9738
的性能	-9739
的表演	-9740
的费用	-9741
秘书长	-9742
第三者	-9743
第二大	-9744
级别的	-9745
老百姓	-9746
胡雪峰	-9747
自然是	-9748
虽然在	-9749
被媒体	-9750
这使得	-9751
选择的	-9752
采取了	-9753
,000	-9754
20%,	-9755
rome	-9756
×768	-9757
一如既往	-9758
主管部门	-9759
信托公司	-9760
分类监管	-9761
只是一个	-9762
基金分红	-9763
奥运会上	-9764
学习成绩	-9765
年轻球员	-9766
所有人都	-9767
本科三批	-9768
本科录取	-9769
欧债危机	-9770
相关部门	-9771
结果显示	-9772
统一考试	-9773
考虑一下	-9774
还有一些	-9775
通过网络	-9776
金融市场	-9777
阿里纳斯	-9778
非常重要	-9779
WCDMA	-9780
ffice	-9781
indle	-9782
▁上市时间	-9783
▁接口方面	-9784
▁数据显示	-9785
▁本场比赛	-9786
。2007	-9787
不错的选择	-9788
巡回演唱会	-9789
建议投资者	-9790
接受采访时	-9791
日早间消息	-9792
本场比赛中	-9793
这款笔记本	-9794
阿德里亚诺	-9795
ymbian	-9796
▁信息时报讯	-9797
▁记者了解到	-9798
分析人士指出	-9799
每日经济新闻	-9800
公布的数据显示	-9801
▁GeForce	-9802
??	-9803
OK	-9804
RB	-9805
▁许	-9806
。4	-9807
一句	-9808
一方	-9809
一日	-9810
一颗	-9811
七成	-9812
下课	-9813
不准	-9814
与之	-9815
中途	-9816
为她	-9817
为您	-9818
主板	-9819
于震	-9820
云集	-9821
五个	-9822
会长	-9823
使其	-9824
供求	-9825
借鉴	-9826
共识	-9827
再说	-9828
几家	-9829
出题	-9830
分量	-9831
刘烨	-9832
削减	-9833
卢克	-9834
印尼	-9835
历年	-9836
又要	-9837
受损	-9838
同为	-9839
后果	-9840
天娱	-9841
头上	-9842
奇尼	-9843
好看	-9844
宁夏	-9845
定为	-9846
客串	-9847
展览	-9848
左脚	-9849
已成	-9850
并与	-9851
广阔	-9852
引援	-9853
强制	-9854
得太	-9855
忘了	-9856
忙碌	-9857
悄悄	-9858
戏中	-9859
我市	-9860
招行	-9861
按钮	-9862
换人	-9863
操纵	-9864
收录	-9865
敬明	-9866
新款	-9867
无所	-9868
是从	-9869
更能	-9870
月上	-9871
油厂	-9872
波段	-9873
海德	-9874
片场	-9875
猫王	-9876
珞丹	-9877
瑞银	-9878
病情	-9879
百年	-9880
硬汉	-9881
祖国	-9882
立波	-9883
约旦	-9884
细则	-9885
翻盘	-9886
脚下	-9887
脱颖	-9888
致敬	-9889
艾伦	-9890
节省	-9891
萃雯	-9892
观赏	-9893
视线	-9894
解除	-9895
设有	-9896
话说	-9897
说他	-9898
谢晋	-9899
贴近	-9900
费尔	-9901
赞成	-9902
跌势	-9903
跳舞	-9904
车祸	-9905
选出	-9906
逐年	-9907
那一	-9908
都对	-9909
配售	-9910
酷派	-9911
银信	-9912
银幕	-9913
错了	-9914
长远	-9915
队医	-9916
阿密	-9917
阿曼	-9918
随身	-9919
高新	-9920
魔鬼	-9921
黄磊	-9922
默默	-9923
,17	-9924
1.0	-9925
118	-9926
211	-9927
264	-9928
28-	-9929
288	-9930
6%。	-9931
760	-9932
BOT	-9933
ish	-9934
net	-9935
▁(-	-9936
▁SD	-9937
▁do	-9938
▁这个	-9939
一季报	-9940
中国人	-9941
之一的	-9942
但最终	-9943
关键的	-9944
出租车	-9945
半小时	-9946
及家长	-9947
发生的	-9948
受影响	-9949
可以让	-9950
同时还	-9951
在哪里	-9952
在客场	-9953
在广州	-9954
埃托奥	-9955
多利亚	-9956
大家的	-9957
如今的	-9958
孙燕姿	-9959
学校长	-9960
实验室	-9961
家长和	-9962
对此事	-9963
将进行	-9964
就是要	-9965
尽全力	-9966
希望赛	-9967
张学友	-9968
当记者	-9969
总规模	-9970
指定的	-9971
提到了	-9972
日报道	-9973
明年的	-9974
是一部	-9975
有一点	-9976
李宗伟	-9977
条件的	-9978
比较大	-9979
涉及到	-9980
漂亮的	-9981
的冠军	-9982
的反弹	-9983
的射门	-9984
的有效	-9985
的模式	-9986
的涨幅	-9987
的精神	-9988
的记者	-9989
的镜头	-9990
第一位	-9991
第二位	-9992
答题卡	-9993
经验的	-9994
给孩子	-9995
艺术家	-9996
起到了	-9997
较强的	-9998
近期的	-9999
邓萃雯	-10000
都会有	-10001
阿尔法	-10002
陈伟霆	-10003
非周期	-10004
高考生	-10005
人才培养	-10006
公安机关	-10007
刻录光驱	-10008
实习记者	-10009
市场上的	-10010
投资基金	-10011
报名人数	-10012
招生政策	-10013
择优录取	-10014
旗下基金	-10015
最后一轮	-10016
的时间内	-10017
第一财经	-10018
经济发展	-10019
ility	-10020
▁What	-10021
主要是因为	-10022
伦敦奥运会	-10023
到目前为止	-10024
应届毕业生	-10025
很大程度上	-10026
比去年同期	-10027
笔记本采用	-10028
roupon	-10029
太平洋电脑网	-10030
Cl	-10031
FC	-10032
eg	-10033
▁x	-10034
▁唐	-10035
▁商	-10036
。8	-10037
一心	-10038
一改	-10039
万名	-10040
不败	-10041
与李	-10042
中欧	-10043
为由	-10044
举例	-10045
书记	-10046
交出	-10047
人人	-10048
价的	-10049
余额	-10050
倪萍	-10051
免考	-10052
共和	-10053
出征	-10054
出示	-10055
出自	-10056
加里	-10057
劲爆	-10058
北海	-10059
单月	-10060
南勇	-10061
占有	-10062
又一	-10063
双利	-10064
受邀	-10065
各家	-10066
同台	-10067
和大	-10068
唯物	-10069
善于	-10070
大将	-10071
婷婷	-10072
季军	-10073
安慰	-10074
实物	-10075
富有	-10076
小子	-10077
局长	-10078
常见	-10079
并称	-10080
延伸	-10081
开车	-10082
当今	-10083
当你	-10084
律宾	-10085
德隆	-10086
忙于	-10087
悉尼	-10088
意的	-10089
才有	-10090
拉圭	-10091
改为	-10092
敬腾	-10093
新剧	-10094
新星	-10095
春天	-10096
橄榄	-10097
欢喜	-10098
每场	-10099
没法	-10100
泄露	-10101
注定	-10102
流传	-10103
浦东	-10104
海报	-10105
清洗	-10106
演练	-10107
点半	-10108
犹如	-10109
琳娜	-10110
的有	-10111
的说	-10112
相恋	-10113
睡觉	-10114
穿越	-10115
等奖	-10116
米利	-10117
红魔	-10118
缩减	-10119
考务	-10120
背诵	-10121
能让	-10122
自费	-10123
见过	-10124
讲座	-10125
试行	-10126
诚意	-10127
该股	-10128
调价	-10129
超额	-10130
跟他	-10131
转战	-10132
送到	-10133
逛街	-10134
造假	-10135
那场	-10136
金牛	-10137
长大	-10138
除外	-10139
险些	-10140
雅捷	-10141
静初	-10142
非凡	-10143
飘红	-10144
首尔	-10145
马赫	-10146
黑马	-10147
1.1	-10148
2.1	-10149
23.	-10150
9%。	-10151
APS	-10152
MVP	-10153
TCL	-10154
ens	-10155
ini	-10156
omm	-10157
▁30	-10158
▁sh	-10159
▁中场	-10160
▁价格	-10161
▁总分	-10162
▁来自	-10163
▁福建	-10164
下一代	-10165
不断的	-10166
与去年	-10167
交易量	-10168
产品中	-10169
享受到	-10170
以至于	-10171
做准备	-10172
凭借着	-10173
创纪录	-10174
别人的	-10175
即将在	-10176
原则上	-10177
只需要	-10178
可拍摄	-10179
合约报	-10180
名人堂	-10181
向媒体	-10182
国联安	-10183
声明中	-10184
如果有	-10185
如果说	-10186
将会在	-10187
尼尔森	-10188
巴西队	-10189
希望在	-10190
年考研	-10191
并支持	-10192
张靓颖	-10193
很开心	-10194
所在的	-10195
是可以	-10196
更多地	-10197
本人的	-10198
来到了	-10199
来形容	-10200
江苏省	-10201
流行的	-10202
淘宝网	-10203
然后再	-10204
的两个	-10205
的原则	-10206
的基本	-10207
的女孩	-10208
的推出	-10209
的理解	-10210
的研究	-10211
的经历	-10212
的股权	-10213
看不到	-10214
经历过	-10215
结束前	-10216
自己是	-10217
菲律宾	-10218
贡献了	-10219
迈阿密	-10220
近距离	-10221
郑秀文	-10222
1100	-10223
1700	-10224
2600	-10225
9:00	-10226
iPod	-10227
ople	-10228
▁Pro	-10229
上篮得手	-10230
个篮板和	-10231
中国女足	-10232
主力阵容	-10233
他们已经	-10234
体育考试	-10235
养老保险	-10236
募集规模	-10237
在市场上	-10238
实名推荐	-10239
尤其是在	-10240
我们可以	-10241
技术移民	-10242
报名时间	-10243
摩根士丹	-10244
无论如何	-10245
景顺长城	-10246
最大光圈	-10247
有所下降	-10248
瓦伦西亚	-10249
的前提下	-10250
纽约时报	-10251
续航时间	-10252
负面影响	-10253
还有很多	-10254
长焦相机	-10255
领先优势	-10256
高清摄像	-10257
▁摩托罗拉	-10258
不同程度的	-10259
基金开户数	-10260
影像处理器	-10261
招生计划为	-10262
Chrome	-10263
货币市场基金	-10264
esearch	-10265
▁ThinkPad	-10266
3、	-10267
AN	-10268
BM	-10269
CX	-10270
FO	-10271
vs	-10272
▁Z	-10273
▁易	-10274
上期	-10275
不成	-10276
不说	-10277
丢失	-10278
两度	-10279
为之	-10280
主创	-10281
买断	-10282
买进	-10283
了近	-10284
事先	-10285
亚泰	-10286
以待	-10287
仪器	-10288
作物	-10289
停产	-10290
停赛	-10291
健身	-10292
充当	-10293
出人	-10294
募资	-10295
包揽	-10296
升初	-10297
卖家	-10298
南钢	-10299
博阿	-10300
古天	-10301
各省	-10302
同胞	-10303
周的	-10304
和新	-10305
器材	-10306
垂直	-10307
基德	-10308
处处	-10309
天价	-10310
她又	-10311
宿舍	-10312
尔和	-10313
尖叫	-10314
就把	-10315
屡屡	-10316
巴洛	-10317
市的	-10318
并于	-10319
弗朗	-10320
急需	-10321
总会	-10322
恩怨	-10323
扎实	-10324
托尼	-10325
报酬	-10326
拼音	-10327
指南	-10328
损害	-10329
接入	-10330
接应	-10331
接待	-10332
推杆	-10333
携程	-10334
支招	-10335
攻防	-10336
敲定	-10337
斯诺	-10338
更低	-10339
极致	-10340
核准	-10341
法官	-10342
游客	-10343
热潮	-10344
玫瑰	-10345
珠海	-10346
班人	-10347
生效	-10348
略显	-10349
眼泪	-10350
着实	-10351
离去	-10352
突发	-10353
维也	-10354
美棉	-10355
考上	-10356
航天	-10357
装扮	-10358
负的	-10359
起步	-10360
越狱	-10361
车主	-10362
轮换	-10363
辈子	-10364
过高	-10365
还说	-10366
重申	-10367
长信	-10368
闪存	-10369
预赛	-10370
颇具	-10371
魔兽	-10372
鲨鱼	-10373
齐全	-10374
430	-10375
45.	-10376
Mac	-10377
ace	-10378
▁21	-10379
▁全球	-10380
▁北大	-10381
▁新快	-10382
▁韩国	-10383
不过他	-10384
主产区	-10385
主要的	-10386
也正是	-10387
信用债	-10388
做一个	-10389
分别在	-10390
北京的	-10391
参与者	-10392
发生后	-10393
咨询会	-10394
在昨天	-10395
在英国	-10396
在进攻	-10397
在高考	-10398
存在着	-10399
安德鲁	-10400
完整的	-10401
对学生	-10402
将持续	-10403
将迎来	-10404
就业率	-10405
已开始	-10406
建立了	-10407
开发的	-10408
很不错	-10409
我们有	-10410
我非常	-10411
所在地	-10412
执行官	-10413
收盘于	-10414
效力于	-10415
月开始	-10416
有针对	-10417
未婚夫	-10418
正处于	-10419
海淀区	-10420
狄波拉	-10421
班主任	-10422
的热身	-10423
的看法	-10424
的突破	-10425
确定的	-10426
突出的	-10427
终场前	-10428
舒马赫	-10429
营业厅	-10430
萧敬腾	-10431
蒲式耳	-10432
西门子	-10433
许可证	-10434
论坛上	-10435
诺维奇	-10436
跌停板	-10437
还不够	-10438
通过对	-10439
那时候	-10440
金球奖	-10441
阿拉伯	-10442
黄维德	-10443
1999	-10444
2014	-10445
ever	-10446
hina	-10447
▁-0.	-10448
▁Mob	-10449
▁四六级	-10450
中国证券	-10451
中考频道	-10452
优秀学生	-10453
兴业银行	-10454
助学贷款	-10455
同时表示	-10456
商家名称	-10457
家庭经济	-10458
密切关注	-10459
尽管如此	-10460
所以我们	-10461
投资策略	-10462
显得有些	-10463
每日邮报	-10464
海外市场	-10465
的新基金	-10466
的时间里	-10467
的消费者	-10468
紧随其后	-10469
还有一个	-10470
通胀预期	-10471
高考作文	-10472
elina	-10473
press	-10474
▁中考论坛	-10475
新基金发行	-10476
日晚间消息	-10477
最重要的是	-10478
本场比赛的	-10479
高中毕业生	-10480
Kindle	-10481
▁中考博客圈	-10482
原油期货价格	-10483
新浪中考频道	-10484
▁Mobility	-10485
5,	-10486
9%	-10487
CH	-10488
bo	-10489
ep	-10490
gr	-10491
▁k	-10492
▁余	-10493
▁宋	-10494
▁无	-10495
▁杜	-10496
一篇	-10497
一经	-10498
三成	-10499
三本	-10500
下达	-10501
不予	-10502
不让	-10503
中天	-10504
之初	-10505
之称	-10506
交代	-10507
亮的	-10508
人事	-10509
从此	-10510
以太	-10511
侯瓒	-10512
保健	-10513
信诚	-10514
倒地	-10515
光明	-10516
克里	-10517
入住	-10518
全身	-10519
八强	-10520
冒险	-10521
出入	-10522
出资	-10523
出身	-10524
则为	-10525
则说	-10526
到货	-10527
制约	-10528
前提	-10529
前途	-10530
加重	-10531
劣势	-10532
勇敢	-10533
勒斯	-10534
单场	-10535
南昌	-10536
友情	-10537
友谊	-10538
反馈	-10539
受害	-10540
只为	-10541
可用	-10542
合照	-10543
名词	-10544
后才	-10545
和解	-10546
哈佛	-10547
哪怕	-10548
唐山	-10549
回了	-10550
困惑	-10551
图案	-10552
在和	-10553
场所	-10554
处的	-10555
备案	-10556
好奇	-10557
宝石	-10558
将和	-10559
左手	-10560
巩固	-10561
巴约	-10562
帅气	-10563
带球	-10564
干脆	-10565
幸好	-10566
建行	-10567
开会	-10568
弱点	-10569
当月	-10570
彰显	-10571
很想	-10572
徐静	-10573
志强	-10574
快女	-10575
恶搞	-10576
惊叹	-10577
投连	-10578
护肤	-10579
拼命	-10580
探望	-10581
推测	-10582
撰文	-10583
收涨	-10584
整天	-10585
整整	-10586
斥资	-10587
斯通	-10588
无比	-10589
替换	-10590
杀入	-10591
李健	-10592
梅内	-10593
棋圣	-10594
欧联	-10595
汤姆	-10596
沙溢	-10597
注入	-10598
灵魂	-10599
热拍	-10600
熟知	-10601
留给	-10602
疲弱	-10603
监制	-10604
监狱	-10605
看空	-10606
破产	-10607
离队	-10608
符号	-10609
等着	-10610
耀眼	-10611
老牌	-10612
聚会	-10613
落下	-10614
要么	-10615
计时	-10616
诊断	-10617
说我	-10618
谈起	-10619
过年	-10620
这边	-10621
进驻	-10622
金钟	-10623
阻挡	-10624
陷阱	-10625
静态	-10626
领涨	-10627
首募	-10628
高涨	-10629
24-	-10630
248	-10631
7.5	-10632
act	-10633
fps	-10634
ley	-10635
ohn	-10636
▁4、	-10637
▁we	-10638
▁就在	-10639
▁手机	-10640
▁湖人	-10641
▁百度	-10642
▁综合	-10643
▁自从	-10644
▁部分	-10645
▁黄金	-10646
下跌的	-10647
中小学	-10648
也十分	-10649
了一条	-10650
了一款	-10651
产品线	-10652
亿英镑	-10653
以下的	-10654
候选人	-10655
兑美元	-10656
制定的	-10657
前不久	-10658
华莱士	-10659
古天乐	-10660
同性恋	-10661
和市场	-10662
图库供	-10663
在今天	-10664
在场边	-10665
女歌手	-10666
好消息	-10667
如果在	-10668
季节性	-10669
安排了	-10670
完成的	-10671
完美的	-10672
客户的	-10673
对后市	-10674
将增加	-10675
岁生日	-10676
引人注	-10677
弗莱彻	-10678
打造的	-10679
推荐的	-10680
日晚上	-10681
日本的	-10682
是一支	-10683
曾志伟	-10684
有一天	-10685
极高的	-10686
每一次	-10687
比利时	-10688
深交所	-10689
演艺圈	-10690
的希望	-10691
的帮助	-10692
的意思	-10693
的收益	-10694
的最高	-10695
的热门	-10696
的父亲	-10697
的这一	-10698
看到的	-10699
真的是	-10700
硕士生	-10701
第一大	-10702
第三轮	-10703
第二场	-10704
类产品	-10705
类似于	-10706
维也纳	-10707
老师说	-10708
股市的	-10709
被取消	-10710
语言学	-10711
辽宁队	-10712
郭晶晶	-10713
都需要	-10714
重庆市	-10715
错过了	-10716
集团的	-10717
非常大	-10718
高性能	-10719
50%,	-10720
▁HTC	-10721
▁are	-10722
▁con	-10723
▁北京市	-10724
▁第二节	-10725
信息服务	-10726
刚刚结束	-10727
印象深刻	-10728
发布时间	-10729
国内市场	-10730
基金规模	-10731
基金资产	-10732
市场人士	-10733
成立以来	-10734
新浪科技	-10735
昨日下午	-10736
生活中的	-10737
的重要性	-10738
联系地址	-10739
脱颖而出	-10740
证券公司	-10741
语言文学	-10742
风险控制	-10743
高考状元	-10744
1920×	-10745
Droid	-10746
▁more	-10747
双核处理器	-10748
摩根士丹利	-10749
日凌晨消息	-10750
货币型基金	-10751
存款准备金率	-10752
Symbian	-10753
年普通高校招生	-10754
FL	-10755
ky	-10756
zk	-10757
▁现	-10758
▁除	-10759
一味	-10760
一斑	-10761
一行	-10762
丁格	-10763
万多	-10764
下月	-10765
不减	-10766
不宜	-10767
不对	-10768
不然	-10769
丑闻	-10770
两张	-10771
中外	-10772
临床	-10773
之作	-10774
之情	-10775
亨利	-10776
他更	-10777
们在	-10778
伊特	-10779
低廉	-10780
佣金	-10781
侦探	-10782
倪震	-10783
偶尔	-10784
养殖	-10785
内在	-10786
内幕	-10787
内托	-10788
冯绍	-10789
冲动	-10790
决战	-10791
出厂	-10792
出院	-10793
出面	-10794
切实	-10795
前两	-10796
前进	-10797
勿扰	-10798
匆匆	-10799
北方	-10800
华的	-10801
印刷	-10802
压榨	-10803
只在	-10804
可观	-10805
各科	-10806
合一	-10807
周知	-10808
地域	-10809
备用	-10810
夜店	-10811
大楼	-10812
夫兰	-10813
女婿	-10814
姿态	-10815
定存	-10816
宣告	-10817
家有	-10818
导向	-10819
局的	-10820
工人	-10821
并以	-10822
开打	-10823
弗洛	-10824
强力	-10825
很是	-10826
很棒	-10827
悬疑	-10828
想起	-10829
慎重	-10830
我最	-10831
打过	-10832
抗议	-10833
抢先	-10834
探班	-10835
提案	-10836
揭开	-10837
揭秘	-10838
放到	-10839
整数	-10840
易立	-10841
曾被	-10842
有何	-10843
服饰	-10844
本质	-10845
李玮	-10846
校方	-10847
格尔	-10848
桂纶	-10849
欲望	-10850
歌坛	-10851
永不	-10852
求证	-10853
海啸	-10854
海尔	-10855
涵予	-10856
渗透	-10857
温和	-10858
点或	-10859
特定	-10860
献唱	-10861
球馆	-10862
甘肃	-10863
白领	-10864
皮尔	-10865
相识	-10866
睢冉	-10867
秒的	-10868
粮油	-10869
约占	-10870
能为	-10871
自豪	-10872
落地	-10873
西方	-10874
要把	-10875
订购	-10876
赢家	-10877
走弱	-10878
走访	-10879
跑步	-10880
转为	-10881
转而	-10882
轮动	-10883
过半	-10884
近两	-10885
还需	-10886
远期	-10887
适时	-10888
里皮	-10889
间接	-10890
隐患	-10891
震惊	-10892
非诚	-10893
韩红	-10894
飞行	-10895
首部	-10896
,13	-10897
1/4	-10898
123	-10899
190	-10900
50.	-10901
660	-10902
:15	-10903
>>>	-10904
PEG	-10905
bps	-10906
▁17	-10907
▁最高	-10908
▁赛后	-10909
▁这次	-10910
三分线	-10911
上升至	-10912
不是很	-10913
中学生	-10914
中长期	-10915
为了让	-10916
乔布斯	-10917
也认为	-10918
也许是	-10919
了中国	-10920
了他的	-10921
了许多	-10922
人物的	-10923
他可以	-10924
会继续	-10925
你可以	-10926
信证券	-10927
冯绍峰	-10928
即便是	-10929
在赛后	-10930
大中华	-10931
存在的	-10932
已超过	-10933
弗兰克	-10934
当地的	-10935
感受到	-10936
所以在	-10937
日前在	-10938
时尚的	-10939
晚报讯	-10940
最终的	-10941
有多少	-10942
李宇春	-10943
桂纶镁	-10944
欧联杯	-10945
生孩子	-10946
的售价	-10947
的应用	-10948
的教练	-10949
的责任	-10950
第一轮	-10951
考生须	-10952
背后的	-10953
自由人	-10954
转移到	-10955
还不错	-10956
还剩下	-10957
郭敬明	-10958
重量为	-10959
阿里汉	-10960
陈慧琳	-10961
风格的	-10962
15%,	-10963
30%。	-10964
CBOT	-10965
WIFI	-10966
andy	-10967
▁2.0	-10968
▁our	-10969
不确定性	-10970
主要原因	-10971
众所周知	-10972
但是我们	-10973
作为一款	-10974
信息技术	-10975
只基金的	-10976
国际象棋	-10977
实际情况	-10978
富国天丰	-10979
巴洛特利	-10980
形象大使	-10981
心目中的	-10982
手机上网	-10983
批次录取	-10984
早些时候	-10985
流通股东	-10986
短时间内	-10987
管理部门	-10988
继续保持	-10989
记者发现	-10990
记者获悉	-10991
进一步的	-10992
非诚勿扰	-10993
黄金期货	-10994
1280×	-10995
eople	-10996
▁配置方面	-10997
基金分析师	-10998
将比分追成	-10999
较去年同期	-11000
Office	-11001
▁about	-11002
万有效像素的	-11003
普通高等学校	-11004
日太平洋电脑网	-11005
1366×768	-11006
1920×1080	-11007
;2	-11008
EP	-11009
HK	-11010
ct	-11011
pv	-11012
zs	-11013
一到	-11014
一组	-11015
一脚	-11016
万个	-11017
三级	-11018
上也	-11019
不做	-11020
与他	-11021
业的	-11022
两项	-11023
严禁	-11024
个大	-11025
乐团	-11026
了吗	-11027
仍需	-11028
令她	-11029
伦铜	-11030
低谷	-11031
使馆	-11032
倾斜	-11033
做人	-11034
全胜	-11035
关机	-11036
剑桥	-11037
力申	-11038
动向	-11039
勇气	-11040
包夹	-11041
化解	-11042
单元	-11043
单日	-11044
博格	-11045
原有	-11046
古代	-11047
启刚	-11048
吴尊	-11049
和我	-11050
商标	-11051
嘉伯	-11052
回放	-11053
在第	-11054
填空	-11055
士兵	-11056
多万	-11057
多样	-11058
大唐	-11059
大有	-11060
头寸	-11061
女队	-11062
子弹	-11063
子里	-11064
定在	-11065
将向	-11066
小区	-11067
就好	-11068
尺度	-11069
峰会	-11070
已婚	-11071
巴尔	-11072
帕切	-11073
影星	-11074
得起	-11075
恐惧	-11076
惯例	-11077
意志	-11078
我从	-11079
执黑	-11080
扬州	-11081
承办	-11082
拥抱	-11083
探底	-11084
收低	-11085
收高	-11086
斗志	-11087
新颖	-11088
时要	-11089
是其	-11090
晚间	-11091
曲线	-11092
校考	-11093
格拉	-11094
欠缺	-11095
歌唱	-11096
止损	-11097
正版	-11098
殷桃	-11099
泰格	-11100
港股	-11101
源于	-11102
火花	-11103
熟练	-11104
王晶	-11105
生气	-11106
男星	-11107
盘点	-11108
着重	-11109
精炼	-11110
累积	-11111
维权	-11112
罗比	-11113
耐力	-11114
肩膀	-11115
背靠	-11116
胜一	-11117
自如	-11118
荷银	-11119
菲特	-11120
薪金	-11121
要到	-11122
要多	-11123
误差	-11124
说服	-11125
谁能	-11126
财年	-11127
跳绳	-11128
过大	-11129
还好	-11130
远程	-11131
迭戈	-11132
道格	-11133
里奥	-11134
金钱	-11135
铁路	-11136
锋芝	-11137
附属	-11138
随便	-11139
露面	-11140
面部	-11141
音效	-11142
颁发	-11143
风雨	-11144
马云	-11145
201	-11146
4.3	-11147
8.5	-11148
now	-11149
pvc	-11150
▁08	-11151
▁22	-11152
▁8.	-11153
▁徕卡	-11154
▁替补	-11155
▁点评	-11156
▁通过	-11157
。11	-11158
。19	-11159
一句话	-11160
不具备	-11161
不能再	-11162
为中国	-11163
也有所	-11164
产量为	-11165
他们是	-11166
佩德罗	-11167
健康的	-11168
公安局	-11169
其实我	-11170
冠军杯	-11171
博客中	-11172
召开的	-11173
史蒂夫	-11174
合约的	-11175
在他的	-11176
在片中	-11177
城市的	-11178
大奖赛	-11179
实用的	-11180
宽松的	-11181
小时候	-11182
就不会	-11183
属高校	-11184
巴拉克	-11185
巴西人	-11186
很明显	-11187
很显然	-11188
得不到	-11189
意义上	-11190
成功率	-11191
成都市	-11192
截止到	-11193
播出的	-11194
斯诺克	-11195
日公布	-11196
曼奇尼	-11197
李冰冰	-11198
河北省	-11199
活动中	-11200
满意的	-11201
王力宏	-11202
王珞丹	-11203
申请者	-11204
的一幕	-11205
的人生	-11206
的唯一	-11207
的粉丝	-11208
的网站	-11209
的职业	-11210
的评价	-11211
知名度	-11212
稳定性	-11213
等相关	-11214
而目前	-11215
能源署	-11216
落榜生	-11217
赞助商	-11218
辅导班	-11219
还拥有	-11220
这样做	-11221
进行到	-11222
郑嘉颖	-11223
金额为	-11224
霍启刚	-11225
韦斯特	-11226
首先要	-11227
2013	-11228
ical	-11229
mail	-11230
东方卫视	-11231
中国市场	-11232
了一定的	-11233
交易中心	-11234
准备工作	-11235
前段时间	-11236
华夏策略	-11237
反弹行情	-11238
和信息化	-11239
在这样的	-11240
基准利率	-11241
大幅下降	-11242
小幅下跌	-11243
已经结束	-11244
已经超过	-11245
建筑钢材	-11246
快门速度	-11247
投资公司	-11248
投资者可	-11249
接受采访	-11250
本科一批	-11251
欧洲央行	-11252
清洁套装	-11253
申请材料	-11254
电影学院	-11255
目前该机	-11256
研究报告	-11257
种植面积	-11258
见习记者	-11259
达成协议	-11260
这些都是	-11261
进入考场	-11262
媒体采访时	-11263
感光度范围	-11264
投篮命中率	-11265
新泽西篮网	-11266
的市场份额	-11267
首席执行官	-11268
第一财经日报	-11269
上海期货交易所	-11270
%)	-11271
?,	-11272
CB	-11273
ey	-11274
▁)	-11275
▁曹	-11276
▁沈	-11277
▁钱	-11278
一再	-11279
一脸	-11280
丁子	-11281
万国	-11282
不来	-11283
不着	-11284
不计	-11285
与张	-11286
两岸	-11287
中盘	-11288
为首	-11289
之势	-11290
之星	-11291
云天	-11292
交投	-11293
令营	-11294
以其	-11295
住院	-11296
侧面	-11297
光线	-11298
兑现	-11299
农场	-11300
出路	-11301
刘炜	-11302
前夕	-11303
前所	-11304
功力	-11305
加权	-11306
动能	-11307
千克	-11308
华纳	-11309
单招	-11310
参展	-11311
可比	-11312
号位	-11313
同庆	-11314
名次	-11315
后就	-11316
哈哈	-11317
四国	-11318
回购	-11319
增产	-11320
增利	-11321
外部	-11322
大事	-11323
天治	-11324
太过	-11325
奖牌	-11326
如愿	-11327
它是	-11328
实战	-11329
对着	-11330
就没	-11331
尼克	-11332
带到	-11333
并有	-11334
强硬	-11335
徒刑	-11336
得不	-11337
德文	-11338
心思	-11339
忙着	-11340
急于	-11341
成招	-11342
所说	-11343
手指	-11344
扩散	-11345
折合	-11346
抽签	-11347
担当	-11348
捧场	-11349
排列	-11350
搞怪	-11351
改造	-11352
斯蒂	-11353
新娘	-11354
施工	-11355
无一	-11356
日语	-11357
时就	-11358
时至	-11359
昌镐	-11360
曾与	-11361
最爱	-11362
月期	-11363
杀青	-11364
李霄	-11365
条例	-11366
杨千	-11367
杨幂	-11368
梳理	-11369
模板	-11370
此役	-11371
殷铁	-11372
汇报	-11373
法定	-11374
波兰	-11375
洛斯	-11376
流出	-11377
深深	-11378
清单	-11379
清理	-11380
父子	-11381
王学	-11382
申万	-11383
申银	-11384
的总	-11385
的长	-11386
监护	-11387
目击	-11388
相较	-11389
看不	-11390
磨砂	-11391
空白	-11392
立陶	-11393
米雪	-11394
紧缺	-11395
纠正	-11396
线索	-11397
美股	-11398
而据	-11399
联动	-11400
脾气	-11401
艺谋	-11402
花旦	-11403
苏州	-11404
茅斯	-11405
落泪	-11406
薄弱	-11407
装饰	-11408
要对	-11409
言语	-11410
订婚	-11411
认知	-11412
课题	-11413
象征	-11414
赛迪	-11415
越位	-11416
较弱	-11417
输掉	-11418
这与	-11419
迫使	-11420
退市	-11421
道具	-11422
郁闷	-11423
配音	-11424
重磅	-11425
钢巴	-11426
镜片	-11427
阳刚	-11428
陈小	-11429
除息	-11430
难有	-11431
靠近	-11432
飞人	-11433
黄健	-11434
(10	-11435
,18	-11436
---	-11437
125	-11438
399	-11439
710	-11440
888	-11441
IPS	-11442
ube	-11443
ver	-11444
”。“	-11445
▁Ed	-11446
▁le	-11447
▁天相	-11448
▁所以	-11449
▁法国	-11450
▁科比	-11451
▁雅思	-11452
下一轮	-11453
不再是	-11454
不符合	-11455
不足以	-11456
专注于	-11457
东南亚	-11458
个考点	-11459
中后卫	-11460
之外的	-11461
人生的	-11462
他们将	-11463
他还是	-11464
他透露	-11465
仪式上	-11466
但是他	-11467
侯耀文	-11468
八一队	-11469
内维尔	-11470
十年代	-11471
半年报	-11472
反映出	-11473
可以用	-11474
可实现	-11475
史上最	-11476
周海滨	-11477
和大家	-11478
在机身	-11479
在赛季	-11480
埃弗顿	-11481
夫斯基	-11482
安以轩	-11483
完全是	-11484
家企业	-11485
将根据	-11486
就知道	-11487
巴丁格	-11488
布拉德	-11489
帕切科	-11490
并不多	-11491
幼儿园	-11492
张照片	-11493
成熟的	-11494
我感觉	-11495
我还是	-11496
或许是	-11497
手中的	-11498
拒绝了	-11499
提高到	-11500
新台币	-11501
新能源	-11502
日期间	-11503
日结束	-11504
朱芳雨	-11505
欧洲杯	-11506
每年的	-11507
演员的	-11508
王雅捷	-11509
电子盘	-11510
的一对	-11511
的方向	-11512
的最后	-11513
的消费	-11514
的生产	-11515
的精彩	-11516
的综合	-11517
的配置	-11518
确定了	-11519
社会的	-11520
立陶宛	-11521
第一节	-11522
等方式	-11523
系统性	-11524
组成的	-11525
经验和	-11526
考生们	-11527
肯定是	-11528
获得过	-11529
较多的	-11530
达不到	-11531
附近的	-11532
马刺队	-11533
15%。	-11534
9000	-11535
NCAA	-11536
ital	-11537
ream	-11538
▁据香港	-11539
一直处于	-11540
万人民币	-11541
专业志愿	-11542
中华台北	-11543
也不知道	-11544
今年我省	-11545
从业人员	-11546
克里斯蒂	-11547
冲刺阶段	-11548
千万不要	-11549
国际学生	-11550
基金旗下	-11551
定期存款	-11552
小幅上涨	-11553
广大考生	-11554
所带来的	-11555
投篮命中	-11556
拍摄功能	-11557
推荐商家	-11558
新浪娱乐	-11559
新赛季的	-11560
替补出场	-11561
期货品种	-11562
正在进行	-11563
毕业证书	-11564
派发红利	-11565
申银万国	-11566
管理学院	-11567
英格兰队	-11568
表现出色	-11569
财经大学	-11570
进行调整	-11571
连拍速度	-11572
重点关注	-11573
阿德巴约	-11574
高位震荡	-11575
inked	-11576
喜欢的朋友	-11577
复试分数线	-11578
液晶显示屏	-11579
铁矿石价格	-11580
国内期货市场	-11581
大宗商品价格	-11582
拟任基金经理	-11583
知情人士透露	-11584
较上一交易日	-11585
7%	-11586
:2	-11587
FX	-11588
Ga	-11589
SA	-11590
ef	-11591
ks	-11592
no	-11593
ug	-11594
▁e	-11595
▁亚	-11596
▁省	-11597
、6	-11598
。。	-11599
一声	-11600
一连	-11601
一面	-11602
三段	-11603
不适	-11604
与众	-11605
东道	-11606
两球	-11607
九城	-11608
书籍	-11609
了几	-11610
二中	-11611
二度	-11612
人是	-11613
人脸	-11614
令他	-11615
低走	-11616
倡导	-11617
偏空	-11618
停摆	-11619
储存	-11620
兆旭	-11621
六婶	-11622
列为	-11623
则以	-11624
刚好	-11625
制订	-11626
勉强	-11627
华富	-11628
南开	-11629
压轴	-11630
可怕	-11631
吃惊	-11632
各级	-11633
同城	-11634
同日	-11635
后防	-11636
和平	-11637
哪儿	-11638
回事	-11639
均是	-11640
坚固	-11641
增量	-11642
复古	-11643
复查	-11644
多彩	-11645
女单	-11646
子弟	-11647
定额	-11648
家伙	-11649
家辉	-11650
巧妙	-11651
布尔	-11652
帖子	-11653
带队	-11654
常务	-11655
庆典	-11656
开球	-11657
归来	-11658
当我	-11659
心得	-11660
志安	-11661
志浩	-11662
悉数	-11663
感人	-11664
战的	-11665
手上	-11666
扣除	-11667
抖动	-11668
拉齐	-11669
拍的	-11670
按时	-11671
据说	-11672
推行	-11673
收官	-11674
文凭	-11675
文理	-11676
旭日	-11677
星级	-11678
月起	-11679
有三	-11680
期内	-11681
木马	-11682
杰森	-11683
核对	-11684
格罗	-11685
楼市	-11686
此项	-11687
比联	-11688
沉重	-11689
注明	-11690
海清	-11691
温州	-11692
滑盖	-11693
炮轰	-11694
生成	-11695
甲型	-11696
电容	-11697
留住	-11698
疲惫	-11699
的球	-11700
的非	-11701
盛宴	-11702
站上	-11703
端的	-11704
约什	-11705
纯债	-11706
终极	-11707
缩短	-11708
缺陷	-11709
罗恩	-11710
美好	-11711
美食	-11712
而又	-11713
职称	-11714
胶价	-11715
脚架	-11716
艺考	-11717
英皇	-11718
荣幸	-11719
莱昂	-11720
获准	-11721
补录	-11722
西斯	-11723
话语	-11724
语法	-11725
败给	-11726
贴膜	-11727
走过	-11728
跳槽	-11729
踢得	-11730
还为	-11731
逢低	-11732
遏制	-11733
道题	-11734
采集	-11735
钢企	-11736
降息	-11737
限量	-11738
预示	-11739
饱受	-11740
首家	-11741
马可	-11742
,23	-11743
,30	-11744
102	-11745
104	-11746
119	-11747
35.	-11748
370	-11749
420	-11750
620	-11751
CDC	-11752
LUX	-11753
You	-11754
dea	-11755
ony	-11756
ult	-11757
▁lo	-11758
▁——	-11759
▁专业	-11760
▁四川	-11761
▁河南	-11762
▁这款	-11763
▁门将	-11764
一切都	-11765
一口气	-11766
一定是	-11767
一直被	-11768
不会再	-11769
为主要	-11770
为他们	-11771
主持的	-11772
主裁判	-11773
也纷纷	-11774
了起来	-11775
今年在	-11776
从技术	-11777
会选择	-11778
信息网	-11779
公司和	-11780
其他人	-11781
净值的	-11782
刘嘉玲	-11783
则认为	-11784
即使在	-11785
即将于	-11786
反垄断	-11787
另一种	-11788
只股票	-11789
右后卫	-11790
回来的	-11791
在电影	-11792
大前锋	-11793
大比分	-11794
她认为	-11795
孙菲菲	-11796
学专业	-11797
对不起	-11798
对比度	-11799
将出现	-11800
工作室	-11801
年年底	-11802
库伊特	-11803
库存的	-11804
往往是	-11805
德里克	-11806
我不想	-11807
拉斯维	-11808
择校生	-11809
收盘报	-11810
无线电	-11811
日举行	-11812
是一位	-11813
是美国	-11814
普林斯	-11815
林心如	-11816
格莱美	-11817
模式下	-11818
殷铁生	-11819
水平的	-11820
洗衣机	-11821
点左右	-11822
特有的	-11823
现场的	-11824
的一点	-11825
的主题	-11826
的传球	-11827
的女儿	-11828
的录取	-11829
的操作	-11830
的认可	-11831
的重点	-11832
知情人	-11833
确实是	-11834
第一天	-11835
等离子	-11836
给观众	-11837
荷兰队	-11838
表达了	-11839
边后卫	-11840
这部戏	-11841
银监会	-11842
非常的	-11843
高质量	-11844
3100	-11845
ance	-11846
▁(2)	-11847
▁-1.	-11848
▁pro	-11849
▁上赛季	-11850
上市以来	-11851
交易平台	-11852
产业发展	-11853
什么样的	-11854
他是一个	-11855
保险保障	-11856
出人意料	-11857
券商集合	-11858
发布公告	-11859
国际金价	-11860
就是这样	-11861
已经不是	-11862
成交均价	-11863
手机市场	-11864
投资咨询	-11865
整体来看	-11866
服务中心	-11867
演唱会的	-11868
相关人士	-11869
绝大部分	-11870
证明自己	-11871
迄今为止	-11872
,2006	-11873
Super	-11874
▁中国移动	-11875
▁记者昨日	-11876
前一交易日	-11877
向记者透露	-11878
基金资产的	-11879
征求意见稿	-11880
招生计划的	-11881
更重要的是	-11882
约合人民币	-11883
维斯特伍德	-11884
这也意味着	-11885
deaPad	-11886
商品期货市场	-11887
inkedIn	-11888
万像素的摄像头	-11889
▁University	-11890
6,	-11891
EA	-11892
EL	-11893
Op	-11894
Sc	-11895
VA	-11896
dv	-11897
▁。	-11898
▁就	-11899
▁程	-11900
▁范	-11901
一届	-11902
丁宁	-11903
三围	-11904
三地	-11905
下称	-11906
不尽	-11907
不明	-11908
不该	-11909
中山	-11910
主编	-11911
之多	-11912
之道	-11913
也与	-11914
争抢	-11915
五一	-11916
五月	-11917
亚鹏	-11918
人工	-11919
亿万	-11920
仍以	-11921
会场	-11922
体质	-11923
作风	-11924
佩慈	-11925
佩西	-11926
信念	-11927
倒闭	-11928
偏紧	-11929
儿女	-11930
八卦	-11931
公交	-11932
分组	-11933
初衷	-11934
前妻	-11935
剔除	-11936
单向	-11937
博弈	-11938
却又	-11939
卷入	-11940
去的	-11941
叶童	-11942
名义	-11943
名誉	-11944
含义	-11945
吴金	-11946
周转	-11947
噪音	-11948
图拔	-11949
圆润	-11950
处境	-11951
大厅	-11952
大宝	-11953
大郅	-11954
奔腾	-11955
妇女	-11956
存量	-11957
对她	-11958
小小	-11959
小生	-11960
小贝	-11961
少的	-11962
尔默	-11963
局限	-11964
已与	-11965
建国	-11966
张琳	-11967
往事	-11968
徐国	-11969
得出	-11970
恭喜	-11971
恰好	-11972
我只	-11973
才华	-11974
扎克	-11975
打到	-11976
打气	-11977
承旭	-11978
把它	-11979
抓紧	-11980
担纲	-11981
掌控	-11982
排序	-11983
播种	-11984
改观	-11985
放开	-11986
时空	-11987
普森	-11988
普涨	-11989
月和	-11990
有余	-11991
本的	-11992
本色	-11993
朴文	-11994
杜绝	-11995
架构	-11996
欣慰	-11997
欺诈	-11998
止跌	-11999
泰信	-12000
泰勒	-12001
浓厚	-12002
火力	-12003
灵通	-12004
灾难	-12005
爵爷	-12006
特价	-12007
王志	-12008
生前	-12009
电机	-12010
电气	-12011
的戏	-12012
皮肤	-12013
福田	-12014
种类	-12015
秘诀	-12016
稍微	-12017
粤语	-12018
糖厂	-12019
纪中	-12020
纳德	-12021
细分	-12022
统治	-12023
绿卡	-12024
网点	-12025
美容	-12026
胜任	-12027
致使	-12028
艺体	-12029
苦战	-12030
荣获	-12031
菜单	-12032
落选	-12033
触屏	-12034
评为	-12035
谢赫	-12036
谦虚	-12037
贴心	-12038
贵阳	-12039
赫尔	-12040
跳空	-12041
转发	-12042
轻质	-12043
辽足	-12044
过快	-12045
迎合	-12046
退税	-12047
遗忘	-12048
部委	-12049
配套	-12050
门外	-12051
难怪	-12052
靠前	-12053
顶部	-12054
首局	-12055
高企	-12056
高走	-12057
-12	-12058
1.9	-12059
2.6	-12060
256	-12061
27-	-12062
35%	-12063
8%。	-12064
:11	-12065
App	-12066
isa	-12067
orm	-12068
red	-12069
ung	-12070
▁AC	-12071
▁at	-12072
▁by	-12073
▁南方	-12074
▁巴萨	-12075
▁德国	-12076
▁明星	-12077
▁这一	-12078
▁银河	-12079
、14	-12080
。10	-12081
。12	-12082
一时间	-12083
上期所	-12084
不允许	-12085
也应该	-12086
了一把	-12087
元比联	-12088
兰多夫	-12089
净资本	-12090
博士生	-12091
博阿滕	-12092
发出了	-12093
取消了	-12094
只有在	-12095
可爱的	-12096
和他的	-12097
和发展	-12098
商学院	-12099
在上周	-12100
均超过	-12101
埃文斯	-12102
多元化	-12103
大师赛	-12104
夺得了	-12105
如果能	-12106
带领下	-12107
并不大	-12108
开门红	-12109
张专辑	-12110
张静初	-12111
得到的	-12112
成品油	-12113
成本的	-12114
成都商	-12115
我们还	-12116
才知道	-12117
打比赛	-12118
排名前	-12119
控制线	-12120
文化部	-12121
新世纪	-12122
明星的	-12123
曝光的	-12124
更容易	-12125
月上旬	-12126
有些人	-12127
有更多	-12128
有能力	-12129
期徒刑	-12130
梁文博	-12131
深圳市	-12132
混合型	-12133
演出的	-12134
环境中	-12135
的发挥	-12136
的客户	-12137
的心情	-12138
的成本	-12139
的机型	-12140
的行情	-12141
的造型	-12142
看好的	-12143
知识的	-12144
科学与	-12145
科目的	-12146
管理局	-12147
紧接着	-12148
经过了	-12149
统一的	-12150
统计局	-12151
菜籽油	-12152
要求的	-12153
该怎么	-12154
谈恋爱	-12155
过去了	-12156
这么做	-12157
遭遇了	-12158
采用的	-12159
陈楚生	-12160
颁发的	-12161
0909	-12162
1994	-12163
:00,	-12164
:30,	-12165
Mark	-12166
▁(1)	-12167
▁And	-12168
▁今年的	-12169
▁农产品	-12170
▁利物浦	-12171
专家建议	-12172
中国人寿	-12173
也得到了	-12174
任何一个	-12175
但是由于	-12176
全线上涨	-12177
公益活动	-12178
初试成绩	-12179
可以获得	-12180
可见一斑	-12181
基金业绩	-12182
天津泰达	-12183
学士学位	-12184
对我来说	-12185
将于近期	-12186
广播电视	-12187
投资组合	-12188
投资顾问	-12189
招生专业	-12190
斯图加特	-12191
日在北京	-12192
更多的是	-12193
有自己的	-12194
法律硕士	-12195
继续上涨	-12196
考生报考	-12197
英语水平	-12198
通过微博	-12199
重新回到	-12200
非常不错	-12201
▁2006	-12202
▁Home	-12203
今年一季度	-12204
低于标准杆	-12205
凯尔特人的	-12206
期货公司的	-12207
移动互联网	-12208
负责人介绍	-12209
采用了一块	-12210
基金新增开户数	-12211
纽约商品交易所	-12212
7,	-12213
FR	-12214
GO	-12215
Qu	-12216
SO	-12217
te	-12218
▁可	-12219
▁她	-12220
》)	-12221
一族	-12222
一期	-12223
一遍	-12224
不幸	-12225
专电	-12226
东湖	-12227
两国	-12228
两类	-12229
之争	-12230
之队	-12231
亲手	-12232
人意	-12233
任命	-12234
会将	-12235
伯尼	-12236
住房	-12237
何种	-12238
借读	-12239
值为	-12240
偏低	-12241
偏高	-12242
偿还	-12243
傅家	-12244
充值	-12245
光是	-12246
入球	-12247
全英	-12248
公办	-12249
分拆	-12250
划定	-12251
创建	-12252
动手	-12253
助威	-12254
势力	-12255
十三	-12256
十几	-12257
千金	-12258
午盘	-12259
半个	-12260
半月	-12261
卖点	-12262
原先	-12263
反转	-12264
取了	-12265
变形	-12266
变革	-12267
古典	-12268
只见	-12269
可怜	-12270
同名	-12271
向标	-12272
吴彦	-12273
咖啡	-12274
哥伦	-12275
因斯	-12276
国人	-12277
培育	-12278
复仇	-12279
多么	-12280
大声	-12281
大腕	-12282
奔跑	-12283
奥利	-12284
季末	-12285
完胜	-12286
宝钢	-12287
宣言	-12288
对付	-12289
对该	-12290
封杀	-12291
将他	-12292
小于	-12293
小鸟	-12294
就可	-12295
就行	-12296
师生	-12297
带入	-12298
常态	-12299
平局	-12300
年限	-12301
应在	-12302
异议	-12303
弗斯	-12304
弹性	-12305
归队	-12306
心脏	-12307
忠祥	-12308
恒星	-12309
悲伤	-12310
惊险	-12311
戴维	-12312
所述	-12313
抛弃	-12314
拉丝	-12315
拍下	-12316
指望	-12317
接手	-12318
接拍	-12319
描写	-12320
插槽	-12321
擅自	-12322
救助	-12323
斯琴	-12324
新作	-12325
无力	-12326
无忧	-12327
无意	-12328
时下	-12329
春江	-12330
普利	-12331
暴扣	-12332
本期	-12333
机动	-12334
杨光	-12335
查阅	-12336
模型	-12337
歌声	-12338
正赛	-12339
每人	-12340
水果	-12341
汇聚	-12342
洛夫	-12343
活泼	-12344
测光	-12345
浮动	-12346
清纯	-12347
滚石	-12348
澳银	-12349
灰色	-12350
灵敏	-12351
点多	-12352
猴票	-12353
班底	-12354
瓶颈	-12355
男儿	-12356
相遇	-12357
真人	-12358
短裙	-12359
硒鼓	-12360
社团	-12361
福利	-12362
空气	-12363
等都	-12364
筛选	-12365
算上	-12366
粗钢	-12367
约有	-12368
纳瓦	-12369
绩效	-12370
罗霍	-12371
美人	-12372
联队	-12373
聚焦	-12374
肿瘤	-12375
自习	-12376
自营	-12377
航运	-12378
著作	-12379
表彰	-12380
表述	-12381
解围	-12382
谢楠	-12383
购房	-12384
赔付	-12385
起码	-12386
轨道	-12387
转到	-12388
远离	-12389
迷你	-12390
追随	-12391
途中	-12392
通告	-12393
造人	-12394
遥遥	-12395
那次	-12396
重金	-12397
降分	-12398
震动	-12399
领头	-12400
高专	-12401
高了	-12402
黎姿	-12403
1-2	-12404
310	-12405
55.	-12406
:13	-12407
MAX	-12408
TOM	-12409
Web	-12410
app	-12411
enn	-12412
ial	-12413
ren	-12414
”——	-12415
▁He	-12416
▁me	-12417
▁us	-12418
▁产品	-12419
▁全国	-12420
▁具体	-12421
▁第四	-12422
万吨的	-12423
上一个	-12424
上来看	-12425
不及待	-12426
不存在	-12427
世博园	-12428
东道主	-12429
两年前	-12430
个月内	-12431
也不错	-12432
也出现	-12433
了一定	-12434
了一张	-12435
了一组	-12436
人数的	-12437
亿欧元	-12438
他没有	-12439
代表团	-12440
会成为	-12441
但他的	-12442
但没有	-12443
但还是	-12444
使用者	-12445
傅家俊	-12446
像素数	-12447
像素的	-12448
公司将	-12449
前十大	-12450
南德斯	-12451
卡萨诺	-12452
即使是	-12453
及相关	-12454
发现了	-12455
吴宗宪	-12456
周慧敏	-12457
和服务	-12458
和生活	-12459
因此在	-12460
国防生	-12461
基本的	-12462
太多了	-12463
奥林匹	-12464
女孩子	-12465
媒体和	-12466
实力派	-12467
将不会	-12468
将获得	-12469
小升初	-12470
布莱克	-12471
常见的	-12472
很好地	-12473
徐静蕾	-12474
心中的	-12475
我真的	-12476
抗通胀	-12477
招生网	-12478
拥有的	-12479
持卡人	-12480
提供商	-12481
日表示	-12482
春节前	-12483
曼联的	-12484
有一次	-12485
朋友们	-12486
期待的	-12487
期货的	-12488
本周末	-12489
没有了	-12490
版本的	-12491
特别的	-12492
玩游戏	-12493
的冲击	-12494
的态势	-12495
的情绪	-12496
的时尚	-12497
的状况	-12498
的销售	-12499
的高端	-12500
瞩目的	-12501
等明星	-12502
约记者	-12503
给球队	-12504
网消息	-12505
美好的	-12506
老东家	-12507
考生中	-12508
自去年	-12509
莫斯科	-12510
虽然是	-12511
表示了	-12512
解决了	-12513
言承旭	-12514
证明了	-12515
还是很	-12516
这时候	-12517
邀请赛	-12518
配置了	-12519
高仓位	-12520
高考的	-12521
2.33	-12522
25%,	-12523
5230	-12524
Live	-12525
Mbps	-12526
line	-12527
▁III	-12528
▁com	-12529
▁man	-12530
▁加拿大	-12531
▁外观上	-12532
▁易方达	-12533
▁章子怡	-12534
▁第三节	-12535
不仅如此	-12536
专户理财	-12537
个三分球	-12538
中兴通讯	-12539
为代表的	-12540
但实际上	-12541
分以上的	-12542
发表声明	-12543
受此影响	-12544
可以拍摄	-12545
司法考试	-12546
商家地址	-12547
备受关注	-12548
官方微博	-12549
客场挑战	-12550
宣传活动	-12551
已经进入	-12552
市场需求	-12553
平均仓位	-12554
年度最佳	-12555
建设银行	-12556
总体来看	-12557
手机用户	-12558
拍摄模式	-12559
招生录取	-12560
排名第二	-12561
接受访问	-12562
推荐免试	-12563
普遍认为	-12564
本科二批	-12565
演唱会上	-12566
火箭队的	-12567
现在已经	-12568
用自己的	-12569
目前市场	-12570
研究生院	-12571
经济危机	-12572
经济学家	-12573
结构调整	-12574
要求考生	-12575
资产评估	-12576
这笔交易	-12577
都有可能	-12578
钢铁企业	-12579
银信合作	-12580
阿尔维斯	-12581
非常好的	-12582
▁stud	-12583
▁波罗的海	-12584
拉斯维加斯	-12585
的一个重要	-12586
在一定程度上	-12587
在这种情况下	-12588
市教育考试院	-12589
新闻发布会上	-12590
科技有限公司	-12591
Groupon	-12592
▁people	-12593
喜欢的朋友可以	-12594
干散货运价指数	-12595
-9	-12596
AD	-12597
Co	-12598
XT	-12599
kg	-12600
ux	-12601
”!	-12602
▁*	-12603
▁人	-12604
▁加	-12605
▁负	-12606
一百	-12607
一览	-12608
不便	-12609
中专	-12610
中年	-12611
主将	-12612
买了	-12613
仕鹏	-12614
他曾	-12615
伊尔	-12616
休养	-12617
会面	-12618
伦蒂	-12619
但因	-12620
何鸿	-12621
佳绩	-12622
信仰	-12623
停车	-12624
充电	-12625
六个	-12626
养成	-12627
军的	-12628
减肥	-12629
出具	-12630
出游	-12631
分居	-12632
劳尔	-12633
勒姆	-12634
十月	-12635
华南	-12636
卫诗	-12637
去向	-12638
另类	-12639
台前	-12640
含有	-12641
哈林	-12642
善款	-12643
四处	-12644
回去	-12645
固然	-12646
国强	-12647
圆满	-12648
土豆	-12649
在同	-12650
场次	-12651
城乡	-12652
大四	-12653
头脑	-12654
女将	-12655
存的	-12656
安心	-12657
宝马	-12658
实属	-12659
寒冷	-12660
小燕	-12661
小盘	-12662
崩溃	-12663
帅哥	-12664
平面	-12665
廷桓	-12666
开业	-12667
张栩	-12668
强于	-12669
强攻	-12670
当他	-12671
当成	-12672
必定	-12673
快男	-12674
总之	-12675
戒指	-12676
房价	-12677
扎堆	-12678
抢到	-12679
拉戈	-12680
拍出	-12681
提取	-12682
提速	-12683
摩尔	-12684
放下	-12685
数次	-12686
文中	-12687
斯利	-12688
斯顿	-12689
新体	-12690
无愧	-12691
日韩	-12692
早日	-12693
时许	-12694
晓松	-12695
望远	-12696
本校	-12697
核电	-12698
歌星	-12699
武术	-12700
洛卡	-12701
海归	-12702
涌入	-12703
添加	-12704
渤海	-12705
潜伏	-12706
燃油	-12707
爆仓	-12708
特尼	-12709
王小	-12710
现役	-12711
现行	-12712
甲级	-12713
百亿	-12714
的刘	-12715
的马	-12716
盛传	-12717
直传	-12718
看完	-12719
禁令	-12720
私立	-12721
立法	-12722
竞聘	-12723
米的	-12724
精湛	-12725
精矿	-12726
紧凑	-12727
纠结	-12728
纵观	-12729
维维	-12730
罗宾	-12731
翻身	-12732
自嘲	-12733
花絮	-12734
要做	-12735
讲解	-12736
论证	-12737
该国	-12738
走软	-12739
赶快	-12740
转化	-12741
迅猛	-12742
还被	-12743
这批	-12744
邮箱	-12745
郭晓	-12746
都曾	-12747
里达	-12748
重挫	-12749
量身	-12750
镜面	-12751
闭幕	-12752
防御	-12753
面值	-12754
韩鹏	-12755
颓势	-12756
驾车	-12757
高盛	-12758
黄海	-12759
/10	-12760
109	-12761
113	-12762
205	-12763
269	-12764
36.	-12765
40.	-12766
49.	-12767
499	-12768
5.5	-12769
68.	-12770
:12	-12771
IND	-12772
ere	-12773
igh	-12774
▁25	-12775
▁60	-12776
▁Sh	-12777
▁皇马	-12778
▁考试	-12779
▁英语	-12780
▁郑糖	-12781
一个个	-12782
一会儿	-12783
三季报	-12784
上海的	-12785
上海队	-12786
不仅要	-12787
不会对	-12788
不过从	-12789
专卖店	-12790
个性化	-12791
也很难	-12792
些什么	-12793
人才的	-12794
企业家	-12795
体现出	-12796
克鲁斯	-12797
公司在	-12798
内容的	-12799
决胜局	-12800
净买入	-12801
准备好	-12802
切拉诺	-12803
副校长	-12804
发烧友	-12805
合格证	-12806
吴金贵	-12807
和基金	-12808
在欧洲	-12809
在防守	-12810
塞萨尔	-12811
增长了	-12812
外观上	-12813
大盘股	-12814
奥委会	-12815
女一号	-12816
女儿的	-12817
她透露	-12818
孙志浩	-12819
学生们	-12820
实在是	-12821
对他们	-12822
山东省	-12823
巡回赛	-12824
市教委	-12825
带动下	-12826
年前的	-12827
年来的	-12828
张宁益	-12829
我们对	-12830
手续费	-12831
才发现	-12832
扩大到	-12833
找工作	-12834
把握住	-12835
新媒体	-12836
是否能	-12837
是怎么	-12838
普通的	-12839
有一种	-12840
有很大	-12841
朴廷桓	-12842
权益类	-12843
比较多	-12844
清晰的	-12845
湖人的	-12846
爱德华	-12847
现阶段	-12848
球队在	-12849
男人的	-12850
的一半	-12851
的一员	-12852
的一家	-12853
的处理	-12854
的策略	-12855
的身影	-12856
的项目	-12857
的高校	-12858
突破了	-12859
立体声	-12860
第三位	-12861
等行业	-12862
管理人	-12863
米克尔	-12864
类院校	-12865
紧张的	-12866
继续在	-12867
羽毛球	-12868
自己也	-12869
自己所	-12870
莱格里	-12871
让对手	-12872
记者张	-12873
该如何	-12874
资源的	-12875
这才是	-12876
那样的	-12877
都无法	-12878
银行间	-12879
3500	-12880
80%,	-12881
8:30	-12882
exus	-12883
ista	-12884
ower	-12885
▁not	-12886
▁one	-12887
▁实际上	-12888
▁意大利	-12889
▁易建联	-12890
一般来说	-12891
世界杯上	-12892
世界杯的	-12893
两只基金	-12894
中国大陆	-12895
企业年金	-12896
公告显示	-12897
出席活动	-12898
卡片相机	-12899
发生变化	-12900
头球攻门	-12901
将于今年	-12902
广泛关注	-12903
广电总局	-12904
招办主任	-12905
招生工作	-12906
教育学院	-12907
教育考试	-12908
数码单反	-12909
月份开始	-12910
权益登记	-12911
泰达荷银	-12912
研究人员	-12913
考生可以	-12914
解决问题	-12915
计划招收	-12916
这是因为	-12917
迫不及待	-12918
钢琴烤漆	-12919
银行理财	-12920
长期来看	-12921
阿尔斯通	-12922
Micro	-12923
ution	-12924
▁QDII	-12925
▁发布时间	-12926
▁总像素数	-12927
中央电视台	-12928
初中毕业生	-12929
在比赛还有	-12930
年化收益率	-12931
的情况来看	-12932
皇家马德里	-12933
目前还没有	-12934
马斯切拉诺	-12935
黄金交易所	-12936
iamond	-12937
业内人士认为	-12938
华夏大盘精选	-12939
攻读硕士学位	-12940
高尔夫俱乐部	-12941
的新闻发布会上	-12942
4)	-12943
:3	-12944
EC	-12945
EI	-12946
Ed	-12947
FP	-12948
LX	-12949
NA	-12950
SM	-12951
ta	-12952
▁梁	-12953
▁汪	-12954
▁连	-12955
一夜	-12956
不和	-12957
不定	-12958
不服	-12959
两分	-12960
两支	-12961
中能	-12962
丰收	-12963
临场	-12964
丹佛	-12965
丽莎	-12966
之举	-12967
之王	-12968
乒超	-12969
也从	-12970
也以	-12971
争冠	-12972
争霸	-12973
二者	-12974
五十	-12975
他很	-12976
他称	-12977
以赴	-12978
仪涵	-12979
价钱	-12980
休战	-12981
优点	-12982
估算	-12983
倒在	-12984
停滞	-12985
兑换	-12986
入手	-12987
六成	-12988
内尔	-12989
冲着	-12990
几周	-12991
分之	-12992
前列	-12993
助推	-12994
区分	-12995
医科	-12996
十五	-12997
原著	-12998
又能	-12999
友邦	-13000
右脚	-13001
号称	-13002
呼声	-13003
商讨	-13004
回访	-13005
围观	-13006
国美	-13007
基数	-13008
基调	-13009
塞斯	-13010
填补	-13011
处女	-13012
外套	-13013
大屏	-13014
大笑	-13015
奕宏	-13016
奢华	-13017
孙家	-13018
宝座	-13019
宝贵	-13020
实话	-13021
宠爱	-13022
审题	-13023
客人	-13024
宽容	-13025
宾客	-13026
小天	-13027
已将	-13028
师傅	-13029
带走	-13030
干预	-13031
库斯	-13032
店铺	-13033
建成	-13034
异地	-13035
张继	-13036
归纳	-13037
心动	-13038
恶化	-13039
情景	-13040
惨遭	-13041
戏外	-13042
战士	-13043
戛纳	-13044
托利	-13045
扬扬	-13046
批发	-13047
抄袭	-13048
招募	-13049
招牌	-13050
挣扎	-13051
授课	-13052
接球	-13053
接纳	-13054
搜集	-13055
搭建	-13056
摘得	-13057
数额	-13058
斯洛	-13059
新任	-13060
施魏	-13061
早餐	-13062
明日	-13063
是非	-13064
月在	-13065
月至	-13066
有力	-13067
权的	-13068
权证	-13069
极限	-13070
样本	-13071
欺骗	-13072
比拼	-13073
水利	-13074
水面	-13075
沪上	-13076
沸沸	-13077
活期	-13078
淫秽	-13079
深化	-13080
深成	-13081
深造	-13082
清醒	-13083
满贯	-13084
热的	-13085
爆炸	-13086
片外	-13087
片方	-13088
牢牢	-13089
狙击	-13090
率队	-13091
王家	-13092
男单	-13093
男双	-13094
畅游	-13095
界的	-13096
登台	-13097
的周	-13098
的字	-13099
皮书	-13100
监察	-13101
直观	-13102
看多	-13103
睡眠	-13104
破发	-13105
确立	-13106
碧昂	-13107
福特	-13108
秒钟	-13109
竞选	-13110
章洙	-13111
端口	-13112
简介	-13113
系数	-13114
线的	-13115
绝非	-13116
编码	-13117
缺失	-13118
罗本	-13119
老布	-13120
背部	-13121
胜者	-13122
胶片	-13123
裸体	-13124
设想	-13125
误解	-13126
谁是	-13127
赔率	-13128
赶往	-13129
起的	-13130
趣味	-13131
足足	-13132
踏实	-13133
车晓	-13134
轻巧	-13135
运球	-13136
运转	-13137
迪奇	-13138
追溯	-13139
适用	-13140
逆市	-13141
选举	-13142
遥远	-13143
遵循	-13144
邀约	-13145
那位	-13146
间谍	-13147
附件	-13148
隐瞒	-13149
青霞	-13150
韦唯	-13151
顺畅	-13152
顾虑	-13153
风头	-13154
食用	-13155
-50	-13156
103	-13157
165	-13158
2-3	-13159
22-	-13160
267	-13161
330	-13162
43.	-13163
44.	-13164
65.	-13165
75.	-13166
980	-13167
MSN	-13168
WAP	-13169
ber	-13170
ood	-13171
▁47	-13172
▁ad	-13173
▁华安	-13174
▁如今	-13175
▁热评	-13176
一定能	-13177
下降到	-13178
不少于	-13179
不希望	-13180
不清楚	-13181
严格的	-13182
中国区	-13183
也并不	-13184
了一段	-13185
事务所	-13186
云天化	-13187
亨德利	-13188
任何人	-13189
会计师	-13190
但也有	-13191
依旧是	-13192
便携性	-13193
分左右	-13194
前一天	-13195
化工品	-13196
医学院	-13197
及其他	-13198
可获得	-13199
同等学	-13200
告诉他	-13201
周期性	-13202
和美国	-13203
喜欢的	-13204
四川省	-13205
在学校	-13206
在纽约	-13207
地产股	-13208
场胜利	-13209
太阳报	-13210
它们的	-13211
对手是	-13212
届中国	-13213
展现出	-13214
工作中	-13215
并且在	-13216
广州市	-13217
成绩单	-13218
我一直	-13219
才开始	-13220
打破了	-13221
扮演者	-13222
提档线	-13223
收益的	-13224
教科书	-13225
文化课	-13226
日当周	-13227
更何况	-13228
李昌镐	-13229
来进行	-13230
段奕宏	-13231
每一位	-13232
涨幅达	-13233
淘汰赛	-13234
演艺界	-13235
漫游费	-13236
王先生	-13237
的下跌	-13238
的事件	-13239
的力量	-13240
的媒体	-13241
的数量	-13242
的时刻	-13243
的未来	-13244
的热点	-13245
的理由	-13246
的经验	-13247
的还有	-13248
科比的	-13249
等专业	-13250
等多个	-13251
系列赛	-13252
维利亚	-13253
网友的	-13254
罗西基	-13255
考生对	-13256
而如果	-13257
艳照门	-13258
苏格兰	-13259
西蒙斯	-13260
认识到	-13261
记者们	-13262
许多人	-13263
许志安	-13264
该指数	-13265
该机的	-13266
该网站	-13267
贵金属	-13268
起来的	-13269
足总杯	-13270
这是他	-13271
这里的	-13272
通过了	-13273
里弗斯	-13274
镁合金	-13275
阿联的	-13276
音乐人	-13277
高风险	-13278
1997	-13279
2800	-13280
40%。	-13281
6400	-13282
CFTC	-13283
WiFi	-13284
book	-13285
ngel	-13286
▁10.	-13287
▁主屏幕	-13288
▁近年来	-13289
一个人的	-13290
不少网友	-13291
两支球队	-13292
中学校长	-13293
为人民币	-13294
交易市场	-13295
会计准则	-13296
信达澳银	-13297
充分利用	-13298
克劳福德	-13299
全力以赴	-13300
全国各地	-13301
出现大幅	-13302
北京国安	-13303
原油市场	-13304
发达国家	-13305
变得更加	-13306
和俱乐部	-13307
唯物主义	-13308
国内期市	-13309
图像处理	-13310
在今年的	-13311
在这方面	-13312
奥林匹克	-13313
学业水平	-13314
就为大家	-13315
已经确定	-13316
广发证券	-13317
意思的是	-13318
招生规模	-13319
数据来看	-13320
是否能够	-13321
最佳状态	-13322
最后阶段	-13323
有报道称	-13324
正式启动	-13325
沸沸扬扬	-13326
注意事项	-13327
消费旺季	-13328
焦炭期货	-13329
的位置上	-13330
社保基金	-13331
等一系列	-13332
继续持有	-13333
综合指数	-13334
美术学院	-13335
职业教育	-13336
至关重要	-13337
范德维奇	-13338
资格审查	-13339
跌幅超过	-13340
这些问题	-13341
这是一场	-13342
进口大豆	-13343
那个时候	-13344
部总经理	-13345
阅读理解	-13346
高中阶段	-13347
WiMAX	-13348
对记者表示	-13349
是一款拥有	-13350
第三方支付	-13351
等效焦距为	-13352
美国农业部	-13353
美术类专业	-13354
适合自己的	-13355
Selina	-13356
▁Phone	-13357
▁最高分辨率	-13358
工业和信息化	-13359
自主选拔录取	-13360
Express	-13361
最低控制分数线	-13362
相关负责人表示	-13363
(1	-13364
)“	-13365
8,	-13366
:‘	-13367
?(	-13368
?、	-13369
Ad	-13370
DX	-13371
Fl	-13372
OD	-13373
VX	-13374
li	-13375
一阵	-13376
万加	-13377
上千	-13378
上都	-13379
下属	-13380
与陈	-13381
专属	-13382
丢球	-13383
中甲	-13384
中银	-13385
主攻	-13386
久违	-13387
之列	-13388
之行	-13389
乏力	-13390
买到	-13391
了大	-13392
亚视	-13393
交警	-13394
余人	-13395
佛山	-13396
你在	-13397
使命	-13398
侧重	-13399
健全	-13400
光环	-13401
全中	-13402
全方	-13403
全是	-13404
关联	-13405
冷门	-13406
准入	-13407
准时	-13408
几场	-13409
凯歌	-13410
出乎	-13411
出庭	-13412
刑法	-13413
创投	-13414
到时	-13415
剧院	-13416
动用	-13417
南德	-13418
博览	-13419
卡莱	-13420
历经	-13421
又会	-13422
变数	-13423
口头	-13424
吉列	-13425
向好	-13426
吕征	-13427
君安	-13428
吸收	-13429
周报	-13430
和阿	-13431
咏琪	-13432
善良	-13433
四人	-13434
在即	-13435
在近	-13436
坚信	-13437
坦克	-13438
墨镜	-13439
多重	-13440
大意	-13441
大都	-13442
天弘	-13443
契约	-13444
奥尔	-13445
她以	-13446
她就	-13447
如期	-13448
娜塔	-13449
婚事	-13450
子座	-13451
学到	-13452
安然	-13453
完婚	-13454
审计	-13455
寄予	-13456
小法	-13457
尘埃	-13458
市区	-13459
延迟	-13460
归属	-13461
影业	-13462
影子	-13463
很长	-13464
心愿	-13465
念头	-13466
怀念	-13467
急剧	-13468
情报	-13469
扭伤	-13470
抢购	-13471
拿球	-13472
据知	-13473
排球	-13474
探访	-13475
接听	-13476
支柱	-13477
收窄	-13478
政协	-13479
文书	-13480
文明	-13481
既是	-13482
是她	-13483
曙光	-13484
有两	-13485
有序	-13486
期盼	-13487
李金	-13488
杜比	-13489
果岭	-13490
果断	-13491
枫叶	-13492
校友	-13493
桌面	-13494
正值	-13495
比尔	-13496
氧化	-13497
没了	-13498
油料	-13499
泽东	-13500
海信	-13501
深夜	-13502
深情	-13503
清算	-13504
滤镜	-13505
潘德	-13506
潘金	-13507
炒金	-13508
爱国	-13509
犀利	-13510
电石	-13511
留洋	-13512
痊愈	-13513
的地	-13514
相近	-13515
祖名	-13516
秋生	-13517
立场	-13518
答复	-13519
红毯	-13520
绝不	-13521
考了	-13522
而定	-13523
而对	-13524
而知	-13525
耽误	-13526
苏宁	-13527
若干	-13528
莱利	-13529
葛优	-13530
被传	-13531
解禁	-13532
议论	-13533
谍战	-13534
谢菲	-13535
购入	-13536
贴身	-13537
贺岁	-13538
超高	-13539
跟上	-13540
辣妹	-13541
达华	-13542
迈凯	-13543
还与	-13544
这本	-13545
选中	-13546
造势	-13547
里德	-13548
重启	-13549
金刚	-13550
钓鱼	-13551
铜业	-13552
长跑	-13553
降温	-13554
限度	-13555
随地	-13556
预定	-13557
首页	-13558
高一	-13559
-0.	-13560
1-0	-13561
107	-13562
270	-13563
290	-13564
34.	-13565
88.	-13566
LOF	-13567
rid	-13568
zol	-13569
▁Th	-13570
▁un	-13571
▁他说	-13572
▁南京	-13573
▁很多	-13574
▁浙江	-13575
▁评论	-13576
▁调查	-13577
▁那么	-13578
一年后	-13579
一直以	-13580
不理想	-13581
个进球	-13582
中表示	-13583
为主的	-13584
也将在	-13585
了出来	-13586
亿港元	-13587
他们也	-13588
他们会	-13589
价值观	-13590
但是我	-13591
全联盟	-13592
全面的	-13593
其次是	-13594
内线的	-13595
出现过	-13596
到低分	-13597
制作的	-13598
包括了	-13599
十二五	-13600
历史的	-13601
参考书	-13602
发挥出	-13603
只剩下	-13604
召开了	-13605
品种的	-13606
团队的	-13607
图书馆	-13608
在世界	-13609
在明年	-13610
坎贝尔	-13611
填志愿	-13612
她坦言	-13613
如果我	-13614
嫌疑人	-13615
季前赛	-13616
宋祖德	-13617
定位于	-13618
将推出	-13619
将自己	-13620
将面临	-13621
已进入	-13622
巴菲特	-13623
年北京	-13624
年底前	-13625
强劲的	-13626
感恩节	-13627
成立了	-13628
战略性	-13629
投入到	-13630
投连险	-13631
方面也	-13632
时不时	-13633
是全球	-13634
有效地	-13635
本周一	-13636
条件下	-13637
格兰杰	-13638
格式的	-13639
检察院	-13640
江若琳	-13641
法布雷	-13642
消费量	-13643
潘金莲	-13644
王女士	-13645
球员在	-13646
的优惠	-13647
的作品	-13648
的信心	-13649
的排名	-13650
的真实	-13651
的竞争	-13652
示范性	-13653
空中网	-13654
第二名	-13655
管中心	-13656
股票的	-13657
背光源	-13658
节能减	-13659
范佩西	-13660
莱昂纳	-13661
菲尔德	-13662
被淘汰	-13663
被誉为	-13664
设置了	-13665
财政部	-13666
费雷拉	-13667
较低的	-13668
运动会	-13669
还是会	-13670
还特别	-13671
这是我	-13672
进行过	-13673
需求量	-13674
领先了	-13675
领头羊	-13676
高科技	-13677
(600	-13678
2300	-13679
5500	-13680
OLED	-13681
Tube	-13682
aily	-13683
▁切尔西	-13684
▁英特尔	-13685
上涨趋势	-13686
上赛季的	-13687
专家认为	-13688
中国内地	-13689
以太网卡	-13690
促销活动	-13691
光大银行	-13692
分的优势	-13693
只有一个	-13694
商务人士	-13695
在此之前	-13696
垃圾短信	-13697
宏观调控	-13698
富国基金	-13699
就意味着	-13700
就是为了	-13701
广角镜头	-13702
我们希望	-13703
扳平比分	-13704
报名工作	-13705
整数关口	-13706
斯科拉里	-13707
替补席上	-13708
有所增加	-13709
每一个人	-13710
每个人都	-13711
活动现场	-13712
液晶面板	-13713
目前这款	-13714
组成部分	-13715
罗比尼奥	-13716
职业学校	-13717
股票投资	-13718
航空公司	-13719
这件事情	-13720
这样一来	-13721
进行分析	-13722
长盛基金	-13723
10000	-13724
micro	-13725
▁Tech	-13726
▁time	-13727
▁中国电信	-13728
▁另一方面	-13729
▁奥林巴斯	-13730
▁联系电话	-13731
。2006	-13732
一起来看看	-13733
主要是由于	-13734
属于自己的	-13735
规定时间内	-13736
高分到低分	-13737
只股票型基金	-13738
期货主力合约	-13739
网上填报志愿	-13740
股票型证券投资基金	-13741
!(	-13742
)[	-13743
ES	-13744
GT	-13745
Ne	-13746
Pr	-13747
▁卢	-13748
▁又	-13749
▁彭	-13750
丁锦	-13751
三周	-13752
上角	-13753
不被	-13754
专人	-13755
两地	-13756
丽的	-13757
乌兹	-13758
了个	-13759
争论	-13760
交强	-13761
亲朋	-13762
他却	-13763
他要	-13764
份派	-13765
优良	-13766
优酷	-13767
伯明	-13768
作曲	-13769
保卫	-13770
入行	-13771
典雅	-13772
兼报	-13773
凯塔	-13774
出彩	-13775
刘晓	-13776
则将	-13777
前沿	-13778
功底	-13779
加深	-13780
助教	-13781
励勤	-13782
单产	-13783
单刀	-13784
原告	-13785
原谅	-13786
发给	-13787
取暖	-13788
古巨	-13789
只差	-13790
号和	-13791
器件	-13792
四位	-13793
围巾	-13794
在身	-13795
场边	-13796
均未	-13797
坎普	-13798
坦承	-13799
备选	-13800
复兴	-13801
多利	-13802
多所	-13803
大腿	-13804
妮娜	-13805
婆媳	-13806
婴儿	-13807
孙俪	-13808
将给	-13809
就说	-13810
常识	-13811
年仅	-13812
序幕	-13813
底座	-13814
店的	-13815
开创	-13816
开口	-13817
必将	-13818
快的	-13819
快讯	-13820
思议	-13821
悲剧	-13822
想着	-13823
打完	-13824
打着	-13825
承压	-13826
投行	-13827
护理	-13828
拆迁	-13829
挫折	-13830
换来	-13831
排练	-13832
接过	-13833
推手	-13834
插孔	-13835
收看	-13836
收缩	-13837
散户	-13838
散热	-13839
敬业	-13840
整容	-13841
无几	-13842
时说	-13843
普尔	-13844
智星	-13845
有指	-13846
木兰	-13847
本金	-13848
杀伤	-13849
林依	-13850
柏瑞	-13851
某一	-13852
某某	-13853
标识	-13854
榜上	-13855
求助	-13856
求学	-13857
海口	-13858
涂层	-13859
淡出	-13860
潘玮	-13861
潜质	-13862
激发	-13863
火的	-13864
灰尘	-13865
热舞	-13866
焦段	-13867
特和	-13868
猪肉	-13869
率的	-13870
班级	-13871
生动	-13872
男方	-13873
的特	-13874
直指	-13875
眼看	-13876
眼里	-13877
瞄准	-13878
瞩目	-13879
硬朗	-13880
祥福	-13881
稳重	-13882
简历	-13883
纤薄	-13884
约束	-13885
绝望	-13886
耀祥	-13887
老家	-13888
老年	-13889
老的	-13890
考入	-13891
职场	-13892
脱口	-13893
节约	-13894
苏红	-13895
药业	-13896
莱德	-13897
获配	-13898
蒙娜	-13899
蒙德	-13900
行李	-13901
衣物	-13902
袁莉	-13903
西北	-13904
该款	-13905
课外	-13906
谈话	-13907
谣言	-13908
豪斯	-13909
负债	-13910
财季	-13911
货的	-13912
越好	-13913
跑到	-13914
身家	-13915
轻取	-13916
还对	-13917
还曾	-13918
迪斯	-13919
迷离	-13920
透支	-13921
逢高	-13922
遇上	-13923
邮票	-13924
邱峻	-13925
邻居	-13926
部戏	-13927
都说	-13928
配件	-13929
配额	-13930
金马	-13931
问我	-13932
院士	-13933
隆多	-13934
雅舒	-13935
雷纳	-13936
韦弗	-13937
顺势	-13938
顿时	-13939
领奖	-13940
高高	-13941
,25	-13942
-88	-13943
0.9	-13944
17-	-13945
280	-13946
335	-13947
530	-13948
84.	-13949
IBM	-13950
IFA	-13951
NEX	-13952
RAW	-13953
ach	-13954
ake	-13955
ese	-13956
iOS	-13957
iew	-13958
lla	-13959
rag	-13960
”。(	-13961
▁27	-13962
▁28	-13963
▁9.	-13964
▁SL	-13965
▁ch	-13966
▁sp	-13967
▁周杰	-13968
▁家长	-13969
▁最新	-13970
▁谈及	-13971
▁这位	-13972
丁锦辉	-13973
不停地	-13974
不利于	-13975
不影响	-13976
不论是	-13977
专门的	-13978
为我们	-13979
主频为	-13980
了下来	-13981
交强险	-13982
交易员	-13983
人们对	-13984
今后的	-13985
伯明翰	-13986
但因为	-13987
全键盘	-13988
冬奥会	-13989
几年前	-13990
半个月	-13991
古巨基	-13992
另一名	-13993
合格者	-13994
合约跌	-13995
后发现	-13996
吴佩慈	-13997
吴彦祖	-13998
和一个	-13999
和个人	-14000
和韩国	-14001
因为她	-14002
在一次	-14003
在此前	-14004
在这次	-14005
如果不	-14006
如果他	-14007
孙海平	-14008
实名制	-14009
对应的	-14010
将分差	-14011
将更加	-14012
展示了	-14013
已基本	-14014
年全球	-14015
张兆旭	-14016
很满意	-14017
感觉到	-14018
指标生	-14019
提供给	-14020
效力的	-14021
新榨季	-14022
无论从	-14023
昨日的	-14024
显然是	-14025
有人说	-14026
期间的	-14027
朴智星	-14028
李春江	-14029
李章洙	-14030
武汉市	-14031
每分钟	-14032
比较好	-14033
潘德夫	-14034
潘玮柏	-14035
潜规则	-14036
特殊的	-14037
特雷西	-14038
生活费	-14039
用户数	-14040
由中国	-14041
的主力	-14042
的全球	-14043
的全部	-14044
的动作	-14045
的升级	-14046
的另一	-14047
的大型	-14048
的大门	-14049
的女人	-14050
的性格	-14051
的收入	-14052
的新品	-14053
的概率	-14054
的歌迷	-14055
的私募	-14056
的纪录	-14057
的经典	-14058
的节目	-14059
的范围	-14060
的观众	-14061
的这个	-14062
的限制	-14063
的题目	-14064
目前还	-14065
穆里奇	-14066
维迪奇	-14067
美丽的	-14068
美国人	-14069
美术类	-14070
而此前	-14071
规模为	-14072
角度看	-14073
让学生	-14074
赛季初	-14075
身边的	-14076
辽宁省	-14077
过多的	-14078
迈凯轮	-14079
还不是	-14080
还将在	-14081
这两天	-14082
这只是	-14083
这可能	-14084
金证券	-14085
队友的	-14086
陪同下	-14087
非常高	-14088
马克思	-14089
黑网吧	-14090
1005	-14091
1009	-14092
60%,	-14093
Baby	-14094
elly	-14095
hael	-14096
ible	-14097
lack	-14098
▁out	-14099
▁本赛季	-14100
▁经纪人	-14101
▁阿森纳	-14102
三季度末	-14103
上海男篮	-14104
不可思议	-14105
不可避免	-14106
两个赛季	-14107
中国队以	-14108
也有一些	-14109
互联网上	-14110
产品价格	-14111
人力资源	-14112
体育总局	-14113
几乎没有	-14114
分辨率的	-14115
刚刚开始	-14116
参赛资格	-14117
合作协议	-14118
哥伦比亚	-14119
团购网站	-14120
图库供稿	-14121
地方政府	-14122
大连实德	-14123
学历教育	-14124
小组出线	-14125
已经基本	-14126
已经没有	-14127
市场对于	-14128
市场风险	-14129
很长时间	-14130
拉开帷幕	-14131
招生人数	-14132
收费标准	-14133
昨天下午	-14134
最后一场	-14135
服务机构	-14136
民营企业	-14137
照相功能	-14138
片外统招	-14139
版权所有	-14140
用户来说	-14141
硬件配置	-14142
禁止转载	-14143
积极参与	-14144
考生本人	-14145
调查报告	-14146
越来越大	-14147
道格拉斯	-14148
非常适合	-14149
香港中文	-14150
高等院校	-14151
高考分数	-14152
高职专科	-14153
▁from	-14154
▁参考价格	-14155
。2011	-14156
分析师表示	-14157
的主要因素	-14158
证券交易所	-14159
大宗商品市场	-14160
封闭式基金的	-14161
银行理财产品	-14162
阿里巴巴集团	-14163
高校自主招生	-14164
/4	-14165
1。	-14166
FM	-14167
GE	-14168
GX	-14169
PO	-14170
ri	-14171
▁你	-14172
▁八	-14173
▁姚	-14174
▁汉	-14175
▁英	-14176
▁超	-14177
▁钟	-14178
☆☆	-14179
一头	-14180
七八	-14181
三轮	-14182
上双	-14183
上届	-14184
下次	-14185
东润	-14186
两会	-14187
个个	-14188
中也	-14189
为某	-14190
主线	-14191
之为	-14192
之久	-14193
也正	-14194
了三	-14195
于文	-14196
亿股	-14197
伙子	-14198
会让	-14199
传达	-14200
伤心	-14201
但要	-14202
低胸	-14203
保鲜	-14204
做大	-14205
克力	-14206
典当	-14207
内涵	-14208
再创	-14209
写出	-14210
农林	-14211
况且	-14212
分支	-14213
分省	-14214
划算	-14215
列表	-14216
利和	-14217
制胜	-14218
前端	-14219
功课	-14220
劲旅	-14221
千里	-14222
半数	-14223
单周	-14224
卖掉	-14225
又以	-14226
反响	-14227
受让	-14228
可盈	-14229
号的	-14230
吉亚	-14231
同方	-14232
后将	-14233
周岁	-14234
呼吸	-14235
哈达	-14236
喝酒	-14237
噪声	-14238
四种	-14239
因霍	-14240
围甲	-14241
声器	-14242
声誉	-14243
外籍	-14244
多为	-14245
多哈	-14246
多多	-14247
多是	-14248
大巴	-14249
大类	-14250
天元	-14251
失手	-14252
奖的	-14253
如有	-14254
姐弟	-14255
委屈	-14256
娃娃	-14257
字母	-14258
学年	-14259
家具	-14260
寿命	-14261
将要	-14262
小三	-14263
小品	-14264
小龙	-14265
州立	-14266
工会	-14267
市价	-14268
平淡	-14269
年间	-14270
张晓	-14271
得意	-14272
性别	-14273
恶劣	-14274
想去	-14275
截然	-14276
所占	-14277
手笔	-14278
扶持	-14279
拔尖	-14280
持稳	-14281
挡出	-14282
挽回	-14283
据称	-14284
揭示	-14285
援引	-14286
支援	-14287
斗争	-14288
旅程	-14289
明明	-14290
智力	-14291
曲江	-14292
曲目	-14293
曹操	-14294
最深	-14295
月亮	-14296
杜淳	-14297
杨澜	-14298
杯上	-14299
桑普	-14300
档次	-14301
梦幻	-14302
欠佳	-14303
欣喜	-14304
此处	-14305
民警	-14306
气象	-14307
水晶	-14308
没收	-14309
没错	-14310
法案	-14311
流浪	-14312
测评	-14313
涉毒	-14314
深陷	-14315
混双	-14316
温哥	-14317
满额	-14318
澳元	-14319
激活	-14320
点位	-14321
照样	-14322
爷爷	-14323
王中	-14324
生长	-14325
番棋	-14326
的杨	-14327
的钱	-14328
的阿	-14329
盯防	-14330
相声	-14331
相约	-14332
真心	-14333
真机	-14334
码处	-14335
稍有	-14336
稿件	-14337
章程	-14338
粉色	-14339
索赔	-14340
纯属	-14341
组长	-14342
绿衫	-14343
罕见	-14344
美观	-14345
耀烨	-14346
而后	-14347
胡军	-14348
自觉	-14349
舆情	-14350
艰辛	-14351
花旗	-14352
药店	-14353
药物	-14354
莎莎	-14355
莫名	-14356
落败	-14357
蒋兴	-14358
蔬菜	-14359
虽说	-14360
补习	-14361
要用	-14362
解说	-14363
詹宁	-14364
讲话	-14365
评判	-14366
该行	-14367
贝里	-14368
购机	-14369
购车	-14370
走秀	-14371
起色	-14372
跑动	-14373
路透	-14374
车险	-14375
轨迹	-14376
辩护	-14377
运费	-14378
近乎	-14379
这事	-14380
这几	-14381
这座	-14382
连冠	-14383
通了	-14384
逮捕	-14385
避开	-14386
那亚	-14387
部位	-14388
银联	-14389
锐减	-14390
长得	-14391
长虹	-14392
陈蓉	-14393
限额	-14394
隐形	-14395
雷曼	-14396
面子	-14397
韩元	-14398
顶着	-14399
顺其	-14400
颁布	-14401
高贵	-14402
)--	-14403
,28	-14404
/11	-14405
108	-14406
128	-14407
2.9	-14408
33.	-14409
38.	-14410
510	-14411
56.	-14412
60-	-14413
75%	-14414
9.5	-14415
901	-14416
:45	-14417
CNN	-14418
Sam	-14419
ady	-14420
anc	-14421
ors	-14422
way	-14423
▁//	-14424
▁It	-14425
▁or	-14426
▁世界	-14427
▁东方	-14428
▁文华	-14429
▁时尚	-14430
▁热火	-14431
▁软件	-14432
。——	-14433
一直很	-14434
三连胜	-14435
下半时	-14436
不公平	-14437
不好的	-14438
不方便	-14439
与男友	-14440
两年的	-14441
个国家	-14442
中金所	-14443
中饰演	-14444
乌兹别	-14445
也有了	-14446
于一身	-14447
他们都	-14448
他就是	-14449
代表了	-14450
以后的	-14451
以外的	-14452
价格也	-14453
伊拉克	-14454
优势的	-14455
会影响	-14456
但仍然	-14457
作出了	-14458
债券型	-14459
克斯坦	-14460
公布后	-14461
公牛队	-14462
典型的	-14463
分钟就	-14464
到底是	-14465
到来的	-14466
华期货	-14467
可以从	-14468
后面的	-14469
向大家	-14470
和支持	-14471
和管理	-14472
喜爱的	-14473
因霍温	-14474
国字号	-14475
国民党	-14476
在商家	-14477
在我们	-14478
在近期	-14479
埃利斯	-14480
增加到	-14481
复出的	-14482
大面积	-14483
女朋友	-14484
如果您	-14485
姜东润	-14486
威尔士	-14487
实在太	-14488
实质性	-14489
对未来	-14490
就应该	-14491
尼克尔	-14492
已达到	-14493
巴恩斯	-14494
并列第	-14495
建仓期	-14496
开始前	-14497
引发的	-14498
张国荣	-14499
心目中	-14500
总比分	-14501
成绩为	-14502
成长性	-14503
扬声器	-14504
拥有了	-14505
指导下	-14506
按规定	-14507
文科生	-14508
新课改	-14509
日发布	-14510
是一件	-14511
是他们	-14512
是国内	-14513
是比较	-14514
更适合	-14515
月自考	-14516
有部分	-14517
朝阳区	-14518
格雷迪	-14519
此消息	-14520
沈祥福	-14521
泰伦斯	-14522
派记者	-14523
满足了	-14524
火箭的	-14525
王仪涵	-14526
现在是	-14527
理想的	-14528
生活在	-14529
的一名	-14530
的业务	-14531
的任务	-14532
的导演	-14533
的新高	-14534
的舞台	-14535
的选手	-14536
的那样	-14537
相同的	-14538
福建省	-14539
离开了	-14540
等内容	-14541
精英赛	-14542
糟糕的	-14543
缩小到	-14544
美元兑	-14545
老基金	-14546
联想到	-14547
背靠背	-14548
艾弗森	-14549
被拍到	-14550
觉得很	-14551
让人们	-14552
证实了	-14553
证期货	-14554
详细的	-14555
负责任	-14556
赵忠祥	-14557
身上的	-14558
较上年	-14559
迪亚拉	-14560
都必须	-14561
队员的	-14562
阿联酋	-14563
音乐会	-14564
预备队	-14565
马布里	-14566
黎耀祥	-14567
13.3	-14568
1996	-14569
2020	-14570
3200	-14571
8:00	-14572
Card	-14573
ason	-14574
idia	-14575
▁西班牙	-14576
▁黑龙江	-14577
一个赛季	-14578
万吨左右	-14579
三分之一	-14580
下游需求	-14581
专家表示	-14582
专用发票	-14583
两个小时	-14584
中超联赛	-14585
中邮核心	-14586
也不例外	-14587
了解一下	-14588
公开信息	-14589
公开表示	-14590
其中一个	-14591
农业大学	-14592
功能方面	-14593
区间震荡	-14594
半决赛中	-14595
可以肯定	-14596
可能出现	-14597
同等学力	-14598
埃因霍温	-14599
塞维利亚	-14600
大盘蓝筹	-14601
定期定额	-14602
并且支持	-14603
引人注目	-14604
截至昨日	-14605
提前录取	-14606
教育部门	-14607
新浪自考	-14608
显得非常	-14609
有所不同	-14610
期货交易	-14611
没有出现	-14612
法律责任	-14613
混合基金	-14614
片内统招	-14615
特别是在	-14616
用户使用	-14617
社交网络	-14618
社会主义	-14619
绯闻男友	-14620
美国股市	-14621
考生报名	-14622
艺术设计	-14623
节能减排	-14624
评分标准	-14625
贷款利率	-14626
超额收益	-14627
这个消息	-14628
这样才能	-14629
防守球员	-14630
顺其自然	-14631
China	-14632
Nexus	-14633
▁this	-14634
▁文华财经	-14635
▁新快报讯	-14636
▁自考论坛	-14637
向记者表示	-14638
商品市场的	-14639
固定收益类	-14640
基金经理的	-14641
比去年减少	-14642
移动运营商	-14643
系统性风险	-14644
▁自考博客圈	-14645
感兴趣的朋友	-14646
新浪自考频道	-14647
的可能性较大	-14648
综合素质评价	-14649
MacBook	-14650
YouTube	-14651
大连商品交易所	-14652
工业和信息化部	-14653
银河证券基金研究中心	-14654
:(	-14655
CA	-14656
OM	-14657
Tr	-14658
da	-14659
ft	-14660
’”	-14661
▁&	-14662
▁◆	-14663
▁、	-14664
▁冯	-14665
▁邓	-14666
▁麦	-14667
。)	-14668
一审	-14669
三板	-14670
上手	-14671
上风	-14672
不忘	-14673
不菲	-14674
不顾	-14675
与她	-14676
业主	-14677
两届	-14678
严宽	-14679
中大	-14680
中美	-14681
主意	-14682
乌龙	-14683
乐易	-14684
乐视	-14685
乔尔	-14686
五段	-14687
产糖	-14688
人体	-14689
仍为	-14690
代号	-14691
会考	-14692
佳丽	-14693
依托	-14694
假球	-14695
偏向	-14696
偏弱	-14697
做市	-14698
储蓄	-14699
先前	-14700
兰大	-14701
再有	-14702
写着	-14703
军事	-14704
冤家	-14705
减压	-14706
几大	-14707
出动	-14708
出镜	-14709
创立	-14710
前几	-14711
功劳	-14712
劲射	-14713
包裹	-14714
化身	-14715
十强	-14716
午评	-14717
印证	-14718
发稿	-14719
发货	-14720
受限	-14721
只以	-14722
召集	-14723
各市	-14724
听证	-14725
吴哥	-14726
吸纳	-14727
和对	-14728
哈里	-14729
哥拉	-14730
商谈	-14731
喜好	-14732
四次	-14733
四段	-14734
地亚	-14735
地质	-14736
外交	-14737
外传	-14738
大专	-14739
大户	-14740
大通	-14741
天生	-14742
女方	-14743
如是	-14744
安保	-14745
宋佳	-14746
宝刚	-14747
审团	-14748
宣判	-14749
小林	-14750
小胖	-14751
左边	-14752
已久	-14753
巴托	-14754
师资	-14755
帮他	-14756
平民	-14757
年至	-14758
庆功	-14759
开赛	-14760
强行	-14761
强项	-14762
彼得	-14763
很像	-14764
徐克	-14765
德容	-14766
总署	-14767
恩爱	-14768
惟一	-14769
惨淡	-14770
想像	-14771
戏里	-14772
手可	-14773
手法	-14774
扑朔	-14775
抉择	-14776
抛出	-14777
抢占	-14778
拉伤	-14779
拐点	-14780
拭目	-14781
指示	-14782
按摩	-14783
斯堡	-14784
新碟	-14785
新科	-14786
方可	-14787
无聊	-14788
日来	-14789
易观	-14790
普约	-14791
暂无	-14792
更要	-14793
替身	-14794
标题	-14795
榜样	-14796
横店	-14797
欣宜	-14798
步步	-14799
汇总	-14800
汤唯	-14801
沃克	-14802
泡泡	-14803
浮出	-14804
浮游	-14805
淡定	-14806
漫画	-14807
灾后	-14808
燃气	-14809
王建	-14810
王者	-14811
略微	-14812
百货	-14813
皮克	-14814
看作	-14815
矿业	-14816
示人	-14817
神勇	-14818
秀娜	-14819
积金	-14820
等在	-14821
精细	-14822
缘分	-14823
缺点	-14824
翁虹	-14825
而有	-14826
胡可	-14827
脱离	-14828
舞林	-14829
艾米	-14830
节节	-14831
芬奇	-14832
花样	-14833
英尺	-14834
荧光	-14835
行走	-14836
补篮	-14837
被捕	-14838
要说	-14839
觉敏	-14840
讲究	-14841
评阅	-14842
试过	-14843
该项	-14844
误会	-14845
请来	-14846
课本	-14847
调动	-14848
谈谈	-14849
贯彻	-14850
赞同	-14851
赞赏	-14852
跟我	-14853
跳楼	-14854
轰动	-14855
达尔	-14856
达拉	-14857
过瘾	-14858
返港	-14859
还称	-14860
这套	-14861
进来	-14862
迪瓦	-14863
迫切	-14864
道明	-14865
那不	-14866
郝蕾	-14867
郭涛	-14868
都想	-14869
配角	-14870
采掘	-14871
金色	-14872
闯入	-14873
闵鹿	-14874
阵中	-14875
阿毛	-14876
陈真	-14877
雇主	-14878
零下	-14879
面孔	-14880
顺位	-14881
须在	-14882
预警	-14883
颇受	-14884
题干	-14885
飞往	-14886
首要	-14887
骨灰	-14888
鲜花	-14889
鸿海	-14890
黄色	-14891
!”“	-14892
(12	-14893
,24	-14894
,31	-14895
0.3	-14896
0.8	-14897
00,	-14898
3.6	-14899
48.	-14900
618	-14901
79.	-14902
85.	-14903
880	-14904
:20	-14905
ATM	-14906
DDR	-14907
MVB	-14908
Myd	-14909
alm	-14910
eea	-14911
ins	-14912
ool	-14913
▁42	-14914
▁pr	-14915
▁一个	-14916
▁刘翔	-14917
▁嘉实	-14918
▁数据	-14919
▁机构	-14920
▁清华	-14921
▁电话	-14922
▁留学	-14923
▁直击	-14924
▁视频	-14925
▁金属	-14926
上大学	-14927
不一定	-14928
不同于	-14929
不完全	-14930
不开心	-14931
不稳定	-14932
不过是	-14933
不高兴	-14934
与以往	-14935
与大家	-14936
主打歌	-14937
举办了	-14938
乌克兰	-14939
乐易玲	-14940
于大宝	-14941
他坦言	-14942
他本人	-14943
价值的	-14944
但今年	-14945
但同时	-14946
停留在	-14947
儿子的	-14948
内尔卡	-14949
出演的	-14950
创下了	-14951
利润率	-14952
到北京	-14953
到现场	-14954
单位的	-14955
去年底	-14956
去美国	-14957
可分配	-14958
号种子	-14959
各专业	-14960
各区县	-14961
后防线	-14962
吨左右	-14963
和上海	-14964
国储糖	-14965
在亚洲	-14966
在昨日	-14967
在校生	-14968
在考试	-14969
如何在	-14970
宇航局	-14971
安全性	-14972
将正式	-14973
工作者	-14974
巴托夫	-14975
幸福的	-14976
张继科	-14977
张艺谋	-14978
影响的	-14979
影视剧	-14980
恢复到	-14981
成员国	-14982
打招呼	-14983
据台湾	-14984
收入的	-14985
新生的	-14986
日中午	-14987
是今年	-14988
是自己	-14989
显得很	-14990
普通话	-14991
最关键	-14992
有信心	-14993
朋友的	-14994
望远镜	-14995
梁文冲	-14996
每个月	-14997
比赛时	-14998
照片中	-14999
王学兵	-15000
生产商	-15001
的不同	-15002
的不是	-15003
的争夺	-15004
的人民	-15005
的决心	-15006
的加入	-15007
的努力	-15008
的命运	-15009
的外援	-15010
的广告	-15011
的恋情	-15012
的战术	-15013
的机构	-15014
的样子	-15015
的还是	-15016
的道路	-15017
目的地	-15018
短暂的	-15019
科维奇	-15020
积极的	-15021
竞争中	-15022
第二代	-15023
等其他	-15024
类似的	-15025
综合性	-15026
而今年	-15027
而来的	-15028
而这些	-15029
而这次	-15030
自己和	-15031
自由泳	-15032
至每桶	-15033
节目组	-15034
落后于	-15035
蒋兴权	-15036
詹宁斯	-15037
记者王	-15038
记者问	-15039
调整了	-15040
调整后	-15041
谢菲联	-15042
还是以	-15043
这说明	-15044
进入到	-15045
速度和	-15046
配对赛	-15047
闵鹿蕾	-15048
阿巴特	-15049
陪审团	-15050
需要在	-15051
首歌曲	-15052
.264	-15053
15.6	-15054
2200	-15055
35%,	-15056
RMVB	-15057
▁以下为	-15058
▁据统计	-15059
一个新的	-15060
一方面是	-15061
上场时间	-15062
中国平安	-15063
中国银行	-15064
中国香港	-15065
为自己的	-15066
举行婚礼	-15067
产品设计	-15068
优惠政策	-15069
佛罗里达	-15070
信息产业	-15071
信托计划	-15072
债券投资	-15073
做的就是	-15074
出口退税	-15075
华商盛世	-15076
博士学位	-15077
即将开始	-15078
取得联系	-15079
取得胜利	-15080
合约上涨	-15081
因为他们	-15082
国投瑞银	-15083
对冲基金	-15084
对记者说	-15085
已经有了	-15086
年轻人的	-15087
弗朗西斯	-15088
影视作品	-15089
性能表现	-15090
感到非常	-15091
招生学校	-15092
拭目以待	-15093
接近尾声	-15094
摩根大通	-15095
政府部门	-15096
文科状元	-15097
施魏因斯	-15098
早报记者	-15099
昨天上午	-15100
晨报记者	-15101
月中下旬	-15102
有期徒刑	-15103
根本没有	-15104
次助攻和	-15105
每场比赛	-15106
比赛结束	-15107
没有得到	-15108
涨幅超过	-15109
火箭队在	-15110
的一系列	-15111
的俱乐部	-15112
目前来看	-15113
相当不错	-15114
礼仪小姐	-15115
社会发展	-15116
社会责任	-15117
科特迪瓦	-15118
经济衰退	-15119
绝对不会	-15120
网络购物	-15121
考试说明	-15122
行业协会	-15123
记者昨天	-15124
记者采访	-15125
赛迪网讯	-15126
遥遥领先	-15127
隆重举行	-15128
随时随地	-15129
高职院校	-15130
:2010	-15131
Smart	-15132
nolog	-15133
▁010-	-15134
▁have	-15135
▁照相功能	-15136
一对多产品	-15137
价格的上涨	-15138
国际能源署	-15139
基金的投资	-15140
招生考试院	-15141
据记者了解	-15142
法布雷加斯	-15143
的重要原因	-15144
贝尔巴托夫	-15145
队的比赛中	-15146
▁据新华社电	-15147
家庭经济困难	-15148
IdeaPad	-15149
Mydaily	-15150
应届本科毕业生	-15151
________	-15152
(9	-15153
,‘	-15154
AR	-15155
CC	-15156
DI	-15157
EB	-15158
EF	-15159
HP	-15160
JW	-15161
OL	-15162
UV	-15163
ao	-15164
co	-15165
▁如	-15166
▁的	-15167
▁袁	-15168
。1	-15169
一副	-15170
一姐	-15171
一眼	-15172
一角	-15173
一说	-15174
万镑	-15175
三亚	-15176
不分	-15177
不安	-15178
专程	-15179
两中	-15180
两双	-15181
中级	-15182
也令	-15183
争执	-15184
二段	-15185
人间	-15186
从不	-15187
他为	-15188
伊始	-15189
会把	-15190
伯格	-15191
但又	-15192
低的	-15193
作了	-15194
你是	-15195
你能	-15196
侨兴	-15197
保单	-15198
保怡	-15199
保管	-15200
停工	-15201
健雅	-15202
偶然	-15203
僵局	-15204
光缆	-15205
兔年	-15206
入主	-15207
全额	-15208
公认	-15209
共产	-15210
关天	-15211
关税	-15212
再战	-15213
冬天	-15214
几百	-15215
出不	-15216
切入	-15217
划线	-15218
制冷	-15219
削弱	-15220
力克	-15221
力压	-15222
半段	-15223
华财	-15224
协作	-15225
卓翔	-15226
单个	-15227
单车	-15228
单项	-15229
卫平	-15230
厨房	-15231
参演	-15232
反射	-15233
反正	-15234
口罩	-15235
可点	-15236
可行	-15237
吃亏	-15238
吃到	-15239
吉尔	-15240
同志	-15241
含金	-15242
启明	-15243
吸金	-15244
和王	-15245
商铺	-15246
在两	-15247
地利	-15248
地将	-15249
型船	-15250
境地	-15251
外面	-15252
多变	-15253
大局	-15254
大额	-15255
奎尔	-15256
契合	-15257
女声	-15258
她有	-15259
始于	-15260
威力	-15261
季奇	-15262
安琪	-15263
宏远	-15264
宠物	-15265
寂寞	-15266
少量	-15267
就以	-15268
就很	-15269
尽早	-15270
展会	-15271
巴顿	-15272
师徒	-15273
平凡	-15274
并肩	-15275
开辟	-15276
引得	-15277
张野	-15278
当之	-15279
当做	-15280
往届	-15281
德尔	-15282
怀钰	-15283
恶性	-15284
患有	-15285
慰问	-15286
成效	-15287
战袍	-15288
打理	-15289
投向	-15290
折不	-15291
报导	-15292
挥手	-15293
换帅	-15294
换手	-15295
接替	-15296
撞车	-15297
数目	-15298
文具	-15299
文蔚	-15300
斗牛	-15301
方静	-15302
日圆	-15303
晚餐	-15304
暂行	-15305
更深	-15306
有近	-15307
本菲	-15308
本队	-15309
李佳	-15310
李明	-15311
李湘	-15312
杜克	-15313
杨紫	-15314
核实	-15315
桂冠	-15316
梅开	-15317
横向	-15318
欧阳	-15319
正义	-15320
歧视	-15321
残酷	-15322
每当	-15323
每晚	-15324
江山	-15325
汪峰	-15326
沪指	-15327
沿海	-15328
法尔	-15329
波波	-15330
涨至	-15331
深厚	-15332
滚动	-15333
灵位	-15334
灵感	-15335
灵顿	-15336
热评	-15337
特工	-15338
特森	-15339
玉树	-15340
王晨	-15341
珍贵	-15342
球会	-15343
琴科	-15344
瑞克	-15345
甜美	-15346
用手	-15347
画皮	-15348
病房	-15349
白天	-15350
的对	-15351
的开	-15352
的徐	-15353
直升	-15354
看书	-15355
看球	-15356
看的	-15357
短文	-15358
确切	-15359
碰面	-15360
秋冬	-15361
称其	-15362
移送	-15363
稍稍	-15364
笑了	-15365
笑话	-15366
等候	-15367
等国	-15368
答谢	-15369
红人	-15370
线路	-15371
练兵	-15372
终点	-15373
续集	-15374
网商	-15375
美洲	-15376
翻转	-15377
考分	-15378
考林	-15379
耐用	-15380
职工	-15381
职校	-15382
胞胎	-15383
脑袋	-15384
草根	-15385
董方	-15386
要素	-15387
见了	-15388
观测	-15389
讽刺	-15390
诺德	-15391
读取	-15392
贵宾	-15393
走在	-15394
赶集	-15395
超市	-15396
跳台	-15397
踏上	-15398
身处	-15399
辩证	-15400
还真	-15401
还送	-15402
这使	-15403
适马	-15404
逃避	-15405
郭跃	-15406
锌价	-15407
长久	-15408
闪婚	-15409
阶层	-15410
阿奎	-15411
阿帅	-15412
难点	-15413
雷人	-15414
韵诗	-15415
顽强	-15416
预约	-15417
飞侠	-15418
餐馆	-15419
高低	-15420
高居	-15421
高球	-15422
高通	-15423
齐豫	-15424
/09	-15425
3-0	-15426
540	-15427
630	-15428
70-	-15429
IGI	-15430
Mas	-15431
PEC	-15432
Sky	-15433
ike	-15434
lex	-15435
ove	-15436
rew	-15437
▁29	-15438
▁En	-15439
▁VS	-15440
▁en	-15441
▁关注	-15442
▁创维	-15443
▁国泰	-15444
▁宁夏	-15445
▁广发	-15446
▁当日	-15447
▁戴尔	-15448
▁湖南	-15449
▁理财	-15450
▁网上	-15451
▁这些	-15452
▁问题	-15453
、13	-15454
、16	-15455
一分钱	-15456
一度的	-15457
下个月	-15458
不正当	-15459
不知情	-15460
与观众	-15461
中低端	-15462
也使得	-15463
于文凤	-15464
交割的	-15465
产量的	-15466
他们对	-15467
以确保	-15468
休息室	-15469
伦蒂诺	-15470
位置的	-15471
你怎么	-15472
倍耐力	-15473
做市商	-15474
全队的	-15475
兰生物	-15476
关天朗	-15477
冠军赛	-15478
出来了	-15479
前所未	-15480
加大对	-15481
勇士队	-15482
可以为	-15483
同时在	-15484
吕晓明	-15485
启动了	-15486
告诉你	-15487
周一围	-15488
哈达迪	-15489
围绕着	-15490
圈可点	-15491
在一些	-15492
在价格	-15493
在台北	-15494
在国外	-15495
基本功	-15496
复杂的	-15497
奠定了	-15498
奢侈品	-15499
威尼斯	-15500
娜塔莎	-15501
学校和	-15502
对媒体	-15503
对孩子	-15504
对这个	-15505
将超过	-15506
将陆续	-15507
就必须	-15508
展开了	-15509
差异化	-15510
已久的	-15511
已完成	-15512
已确定	-15513
已经不	-15514
布莱切	-15515
希望他	-15516
平台上	-15517
年底的	-15518
年美国	-15519
张涵予	-15520
张纪中	-15521
成功后	-15522
教练员	-15523
教练和	-15524
方向的	-15525
日以来	-15526
日左右	-15527
是一家	-15528
更愿意	-15529
替补席	-15530
最低价	-15531
最低分	-15532
有哪些	-15533
本周五	-15534
本菲卡	-15535
李玮锋	-15536
模特儿	-15537
歌迷们	-15538
每天都	-15539
比较高	-15540
毛泽东	-15541
没问题	-15542
温哥华	-15543
热那亚	-15544
率达到	-15545
王志文	-15546
现有的	-15547
理查德	-15548
由学校	-15549
申请表	-15550
申购和	-15551
电影的	-15552
电视节	-15553
的一部	-15554
的人们	-15555
的供应	-15556
的办法	-15557
的品牌	-15558
的地位	-15559
的妻子	-15560
的年轻	-15561
的幸福	-15562
的快速	-15563
的戏份	-15564
的攻击	-15565
的教育	-15566
的时代	-15567
的演出	-15568
的知识	-15569
的规模	-15570
的首选	-15571
的高分	-15572
科学院	-15573
竞争者	-15574
第四次	-15575
等众多	-15576
等原因	-15577
签字笔	-15578
篮板球	-15579
类股票	-15580
结构化	-15581
绝不会	-15582
网友们	-15583
网络上	-15584
罗德曼	-15585
罗德里	-15586
美联社	-15587
而且是	-15588
而国内	-15589
背单词	-15590
能获得	-15591
自行车	-15592
艾尔顿	-15593
范德法	-15594
莫文蔚	-15595
蔡健雅	-15596
行情的	-15597
西多夫	-15598
观看了	-15599
训练的	-15600
请点击	-15601
调整为	-15602
购买了	-15603
走出了	-15604
运作的	-15605
还会有	-15606
这一天	-15607
这并不	-15608
适用于	-15609
透露了	-15610
邓丽君	-15611
都不能	-15612
都表示	-15613
随后的	-15614
预示着	-15615
题目的	-15616
马库斯	-15617
马洛卡	-15618
高画质	-15619
黄海波	-15620
黄秋生	-15621
1001	-15622
25%。	-15623
3999	-15624
70%,	-15625
7500	-15626
HOME	-15627
John	-15628
SATA	-15629
Tech	-15630
WIND	-15631
ings	-15632
ther	-15633
▁-2.	-15634
▁11.	-15635
▁晚报讯	-15636
▁武汉市	-15637
严格执行	-15638
中国网民	-15639
主场对阵	-15640
交易价格	-15641
今年夏天	-15642
价格下跌	-15643
信贷资产	-15644
充满信心	-15645
公立大学	-15646
其他球队	-15647
冠军联赛	-15648
出色表现	-15649
参加全国	-15650
可以发现	-15651
可以满足	-15652
周报记者	-15653
因为我们	-15654
国民经济	-15655
在第二节	-15656
在职人员	-15657
基金认为	-15658
塞尔维亚	-15659
处理器的	-15660
大幅反弹	-15661
大幅提升	-15662
如果不是	-15663
山东鲁能	-15664
当之无愧	-15665
影响力的	-15666
很多同学	-15667
成像质量	-15668
我们不能	-15669
扑朔迷离	-15670
投资者在	-15671
数据统计	-15672
整体表现	-15673
晚报记者	-15674
最后一节	-15675
最终还是	-15676
有更多的	-15677
标准银行	-15678
正是因为	-15679
浮出水面	-15680
生源不足	-15681
的影响力	-15682
的演唱会	-15683
相关信息	-15684
知情人士	-15685
神州数码	-15686
经济形势	-15687
续航能力	-15688
能力测试	-15689
能源化工	-15690
艺术学院	-15691
苹果公司	-15692
莱昂纳多	-15693
著名导演	-15694
蒙娜丽莎	-15695
该公司的	-15696
这么多年	-15697
这款相机	-15698
透露自己	-15699
那场比赛	-15700
金元比联	-15701
随身携带	-15702
高中起点	-15703
高考期间	-15704
黄金投资	-15705
:2011	-15706
Apple	-15707
Kelly	-15708
“2009	-15709
▁2005	-15710
▁know	-15711
▁some	-15712
▁昨天下午	-15713
▁昨日下午	-15714
▁晨报记者	-15715
中国留学生	-15716
国家和地区	-15717
研究生招生	-15718
考生可登录	-15719
进一步扩大	-15720
施魏因斯泰格	-15721
自动对焦系统	-15722
1280×720	-15723
有兴趣的朋友不妨	-15724
4×	-15725
5)	-15726
AX	-15727
BE	-15728
KD	-15729
LI	-15730
NP	-15731
OF	-15732
XC	-15733
yn	-15734
“3	-15735
▁/	-15736
▁凡	-15737
▁蓝	-15738
一丝	-15739
一众	-15740
一哥	-15741
一曲	-15742
一职	-15743
七大	-15744
万一	-15745
三场	-15746
三款	-15747
三节	-15748
上加	-15749
下限	-15750
不买	-15751
不料	-15752
不进	-15753
与人	-15754
严密	-15755
中方	-15756
中行	-15757
丹阳	-15758
主队	-15759
书店	-15760
事儿	-15761
亚当	-15762
亚龙	-15763
交谈	-15764
交费	-15765
产后	-15766
人次	-15767
仁杰	-15768
他从	-15769
他以	-15770
他把	-15771
以求	-15772
仿真	-15773
伊瓜	-15774
优比	-15775
伯特	-15776
低了	-15777
佩鲁	-15778
便可	-15779
俨然	-15780
借口	-15781
假设	-15782
偏离	-15783
停留	-15784
全都	-15785
公映	-15786
公测	-15787
共设	-15788
冶炼	-15789
冻结	-15790
出海	-15791
分割	-15792
分区	-15793
划分	-15794
列洛	-15795
刘海	-15796
则要	-15797
刚才	-15798
初级	-15799
前就	-15800
前腰	-15801
剧照	-15802
加仑	-15803
华侨	-15804
单机	-15805
单节	-15806
博物	-15807
博纳	-15808
历时	-15809
反思	-15810
反观	-15811
发型	-15812
口味	-15813
叫做	-15814
可唯	-15815
可控	-15816
合伙	-15817
否定	-15818
品德	-15819
哲科	-15820
商人	-15821
四家	-15822
因其	-15823
国立	-15824
国象	-15825
土地	-15826
土木	-15827
地毯	-15828
型男	-15829
大国	-15830
大好	-15831
大梁	-15832
大脑	-15833
天地	-15834
太高	-15835
失踪	-15836
夺金	-15837
奇美	-15838
套房	-15839
姥姥	-15840
嫁入	-15841
学家	-15842
守门	-15843
定增	-15844
客队	-15845
家英	-15846
富商	-15847
寓所	-15848
小风	-15849
局部	-15850
居前	-15851
岁了	-15852
岁时	-15853
巧合	-15854
布森	-15855
布罗	-15856
常用	-15857
年到	-15858
年将	-15859
年年	-15860
并向	-15861
建安	-15862
开庭	-15863
开战	-15864
往日	-15865
德迈	-15866
心灵	-15867
志祥	-15868
恋人	-15869
恰当	-15870
情形	-15871
想把	-15872
感触	-15873
所持	-15874
扳回	-15875
抒情	-15876
报警	-15877
抽射	-15878
拉伊	-15879
拉姆	-15880
拉尼	-15881
招待	-15882
拦截	-15883
指向	-15884
掌门	-15885
探测	-15886
摇摆	-15887
播音	-15888
撰写	-15889
收回	-15890
收拾	-15891
收跌	-15892
攻略	-15893
放假	-15894
政法	-15895
故宫	-15896
敌人	-15897
救援	-15898
教父	-15899
文乐	-15900
斩获	-15901
日将	-15902
明智	-15903
是被	-15904
晓波	-15905
普高	-15906
景象	-15907
曝出	-15908
曾有	-15909
最牛	-15910
最长	-15911
有待	-15912
机票	-15913
机顶	-15914
李咏	-15915
梅隆	-15916
检修	-15917
此刻	-15918
水的	-15919
沉寂	-15920
波多	-15921
海岸	-15922
灿烂	-15923
焦煤	-15924
爱上	-15925
物资	-15926
狠狠	-15927
球技	-15928
田田	-15929
畅谈	-15930
的歌	-15931
的绝	-15932
直降	-15933
碰撞	-15934
磨练	-15935
礼貌	-15936
税收	-15937
站稳	-15938
章节	-15939
童星	-15940
精度	-15941
精武	-15942
精美	-15943
紧扣	-15944
紧紧	-15945
繁忙	-15946
红灯	-15947
纪香	-15948
统筹	-15949
维恩	-15950
编制	-15951
编者	-15952
考量	-15953
而同	-15954
而我	-15955
能给	-15956
艾尔	-15957
若兮	-15958
草案	-15959
莲花	-15960
著协	-15961
薇儿	-15962
补丁	-15963
裸奔	-15964
西藏	-15965
规中	-15966
认出	-15967
讨厌	-15968
说说	-15969
读研	-15970
购置	-15971
费迪	-15972
赋予	-15973
赌博	-15974
赛马	-15975
走得	-15976
走路	-15977
越多	-15978
越高	-15979
跟她	-15980
路径	-15981
进账	-15982
迪达	-15983
逊色	-15984
里昂	-15985
长线	-15986
问候	-15987
防尘	-15988
阻碍	-15989
降到	-15990
雯娜	-15991
靠谱	-15992
预防	-15993
风靡	-15994
首创	-15995
骚扰	-15996
高昂	-15997
黑白	-15998
鼓舞	-15999
齐达	-16000
(00	-16001
(16	-16002
-45	-16003
0.6	-16004
127	-16005
3.8	-16006
31.	-16007
390	-16008
41.	-16009
54.	-16010
570	-16011
58.	-16012
:1-	-16013
Chr	-16014
EIA	-16015
EXR	-16016
MOS	-16017
Pro	-16018
TOP	-16019
ash	-16020
eve	-16021
lin	-16022
ock	-16023
ose	-16024
ree	-16025
▁50	-16026
▁80	-16027
▁Tr	-16028
▁US	-16029
▁ac	-16030
▁al	-16031
▁促销	-16032
▁周三	-16033
▁声明	-16034
▁学生	-16035
▁安徽	-16036
▁早在	-16037
▁江苏	-16038
▁消息	-16039
▁纽约	-16040
▁金融	-16041
▁鹏华	-16042
、15	-16043
一家人	-16044
一直都	-16045
一辈子	-16046
万多人	-16047
三脚架	-16048
下降至	-16049
不仅在	-16050
不包括	-16051
不小心	-16052
不接受	-16053
不支持	-16054
不适合	-16055
世华财	-16056
个月后	-16057
中学的	-16058
为学生	-16059
为核心	-16060
主场以	-16061
了一批	-16062
了一颗	-16063
从小就	-16064
他甚至	-16065
代表着	-16066
休息时	-16067
优比速	-16068
但这个	-16069
俞觉敏	-16070
元以上	-16071
免费的	-16072
全球的	-16073
公积金	-16074
共产党	-16075
内心的	-16076
准备的	-16077
出一个	-16078
出货量	-16079
出身的	-16080
分手后	-16081
利亚斯	-16082
到时候	-16083
功能和	-16084
加利亚	-16085
博列洛	-16086
博客上	-16087
原有的	-16088
原装包	-16089
参加过	-16090
又开始	-16091
取得的	-16092
可直接	-16093
可能的	-16094
各品种	-16095
各省市	-16096
和北京	-16097
和家人	-16098
唐国强	-16099
在家里	-16100
在整个	-16101
在最后	-16102
在海外	-16103
均出现	-16104
复习的	-16105
大光圈	-16106
大满贯	-16107
天津市	-16108
安哥拉	-16109
安德烈	-16110
寸液晶	-16111
对焦点	-16112
将参加	-16113
将延续	-16114
小时内	-16115
小牛队	-16116
巧克力	-16117
市场部	-16118
市招办	-16119
市面上	-16120
年之后	-16121
年夏天	-16122
开心网	-16123
当当网	-16124
影片中	-16125
很正常	-16126
怎么办	-16127
成绩的	-16128
技战术	-16129
折不扣	-16130
换下了	-16131
政府的	-16132
文章中	-16133
新生代	-16134
无论在	-16135
时间表	-16136
春节后	-16137
是他的	-16138
是如何	-16139
更是在	-16140
更需要	-16141
有力的	-16142
有效期	-16143
有许多	-16144
有问题	-16145
朝鲜队	-16146
本来就	-16147
李小冉	-16148
来参加	-16149
极强的	-16150
枚金牌	-16151
欧足联	-16152
款产品	-16153
每盎司	-16154
汤普森	-16155
派出所	-16156
涨跌互	-16157
狄仁杰	-16158
王励勤	-16159
王家卫	-16160
环境的	-16161
现在我	-16162
球队中	-16163
理科生	-16164
用一个	-16165
电视机	-16166
男朋友	-16167
画面的	-16168
的一只	-16169
的中场	-16170
的价值	-16171
的儿子	-16172
的制作	-16173
的发行	-16174
的妈妈	-16175
的实际	-16176
的家庭	-16177
的平台	-16178
的男人	-16179
的画面	-16180
的通知	-16181
的邀请	-16182
的都是	-16183
的重量	-16184
的青睐	-16185
的高级	-16186
的魅力	-16187
皮尔斯	-16188
相对较	-16189
眼前一	-16190
福州市	-16191
科格鲁	-16192
纳瓦罗	-16193
绿衫军	-16194
翟田田	-16195
考生应	-16196
艺人的	-16197
董方卓	-16198
表现力	-16199
规模的	-16200
解放军	-16201
计划数	-16202
设立了	-16203
评论员	-16204
请注明	-16205
贝加尔	-16206
贾斯汀	-16207
轻松的	-16208
这其中	-16209
这将是	-16210
这无疑	-16211
进攻中	-16212
进攻的	-16213
选秀权	-16214
避免了	-16215
郭可盈	-16216
都市报	-16217
配置和	-16218
针对性	-16219
银行系	-16220
陷入了	-16221
音乐的	-16222
预报名	-16223
骑士队	-16224
高晓松	-16225
1990	-16226
1993	-16227
3.5%	-16228
4300	-16229
47%,	-16230
LOGO	-16231
QVGA	-16232
ally	-16233
asic	-16234
ence	-16235
imit	-16236
oint	-16237
▁-3.	-16238
▁200	-16239
▁500	-16240
▁One	-16241
▁ind	-16242
▁中关村	-16243
▁商报讯	-16244
▁新华社	-16245
▁阿隆索	-16246
一场胜利	-16247
一直都是	-16248
三分线外	-16249
上的表现	-16250
不要错过	-16251
世华财讯	-16252
个人信息	-16253
中等学校	-16254
交通银行	-16255
传统封基	-16256
信息中心	-16257
值得期待	-16258
再创新高	-16259
加拿大的	-16260
华兰生物	-16261
国家临时	-16262
大幅增长	-16263
实际行动	-16264
实验操作	-16265
工商管理	-16266
巨人网络	-16267
已经达到	-16268
已经连续	-16269
市场走势	-16270
当代艺术	-16271
很多东西	-16272
慈善活动	-16273
成交金额	-16274
成绩查询	-16275
打出一波	-16276
技术犯规	-16277
投篮不中	-16278
拉伊奥拉	-16279
拥有一个	-16280
持股比例	-16281
指导意见	-16282
教育改革	-16283
斯塔德迈	-16284
方便用户	-16285
方便考生	-16286
更多的人	-16287
更衣室里	-16288
最高分为	-16289
有关人士	-16290
期货行业	-16291
机身背面	-16292
标准普尔	-16293
每个人的	-16294
河南建业	-16295
波波维奇	-16296
流动性的	-16297
湖人队的	-16298
现场观众	-16299
用户提供	-16300
的人民币	-16301
盛大游戏	-16302
石油大学	-16303
研究机构	-16304
社会各界	-16305
紧缩政策	-16306
继续进行	-16307
联邦政府	-16308
肯定不会	-16309
英语听力	-16310
获得冠军	-16311
营业收入	-16312
表现不佳	-16313
表现出了	-16314
费迪南德	-16315
身份证件	-16316
避险情绪	-16317
都不知道	-16318
重点高中	-16319
钢材价格	-16320
销售价格	-16321
长期以来	-16322
阿内尔卡	-16323
阿根廷队	-16324
雅思成绩	-16325
面对媒体	-16326
食品饮料	-16327
高职高专	-16328
17:00	-16329
▁Wind	-16330
▁今年以来	-16331
▁促销信息	-16332
▁版权所有	-16333
▁相关新闻	-16334
分析师认为	-16335
填报志愿时	-16336
实名推荐制	-16337
开盘交易的	-16338
数码摄像机	-16339
的重要因素	-16340
等离子电视	-16341
资本市场的	-16342
马克思主义	-16343
高级副总裁	-16344
分析人士表示	-16345
万像素成像能力	-16346
LinkedIn	-16347
数码相机产品报价	-16348
▁Research	-16349
基金管理有限公司关于	-16350
0,	-16351
3×	-16352
7)	-16353
FH	-16354
GN	-16355
VD	-16356
aw	-16357
az	-16358
ci	-16359
“5	-16360
▁j	-16361
▁下	-16362
▁双	-16363
▁台	-16364
▁姜	-16365
▁武	-16366
▁牛	-16367
▁说	-16368
一刻	-16369
一千	-16370
一群	-16371
一袭	-16372
万达	-16373
下榻	-16374
下车	-16375
不改	-16376
不旺	-16377
不清	-16378
不由	-16379
不肯	-16380
两局	-16381
两点	-16382
严谨	-16383
个体	-16384
个省	-16385
中所	-16386
之力	-16387
之大	-16388
也使	-16389
也比	-16390
事发	-16391
五六	-16392
亲属	-16393
亲身	-16394
人身	-16395
仅在	-16396
介质	-16397
他俩	-16398
低碳	-16399
你说	-16400
佩服	-16401
保住	-16402
倾诉	-16403
入口	-16404
八段	-16405
六段	-16406
关怀	-16407
其间	-16408
减免	-16409
几度	-16410
凭证	-16411
分后	-16412
分流	-16413
则会	-16414
判定	-16415
制品	-16416
前作	-16417
加密	-16418
加拉	-16419
务必	-16420
动摇	-16421
区内	-16422
卖方	-16423
南部	-16424
卡罗	-16425
双汇	-16426
反光	-16427
发泄	-16428
召回	-16429
可将	-16430
可有	-16431
吃力	-16432
名利	-16433
向他	-16434
听取	-16435
吹罚	-16436
和她	-16437
售出	-16438
唯独	-16439
噱头	-16440
四成	-16441
囤积	-16442
在为	-16443
在你	-16444
在港	-16445
坚守	-16446
城镇	-16447
境界	-16448
声乐	-16449
备货	-16450
复赛	-16451
多伦	-16452
夜景	-16453
大军	-16454
大势	-16455
大卖	-16456
大喊	-16457
大放	-16458
天虹	-16459
失分	-16460
头一	-16461
奶粉	-16462
好买	-16463
好几	-16464
妙传	-16465
婚讯	-16466
孙楠	-16467
宇森	-16468
家属	-16469
寿险	-16470
将达	-16471
尊敬	-16472
岩松	-16473
布克	-16474
师妹	-16475
常州	-16476
平和	-16477
并可	-16478
库尔	-16479
引爆	-16480
张茆	-16481
强人	-16482
当了	-16483
录用	-16484
影后	-16485
征税	-16486
待机	-16487
徐子	-16488
德州	-16489
必备	-16490
思科	-16491
总理	-16492
总能	-16493
恩师	-16494
恩戈	-16495
恰逢	-16496
情理	-16497
想想	-16498
想让	-16499
感激	-16500
戈登	-16501
战场	-16502
战成	-16503
户外	-16504
手下	-16505
打满	-16506
批复	-16507
找我	-16508
投身	-16509
抗震	-16510
护照	-16511
拉大	-16512
拍得	-16513
拜祭	-16514
拼抢	-16515
挂着	-16516
挖角	-16517
推向	-16518
推销	-16519
搞定	-16520
摇头	-16521
撤离	-16522
收音	-16523
敢于	-16524
数千	-16525
整场	-16526
文档	-16527
新援	-16528
新歌	-16529
无形	-16530
早期	-16531
时常	-16532
时长	-16533
晋信	-16534
普跌	-16535
曲折	-16536
最想	-16537
有否	-16538
期满	-16539
木村	-16540
朴茨	-16541
杏芳	-16542
杰斯	-16543
构思	-16544
柔安	-16545
核查	-16546
格伦	-16547
楚天	-16548
欢呼	-16549
武警	-16550
死了	-16551
母子	-16552
比率	-16553
江华	-16554
泉州	-16555
法的	-16556
泛滥	-16557
泪水	-16558
泽尔	-16559
海地	-16560
浸会	-16561
涉案	-16562
涉足	-16563
涨到	-16564
游玩	-16565
潘霜	-16566
潜能	-16567
灯光	-16568
热心	-16569
爱人	-16570
特质	-16571
王一	-16572
玛丽	-16573
珊妮	-16574
理智	-16575
申诉	-16576
申赎	-16577
电磁	-16578
画画	-16579
的天	-16580
的红	-16581
盈盈	-16582
监视	-16583
盛赞	-16584
真理	-16585
着一	-16586
知性	-16587
礼品	-16588
神情	-16589
禁赛	-16590
私家	-16591
科里	-16592
科院	-16593
稍后	-16594
空军	-16595
空前	-16596
立足	-16597
组件	-16598
综上	-16599
编号	-16600
老根	-16601
而其	-16602
而她	-16603
而成	-16604
肚子	-16605
自发	-16606
自强	-16607
自愿	-16608
自有	-16609
莫里	-16610
衔接	-16611
补时	-16612
补课	-16613
被叫	-16614
被爆	-16615
袭击	-16616
要以	-16617
要先	-16618
要去	-16619
要和	-16620
见底	-16621
解散	-16622
评定	-16623
说出	-16624
谢娜	-16625
贤齐	-16626
贯穿	-16627
赢下	-16628
赤字	-16629
起跑	-16630
趁机	-16631
越大	-16632
趋紧	-16633
跨国	-16634
路易	-16635
辖市	-16636
这才	-16637
违纪	-16638
退档	-16639
退费	-16640
送走	-16641
选修	-16642
选票	-16643
选股	-16644
逼平	-16645
邮寄	-16646
郭焱	-16647
酋长	-16648
重伤	-16649
重演	-16650
重考	-16651
阴谋	-16652
阶级	-16653
除去	-16654
韩刚	-16655
音响	-16656
预见	-16657
预言	-16658
领军	-16659
领队	-16660
风采	-16661
马特	-16662
马达	-16663
骨干	-16664
高档	-16665
高薪	-16666
麦当	-16667
黄志	-16668
)。”	-16669
,08	-16670
,09	-16671
-09	-16672
147	-16673
340	-16674
4.6	-16675
48×	-16676
520	-16677
57.	-16678
67.	-16679
750	-16680
ann	-16681
arn	-16682
cer	-16683
ean	-16684
ero	-16685
irl	-16686
oot	-16687
oug	-16688
”:“	-16689
▁一些	-16690
▁中欧	-16691
▁博时	-16692
▁同样	-16693
▁大连	-16694
▁微博	-16695
▁报考	-16696
▁支持	-16697
▁本届	-16698
▁沪胶	-16699
▁行情	-16700
▁说到	-16701
▁还有	-16702
▁银华	-16703
▁阿联	-16704
一段落	-16705
万港元	-16706
上行的	-16707
不要再	-16708
与往年	-16709
与美国	-16710
主要以	-16711
之中的	-16712
之后就	-16713
也相当	-16714
也逐渐	-16715
也都在	-16716
习惯了	-16717
了一位	-16718
了一番	-16719
产业的	-16720
人性化	-16721
什么是	-16722
今天在	-16723
今年来	-16724
他希望	-16725
以内的	-16726
伊瓜因	-16727
体现在	-16728
侯耀华	-16729
保留了	-16730
做到了	-16731
充分的	-16732
关系到	-16733
兴奋剂	-16734
冲击力	-16735
决定的	-16736
几年来	-16737
分别以	-16738
到今年	-16739
化妆品	-16740
十年的	-16741
受伤的	-16742
受访者	-16743
变化的	-16744
变得更	-16745
另一半	-16746
只要有	-16747
可以将	-16748
周立波	-16749
在中场	-16750
在其他	-16751
在台上	-16752
在深圳	-16753
在篮下	-16754
在联赛	-16755
在这些	-16756
型号为	-16757
基金是	-16758
增添了	-16759
失业率	-16760
守门员	-16761
安全的	-16762
对一些	-16763
对所有	-16764
对这一	-16765
将差距	-16766
将逐步	-16767
小前锋	-16768
小皇帝	-16769
展现了	-16770
已经和	-16771
巴特尔	-16772
帕金斯	-16773
平时的	-16774
年世界	-16775
年同期	-16776
当中的	-16777
必不可	-16778
总体上	-16779
意义的	-16780
感到很	-16781
成功地	-16782
我个人	-16783
我当时	-16784
才计划	-16785
技术上	-16786
报志愿	-16787
报考点	-16788
接班人	-16789
支撑位	-16790
收盘时	-16791
放在了	-16792
数字化	-16793
整体上	-16794
方力申	-16795
日宣布	-16796
更重要	-16797
曾多次	-16798
最小的	-16799
有望在	-16800
期待着	-16801
未知数	-16802
本榨季	-16803
林青霞	-16804
欧巡赛	-16805
淘汰了	-16806
潘霜霜	-16807
熊市中	-16808
王仕鹏	-16809
球员中	-16810
球员都	-16811
甚至有	-16812
申花队	-16813
疯狂的	-16814
登记表	-16815
白岩松	-16816
的一致	-16817
的上市	-16818
的前景	-16819
的挑战	-16820
的提升	-16821
的最低	-16822
的格局	-16823
的演技	-16824
的艺人	-16825
的资格	-16826
的足球	-16827
研发的	-16828
称之为	-16829
第三个	-16830
第四名	-16831
签署了	-16832
纪录片	-16833
而作为	-16834
联盟的	-16835
能够让	-16836
节目的	-16837
著作权	-16838
蒂亚戈	-16839
虽然有	-16840
行业和	-16841
表现在	-16842
裁判的	-16843
规中矩	-16844
让很多	-16845
记者李	-16846
该合约	-16847
诺坎普	-16848
调查中	-16849
谈到了	-16850
资金面	-16851
跨市场	-16852
还有待	-16853
还要看	-16854
这两位	-16855
这是个	-16856
通知单	-16857
通证券	-16858
道琼斯	-16859
邀请了	-16860
部主任	-16861
银行股	-16862
阿毛里	-16863
陈凯歌	-16864
陈小春	-16865
预告片	-16866
马雅舒	-16867
黄博文	-16868
13%,	-16869
1995	-16870
2400	-16871
2736	-16872
4600	-16873
5100	-16874
90%,	-16875
FIFA	-16876
ange	-16877
cred	-16878
ents	-16879
▁(3)	-16880
▁12.	-16881
▁360	-16882
▁ETF	-16883
▁Tab	-16884
▁如果说	-16885
▁电视剧	-16886
一个多月	-16887
一支球队	-16888
三场比赛	-16889
不折不扣	-16890
专业硕士	-16891
中国政府	-16892
中国男足	-16893
中小学生	-16894
主要还是	-16895
也是非常	-16896
互联网的	-16897
今天小编	-16898
代表性的	-16899
估值水平	-16900
保费收入	-16901
信托产品	-16902
公平公正	-16903
公益事业	-16904
具体时间	-16905
决定是否	-16906
出现问题	-16907
医疗保险	-16908
华泰柏瑞	-16909
单向收费	-16910
只基金中	-16911
可以帮助	-16912
可以考虑	-16913
可视角度	-16914
告一段落	-16915
命中三分	-16916
四分之一	-16917
在世界杯	-16918
在本赛季	-16919
在第四节	-16920
在经历了	-16921
地理位置	-16922
基本面的	-16923
基金仓位	-16924
基金账户	-16925
处理器和	-16926
大学校长	-16927
大幅提高	-16928
天津大学	-16929
实验中学	-16930
已经过去	-16931
市场供应	-16932
市场出现	-16933
年轻队员	-16934
库存增加	-16935
录取资格	-16936
很多人都	-16937
投资风格	-16938
推动作用	-16939
提前批次	-16940
收于每吨	-16941
无线宽带	-16942
旭日阳刚	-16943
时代华纳	-16944
时尚杂志	-16945
有线电视	-16946
梅开二度	-16947
正式发行	-16948
汇丰晋信	-16949
理工学院	-16950
着自己的	-16951
知道自己	-16952
科技博客	-16953
空间有限	-16954
竞价排名	-16955
管理人员	-16956
管理办法	-16957
系列产品	-16958
继续努力	-16959
继续维持	-16960
绿色通道	-16961
美国能源	-16962
股市场的	-16963
范德法特	-16964
获得亚军	-16965
萨尔蒙斯	-16966
虽然目前	-16967
视频直播	-16968
该机拥有	-16969
贝加尔湖	-16970
足协主席	-16971
跑赢大盘	-16972
身体健康	-16973
身体素质	-16974
转会市场	-16975
这些学生	-16976
部分地区	-16977
金融风暴	-16978
院校录取	-16979
非常大的	-16980
预计今年	-16981
高分考生	-16982
高性价比	-16983
高考录取	-16984
ridge	-16985
vidia	-16986
▁2000	-16987
▁Inst	-16988
▁work	-16989
▁上海报道	-16990
▁特约记者	-16991
两个交易日	-16992
为用户提供	-16993
今天的比赛	-16994
公募基金的	-16995
发布公告称	-16996
居民身份证	-16997
据国外媒体	-16998
推出的一款	-16999
最低收购价	-17000
期货业协会	-17001
条件的考生	-17002
的原因之一	-17003
罗德里格斯	-17004
PCHOME	-17005
从高分到低分	-17006
原油期货合约	-17007
国家队主教练	-17008
▁业内人士认为	-17009
在市场上了解到	-17010
有关负责人介绍	-17011
在接受采访时表示	-17012
/8	-17013
6)	-17014
GC	-17015
GR	-17016
Ge	-17017
HR	-17018
PL	-17019
PM	-17020
PU	-17021
TG	-17022
fl	-17023
××	-17024
∶0	-17025
▁已	-17026
▁按	-17027
▁注	-17028
▁石	-17029
▁蒋	-17030
▁薛	-17031
一幕	-17032
一班	-17033
一见	-17034
万张	-17035
上个	-17036
上榜	-17037
上百	-17038
下角	-17039
不作	-17040
不爱	-17041
不远	-17042
不限	-17043
与会	-17044
与老	-17045
丢了	-17046
两侧	-17047
临门	-17048
为新	-17049
为难	-17050
之心	-17051
也于	-17052
也应	-17053
也由	-17054
买加	-17055
了结	-17056
事的	-17057
二号	-17058
五次	-17059
亚信	-17060
亚特	-17061
交纳	-17062
京城	-17063
他都	-17064
令我	-17065
伟忠	-17066
传来	-17067
伤停	-17068
体型	-17069
侦查	-17070
侧滑	-17071
便会	-17072
俊相	-17073
俗称	-17074
保德	-17075
保镖	-17076
倒了	-17077
假的	-17078
偏重	-17079
做完	-17080
傍晚	-17081
元至	-17082
元钱	-17083
光芒	-17084
克罗	-17085
入侵	-17086
全裸	-17087
公路	-17088
六大	-17089
再看	-17090
决议	-17091
出走	-17092
分期	-17093
刘威	-17094
初审	-17095
到港	-17096
加利	-17097
动人	-17098
勤奋	-17099
十余	-17100
十八	-17101
半程	-17102
单科	-17103
卡和	-17104
危害	-17105
却因	-17106
厚望	-17107
去找	-17108
受挫	-17109
句号	-17110
可不	-17111
吉他	-17112
同业	-17113
同门	-17114
含税	-17115
启示	-17116
周鹏	-17117
和超	-17118
品味	-17119
唯有	-17120
喜事	-17121
喜讯	-17122
嗓音	-17123
回吐	-17124
圣依	-17125
在高	-17126
均以	-17127
埃布	-17128
埃拉	-17129
填涂	-17130
墨尔	-17131
士气	-17132
外接	-17133
外教	-17134
多只	-17135
夜晚	-17136
大典	-17137
大叔	-17138
大呼	-17139
大打	-17140
大碟	-17141
天内	-17142
太原	-17143
太小	-17144
女神	-17145
好过	-17146
妥善	-17147
姆普	-17148
娘家	-17149
婚前	-17150
孙莉	-17151
孤儿	-17152
宁静	-17153
它还	-17154
宏达	-17155
宗师	-17156
定理	-17157
审美	-17158
宣萱	-17159
室外	-17160
家居	-17161
寝室	-17162
将把	-17163
少红	-17164
少聪	-17165
尽情	-17166
属实	-17167
崎步	-17168
师兄	-17169
帝国	-17170
年第	-17171
床上	-17172
应有	-17173
康熙	-17174
开关	-17175
开闸	-17176
开除	-17177
引用	-17178
张家	-17179
张磊	-17180
微型	-17181
微星	-17182
心仪	-17183
忍受	-17184
忽悠	-17185
悠悠	-17186
惨败	-17187
我所	-17188
我看	-17189
打上	-17190
批文	-17191
投射	-17192
投进	-17193
抽出	-17194
拉夫	-17195
招飞	-17196
指令	-17197
指点	-17198
振兴	-17199
挺进	-17200
推射	-17201
搜狗	-17202
摆在	-17203
攀攀	-17204
改写	-17205
整治	-17206
新发	-17207
新郎	-17208
方程	-17209
无误	-17210
无锡	-17211
日是	-17212
日渐	-17213
明道	-17214
是想	-17215
是把	-17216
晓东	-17217
普达	-17218
更让	-17219
最难	-17220
有加	-17221
有害	-17222
有误	-17223
期为	-17224
本特	-17225
朴正	-17226
李青	-17227
杏儿	-17228
极了	-17229
极度	-17230
查理	-17231
标普	-17232
校内	-17233
梅罗	-17234
梯度	-17235
楼的	-17236
概括	-17237
比他	-17238
毛病	-17239
民主	-17240
民国	-17241
永安	-17242
沮丧	-17243
法则	-17244
法宝	-17245
流星	-17246
浑身	-17247
浩民	-17248
海伦	-17249
港校	-17250
演播	-17251
激进	-17252
点上	-17253
然大	-17254
熙蕾	-17255
独具	-17256
独唱	-17257
猜想	-17258
王室	-17259
玛索	-17260
现今	-17261
理赔	-17262
生了	-17263
男排	-17264
的头	-17265
的这	-17266
皇岛	-17267
直呼	-17268
直属	-17269
相片	-17270
真诚	-17271
知的	-17272
硬屏	-17273
示弱	-17274
禁入	-17275
秉承	-17276
立新	-17277
站台	-17278
笑脸	-17279
签售	-17280
管局	-17281
米卢	-17282
素养	-17283
细心	-17284
编导	-17285
罗宁	-17286
署名	-17287
者和	-17288
而上	-17289
能与	-17290
脆弱	-17291
自带	-17292
芬兰	-17293
苛刻	-17294
英里	-17295
范畴	-17296
荆楚	-17297
荧幕	-17298
莱斯	-17299
萨斯	-17300
落在	-17301
落定	-17302
蝴蝶	-17303
血液	-17304
街上	-17305
裁决	-17306
西城	-17307
西洋	-17308
观光	-17309
视力	-17310
视后	-17311
诊所	-17312
说要	-17313
请教	-17314
财大	-17315
费的	-17316
起床	-17317
足了	-17318
踊跃	-17319
轮番	-17320
辛格	-17321
过头	-17322
过河	-17323
追赶	-17324
选定	-17325
逐一	-17326
配以	-17327
里程	-17328
野兽	-17329
金像	-17330
铜牌	-17331
门托	-17332
门柱	-17333
问世	-17334
问鼎	-17335
闯关	-17336
队里	-17337
陈好	-17338
陈涛	-17339
随队	-17340
雕塑	-17341
雪藏	-17342
零点	-17343
霜冻	-17344
面纱	-17345
领跌	-17346
马塞	-17347
骨折	-17348
鸡蛋	-17349
齐聚	-17350
%。(	-17351
,60	-17352
116	-17353
227	-17354
3-1	-17355
45%	-17356
46.	-17357
645	-17358
699	-17359
74.	-17360
76.	-17361
78.	-17362
780	-17363
85%	-17364
850	-17365
985	-17366
AVC	-17367
Lin	-17368
WTI	-17369
aga	-17370
agg	-17371
alk	-17372
ews	-17373
htm	-17374
ics	-17375
ict	-17376
iel	-17377
tom	-17378
▁32	-17379
▁GT	-17380
▁PC	-17381
▁Pr	-17382
▁ag	-17383
▁te	-17384
▁之前	-17385
▁体坛	-17386
▁其他	-17387
▁成考	-17388
▁我国	-17389
▁理光	-17390
▁白糖	-17391
▁资金	-17392
▁赵薇	-17393
▁过去	-17394
一个小	-17395
一等奖	-17396
丁柔安	-17397
万港币	-17398
上升了	-17399
上场的	-17400
不只是	-17401
不多的	-17402
不景气	-17403
不能说	-17404
与国际	-17405
与社会	-17406
两队的	-17407
个工作	-17408
中高端	-17409
丹尼尔	-17410
也有人	-17411
也正在	-17412
今年将	-17413
介绍了	-17414
份额的	-17415
但是从	-17416
但这次	-17417
何雯娜	-17418
作战的	-17419
佩鲁贾	-17420
保德信	-17421
倒计时	-17422
做一些	-17423
元器件	-17424
入场券	-17425
共和国	-17426
出不穷	-17427
出口量	-17428
出版的	-17429
分析说	-17430
制糖期	-17431
加西亚	-17432
助学金	-17433
劳动力	-17434
十足的	-17435
博格特	-17436
博物馆	-17437
卡洛斯	-17438
即日起	-17439
参赛者	-17440
及以上	-17441
发展和	-17442
发行价	-17443
发表了	-17444
句话说	-17445
只能在	-17446
只能是	-17447
名选手	-17448
周秀娜	-17449
周转率	-17450
和他们	-17451
和去年	-17452
和视频	-17453
在其中	-17454
在没有	-17455
地进行	-17456
处理的	-17457
外省市	-17458
多年前	-17459
她们的	-17460
孟菲斯	-17461
完成后	-17462
对球队	-17463
就表示	-17464
就这样	-17465
尹俊相	-17466
已经对	-17467
市场将	-17468
库存为	-17469
开始就	-17470
很快就	-17471
得非常	-17472
必须是	-17473
成长的	-17474
扩展至	-17475
拍广告	-17476
政策性	-17477
数量的	-17478
文化的	-17479
斯坦福	-17480
斯托克	-17481
明确的	-17482
是这样	-17483
曝光了	-17484
曾一度	-17485
最佳的	-17486
李亚鹏	-17487
杨紫琼	-17488
水平和	-17489
沃尔夫	-17490
流畅的	-17491
溢价率	-17492
滨崎步	-17493
爆料称	-17494
牙买加	-17495
理事会	-17496
甚至在	-17497
甚至连	-17498
男一号	-17499
男演员	-17500
的加盟	-17501
的发生	-17502
的宣传	-17503
的幅度	-17504
的强势	-17505
的打算	-17506
的持续	-17507
的概念	-17508
的母亲	-17509
的背后	-17510
的表示	-17511
皇马的	-17512
皮尔洛	-17513
看到他	-17514
秦皇岛	-17515
移民部	-17516
究竟是	-17517
第一周	-17518
第三名	-17519
等多家	-17520
等诸多	-17521
等领域	-17522
米利托	-17523
给学生	-17524
给市场	-17525
给考生	-17526
考虑过	-17527
联合国	-17528
自今年	-17529
花木兰	-17530
范围为	-17531
莫名其	-17532
莫少聪	-17533
萨克拉	-17534
表现为	-17535
被警方	-17536
设计了	-17537
证监局	-17538
该机型	-17539
说什么	-17540
谭维维	-17541
赵宝刚	-17542
足球的	-17543
输掉了	-17544
近两年	-17545
还具有	-17546
还显示	-17547
这也让	-17548
这些都	-17549
这部剧	-17550
追溯到	-17551
邓丽欣	-17552
邓卓翔	-17553
郑州市	-17554
都希望	-17555
都是由	-17556
酒井法	-17557
银行等	-17558
闭幕式	-17559
阿布扎	-17560
随后又	-17561
靠前的	-17562
领先的	-17563
风向标	-17564
首先是	-17565
马加特	-17566
1011	-17567
1012	-17568
14%,	-17569
2015	-17570
8700	-17571
Ella	-17572
Tony	-17573
Will	-17574
erry	-17575
orld	-17576
play	-17577
usic	-17578
▁LED	-17579
▁RAM	-17580
▁has	-17581
▁中移动	-17582
▁伊能静	-17583
▁周杰伦	-17584
▁欧佩克	-17585
下发通知	-17586
不利影响	-17587
不好意思	-17588
不过由于	-17589
专业人士	-17590
两罚两中	-17591
中介机构	-17592
中国企业	-17593
主要包括	-17594
义务教育	-17595
二级缓存	-17596
交易提示	-17597
交易日的	-17598
亲朋好友	-17599
他们认为	-17600
伤愈复出	-17601
伦敦金属	-17602
但是对于	-17603
但是现在	-17604
作为一名	-17605
依然没有	-17606
做的事情	-17607
兴业全球	-17608
出现失误	-17609
出道以来	-17610
分别达到	-17611
分数线为	-17612
分红公告	-17613
压力很大	-17614
台湾地区	-17615
合法权益	-17616
同比减少	-17617
国泰君安	-17618
在第三节	-17619
在网络上	-17620
在过去的	-17621
基本持平	-17622
基金今日	-17623
增强收益	-17624
多空双方	-17625
大幅减少	-17626
大阪钢巴	-17627
将自己的	-17628
就可以了	-17629
层出不穷	-17630
已经完全	-17631
年的时间	-17632
志愿信息	-17633
成交量为	-17634
承受能力	-17635
投机资金	-17636
改革开放	-17637
新闻出版	-17638
晋级决赛	-17639
智能场景	-17640
最后一天	-17641
本次比赛	-17642
模特大赛	-17643
正式开始	-17644
正式比赛	-17645
武汉大学	-17646
水平测试	-17647
沪深两市	-17648
浮游植物	-17649
液晶屏幕	-17650
特别注意	-17651
独立学院	-17652
环比下降	-17653
生产成本	-17654
生源质量	-17655
电子档案	-17656
百分之百	-17657
的基金中	-17658
的帮助下	-17659
的影响下	-17660
的扮演者	-17661
的研究生	-17662
神舟优雅	-17663
第二阶段	-17664
米克尔森	-17665
米自由泳	-17666
网下配售	-17667
美元汇率	-17668
联合会杯	-17669
联想集团	-17670
能够满足	-17671
菲尼克斯	-17672
表演专业	-17673
表现不俗	-17674
记者看到	-17675
记者致电	-17676
足球先生	-17677
还有不少	-17678
这并不是	-17679
这是我们	-17680
进行调查	-17681
违法行为	-17682
通知存款	-17683
那不勒斯	-17684
重点大学	-17685
长期投资	-17686
集成显卡	-17687
震荡走势	-17688
非常喜欢	-17689
风险管理	-17690
香港大学	-17691
Angel	-17692
ababy	-17693
▁华夏基金	-17694
▁发自北京	-17695
▁早报记者	-17696
▁英语考试	-17697
人民币汇率	-17698
保本基金的	-17699
凯尔特人队	-17700
前所未有的	-17701
基金持有人	-17702
外国语学校	-17703
易方达基金	-17704
有媒体报道	-17705
比去年增加	-17706
毕业生就业	-17707
的数据显示	-17708
考生可通过	-17709
萨克拉门托	-17710
香港身份证	-17711
(18-55	-17712
▁Basic	-17713
▁Touch	-17714
一家基金公司	-17715
数码单反相机	-17716
最新数据显示	-17717
进行网上报名	-17718
阳光私募基金	-17719
接受记者采访时	-17720
记者采访时表示	-17721
credible	-17722
券商集合理财产品	-17723
在接受媒体采访时	-17724
有兴趣的朋友可以	-17725
高等教育自学考试	-17726
份基金份额派发红利	-17727
!!	-17728
)+	-17729
,0	-17730
3。	-17731
5、	-17732
8)	-17733
;6	-17734
Ar	-17735
DF	-17736
FE	-17737
Mo	-17738
Sp	-17739
Th	-17740
UL	-17741
VE	-17742
so	-17743
’。	-17744
“.	-17745
▁其	-17746
▁到	-17747
▁吕	-17748
▁正	-17749
▁福	-17750
》“	-17751
一座	-17752
一旁	-17753
一辆	-17754
三月	-17755
不实	-17756
不甘	-17757
不看	-17758
不符	-17759
与此	-17760
专案	-17761
两成	-17762
两战	-17763
中段	-17764
丰厚	-17765
主旨	-17766
丽娜	-17767
之二	-17768
之意	-17769
也未	-17770
书本	-17771
书聿	-17772
乱了	-17773
了我	-17774
了新	-17775
事前	-17776
二三	-17777
五位	-17778
产出	-17779
亲临	-17780
仓库	-17781
他只	-17782
他想	-17783
他用	-17784
他被	-17785
优越	-17786
传导	-17787
但据	-17788
位数	-17789
位移	-17790
住在	-17791
余地	-17792
假冒	-17793
停在	-17794
偷偷	-17795
像是	-17796
元宵	-17797
光电	-17798
光荣	-17799
全智	-17800
全民	-17801
共度	-17802
农银	-17803
分列	-17804
刘国	-17805
功耗	-17806
动员	-17807
动机	-17808
劲歌	-17809
包围	-17810
化腾	-17811
千亿	-17812
升势	-17813
华健	-17814
卡槽	-17815
卫报	-17816
印第	-17817
原型	-17818
口号	-17819
可查	-17820
可说	-17821
台铭	-17822
右手	-17823
右边	-17824
叶璇	-17825
吃一	-17826
同场	-17827
向往	-17828
君如	-17829
吨的	-17830
启发	-17831
吴京	-17832
吸取	-17833
和刘	-17834
嘉乐	-17835
嘉影	-17836
囊括	-17837
团长	-17838
国语	-17839
在华	-17840
地在	-17841
均已	-17842
块钱	-17843
基尼	-17844
外星	-17845
多部	-17846
夜间	-17847
大秀	-17848
大风	-17849
失落	-17850
契机	-17851
套的	-17852
她更	-17853
好汉	-17854
字数	-17855
存单	-17856
孙悟	-17857
孝介	-17858
守候	-17859
完后	-17860
宗垒	-17861
定居	-17862
审视	-17863
容纳	-17864
富裕	-17865
将使	-17866
小李	-17867
小马	-17868
就该	-17869
屏蔽	-17870
山的	-17871
巡视	-17872
已然	-17873
带上	-17874
平息	-17875
年华	-17876
年终	-17877
并为	-17878
并没	-17879
座谈	-17880
座驾	-17881
庭审	-17882
建投	-17883
开具	-17884
弱于	-17885
彩色	-17886
征服	-17887
征程	-17888
徐云	-17889
得心	-17890
微调	-17891
忠实	-17892
快棋	-17893
忽然	-17894
思燕	-17895
总线	-17896
惨重	-17897
想必	-17898
我与	-17899
或有	-17900
战神	-17901
戴上	-17902
手柄	-17903
手表	-17904
手袋	-17905
打折	-17906
执照	-17907
承载	-17908
抓获	-17909
抚养	-17910
报案	-17911
抵御	-17912
拆除	-17913
拜塞	-17914
捐出	-17915
捷伦	-17916
接下	-17917
推介	-17918
掩饰	-17919
提价	-17920
提早	-17921
摆放	-17922
摩纳	-17923
撤销	-17924
放手	-17925
效益	-17926
教研	-17927
敬轩	-17928
整洁	-17929
文体	-17930
新城	-17931
新婚	-17932
新规	-17933
施压	-17934
无敌	-17935
日乐	-17936
日记	-17937
时会	-17938
明基	-17939
更正	-17940
有钱	-17941
望而	-17942
本子	-17943
本本	-17944
本营	-17945
机经	-17946
李静	-17947
杜林	-17948
来回	-17949
来电	-17950
杨贵	-17951
杯赛	-17952
杰出	-17953
杰弗	-17954
柴油	-17955
标签	-17956
段落	-17957
比特	-17958
汶川	-17959
波澜	-17960
泰森	-17961
浚龙	-17962
消极	-17963
港大	-17964
游资	-17965
源自	-17966
滋味	-17967
滑落	-17968
滞后	-17969
满脸	-17970
潇肃	-17971
点燃	-17972
片子	-17973
猛烈	-17974
献礼	-17975
玉女	-17976
王朝	-17977
玛萨	-17978
环绕	-17979
瑞星	-17980
生理	-17981
电商	-17982
瘦身	-17983
的起	-17984
盘棋	-17985
盛会	-17986
直板	-17987
直线	-17988
盼望	-17989
眼的	-17990
短板	-17991
短讯	-17992
私事	-17993
科夫	-17994
科恩	-17995
科林	-17996
科类	-17997
称呼	-17998
稀缺	-17999
稳稳	-18000
穆勒	-18001
究其	-18002
笑道	-18003
糖业	-18004
纠缠	-18005
纤维	-18006
纽曼	-18007
缓和	-18008
置疑	-18009
羊城	-18010
翻番	-18011
胡瓜	-18012
花瓣	-18013
获赠	-18014
萨姆	-18015
蒂姆	-18016
补射	-18017
表扬	-18018
袁泉	-18019
要从	-18020
要等	-18021
规矩	-18022
让其	-18023
让您	-18024
论述	-18025
证人	-18026
试探	-18027
诚实	-18028
误区	-18029
课后	-18030
调仓	-18031
豪龙	-18032
财险	-18033
赌球	-18034
超大	-18035
跟鞋	-18036
身亡	-18037
身心	-18038
车牌	-18039
转机	-18040
边线	-18041
边际	-18042
达人	-18043
这只	-18044
这块	-18045
迷人	-18046
退还	-18047
送往	-18048
送达	-18049
遥控	-18050
避风	-18051
邮政	-18052
配送	-18053
酷六	-18054
银牌	-18055
长裙	-18056
门类	-18057
问起	-18058
阿玛	-18059
附图	-18060
限电	-18061
雷雷	-18062
青赛	-18063
面世	-18064
韦伯	-18065
韧带	-18066
风投	-18067
马萨	-18068
高德	-18069
高温	-18070
麦卡	-18071
黑洞	-18072
鼻子	-18073
齐齐	-18074
,90	-18075
0.4	-18076
111	-18077
117	-18078
225	-18079
249	-18080
305	-18081
3、4	-18082
4-2	-18083
4.0	-18084
516	-18085
599	-18086
61.	-18087
909	-18088
91.	-18089
960	-18090
99.	-18091
AAA	-18092
Big	-18093
CDR	-18094
CPU	-18095
Gal	-18096
Mar	-18097
Mic	-18098
WER	-18099
ara	-18100
ary	-18101
ily	-18102
ise	-18103
lor	-18104
low	-18105
omp	-18106
org	-18107
own	-18108
▁40	-18109
▁55	-18110
▁so	-18111
▁一年	-18112
▁他们	-18113
▁名师	-18114
▁巴西	-18115
▁方正	-18116
▁荆楚	-18117
▁需要	-18118
▁麦蒂	-18119
一年多	-18120
一般是	-18121
万加币	-18122
万考生	-18123
上周六	-18124
不乐观	-18125
不了解	-18126
与家人	-18127
专访时	-18128
两年后	-18129
个月期	-18130
为目的	-18131
为首的	-18132
主人公	-18133
之类的	-18134
乌拉圭	-18135
也只是	-18136
也并非	-18137
了一套	-18138
了一年	-18139
了不起	-18140
争夺战	-18141
二本线	-18142
人员的	-18143
从这个	-18144
他们就	-18145
他非常	-18146
代言的	-18147
以保证	-18148
任贤齐	-18149
众多的	-18150
何韵诗	-18151
储备糖	-18152
其中在	-18153
准确的	-18154
出台的	-18155
出生的	-18156
创作的	-18157
创造出	-18158
制定了	-18159
前几天	-18160
前女友	-18161
印第安	-18162
去哪儿	-18163
又一个	-18164
友谊赛	-18165
发出的	-18166
可申请	-18167
可能要	-18168
合约涨	-18169
同时对	-18170
听说过	-18171
吴宇森	-18172
和媒体	-18173
和我们	-18174
和日本	-18175
和队友	-18176
哈灵顿	-18177
商品房	-18178
回答说	-18179
在家中	-18180
在很多	-18181
在谈到	-18182
基金将	-18183
基金汉	-18184
增加的	-18185
复习时	-18186
夏令营	-18187
多伦多	-18188
多小时	-18189
大使馆	-18190
大家对	-18191
奢侈税	-18192
女人的	-18193
姐弟恋	-18194
孙悟空	-18195
宇航员	-18196
官网上	-18197
宣布了	-18198
对整个	-18199
对这些	-18200
导致的	-18201
将不再	-18202
将再次	-18203
将自动	-18204
就一直	-18205
就成了	-18206
局比赛	-18207
局限于	-18208
巴萨的	-18209
市场在	-18210
布兰顿	-18211
希金斯	-18212
平表示	-18213
年度的	-18214
开始在	-18215
影响下	-18216
德国人	-18217
德维恩	-18218
德里奇	-18219
恩戈格	-18220
我也不	-18221
我都会	-18222
打造成	-18223
执导的	-18224
扩大了	-18225
扩展坞	-18226
技术性	-18227
报道了	-18228
拉齐奥	-18229
拍摄了	-18230
拥有着	-18231
指数为	-18232
控制了	-18233
推动下	-18234
摩纳哥	-18235
整体的	-18236
斯特拉	-18237
斯琴格	-18238
昔日的	-18239
是导致	-18240
是我国	-18241
显示了	-18242
曝光后	-18243
更加的	-18244
更深入	-18245
最强的	-18246
最热门	-18247
最近的	-18248
有任何	-18249
李小姐	-18250
来不及	-18251
来说是	-18252
检察官	-18253
次盖帽	-18254
比以前	-18255
泡泡网	-18256
浓厚的	-18257
消费品	-18258
湖北省	-18259
燃气灶	-18260
爱情的	-18261
王宝强	-18262
现金流	-18263
登公司	-18264
白色的	-18265
的一周	-18266
的一天	-18267
的份额	-18268
的净值	-18269
的商务	-18270
的回答	-18271
的国家	-18272
的婚礼	-18273
的存在	-18274
的建议	-18275
的得分	-18276
的支撑	-18277
的日常	-18278
的日本	-18279
的社会	-18280
的股份	-18281
的胜利	-18282
的贡献	-18283
的阶段	-18284
的难度	-18285
目前有	-18286
目前正	-18287
相关性	-18288
福建队	-18289
科林斯	-18290
站比赛	-18291
第四位	-18292
等基金	-18293
签订了	-18294
类节目	-18295
缺席了	-18296
罗志祥	-18297
美传媒	-18298
考试卷	-18299
胜利的	-18300
能得到	-18301
能达到	-18302
莫过于	-18303
获得者	-18304
落后的	-18305
行情中	-18306
被认为	-18307
要不要	-18308
认真的	-18309
该剧由	-18310
说不定	-18311
请考生	-18312
谢杏芳	-18313
超越了	-18314
跟不上	-18315
较上月	-18316
达拉斯	-18317
这个人	-18318
这几年	-18319
远高于	-18320
送出了	-18321
郁可唯	-18322
都可能	-18323
都有着	-18324
金融学	-18325
问题上	-18326
霍思燕	-18327
领导人	-18328
1410	-18329
16%,	-18330
32%。	-18331
42%,	-18332
45%,	-18333
480×	-18334
6500	-18335
70%。	-18336
90%。	-18337
9100	-18338
95%,	-18339
>>>>	-18340
CMMB	-18341
Fans	-18342
Play	-18343
WVGA	-18344
deal	-18345
eter	-18346
iver	-18347
olle	-18348
tern	-18349
▁Air	-18350
▁You	-18351
▁his	-18352
▁str	-18353
▁他表示	-18354
▁卡西欧	-18355
▁据报道	-18356
▁赵本山	-18357
一直都在	-18358
上升趋势	-18359
上涨幅度	-18360
不会因为	-18361
不法分子	-18362
不过对于	-18363
不难看出	-18364
东部时间	-18365
中规中矩	-18366
为主题的	-18367
主权财富	-18368
也是一种	-18369
产能过剩	-18370
今天上午	-18371
他的表现	-18372
价格走势	-18373
休息时间	-18374
优才计划	-18375
但是如果	-18376
供应紧张	-18377
依然存在	-18378
信托基金	-18379
全线下跌	-18380
公司内部	-18381
净利润为	-18382
即便如此	-18383
合约下跌	-18384
合资公司	-18385
同比增加	-18386
土木工程	-18387
在新加坡	-18388
地下炒金	-18389
坦言自己	-18390
型基金中	-18391
培训机构	-18392
基指开盘	-18393
外观方面	-18394
多点触控	-18395
大中华区	-18396
天相投顾	-18397
如果不能	-18398
学科专业	-18399
宽幅震荡	-18400
将在今年	-18401
尘埃落定	-18402
就是因为	-18403
已经非常	-18404
希望可以	-18405
年研究生	-18406
思想品德	-18407
情理之中	-18408
感情生活	-18409
成为一个	-18410
我们应该	-18411
投资收益	-18412
拍照手机	-18413
拨打电话	-18414
推荐几款	-18415
操作策略	-18416
政协委员	-18417
教育资源	-18418
斯科尔斯	-18419
时间安排	-18420
最大的是	-18421
最好成绩	-18422
有很大的	-18423
有所减少	-18424
根据自身	-18425
比赛还有	-18426
民办高校	-18427
浙江大学	-18428
消费电子	-18429
涨跌互现	-18430
涨跌停板	-18431
特鲁姆普	-18432
现在我们	-18433
电话会议	-18434
留学生的	-18435
的原因是	-18436
盈利模式	-18437
盈利能力	-18438
相关规定	-18439
眼前一亮	-18440
研究公司	-18441
示范高中	-18442
禁区左侧	-18443
移动数据	-18444
窄幅震荡	-18445
第一次在	-18446
等方面的	-18447
纯债基金	-18448
统考成绩	-18449
网络视频	-18450
美国大学	-18451
美国总统	-18452
考点设在	-18453
考试内容	-18454
英语四级	-18455
表现抢眼	-18456
被认为是	-18457
西班牙人	-18458
角度来看	-18459
计划销售	-18460
该机采用	-18461
资格证书	-18462
身份证号	-18463
较前一周	-18464
这已经是	-18465
这方面的	-18466
这款机型	-18467
这部电影	-18468
远远超过	-18469
违法违规	-18470
金属拉丝	-18471
销售渠道	-18472
长春亚泰	-18473
防抖功能	-18474
阿布扎比	-18475
除息日为	-18476
震荡上行	-18477
音乐学院	-18478
顺利完成	-18479
马上就要	-18480
高校排名	-18481
黑莓手机	-18482
,2005	-18483
-3200	-18484
100%,	-18485
AVCHD	-18486
Power	-18487
Skype	-18488
spire	-18489
“2011	-18490
▁than	-18491
▁国际油价	-18492
▁除此之外	-18493
光大保德信	-18494
公务员考试	-18495
卡西利亚斯	-18496
取得正收益	-18497
图像感应器	-18498
在这个时候	-18499
已经成为了	-18500
指数基金的	-18501
摄影爱好者	-18502
斯琴格日乐	-18503
新闻发言人	-18504
桑普多利亚	-18505
汉语言文学	-18506
洛杉矶湖人	-18507
深刻的印象	-18508
澳大利亚队	-18509
理财产品的	-18510
电信运营商	-18511
研究生教育	-18512
考生及家长	-18513
衍生品市场	-18514
训练结束后	-18515
这款手机的	-18516
麦克格雷迪	-18517
世界杯预选赛	-18518
北京师范大学	-18519
北京电影学院	-18520
华商盛世成长	-18521
招生录取工作	-18522
数据统计显示	-18523
▁should	-18524
据台湾媒体报道	-18525
教育部考试中心	-18526
感兴趣的朋友不妨关注一下	-18527
1:	-18528
9-	-18529
BP	-18530
Lu	-18531
OG	-18532
PX	-18533
UT	-18534
WB	-18535
to	-18536
zz	-18537
▁东	-18538
▁原	-18539
▁回	-18540
▁或	-18541
▁某	-18542
▁肖	-18543
▁陶	-18544
、《	-18545
一并	-18546
一笑	-18547
一类	-18548
一门	-18549
七段	-18550
万次	-18551
三太	-18552
三局	-18553
三支	-18554
三方	-18555
三部	-18556
上与	-18557
上车	-18558
上门	-18559
下手	-18560
不懈	-18561
不言	-18562
不谈	-18563
两部	-18564
个案	-18565
中止	-18566
丹丹	-18567
之人	-18568
也只	-18569
也给	-18570
买下	-18571
了吧	-18572
享有	-18573
亲口	-18574
亲和	-18575
亲情	-18576
人像	-18577
亿的	-18578
今晨	-18579
从头	-18580
从没	-18581
他所	-18582
他才	-18583
代之	-18584
以期	-18585
任选	-18586
伊健	-18587
会以	-18588
会馆	-18589
伟业	-18590
传授	-18591
伴娘	-18592
但你	-18593
侵略	-18594
促成	-18595
保利	-18596
元和	-18597
元或	-18598
光辉	-18599
克茨	-18600
全北	-18601
全区	-18602
公允	-18603
公公	-18604
六六	-18605
再做	-18606
再添	-18607
农学	-18608
农行	-18609
冷淡	-18610
凌空	-18611
出处	-18612
则被	-18613
刚从	-18614
初次	-18615
前瞻	-18616
前翼	-18617
前茅	-18618
剪辑	-18619
办了	-18620
办事	-18621
功权	-18622
勾手	-18623
包抄	-18624
化名	-18625
十六	-18626
华裔	-18627
卓妍	-18628
单人	-18629
占优	-18630
占总	-18631
卡考	-18632
压抑	-18633
厕所	-18634
双语	-18635
受了	-18636
受灾	-18637
变频	-18638
口中	-18639
史可	-18640
司仪	-18641
吉奥	-18642
吉拉	-18643
名帅	-18644
告白	-18645
呵呵	-18646
哪位	-18647
哲瀚	-18648
唱区	-18649
园林	-18650
国企	-18651
图赏	-18652
图雷	-18653
在做	-18654
在先	-18655
在各	-18656
在被	-18657
坐着	-18658
埃及	-18659
城的	-18660
声势	-18661
复牌	-18662
外加	-18663
多天	-18664
天涯	-18665
失球	-18666
夺回	-18667
好久	-18668
好球	-18669
媲美	-18670
嫩模	-18671
子上	-18672
子琪	-18673
宽广	-18674
密封	-18675
对白	-18676
封装	-18677
小明	-18678
就绪	-18679
尼黑	-18680
居于	-18681
工体	-18682
巾帼	-18683
市内	-18684
市级	-18685
平等	-18686
年新	-18687
年里	-18688
并存	-18689
幻想	-18690
庆幸	-18691
应是	-18692
建华	-18693
开的	-18694
张世	-18695
录入	-18696
影坛	-18697
德语	-18698
必需	-18699
志在	-18700
急速	-18701
总算	-18702
愈发	-18703
感的	-18704
戏法	-18705
成份	-18706
成型	-18707
我家	-18708
或缺	-18709
手握	-18710
打架	-18711
执白	-18712
批改	-18713
折射	-18714
折算	-18715
报复	-18716
报送	-18717
抬升	-18718
拇指	-18719
拉希	-18720
拓宽	-18721
招录	-18722
拼写	-18723
拼搏	-18724
按揭	-18725
接任	-18726
接洽	-18727
接管	-18728
推升	-18729
掩护	-18730
提倡	-18731
摄氏	-18732
摄苑	-18733
收场	-18734
攻破	-18735
政务	-18736
敏莉	-18737
救赎	-18738
数月	-18739
文龙	-18740
断球	-18741
新欢	-18742
新湖	-18743
日从	-18744
日对	-18745
日线	-18746
早晨	-18747
时政	-18748
明辉	-18749
星报	-18750
景伟	-18751
曾向	-18752
最薄	-18753
期现	-18754
朴素	-18755
李思	-18756
李琳	-18757
杜威	-18758
来做	-18759
杨鸣	-18760
极力	-18761
柏忌	-18762
柏霖	-18763
标杆	-18764
格利	-18765
格力	-18766
模范	-18767
此案	-18768
比我	-18769
毛毛	-18770
汇集	-18771
沈永	-18772
油烟	-18773
法制	-18774
济公	-18775
涌现	-18776
深思	-18777
混淆	-18778
港澳	-18779
激增	-18780
火星	-18781
灾民	-18782
点滴	-18783
热度	-18784
热恋	-18785
烹饪	-18786
燃烧	-18787
爆冷	-18788
物体	-18789
特约	-18790
狂欢	-18791
现年	-18792
珠光	-18793
琢磨	-18794
瑶瑶	-18795
生化	-18796
生猪	-18797
生病	-18798
画上	-18799
留念	-18800
瘫痪	-18801
白玉	-18802
的上	-18803
的水	-18804
皮蓬	-18805
相持	-18806
矿山	-18807
破裂	-18808
示意	-18809
秀波	-18810
稍显	-18811
立意	-18812
童年	-18813
笑得	-18814
管制	-18815
篇章	-18816
粮价	-18817
红白	-18818
纯净	-18819
纹身	-18820
经华	-18821
结尾	-18822
编排	-18823
老雷	-18824
考纲	-18825
而动	-18826
而去	-18827
而当	-18828
耻辱	-18829
聚酯	-18830
背心	-18831
胶着	-18832
脑子	-18833
自传	-18834
自助	-18835
自闭	-18836
苏珊	-18837
英冠	-18838
范文	-18839
蒂奇	-18840
蒂安	-18841
虽有	-18842
蜂巢	-18843
行星	-18844
补助	-18845
裸照	-18846
西埃	-18847
要为	-18848
视帝	-18849
解雇	-18850
警示	-18851
警署	-18852
讲的	-18853
说谎	-18854
诸宸	-18855
课时	-18856
赚取	-18857
赚得	-18858
走人	-18859
赶拍	-18860
赶来	-18861
起脚	-18862
超人	-18863
超低	-18864
跌宕	-18865
跨界	-18866
跳远	-18867
身手	-18868
身旁	-18869
较前	-18870
返还	-18871
这不	-18872
迪奥	-18873
迷失	-18874
退赛	-18875
适中	-18876
选取	-18877
选报	-18878
部件	-18879
都由	-18880
重任	-18881
重来	-18882
野心	-18883
金蝶	-18884
铁岭	-18885
铁血	-18886
闫妮	-18887
间断	-18888
阐述	-18889
阿桑	-18890
陈豪	-18891
音量	-18892
顺应	-18893
预习	-18894
风尚	-18895
马伊	-18896
驻华	-18897
高二	-18898
黑暗	-18899
默认	-18900
齐秦	-18901
112	-18902
13%	-18903
145	-18904
148	-18905
18%	-18906
217	-18907
223	-18908
23-	-18909
30-	-18910
47.	-18911
70.	-18912
71.	-18913
8.8	-18914
95%	-18915
:6、	-18916
COO	-18917
IMF	-18918
Net	-18919
Sat	-18920
alt	-18921
ank	-18922
ebe	-18923
eng	-18924
imp	-18925
iss	-18926
▁As	-18927
▁Mc	-18928
▁mm	-18929
▁pl	-18930
▁tr	-18931
▁up	-18932
▁以上	-18933
▁内地	-18934
▁刚刚	-18935
▁华为	-18936
▁参加	-18937
▁国足	-18938
▁宾得	-18939
▁导演	-18940
▁投资	-18941
▁招商	-18942
▁提醒	-18943
▁最佳	-18944
▁有关	-18945
▁柯达	-18946
▁河北	-18947
▁电影	-18948
▁荷兰	-18949
▁评价	-18950
▁足协	-18951
▁银行	-18952
、19	-18953
、20	-18954
一些人	-18955
一批次	-18956
一步步	-18957
一般在	-18958
丁子高	-18959
万余人	-18960
上半时	-18961
下来了	-18962
不停蹄	-18963
不太好	-18964
不过我	-18965
与日本	-18966
世界级	-18967
两连胜	-18968
中招办	-18969
为保证	-18970
为背景	-18971
主动型	-18972
主要有	-18973
乐视网	-18974
也因为	-18975
也承认	-18976
也更加	-18977
也随之	-18978
于去年	-18979
亚洲区	-18980
产业化	-18981
产量将	-18982
人数为	-18983
亿元和	-18984
从现在	-18985
他只是	-18986
他是个	-18987
信息和	-18988
做宣传	-18989
全球通	-18990
全社会	-18991
公司债	-18992
内地的	-18993
内存和	-18994
净资产	-18995
凌潇肃	-18996
刘易斯	-18997
到这个	-18998
北海道	-18999
占到了	-19000
印度尼	-19001
去看看	-19002
参加完	-19003
另一家	-19004
只下跌	-19005
可不是	-19006
可持续	-19007
同一个	-19008
向上的	-19009
向中国	-19010
否认了	-19011
吨收盘	-19012
含金量	-19013
周建安	-19014
和一些	-19015
和国际	-19016
和相关	-19017
唐纳德	-19018
在国家	-19019
在外线	-19020
在所有	-19021
在此次	-19022
在镜头	-19023
埃里克	-19024
墨尔本	-19025
处理好	-19026
大容量	-19027
夺冠的	-19028
她已经	-19029
如人意	-19030
姚明和	-19031
婚纱照	-19032
学习和	-19033
安全带	-19034
安排的	-19035
富勒姆	-19036
对手戏	-19037
导演的	-19038
将主要	-19039
将会是	-19040
将采用	-19041
小小的	-19042
崔哲瀚	-19043
崔真实	-19044
已经与	-19045
已经从	-19046
巴贝尔	-19047
市场化	-19048
市政府	-19049
干细胞	-19050
年以上	-19051
年初的	-19052
并不算	-19053
并成为	-19054
并最终	-19055
并通过	-19056
应届生	-19057
开出的	-19058
开盘后	-19059
开通了	-19060
形势下	-19061
很清楚	-19062
总共有	-19063
想不到	-19064
慕尼黑	-19065
我并不	-19066
把这些	-19067
投资方	-19068
拜塞克	-19069
排位赛	-19070
推动了	-19071
摄苑网	-19072
数据的	-19073
文章的	-19074
斯科特	-19075
新东家	-19076
新移民	-19077
无所谓	-19078
是通过	-19079
普约尔	-19080
普罗霍	-19081
更令人	-19082
更喜欢	-19083
更是让	-19084
最快的	-19085
有传言	-19086
有足够	-19087
有限的	-19088
李佳薇	-19089
李妮娜	-19090
李晓霞	-19091
来源于	-19092
林嘉欣	-19093
查尔顿	-19094
次犯规	-19095
残疾人	-19096
比如说	-19097
比往年	-19098
法国人	-19099
流媒体	-19100
深国投	-19101
深成指	-19102
游戏机	-19103
火车票	-19104
灵活的	-19105
然后在	-19106
爱国者	-19107
特色的	-19108
独有的	-19109
现在还	-19110
球场的	-19111
理论上	-19112
电话中	-19113
的任何	-19114
的传统	-19115
的其他	-19116
的商业	-19117
的定位	-19118
的屏幕	-19119
的影像	-19120
的思路	-19121
的情感	-19122
的成分	-19123
的战绩	-19124
的权利	-19125
的犯规	-19126
的组合	-19127
的良好	-19128
的艺术	-19129
的质疑	-19130
的跌幅	-19131
的身体	-19132
的需要	-19133
的韩国	-19134
的高位	-19135
的高低	-19136
的高等	-19137
目前仍	-19138
相比于	-19139
看台上	-19140
知名的	-19141
研讨会	-19142
福克斯	-19143
第三代	-19144
等情况	-19145
粉丝们	-19146
纽交所	-19147
给了我	-19148
给人以	-19149
继承了	-19150
罗家英	-19151
而今天	-19152
而根据	-19153
联盟中	-19154
肯定的	-19155
胡攀攀	-19156
胡杏儿	-19157
自然会	-19158
至少有	-19159
至少要	-19160
艾薇儿	-19161
苹果的	-19162
蔡卓妍	-19163
行业中	-19164
补报名	-19165
被市场	-19166
被视为	-19167
要通过	-19168
认识的	-19169
试商用	-19170
谢亚龙	-19171
谷某某	-19172
购买的	-19173
费拉拉	-19174
赛前的	-19175
赶集网	-19176
过一次	-19177
还不如	-19178
连续第	-19179
重稀土	-19180
金吉列	-19181
陈耀烨	-19182
预计在	-19183
香港的	-19184
马拉松	-19185
高品质	-19186
魔术师	-19187
鲍尔默	-19188
黄志忠	-19189
,100	-19190
12%。	-19191
17%。	-19192
18%。	-19193
2100	-19194
22%,	-19195
46%,	-19196
4800	-19197
63%。	-19198
66%,	-19199
GIGI	-19200
OPEC	-19201
SDXC	-19202
ames	-19203
fess	-19204
gram	-19205
ours	-19206
▁Mac	-19207
▁Ver	-19208
▁res	-19209
▁was	-19210
▁刘德华	-19211
▁国联安	-19212
、320	-19213
一场比赛	-19214
一开始就	-19215
上个赛季	-19216
上半年的	-19217
上市首日	-19218
上海申花	-19219
不仅可以	-19220
不可或缺	-19221
不容乐观	-19222
两家公司	-19223
中国围棋	-19224
中国网通	-19225
中小盘股	-19226
为了避免	-19227
为什么不	-19228
主动加仓	-19229
也是如此	-19230
人士认为	-19231
今年中考	-19232
今年年初	-19233
传媒大学	-19234
体育专业	-19235
作者单位	-19236
佩莱格里	-19237
保持不变	-19238
做好准备	-19239
充分发挥	-19240
全球最大	-19241
全部结束	-19242
公司治理	-19243
内部人士	-19244
募集申请	-19245
募集资金	-19246
北京地区	-19247
医科大学	-19248
发展前景	-19249
发行规模	-19250
可以利用	-19251
可圈可点	-19252
合约开盘	-19253
咨询活动	-19254
国内大豆	-19255
国内钢材	-19256
国家承认	-19257
国泰基金	-19258
国际市场	-19259
在他看来	-19260
基金指数	-19261
官方宣布	-19262
定向增发	-19263
实体经济	-19264
实质性的	-19265
屏幕上方	-19266
市场竞争	-19267
布斯克茨	-19268
师大附中	-19269
年四季度	-19270
年奥运会	-19271
强劲反弹	-19272
很可能会	-19273
很可能是	-19274
成为市场	-19275
截至今年	-19276
扩大优势	-19277
招生资格	-19278
换句话说	-19279
排名第三	-19280
收于每桶	-19281
收购价格	-19282
教学质量	-19283
教育机构	-19284
新浪教育	-19285
方面表示	-19286
明确规定	-19287
最大限度	-19288
最新报价	-19289
有所提高	-19290
朴茨茅斯	-19291
机械设备	-19292
机身设计	-19293
格里菲斯	-19294
正式宣布	-19295
比赛中的	-19296
沃尔科特	-19297
没有必要	-19298
油脂油料	-19299
法律法规	-19300
游戏账号	-19301
点击进入	-19302
环比减少	-19303
申购赎回	-19304
留学专家	-19305
的处理器	-19306
的情况看	-19307
的流动性	-19308
监考老师	-19309
社交网站	-19310
禁区边缘	-19311
精彩瞬间	-19312
精选基金	-19313
纽约商业	-19314
绯闻女友	-19315
维多利亚	-19316
网上交易	-19317
网络春晚	-19318
美元上方	-19319
老虎伍兹	-19320
英寸屏幕	-19321
行政部门	-19322
角度来说	-19323
计划完成	-19324
记者表示	-19325
负责人说	-19326
负面新闻	-19327
越来越高	-19328
较为明显	-19329
运营商的	-19330
这样可以	-19331
那么简单	-19332
部分考生	-19333
金融海啸	-19334
金融资产	-19335
问题在于	-19336
队主教练	-19337
风险投资	-19338
首次公开	-19339
马不停蹄	-19340
高开低走	-19341
高校录取	-19342
2011/	-19343
4000×	-19344
Score	-19345
ather	-19346
chool	-19347
▁http	-19348
▁点击观看	-19349
主板芯片组	-19350
互联网公司	-19351
人民币升值	-19352
具有一定的	-19353
印度尼西亚	-19354
在本节还有	-19355
大部分时间	-19356
并不意味着	-19357
广州亚运会	-19358
影像传感器	-19359
普罗霍洛夫	-19360
沃尔夫斯堡	-19361
消费者信心	-19362
1/2.33	-19363
ellite	-19364
imited	-19365
▁荆楚网消息	-19366
乌兹别克斯坦	-19367
在本场比赛中	-19368
基金公司旗下	-19369
外汇交易中心	-19370
比去年同期的	-19371
的净值增长率	-19372
资产管理公司	-19373
▁业内人士分析	-19374
相关负责人介绍	-19375
郑州商品交易所	-19376
4000×3000	-19377
▁Technolog	-19378
ExpressCard	-19379
ternational	-19380
0。	-19381
1(	-19382
Ah	-19383
An	-19384
BI	-19385
Br	-19386
FA	-19387
GH	-19388
GW	-19389
On	-19390
Un	-19391
ZB	-19392
bj	-19393
zb	-19394
▁丁	-19395
▁别	-19396
▁将	-19397
▁江	-19398
▁秦	-19399
▁联	-19400
》;	-19401
一动	-19402
一首	-19403
一齐	-19404
万能	-19405
万马	-19406
三校	-19407
上当	-19408
上轮	-19409
下风	-19410
不信	-19411
不差	-19412
不当	-19413
不慎	-19414
不相	-19415
不稳	-19416
不觉	-19417
与否	-19418
两日	-19419
两条	-19420
个好	-19421
个球	-19422
中部	-19423
为安	-19424
主考	-19425
乌鲁	-19426
乐意	-19427
乔恩	-19428
九成	-19429
亚瑟	-19430
亚轩	-19431
交叉	-19432
产油	-19433
京津	-19434
京籍	-19435
亿次	-19436
仅是	-19437
今起	-19438
从前	-19439
他不	-19440
代工	-19441
休假	-19442
休市	-19443
会和	-19444
会展	-19445
会更	-19446
会谈	-19447
传给	-19448
伯纳	-19449
低温	-19450
余名	-19451
作息	-19452
俄语	-19453
倍数	-19454
充沛	-19455
全资	-19456
六十	-19457
写成	-19458
农户	-19459
减缓	-19460
凡客	-19461
凡是	-19462
出错	-19463
分在	-19464
分行	-19465
则由	-19466
剩女	-19467
割肉	-19468
力捧	-19469
加纳	-19470
包容	-19471
北川	-19472
北电	-19473
医师	-19474
十七	-19475
千人	-19476
半球	-19477
华鑫	-19478
单电	-19479
卖给	-19480
南通	-19481
卡的	-19482
卫兰	-19483
历来	-19484
厘米	-19485
原地	-19486
去打	-19487
去留	-19488
参股	-19489
双人	-19490
双鹿	-19491
反问	-19492
发掘	-19493
受骗	-19494
变现	-19495
口试	-19496
台庆	-19497
右翼	-19498
各异	-19499
同居	-19500
名声	-19501
后在	-19502
后手	-19503
听懂	-19504
听过	-19505
告诫	-19506
咕哒	-19507
咱们	-19508
哈娜	-19509
唱功	-19510
商界	-19511
嘘声	-19512
噗浪	-19513
回收	-19514
固网	-19515
国手	-19516
国籍	-19517
在她	-19518
在意	-19519
地向	-19520
地雷	-19521
场球	-19522
基差	-19523
处长	-19524
外贸	-19525
多做	-19526
多款	-19527
多远	-19528
大三	-19529
大叫	-19530
大幕	-19531
大道	-19532
大题	-19533
太难	-19534
夫拉	-19535
失常	-19536
失衡	-19537
奋力	-19538
奔驰	-19539
奶牛	-19540
她对	-19541
好玩	-19542
如荼	-19543
妈咪	-19544
妩媚	-19545
婚期	-19546
字迹	-19547
存钱	-19548
学的	-19549
安检	-19550
定论	-19551
审判	-19552
家住	-19553
家常	-19554
寥寥	-19555
对照	-19556
将至	-19557
尔森	-19558
就为	-19559
就看	-19560
尼切	-19561
居高	-19562
山庄	-19563
峰值	-19564
工大	-19565
差额	-19566
已定	-19567
帮我	-19568
应手	-19569
应邀	-19570
底特	-19571
建材	-19572
异性	-19573
张亚	-19574
张兰	-19575
弥漫	-19576
强敌	-19577
当她	-19578
形状	-19579
很低	-19580
微波	-19581
必修	-19582
怒吼	-19583
思远	-19584
总有	-19585
总的	-19586
想做	-19587
想的	-19588
愉悦	-19589
感言	-19590
慷慨	-19591
戏曲	-19592
成行	-19593
我去	-19594
战役	-19595
所言	-19596
手脚	-19597
打中	-19598
托蒂	-19599
批量	-19600
抑郁	-19601
抵押	-19602
拍剧	-19603
拍片	-19604
拖尾	-19605
拥挤	-19606
拿了	-19607
掌舵	-19608
握手	-19609
搬到	-19610
支行	-19611
收市	-19612
攻克	-19613
整形	-19614
文物	-19615
新帅	-19616
方舟	-19617
旅客	-19618
无穷	-19619
日胶	-19620
日趋	-19621
早有	-19622
时事	-19623
时起	-19624
时过	-19625
明荃	-19626
星座	-19627
是小	-19628
景甜	-19629
曲波	-19630
曾因	-19631
月饼	-19632
有伤	-19633
有机	-19634
有权	-19635
木齐	-19636
未得	-19637
朱丹	-19638
权力	-19639
李文	-19640
来京	-19641
极高	-19642
标称	-19643
格格	-19644
横盘	-19645
欣然	-19646
款项	-19647
武侠	-19648
气愤	-19649
永波	-19650
汇市	-19651
沧桑	-19652
流言	-19653
测验	-19654
浦发	-19655
浦银	-19656
满满	-19657
演示	-19658
演进	-19659
漫长	-19660
激战	-19661
熙道	-19662
爱女	-19663
牛仔	-19664
物业	-19665
牵动	-19666
特大	-19667
独有	-19668
王晓	-19669
王永	-19670
班的	-19671
瑞恩	-19672
电解	-19673
电邮	-19674
男声	-19675
症状	-19676
癌症	-19677
白热	-19678
皆是	-19679
皮特	-19680
盗窃	-19681
相伴	-19682
看台	-19683
真情	-19684
着他	-19685
着力	-19686
着装	-19687
石脑	-19688
禅师	-19689
禹萌	-19690
离任	-19691
离异	-19692
科贸	-19693
穆帅	-19694
突入	-19695
窗外	-19696
立柱	-19697
立马	-19698
筹款	-19699
筹集	-19700
粉红	-19701
紫色	-19702
纠葛	-19703
红球	-19704
红雷	-19705
继红	-19706
综述	-19707
缠身	-19708
罗夫	-19709
罚中	-19710
罢工	-19711
群星	-19712
耗资	-19713
联创	-19714
联防	-19715
胡静	-19716
自荐	-19717
至极	-19718
致辞	-19719
色差	-19720
艾瑞	-19721
若英	-19722
菲利	-19723
落到	-19724
蒂斯	-19725
血压	-19726
行渐	-19727
补缴	-19728
袁立	-19729
西奥	-19730
解密	-19731
解码	-19732
诉求	-19733
诗人	-19734
详见	-19735
说得	-19736
谁来	-19737
调低	-19738
豪言	-19739
赞扬	-19740
走入	-19741
起身	-19742
越发	-19743
跑输	-19744
跟风	-19745
路由	-19746
输送	-19747
辛亥	-19748
辞去	-19749
过得	-19750
还很	-19751
这波	-19752
连夜	-19753
连带	-19754
迷们	-19755
追高	-19756
造就	-19757
逼真	-19758
邓家	-19759
邮电	-19760
都让	-19761
重奏	-19762
重拾	-19763
铜矿	-19764
长传	-19765
阮经	-19766
阵地	-19767
阿妹	-19768
阿姆	-19769
阿比	-19770
阿祖	-19771
阿穆	-19772
阿隆	-19773
难关	-19774
难逃	-19775
雄心	-19776
霸气	-19777
音箱	-19778
风范	-19779
饮酒	-19780
饱满	-19781
首张	-19782
高徒	-19783
麒麟	-19784
黑帮	-19785
黯然	-19786
(15	-19787
(4-	-19788
126	-19789
2-1	-19790
286	-19791
325	-19792
5.8	-19793
51%	-19794
51.	-19795
59.	-19796
65%	-19797
73.	-19798
770	-19799
80.	-19800
81.	-19801
89.	-19802
950	-19803
97.	-19804
:7、	-19805
BBC	-19806
Eee	-19807
Jay	-19808
LAN	-19809
Nas	-19810
PPI	-19811
SBS	-19812
amp	-19813
daq	-19814
esc	-19815
lem	-19816
oun	-19817
▁To	-19818
▁下午	-19819
▁中小	-19820
▁也许	-19821
▁前晚	-19822
▁南都	-19823
▁山西	-19824
▁录取	-19825
▁成都	-19826
▁新疆	-19827
▁曾经	-19828
▁本科	-19829
▁欧洲	-19830
一年级	-19831
一次次	-19832
一直到	-19833
一种是	-19834
一致的	-19835
三年内	-19836
三年前	-19837
三方面	-19838
上周四	-19839
上演了	-19840
上进行	-19841
下一场	-19842
不是说	-19843
与韩国	-19844
与香港	-19845
专案组	-19846
两位数	-19847
个多月	-19848
个性的	-19849
中得到	-19850
中秋节	-19851
中职校	-19852
为一个	-19853
为孩子	-19854
也分别	-19855
也算是	-19856
也许会	-19857
了一首	-19858
了市场	-19859
于其他	-19860
亏损为	-19861
仅有的	-19862
今年初	-19863
仍将在	-19864
他正在	-19865
他能够	-19866
代理人	-19867
代表作	-19868
任达华	-19869
份额为	-19870
伯纳乌	-19871
但其实	-19872
但随后	-19873
低估值	-19874
低开后	-19875
体育局	-19876
何经华	-19877
余文乐	-19878
你必须	-19879
佩雷拉	-19880
全国性	-19881
全国的	-19882
六个月	-19883
共成交	-19884
关键球	-19885
再进行	-19886
出生于	-19887
刘国梁	-19888
到香港	-19889
制度的	-19890
前三名	-19891
前期的	-19892
副院长	-19893
劳伦斯	-19894
募集期	-19895
医药股	-19896
十年前	-19897
华表示	-19898
博尔顿	-19899
卡拉格	-19900
卡莱尔	-19901
卡里克	-19902
卢卡斯	-19903
及利亚	-19904
及时向	-19905
发行了	-19906
受害者	-19907
叙利亚	-19908
只要在	-19909
号召力	-19910
周苏红	-19911
和国家	-19912
和比赛	-19913
和法国	-19914
和消费	-19915
[...]
