<unk>	0
<pad>	0
<s>	0
</s>	0
,	-2.67012
的	-3.59516
。	-3.68651
▁	-3.99162
、	-4.76389
在	-4.86611
和	-5.18709
了	-5.35912
“	-5.38458
)	-5.49111
是	-5.59179
”	-5.60733
(	-5.68072
:	-5.73619
月	-5.75537
中	-5.78984
为	-5.86625
有	-5.89887
年	-5.93023
-	-5.99217
上	-6.02842
日	-6.03267
与	-6.04129
人	-6.04458
他	-6.05279
不	-6.07436
对	-6.07754
将	-6.14711
也	-6.15836
3	-6.16238
而	-6.17116
。”	-6.20486
大	-6.20662
》	-6.22032
1	-6.24629
分	-6.25312
《	-6.26179
一	-6.27463
后	-6.30854
但	-6.31403
2	-6.34696
等	-6.34908
我	-6.37064
时	-6.42201
4	-6.44442
到	-6.44911
5	-6.45764
以	-6.4878
说	-6.49308
元	-6.56447
从	-6.59296
就	-6.59882
6	-6.60918
会	-6.62178
10	-6.63231
;	-6.64209
7	-6.66637
被	-6.69805
8	-6.70644
:“	-6.74969
市场	-6.76006
/	-6.7657
都	-6.76646
中国	-6.77368
要	-6.77392
?	-6.78575
我们	-6.79923
基金	-6.80997
她	-6.81638
表示	-6.83276
来	-6.84797
小	-6.84921
还	-6.88237
9	-6.88447
这	-6.88449
下	-6.89087
前	-6.89488
多	-6.92432
并	-6.95294
已经	-6.95638
进行	-6.96891
地	-6.97143
新	-6.97335
.	-7.00622
点	-7.02
高	-7.02015
好	-7.04675
于	-7.05079
可	-7.05504
目前	-7.05937
出	-7.0598
过	-7.06944
比	-7.07858
自己	-7.08616
个	-7.09417
他们	-7.09515
可以	-7.09677
一个	-7.10942
没有	-7.11343
公司	-7.1192
考生	-7.12448
其	-7.15713
11	-7.18235
用	-7.18239
记者	-7.1903
及	-7.20316
12	-7.20473
今年	-7.22191
已	-7.23217
能	-7.24582
向	-7.25566
着	-7.25899
让	-7.2599
20	-7.26278
更	-7.29239
队	-7.30558
称	-7.31193
三	-7.31245
家	-7.31246
只	-7.31577
如果	-7.32
所	-7.32563
又	-7.32992
最	-7.33631
去	-7.34624
性	-7.34816
该	-7.34922
名	-7.3517
价格	-7.35375
打	-7.3596
以及	-7.36823
子	-7.36915
得	-7.36962
手	-7.37426
A	-7.37736
很	-7.38793
讯	-7.38918
当	-7.39058
里	-7.39333
还是	-7.39675
你	-7.40071
天	-7.40555
不过	-7.4059
因为	-7.41153
球	-7.41535
做	-7.41712
之后	-7.42268
时间	-7.42569
文	-7.42638
再	-7.42952
则	-7.43549
两	-7.43995
看	-7.44126
这个	-7.44225
金	-7.44271
成	-7.44496
,“	-7.44998
外	-7.45706
对于	-7.46397
由	-7.46775
开始	-7.46843
专业	-7.47365
却	-7.47633
之	-7.48205
美国	-7.48282
万	-7.48419
其中	-7.48532
但是	-7.48793
方面	-7.48897
大学	-7.49646
通过	-7.49822
或	-7.50018
生	-7.50862
给	-7.51301
学生	-7.51418
投资	-7.51686
现在	-7.52026
30	-7.52214
自	-7.52786
至	-7.53276
认为	-7.53347
C	-7.53565
工作	-7.53717
张	-7.53844
成为	-7.5447
”。	-7.54496
就是	-7.5454
内	-7.54558
▁“	-7.56104
美元	-7.56767
本	-7.57423
发	-7.57775
心	-7.58228
比赛	-7.58549
同时	-7.58778
问题	-7.58849
”,	-7.59572
信息	-7.59915
学校	-7.60025
开	-7.60076
把	-7.60744
者	-7.60746
无	-7.61063
产品	-7.61079
G	-7.61586
出现	-7.61806
考试	-7.61951
▁(	-7.62243
一些	-7.62347
D	-7.63182
想	-7.6337
可能	-7.63823
S	-7.63878
李	-7.64003
王	-7.6463
长	-7.6485
非常	-7.66147
用户	-7.6653
15	-7.67337
获得	-7.67352
计划	-7.68073
国内	-7.68981
斯	-7.70348
技术	-7.70859
选择	-7.70931
虽然	-7.71475
北京	-7.73098
交易	-7.73154
马	-7.74022
手机	-7.74072
需要	-7.74114
市	-7.74255
起	-7.74277
报	-7.74341
球员	-7.74361
由于	-7.74553
上涨	-7.74658
四	-7.74881
支持	-7.75327
拉	-7.75363
2010	-7.75693
这些	-7.76148
网	-7.76455
因	-7.76674
头	-7.767
德	-7.76705
卡	-7.76969
球队	-7.77155
第	-7.77172
海	-7.77272
s	-7.77716
力	-7.77887
!	-7.78071
图	-7.78135
网络	-7.79253
位	-7.79376
特	-7.79461
次	-7.79797
希望	-7.79993
老	-7.80034
服务	-7.80539
因此	-7.81195
企业	-7.8122
16	-7.81472
美	-7.81488
参加	-7.81502
18	-7.82032
2009	-7.82071
行	-7.82389
录取	-7.82428
表现	-7.82554
要求	-7.82589
国	-7.83487
作为	-7.83579
19	-7.83784
14	-7.84279
发展	-7.84377
强	-7.84396
重	-7.85339
进入	-7.85661
区	-7.86397
自己的	-7.86692
学	-7.86723
B	-7.86878
全	-7.86911
曾	-7.86919
近	-7.87324
类	-7.87539
部分	-7.88241
号	-7.88586
场	-7.88666
微博	-7.88691
同	-7.88797
才	-7.88823
今天	-7.88923
爱	-7.89288
事	-7.89332
银行	-7.89438
入	-7.89472
单	-7.90641
都是	-7.90963
达	-7.91018
分钟	-7.91049
也是	-7.91445
继续	-7.9146
50	-7.91853
教育	-7.92069
国际	-7.92248
高考	-7.92576
能够	-7.93065
能力	-7.9336
13	-7.93388
报道	-7.93469
利	-7.93553
行业	-7.93736
100	-7.93888
使用	-7.94412
期	-7.94456
加	-7.94684
▁北京时间	-7.94735
其他	-7.95289
还有	-7.95466
如	-7.95506
线	-7.95759
吨	-7.9576
国家	-7.95867
拍摄	-7.95902
i	-7.96427
正	-7.96635
下跌	-7.96686
华	-7.96741
·	-7.97481
法	-7.97482
全球	-7.97502
数	-7.9758
活动	-7.97641
媒体	-7.9769
招生	-7.97914
▁新浪体育	-7.97974
上海	-7.9868
影响	-7.98773
超	-7.98997
所以	-7.99013
考	-7.99057
达到	-7.99067
一直	-7.992
包括	-7.99284
业务	-7.99343
M	-7.99445
机	-7.99451
现场	-7.99505
25	-7.99655
月份	-7.99766
面	-8.00079
拥有	-8.00295
没	-8.0042
部	-8.0055
透露	-8.01277
很多	-8.01897
成绩	-8.02224
而且	-8.02533
走	-8.0256
周	-8.02629
均	-8.02918
罗	-8.03146
门	-8.0331
这一	-8.03553
科	-8.03794
昨日	-8.03923
平	-8.04081
战	-8.04152
局	-8.04441
受	-8.04455
管理	-8.04472
车	-8.04576
各	-8.04658
二	-8.04668
明	-8.04747
之前	-8.05128
17	-8.05144
尔	-8.0523
机构	-8.05429
功能	-8.0547
情	-8.05587
化	-8.05644
不是	-8.05646
2008	-8.05688
陈	-8.06253
来说	-8.06299
的时候	-8.06659
P	-8.06834
克	-8.0699
资金	-8.0719
股	-8.07326
最终	-8.0741
量	-8.07988
道	-8.08689
e	-8.08933
。(	-8.09313
只有	-8.09622
调整	-8.09742
难	-8.09756
。“	-8.10434
身	-8.10454
总	-8.1046
跟	-8.10754
约	-8.10811
赛	-8.11004
定	-8.11058
投资者	-8.11086
光	-8.11291
主要	-8.11301
他的	-8.11366
回	-8.11431
方	-8.11611
不能	-8.11664
设计	-8.1195
香港	-8.12151
亿元	-8.12184
林	-8.12333
增加	-8.12887
去年	-8.12896
T	-8.13152
带	-8.13373
增长	-8.13471
0	-8.13643
这是	-8.1367
28	-8.13729
——	-8.1373
▁新浪娱乐讯	-8.13747
世界	-8.13925
进	-8.14013
五	-8.14262
女	-8.14435
太	-8.14635
价	-8.14706
23	-8.15487
系统	-8.15725
根据	-8.15774
变化	-8.15931
网站	-8.15945
动	-8.16195
提供	-8.16285
第一	-8.1675
期货	-8.16891
风	-8.16984
经济	-8.17208
气	-8.17388
红	-8.17657
比较	-8.17772
个人	-8.17953
24	-8.18079
主	-8.18124
俱乐部	-8.18202
应	-8.1833
这样	-8.18353
机会	-8.18577
采用	-8.18607
得到	-8.18618
甚至	-8.18652
拍	-8.18781
每	-8.18883
不会	-8.19191
]	-8.19392
选	-8.19461
21	-8.19544
那	-8.19556
数据	-8.19567
据	-8.19982
水	-8.20491
双	-8.20585
2011	-8.20667
全国	-8.20794
度	-8.20882
26	-8.21255
像	-8.21449
路	-8.22075
学习	-8.2215
处	-8.22311
电影	-8.22317
申请	-8.22324
的是	-8.22338
大家	-8.22463
并不	-8.23795
最后	-8.23839
连续	-8.23999
▁在	-8.24128
那么	-8.24149
首	-8.24684
万元	-8.24915
N	-8.24936
F	-8.24998
只是	-8.25011
这次	-8.25048
们	-8.25115
正在	-8.25316
台	-8.25451
这种	-8.25464
情况	-8.25693
冠军	-8.25782
除了	-8.25788
需求	-8.25788
22	-8.25944
相关	-8.26026
政策	-8.26244
型	-8.26599
西	-8.26621
组	-8.26639
关注	-8.26669
米	-8.26742
先	-8.26769
安	-8.26802
刘	-8.26987
超过	-8.27161
所有	-8.27283
钱	-8.27352
转	-8.27505
E	-8.27797
日本	-8.27965
基金公司	-8.28042
老师	-8.28151
生活	-8.28182
40	-8.28384
率	-8.29107
两人	-8.29285
学院	-8.29423
连	-8.29557
未	-8.29625
发现	-8.29769
书	-8.29894
具有	-8.30081
仍	-8.30165
费	-8.30416
版	-8.30463
应该	-8.30527
完成	-8.30624
水平	-8.30985
省	-8.31063
最近	-8.31323
o	-8.3167
传	-8.31717
送	-8.31738
业	-8.31765
一次	-8.31935
花	-8.31971
山	-8.32094
空	-8.32115
90	-8.32174
音乐	-8.32316
白	-8.32468
不同	-8.32545
令	-8.32679
为了	-8.32893
合作	-8.33016
声	-8.33023
题	-8.33026
提高	-8.33204
仅	-8.33275
60	-8.33293
这样的	-8.3333
孩子	-8.33355
火箭	-8.33379
社会	-8.33712
黄金	-8.33737
再次	-8.34044
高校	-8.34118
明星	-8.34184
相	-8.34462
低	-8.34509
问	-8.34568
胜	-8.34587
未来	-8.34591
看到	-8.34722
阿	-8.34876
正式	-8.35148
300	-8.35253
它	-8.35413
占	-8.35497
昨天	-8.35568
推出	-8.35581
站	-8.35737
mm	-8.35959
直接	-8.36082
一位	-8.36251
口	-8.36275
预计	-8.36389
决定	-8.36419
准备	-8.36474
是否	-8.36738
成功	-8.36778
g	-8.36894
即	-8.36945
戏	-8.37195
写	-8.37254
热	-8.37303
近期	-8.37333
报名	-8.37417
时尚	-8.37513
某	-8.37551
结果	-8.37569
六	-8.37626
电	-8.381
变	-8.38154
使	-8.38457
飞	-8.38485
首次	-8.3854
规模	-8.38716
合约	-8.38767
非	-8.38979
买	-8.39048
基本	-8.39053
此次	-8.39246
必须	-8.39425
训练	-8.39443
商	-8.39735
收	-8.3986
不少	-8.401
亚	-8.40165
面对	-8.40565
投	-8.40569
到了	-8.40963
远	-8.41013
t	-8.41025
见	-8.41425
明显	-8.41583
消息	-8.41693
新浪	-8.41695
)、	-8.41696
什么	-8.41877
真	-8.4189
发行	-8.41913
级	-8.41925
日前	-8.42222
接	-8.42228
帮助	-8.42246
对手	-8.42252
销售	-8.42281
半	-8.42704
此前	-8.42714
作	-8.42714
持续	-8.42861
突破	-8.42984
万吨	-8.42998
制	-8.43014
感	-8.43428
第二	-8.43505
雷	-8.43623
格	-8.43666
方式	-8.43711
一起	-8.4381
行情	-8.44076
交	-8.44135
意	-8.44797
显示	-8.45013
中心	-8.45361
星	-8.45517
27	-8.45527
十分	-8.45669
!”	-8.45748
来看	-8.45781
公布	-8.45831
并且	-8.45882
以上	-8.45887
更加	-8.46081
较	-8.46221
指数	-8.4627
原	-8.46479
听	-8.4652
结束	-8.4652
分别	-8.46685
体	-8.46703
压力	-8.46743
O	-8.46913
左右	-8.47162
反	-8.47365
无法	-8.47407
80	-8.4749
期间	-8.47533
风险	-8.47649
y	-8.47923
整体	-8.48183
通	-8.48205
网上	-8.48311
班	-8.48354
院校	-8.48412
特别	-8.48445
此	-8.48465
500	-8.48784
200	-8.48826
项目	-8.48931
另外	-8.48972
几	-8.49029
一样	-8.49413
间	-8.49429
内容	-8.49471
当时	-8.49627
阶段	-8.49757
品牌	-8.49766
相比	-8.49838
城	-8.49876
优势	-8.49879
亿	-8.5001
保持	-8.5019
研究	-8.50207
放	-8.50288
工	-8.50453
W	-8.50491
政府	-8.50602
有些	-8.50625
u	-8.50652
如何	-8.50674
联赛	-8.50758
电话	-8.50801
客户	-8.50812
依然	-8.50889
代表	-8.51092
宣布	-8.5125
实现	-8.51359
报考	-8.51402
接受	-8.51425
不断	-8.51523
剧	-8.51598
最高	-8.51658
L	-8.51822
镜头	-8.51926
共	-8.51945
观众	-8.52011
▁[	-8.52023
黑	-8.52033
分析	-8.52132
别	-8.52264
少	-8.52507
东	-8.5254
存在	-8.52847
29	-8.52874
随着	-8.52911
截至	-8.52998
一般	-8.53253
式	-8.53536
+	-8.53749
岁	-8.53868
尽管	-8.54008
信	-8.54128
此外	-8.54257
状态	-8.54302
笑	-8.54722
更是	-8.54723
R	-8.5473
安排	-8.54731
快	-8.54747
70	-8.54833
游戏	-8.54838
演员	-8.55007
便	-8.55016
校	-8.55164
参与	-8.55189
请	-8.55217
理	-8.5525
杨	-8.55495
领先	-8.55586
K	-8.55824
考虑	-8.55844
介绍	-8.56097
英寸	-8.56219
视频	-8.56267
标准	-8.56545
全部	-8.56624
如此	-8.56647
纳	-8.56728
▁高考	-8.5678
反弹	-8.56812
按	-8.56879
导致	-8.57006
专家	-8.57083
中的	-8.57133
军	-8.57185
不仅	-8.57217
体育	-8.57677
两个	-8.57708
其实	-8.57768
’	-8.57918
近日	-8.58076
消费	-8.58141
百	-8.583
轮	-8.5836
然	-8.58484
语	-8.585
巴	-8.58622
完全	-8.58634
n	-8.58646
国家队	-8.58691
有关	-8.58691
随后	-8.58713
指	-8.58809
的表现	-8.5884
购买	-8.58892
演	-8.59215
事件	-8.59396
球迷	-8.59596
▁本报讯	-8.5961
网友	-8.59741
乐	-8.59908
家长	-8.59978
将在	-8.60273
之一	-8.60573
招	-8.60586
姚明	-8.609
奇	-8.60973
上市	-8.60979
片	-8.61149
深	-8.6116
以来	-8.61226
按照	-8.61274
电视	-8.61591
段	-8.61631
龙	-8.61649
测试	-8.61999
p	-8.62062
韩国	-8.62226
经	-8.62284
任何	-8.62291
伤	-8.62293
导演	-8.6243
%	-8.6256
来自	-8.62561
ETF	-8.62601
a	-8.62676
差	-8.6278
人员	-8.62788
盘	-8.62871
谈	-8.62922
减少	-8.62957
I	-8.63106
模式	-8.63127
H	-8.63621
了解	-8.63901
品种	-8.6396
重点	-8.64255
节目	-8.64264
下降	-8.64458
‘	-8.64656
进一步	-8.64894
建	-8.65006
满	-8.65119
发布	-8.65171
关系	-8.65344
一场	-8.65714
经过	-8.65863
资格	-8.66076
日消息	-8.66185
千	-8.66374
w	-8.6638
黄	-8.66391
呢	-8.66399
库存	-8.66478
的比赛	-8.66608
落	-8.66623
过去	-8.6664
刚	-8.66876
系列	-8.66942
且	-8.66971
建议	-8.67181
十	-8.67208
公开	-8.6723
受到	-8.67249
同样	-8.67343
清	-8.67481
收益	-8.67534
带来	-8.67561
历史	-8.67841
奖	-8.68001
业绩	-8.68208
流	-8.68398
仍然	-8.68479
也有	-8.68504
跌	-8.68516
▁记者	-8.68617
英语	-8.68846
调查	-8.68993
权	-8.69023
双方	-8.69073
有所	-8.69127
越	-8.69148
取得	-8.69201
南	-8.69212
早	-8.69319
提前	-8.69365
中国队	-8.69388
届	-8.69474
卖	-8.69574
尼	-8.69623
或者	-8.697
具体	-8.69836
预期	-8.69854
▁据	-8.6988
教	-8.69905
得分	-8.7002
将于	-8.70118
起来	-8.70121
基金经理	-8.70131
表	-8.70265
J	-8.70315
喜欢	-8.70715
广告	-8.70715
确定	-8.70883
指出	-8.71006
吧	-8.71577
V	-8.7158
价值	-8.71589
家庭	-8.71692
举行	-8.71844
话	-8.7189
倍	-8.71944
对方	-8.72006
处理	-8.72034
空间	-8.72038
不要	-8.72226
赛季	-8.7226
是一个	-8.72294
因素	-8.72391
▁《	-8.72423
31	-8.72425
互联网	-8.7258
足球	-8.72712
任	-8.72736
负	-8.7275
组织	-8.72756
维	-8.72798
神	-8.72846
奥	-8.73146
志愿	-8.73252
取	-8.733
言	-8.73366
发生	-8.73403
实	-8.73439
个月	-8.73461
主力	-8.73697
股票	-8.73773
产	-8.73917
的考生	-8.7399
平台	-8.74057
l	-8.7407
波	-8.74087
当然	-8.74185
一年	-8.74241
只能	-8.74261
涨幅	-8.74311
整个	-8.74386
成本	-8.74492
文化	-8.74599
效果	-8.7464
只要	-8.74775
相对	-8.74924
秒	-8.74951
集团	-8.75012
努力	-8.7503
火	-8.75037
利用	-8.75299
觉得	-8.75299
综合	-8.75406
种	-8.75691
进行了	-8.76135
民	-8.76292
安全	-8.76378
英国	-8.76459
操作	-8.76502
眼	-8.76518
移动	-8.76574
男	-8.76575
并没有	-8.76687
完	-8.76713
推	-8.76859
歌	-8.76924
防守	-8.77009
失	-8.77073
金融	-8.77085
读	-8.77092
上周	-8.77133
X	-8.77189
大幅	-8.77212
合	-8.77268
款	-8.77269
立	-8.77531
第三	-8.77732
条件	-8.77851
排名	-8.77863
进攻	-8.77865
×	-8.77931
除	-8.78014
艺术	-8.78232
吃	-8.78458
更多	-8.78534
目标	-8.78688
的问题	-8.78857
改	-8.78884
全面	-8.78927
玩	-8.78939
的人	-8.78995
获	-8.79066
地区	-8.79081
相机	-8.79091
平均	-8.79095
包	-8.79126
软件	-8.79143
接口	-8.79208
色	-8.79416
相信	-8.7955
联	-8.79564
品	-8.79676
经验	-8.79884
选手	-8.80015
环境	-8.80044
防	-8.80053
配置	-8.80089
晓	-8.8031
一定	-8.80329
2007	-8.80578
的话	-8.80625
亿美元	-8.80638
代	-8.80756
消费者	-8.80813
曾经	-8.80921
资产	-8.80962
现	-8.81088
赵	-8.81154
45	-8.81258
教练	-8.81293
论坛	-8.81356
朋友	-8.81475
内地	-8.81528
相当	-8.81556
保	-8.81627
中学	-8.81645
节	-8.81695
照	-8.81817
博	-8.81874
h	-8.81881
吗	-8.81974
七	-8.81995
我国	-8.82256
持有	-8.82315
调	-8.8235
苹果	-8.82689
杯	-8.82705
成长	-8.82721
即将	-8.82769
d	-8.82907
女儿	-8.83034
之间	-8.83122
一下	-8.83176
唱	-8.83372
创新	-8.83403
标	-8.83445
这位	-8.83615
稳定	-8.83627
涨	-8.83986
补	-8.8401
机身	-8.84043
谁	-8.84205
杆	-8.84337
查	-8.84344
换	-8.84388
人们	-8.84396
自然	-8.84574
关于	-8.8464
板	-8.84641
师	-8.84816
字	-8.84869
m	-8.85129
c	-8.85171
最低	-8.85188
09	-8.85213
本赛季	-8.85255
住	-8.85272
对此	-8.85286
商品	-8.85336
笔记本	-8.85745
结婚	-8.85784
案	-8.85792
八	-8.85962
明年	-8.86002
今日	-8.86087
走势	-8.86178
将会	-8.86204
积极	-8.86294
规定	-8.86303
控制	-8.86357
最大	-8.86742
几乎	-8.8675
直	-8.86754
升	-8.86843
新闻	-8.8693
拿	-8.86938
宝	-8.86941
恩	-8.86994
装	-8.87083
一种	-8.87096
深圳	-8.87219
假	-8.87305
职业	-8.87423
余	-8.87732
跑	-8.87815
布	-8.87941
初	-8.87949
世	-8.88018
重新	-8.88035
收入	-8.88119
】	-8.88123
咨询	-8.88215
才能	-8.88226
支撑	-8.88343
离开	-8.88377
基	-8.8841
产量	-8.88517
er	-8.88584
复习	-8.88756
35	-8.88829
云	-8.88882
边	-8.89183
最大的	-8.89195
我的	-8.8931
针对	-8.89373
算	-8.8969
移民	-8.89735
欧洲	-8.90088
留学	-8.90134
视	-8.90161
电子	-8.90253
杰	-8.90264
改变	-8.90386
感觉	-8.90663
公	-8.90987
青	-8.911
应用	-8.91208
ing	-8.91324
韩	-8.91337
儿	-8.91347
英	-8.91412
他说	-8.91435
福	-8.91442
让人	-8.91648
若	-8.91669
岁的	-8.91835
夫	-8.91883
台湾	-8.91889
重要	-8.91905
组合	-8.92159
何	-8.92178
知道	-8.92247
森	-8.92323
数量	-8.92352
使得	-8.92619
产业	-8.92727
实力	-8.92779
推荐	-8.93017
短	-8.93044
江	-8.93167
条	-8.93184
采用了	-8.93196
敬请	-8.93285
州	-8.93398
32	-8.93565
竞争	-8.93678
处理器	-8.93744
股市	-8.93834
保险	-8.94112
数据显示	-8.94113
GB	-8.94118
处于	-8.94191
票	-8.94222
解	-8.94366
的不断	-8.94439
主帅	-8.9446
年度	-8.94502
比例	-8.94643
仅供参考	-8.94671
曼联	-8.94678
世界杯	-8.94689
形成	-8.94782
静	-8.94803
刚刚	-8.94897
留	-8.94932
离	-8.9497
产生	-8.95032
居	-8.95036
最新	-8.95085
找	-8.95088
提升	-8.95103
恢复	-8.95138
感到	-8.9516
一家	-8.95271
许多	-8.95306
分红	-8.95319
解决	-8.9532
铜	-8.95371
中考	-8.95528
高中	-8.95558
城市	-8.9567
本科	-8.95732
展	-8.96074
错	-8.96078
秀	-8.96114
叫	-8.96144
志	-8.96237
员	-8.9627
课	-8.96302
▁对于	-8.96332
出来	-8.96359
震荡	-8.96403
收购	-8.96412
似乎	-8.96554
担任	-8.96557
新的	-8.96615
底	-8.9672
有效	-8.9678
运动	-8.96781
出席	-8.96808
数学	-8.96966
各种	-8.9707
队员	-8.97114
担心	-8.97278
的情况下	-8.97375
行为	-8.97456
报价	-8.9747
高达	-8.97471
的学生	-8.97479
更多的	-8.97611
年的	-8.97894
分析师	-8.97929
原油	-8.97992
▁the	-8.98021
尽	-8.98316
曝光	-8.98335
亲	-8.98395
倒	-8.98484
考研	-8.98602
宣传	-8.98689
速度	-8.98797
脚	-8.98841
北	-8.98934
建设	-8.9895
知	-8.99002
常	-8.99024
系	-8.99123
▁【	-8.99177
肯定	-8.99277
偏	-8.99314
关	-8.99374
巴萨	-8.99465
儿子	-8.99517
提	-8.99551
普通	-8.99604
讲	-8.99617
原因	-8.9965
性能	-8.99685
上升	-8.99797
退	-8.99815
娱乐	-8.99855
终于	-8.99878
怎么	-9.00166
一名	-9.0032
净值	-9.00336
证	-9.00465
范围	-9.00631
联系	-9.00633
严重	-9.00702
演唱会	-9.00816
如今	-9.00942
吴	-9.01053
面情况	-9.01159
考生以	-9.01177
夜	-9.01212
微	-9.01297
最佳	-9.01297
快速	-9.01321
尤其是	-9.01359
权威部门	-9.01432
主动	-9.01677
篮网	-9.01689
照片	-9.01731
再度	-9.01848
科比	-9.019
QDII	-9.01929
信息为准	-9.01936
普	-9.02016
冷	-9.02164
短期	-9.02165
特别说明	-9.02201
Z	-9.02387
的所有考试	-9.02436
实施	-9.02444
公布的正式	-9.02448
由于各方	-9.02457
报告	-9.02472
而是	-9.02499
令人	-9.02523
大豆	-9.02579
网所提供	-9.02688
谷歌	-9.02691
请访问	-9.02841
法国	-9.02896
亮	-9.03045
死	-9.03133
U	-9.03189
调整与	-9.0321
值	-9.03264
方向	-9.03275
界	-9.03291
具备	-9.03392
院	-9.03402
影	-9.03425
铁	-9.03451
许	-9.03483
长期	-9.03547
屏幕	-9.0355
物	-9.03568
比如	-9.03662
800	-9.0376
▁从	-9.04101
套	-9.04166
先生	-9.04182
博客圈	-9.04219
靠	-9.0423
进球	-9.04291
春	-9.04301
梅	-9.04409
挑战	-9.04452
名单	-9.0455
第一次	-9.04568
发挥	-9.04661
确认	-9.04824
项	-9.04864
迪	-9.04935
而言	-9.05015
景	-9.05062
_	-9.05246
往	-9.053
k	-9.05309
办	-9.05571
都有	-9.05588
该机	-9.05613
管	-9.05731
店	-9.05794
上述	-9.05876
都会	-9.05891
b	-9.05902
降低	-9.05942
上的	-9.05944
配	-9.06005
米兰	-9.06014
▁4	-9.06014
时代	-9.06182
评价	-9.06312
合同	-9.06345
托	-9.06374
工程	-9.06429
生产	-9.06456
无线	-9.06483
存	-9.06699
主场	-9.07027
档	-9.07221
期待	-9.07413
个篮板	-9.07461
伟	-9.07503
电视剧	-9.07532
银	-9.07579
电信	-9.07627
这款	-9.07692
预	-9.07705
职	-9.07728
室	-9.07789
顶	-9.078
理科	-9.07864
保证	-9.07927
位置	-9.07967
伊	-9.08028
专	-9.08126
NBA	-9.08141
证券	-9.08228
继	-9.08376
的时间	-9.08419
人士	-9.0846
射	-9.08524
部门	-9.08592
抢	-9.08656
座	-9.08772
属于	-9.08837
极	-9.08844
还要	-9.08849
广东	-9.08922
至于	-9.09183
破	-9.09254
46	-9.09382
r	-9.09408
客	-9.09447
萨	-9.09465
众多	-9.09475
一点	-9.09502
成立	-9.09527
以后	-9.09653
思	-9.09956
很难	-9.10018
牌	-9.101
德国	-9.10207
田	-9.10293
资源	-9.10306
降	-9.1037
......	-9.1038
说明	-9.1039
本次	-9.1049
加盟	-9.10576
趋势	-9.10631
课程	-9.10655
提出	-9.10771
兰	-9.10772
不足	-9.1078
确实	-9.1085
设备	-9.10851
艺人	-9.11085
楼	-9.11118
湖人	-9.11255
基础	-9.11269
切	-9.11326
跳	-9.1136
ar	-9.11445
方案	-9.11446
之外	-9.11488
跌幅	-9.11523
干	-9.11599
友	-9.11627
齐	-9.11632
推动	-9.11792
▁新浪科技	-9.11863
真的	-9.11975
冲	-9.12023
人物	-9.12169
1000	-9.12231
决赛	-9.12256
他在	-9.12303
领	-9.12303
团	-9.12423
宁	-9.12423
胡	-9.12486
角	-9.12506
策略	-9.12629
迷	-9.12652
武	-9.12746
皇马	-9.12798
诺	-9.12882
房	-9.12998
限	-9.13022
一款	-9.13039
坚持	-9.1307
成交	-9.13087
实际	-9.13359
范	-9.13456
当前	-9.13542
只基金	-9.13577
通知	-9.13621
亚洲	-9.13622
健康	-9.13631
精神	-9.13639
亮相	-9.13654
记	-9.1366
08	-9.13715
回应	-9.13725
400	-9.13809
丽	-9.13821
招生计划	-9.13827
证明	-9.13868
西班牙	-9.13879
为主	-9.1389
遭遇	-9.13912
评论	-9.14184
紧张	-9.14224
九	-9.14262
广州	-9.14267
工作人员	-9.14409
55	-9.1442
iPhone	-9.14486
33	-9.14529
索尼	-9.14632
面试	-9.1464
电脑	-9.14762
人才	-9.14764
那些	-9.14772
▁据悉	-9.14787
传统	-9.14876
孙	-9.14924
含	-9.14944
有望	-9.14953
不错	-9.14995
en	-9.1503
列	-9.1509
科技	-9.15126
一度	-9.15145
费用	-9.15153
成了	-9.15195
面临	-9.15296
宏	-9.15327
朱	-9.15335
考场	-9.15336
升级	-9.15366
纷纷	-9.15622
主教练	-9.15678
至少	-9.15765
风格	-9.15835
保护	-9.15922
徐	-9.16004
阿联	-9.16054
货	-9.16097
的球员	-9.16103
减	-9.16173
适合	-9.16173
意大利	-9.16198
有着	-9.16284
就会	-9.16289
然后	-9.16319
当地	-9.16329
智	-9.16329
42	-9.16362
办法	-9.16371
▁S	-9.16449
顿	-9.16465
x	-9.16488
妈妈	-9.16546
程	-9.16551
较为	-9.16665
排	-9.16712
的影响	-9.16714
市场的	-9.16733
关键	-9.16768
难以	-9.16778
天津	-9.16814
查询	-9.1682
集	-9.16832
也会	-9.1693
尚	-9.16998
的机会	-9.17006
试	-9.17006
联盟	-9.17035
造成	-9.17136
幅度	-9.17142
贝	-9.17207
越来越	-9.17254
资料	-9.17317
伦	-9.17319
吉	-9.17334
派	-9.1735
求	-9.17441
年底	-9.17507
文科	-9.17578
卷	-9.17585
旗下	-9.17608
步	-9.17616
游	-9.17629
》、《	-9.17689
首先	-9.17836
苦	-9.17904
研究生	-9.1804
作用	-9.1809
com	-9.18094
表演	-9.18115
主题	-9.18125
莫	-9.18167
阳	-9.18167
蒂	-9.18199
这么	-9.1821
库	-9.18342
属	-9.18348
哈	-9.18363
您	-9.18419
瑞	-9.18519
出了	-9.18633
后卫	-9.18675
音	-9.18732
培养	-9.18828
压	-9.18997
而在	-9.19034
blog	-9.1914
频道	-9.19178
不到	-9.19195
然而	-9.19202
加强	-9.19282
第四	-9.19365
就业	-9.19432
经营	-9.19442
轻松	-9.19444
追	-9.1945
配合	-9.19452
真正	-9.19497
重庆	-9.19528
曲	-9.19553
轻	-9.19577
利率	-9.19577
联合	-9.19609
展开	-9.19622
责任	-9.19656
万像素	-9.19658
塔	-9.19727
方法	-9.19792
帅	-9.19919
启动	-9.19946
逐渐	-9.20036
批	-9.20103
的情况	-9.20248
杀	-9.20251
状况	-9.20639
材料	-9.2064
服	-9.20765
待	-9.20765
棋	-9.20792
掉	-9.20907
雪	-9.20909
晚	-9.20967
正常	-9.2106
据悉	-9.2122
阵容	-9.21234
意外	-9.21535
都在	-9.21554
v	-9.2157
享受	-9.21615
击	-9.21671
明确	-9.21677
牛	-9.2168
增	-9.21696
雨	-9.21737
以前	-9.2176
困难	-9.21862
限制	-9.2196
加上	-9.21972
的事情	-9.21985
人数	-9.22013
季	-9.22147
阅读	-9.22158
承认	-9.22163
一旦	-9.22172
当年	-9.22215
当天	-9.22319
看来	-9.22364
万美元	-9.22378
持	-9.22407
本周	-9.2242
杜	-9.2243
体验	-9.22499
出口	-9.22532
演出	-9.2254
团队	-9.22584
喜	-9.2267
影片	-9.22691
病	-9.22739
or	-9.22816
形	-9.2282
身体	-9.22844
也不	-9.2287
录	-9.2292
数字	-9.22934
普遍	-9.2304
亦	-9.23086
海外	-9.23169
强调	-9.23179
不再	-9.23182
领域	-9.23188
前锋	-9.2325
角色	-9.23251
队友	-9.23259
2000	-9.23385
坦言	-9.23404
三星	-9.2341
88	-9.23453
较大	-9.2366
re	-9.23668
小时	-9.23679
穿	-9.23683
f	-9.23732
统一	-9.23899
澳大利亚	-9.24022
满足	-9.24033
600	-9.24069
免费	-9.24079
可能会	-9.24085
接近	-9.24122
高清	-9.24149
佳	-9.24221
34	-9.24282
古	-9.24303
层	-9.24361
制作	-9.24371
会议	-9.24389
邀请	-9.24468
统计	-9.24513
动作	-9.24535
38	-9.24619
渠道	-9.24652
下午	-9.24664
断	-9.24716
扩大	-9.24727
即使	-9.2473
an	-9.24831
中国移动	-9.24905
帮	-9.2495
微软	-9.24973
作品	-9.25023
每个	-9.25092
运	-9.2512
总经理	-9.25257
玉米	-9.2531
坐	-9.2536
经常	-9.25376
本人	-9.25447
料	-9.25472
?”	-9.2549
出场	-9.25521
裁判	-9.25572
足	-9.25574
血	-9.25602
迅速	-9.25603
方便	-9.25619
我省	-9.25675
支	-9.25723
威	-9.25726
下滑	-9.25737
圈	-9.25783
也将	-9.25815
”、“	-9.25816
AC	-9.25837
整	-9.25858
经典	-9.26014
优秀	-9.26103
供应	-9.26218
油	-9.26224
汉	-9.26254
填报	-9.26435
泰	-9.26448
鲁	-9.26455
户	-9.26471
很大	-9.26507
每天	-9.26555
答案	-9.26569
专科	-9.26592
份额	-9.26604
峰	-9.26614
单位	-9.26615
注意	-9.26751
-1	-9.26778
TD	-9.26804
粉丝	-9.26856
过程中	-9.26883
累计	-9.26886
弱	-9.27
背	-9.27047
零	-9.27165
36	-9.27345
是个	-9.27351
开发	-9.27618
维持	-9.27643
修	-9.27671
in	-9.27742
显然	-9.27799
理解	-9.27845
共同	-9.27932
落后	-9.28035
来到	-9.28083
随	-9.28085
符合	-9.28175
加拿大	-9.28178
日至	-9.28219
结	-9.28281
▁据了解	-9.28298
佳能	-9.28367
一切	-9.28385
采取	-9.28441
造型	-9.28492
现货	-9.28496
做出	-9.28505
酒店	-9.28519
攻	-9.28542
评	-9.28547
绝对	-9.28607
拿到	-9.28732
机型	-9.28771
申购	-9.28828
核心	-9.28836
债券	-9.28963
精	-9.28969
分数	-9.29201
制度	-9.29219
吸引	-9.29237
—	-9.29415
他们的	-9.29511
源	-9.29515
一份	-9.29815
张柏芝	-9.29862
负责	-9.29865
在北京	-9.29987
知识	-9.30047
金属	-9.30054
兵	-9.30146
拿下	-9.30196
出现了	-9.30345
优	-9.30365
赎回	-9.30483
则是	-9.3056
港	-9.30626
教育部	-9.30632
提醒	-9.30676
科学	-9.30687
华夏	-9.30717
销	-9.30737
文章	-9.30781
糖	-9.30793
广	-9.30928
山东	-9.30937
开放	-9.30967
运营商	-9.30999
及时	-9.31032
告诉	-9.31062
玉	-9.31124
器	-9.31142
进口	-9.31199
▁不过	-9.31267
难度	-9.31276
温	-9.31371
持仓	-9.31467
该基金	-9.31489
跨	-9.31491
也在	-9.31532
莱	-9.31559
获悉	-9.31562
理财	-9.31571
黑色	-9.3161
37	-9.31611
人民币	-9.31635
笔	-9.31721
前期	-9.31754
内线	-9.3176
▁A	-9.31789
▁此外	-9.31795
造	-9.31801
久	-9.31848
设置	-9.31857
扬	-9.31872
告诉记者	-9.31924
了一个	-9.31962
首发	-9.31967
石	-9.32112
保障	-9.3217
形象	-9.32171
父亲	-9.32176
士	-9.32202
夺冠	-9.32235
找到	-9.32247
开心	-9.32388
▁今年	-9.32408
法律	-9.32498
售价	-9.32563
顺利	-9.32582
办理	-9.32594
▁C	-9.32625
举办	-9.32669
富	-9.32795
48	-9.32802
犯规	-9.32853
词	-9.32971
结构	-9.33002
▁B	-9.33014
件	-9.33043
▁昨日	-9.33137
梦	-9.33143
啊	-9.33192
受伤	-9.33302
该校	-9.33337
农	-9.33401
折	-9.3346
舞	-9.33473
荣	-9.33523
有了	-9.33528
不得	-9.33548
急	-9.33597
回到	-9.33654
达到了	-9.33708
作文	-9.33719
导	-9.33847
心理	-9.3385
注册	-9.33885
还没有	-9.34018
投入	-9.34027
2006	-9.34037
并不是	-9.34163
酒	-9.34192
贡献	-9.34231
教学	-9.34261
al	-9.34411
商业	-9.34413
售	-9.34431
封	-9.34509
本场比赛	-9.34514
▁7	-9.34528
亏损	-9.34577
创	-9.34584
运行	-9.3462
养	-9.34705
几个	-9.34755
稳	-9.34777
是在	-9.34791
独	-9.34868
群	-9.34989
停	-9.35038
商家	-9.35066
听歌	-9.35082
你们	-9.35104
三个	-9.35114
债	-9.35154
不好	-9.35176
苏	-9.35224
上赛季	-9.35266
程度	-9.35301
并非	-9.35309
不知道	-9.3538
棉花	-9.35404
今年以来	-9.35488
旧	-9.35528
大部分	-9.35564
的价格	-9.35592
兴	-9.35688
正是	-9.35837
特别是	-9.35888
众	-9.35949
改革	-9.35981
语言	-9.36073
并未	-9.36101
不可	-9.36172
还将	-9.36177
画	-9.36384
另一	-9.36418
监管	-9.36503
月底	-9.36689
大量	-9.36694
热火	-9.3673
毕业	-9.36864
协会	-9.36869
有人	-9.36982
距离	-9.37019
中场	-9.37065
否认	-9.37082
cn	-9.37127
两年	-9.37323
纽约	-9.37402
那样	-9.37425
充分	-9.37472
未能	-9.37522
教师	-9.37623
客场	-9.37671
易	-9.37688
谢	-9.37688
公告	-9.37688
索	-9.37693
圆	-9.37737
▁我要评论	-9.37759
考点	-9.37778
交流	-9.378
永	-9.37892
身上	-9.37915
组图	-9.37941
有可能	-9.37952
每年	-9.38132
样	-9.38253
回落	-9.38349
需	-9.38428
主持人	-9.38436
球场	-9.38478
账户	-9.38484
预测	-9.38485
细节	-9.38487
合理	-9.38492
on	-9.3855
[	-9.38792
情绪	-9.38851
经历	-9.3888
她的	-9.39001
唐	-9.39177
惊	-9.39195
的同时	-9.39204
歌手	-9.39228
赛后	-9.39291
端	-9.3935
液晶电视	-9.39385
集中	-9.3941
我们的	-9.39446
全场	-9.39493
从而	-9.39546
的一个	-9.39601
老板	-9.39639
回答	-9.39707
事业	-9.39741
额	-9.39913
成都	-9.39921
支付	-9.39927
宇	-9.39935
板块	-9.39942
实行	-9.40042
这也是	-9.40103
根	-9.40146
练	-9.40234
以往	-9.40259
措施	-9.40302
建立	-9.40335
爆	-9.40419
歌迷	-9.40498
出色	-9.40505
塞	-9.40631
▁3	-9.40636
依旧	-9.40676
杂志	-9.40677
故事	-9.4076
故	-9.40774
打造	-9.4081
休息	-9.4085
篮板	-9.40882
76	-9.41038
替补	-9.41039
下来	-9.41052
失误	-9.41059
奥运会	-9.41146
本报记者	-9.4123
忙	-9.41241
简单	-9.41249
足协	-9.41348
之间的	-9.41349
尼康	-9.41441
婚	-9.41532
罚	-9.41607
证监会	-9.41609
做好	-9.41619
脸	-9.41619
增强	-9.41647
借	-9.41655
Y	-9.41686
转会	-9.41706
质量	-9.41706
自动	-9.4171
凯	-9.41718
强势	-9.41824
京	-9.41829
力量	-9.41837
过程	-9.41923
艺	-9.4197
巴西	-9.42021
是因为	-9.42078
洋	-9.42103
资	-9.42122
突然	-9.42193
一定要	-9.4223
以下	-9.42238
知名	-9.42367
更为	-9.42448
场比赛	-9.42474
联想	-9.4252
屏	-9.4253
男友	-9.42563
人的	-9.42608
值得	-9.42696
税	-9.42722
自主招生	-9.42826
必	-9.42838
年前	-9.42884
体系	-9.42891
纯	-9.42905
冰	-9.42911
▁张	-9.42915
共有	-9.42959
得到了	-9.43017
的消息	-9.43037
女子	-9.43059
冲击	-9.43145
6%	-9.43164
紧	-9.43192
姆	-9.43247
的成绩	-9.43514
低于	-9.43587
雅	-9.43589
助	-9.43669
区域	-9.43682
奥运	-9.43695
钢	-9.43699
蓝	-9.43723
至今	-9.44112
观点	-9.44121
年轻	-9.44277
提供了	-9.44344
放弃	-9.4438
兼	-9.44383
著名	-9.44398
传闻	-9.4447
聚	-9.44528
出现在	-9.44578
险	-9.44731
设	-9.44748
酷	-9.44806
▁李	-9.44815
逐步	-9.44827
赶	-9.44837
国外	-9.4484
战胜	-9.44882
it	-9.44928
指导	-9.44979
太多	-9.4507
救	-9.4515
两次	-9.45177
狂	-9.45207
四川	-9.45216
结合	-9.45229
附近	-9.45231
女生	-9.45382
解释	-9.45419
3000	-9.45427
松	-9.45457
论	-9.4552
纪录	-9.4555
掌握	-9.45599
败	-9.45607
南京	-9.45656
准	-9.4571
行动	-9.45712
真实	-9.4574
或许	-9.45754
但他	-9.45866
北大	-9.4591
利物浦	-9.45986
人生	-9.46018
上场	-9.46023
le	-9.46057
完美	-9.46068
还在	-9.46092
争夺	-9.4612
义	-9.46121
复	-9.46144
股指期货	-9.46162
唯一	-9.46319
幸福	-9.46388
夺	-9.4641
拒绝	-9.46429
日电	-9.46435
招收	-9.46484
加入	-9.46511
歌曲	-9.46528
主持	-9.46536
题目	-9.46615
显得	-9.46641
市场上	-9.46692
的方式	-9.46722
留下	-9.46753
洛	-9.46756
认识	-9.46772
签	-9.46877
意义	-9.4694
翻	-9.47069
委	-9.47093
新加坡	-9.47162
等待	-9.47242
开展	-9.47247
三年	-9.47259
估值	-9.47317
获得了	-9.47407
新增	-9.47485
观	-9.4752
差距	-9.47561
毕业生	-9.47578
内部	-9.47608
IT	-9.47642
两位	-9.47755
75	-9.4777
皮	-9.47777
之中	-9.47813
新生	-9.47819
突出	-9.47881
榜	-9.47959
地方	-9.48039
阵	-9.48042
母	-9.48078
好友	-9.48079
5%	-9.48119
了解到	-9.48242
一周	-9.48308
凭借	-9.4832
员工	-9.48323
凡	-9.48331
乱	-9.48349
魔术	-9.48353
讨论	-9.48355
浙江	-9.48365
须	-9.48366
计算	-9.48434
电视台	-9.4846
沙	-9.48563
净	-9.48641
切尔西	-9.4875
望	-9.48754
詹姆斯	-9.48755
汽车	-9.48758
智能	-9.4876
申花	-9.48768
该公司	-9.4879
700	-9.48863
密	-9.48913
警	-9.48989
当中	-9.48997
功	-9.49019
大型	-9.49242
动力	-9.4936
滑	-9.49377
比赛中	-9.49408
篮球	-9.49484
盛	-9.49501
协议	-9.49528
郭	-9.49548
毕竟	-9.49558
厂商	-9.49575
看好	-9.49616
百度	-9.49626
形式	-9.4965
戴	-9.49695
▁1	-9.49727
终	-9.49736
多数	-9.49794
审	-9.49815
母亲	-9.4998
股份	-9.50058
免	-9.50113
万人	-9.50122
衣	-9.50136
胜利	-9.50208
最好的	-9.50269
季后赛	-9.50371
判断	-9.50375
▁of	-9.50399
人气	-9.50407
信心	-9.5041
同学	-9.50472
彩	-9.50525
避免	-9.50536
99	-9.50567
看看	-9.50677
康	-9.50729
能否	-9.50752
礼	-9.50775
领导	-9.50792
独立	-9.50793
成熟	-9.5086
潮	-9.5088
新赛季	-9.51062
容易	-9.51097
香	-9.51142
搭配	-9.51202
良	-9.51223
让他	-9.51246
5000	-9.51363
丹	-9.51388
的原因	-9.51388
10%	-9.51389
章	-9.51412
就在	-9.5153
愿意	-9.51536
既	-9.51567
诺基亚	-9.51599
记录	-9.51613
清晰	-9.51621
00	-9.51913
勇	-9.5194
宽	-9.51945
史	-9.5197
婚礼	-9.52011
创造	-9.52214
晚上	-9.52254
指数基金	-9.52268
68	-9.5227
事情	-9.52276
她说	-9.52356
县	-9.52389
嘉	-9.52396
政治	-9.52435
▁王	-9.52449
活	-9.52451
高于	-9.52579
势	-9.52623
父母	-9.52677
恋	-9.5268
很好	-9.52699
击败	-9.52758
最好	-9.52786
参考	-9.52787
河	-9.528
利润	-9.52825
旅游	-9.5285
一致	-9.53008
有限公司	-9.53049
赴	-9.53119
沪	-9.53205
乐观	-9.53222
尝试	-9.53269
现实	-9.53289
现身	-9.5335
▁图片	-9.53392
负责人	-9.53448
略	-9.53552
堂	-9.53604
仓位	-9.53652
内置	-9.53676
日起	-9.53689
传媒	-9.53692
也许	-9.53758
公布的	-9.5377
股价	-9.53829
的确	-9.53841
次助攻	-9.53849
43	-9.53869
控	-9.53886
征	-9.53911
中超	-9.53949
现象	-9.54017
66	-9.54024
劳	-9.54031
尾	-9.54086
白糖	-9.54104
易建联	-9.54104
不大	-9.54112
家人	-9.54167
▁根据	-9.54299
灵	-9.54306
油价	-9.54429
打出	-9.5446
呈现	-9.54475
股权	-9.54493
洪	-9.54528
速	-9.54543
私募	-9.54651
后来	-9.54701
汇	-9.54723
欧	-9.54888
东方	-9.5491
呼	-9.54944
刺激	-9.54953
谨慎	-9.54954
播出	-9.55048
LED	-9.55078
一块	-9.55094
贵	-9.55168
力度	-9.55201
复出	-9.55257
在线	-9.55313
赢得	-9.55319
无论	-9.55356
培训	-9.5536
暗	-9.55377
央视	-9.5538
召开	-9.55387
我觉得	-9.55449
参考价格	-9.55484
想要	-9.55547
多头	-9.55558
收盘	-9.55594
争	-9.55603
园	-9.5571
平时	-9.55758
虎	-9.55804
贴吧	-9.55827
图片	-9.55872
基本面	-9.55945
ch	-9.55999
息	-9.56019
加大	-9.56078
今年的	-9.56213
期货公司	-9.56224
▁编辑点评	-9.56244
笔者	-9.56248
精彩	-9.56251
经纪人	-9.56266
此后	-9.56447
47	-9.56559
曼	-9.56603
怀	-9.56608
运营	-9.56657
梁	-9.56674
▁2010	-9.56742
总体	-9.56744
强劲	-9.56845
回报	-9.5686
目前的	-9.56897
有机会	-9.5694
该剧	-9.56965
别人	-9.571
石油	-9.57121
ww	-9.57132
执行	-9.57133
回归	-9.57136
表明	-9.57182
在中国	-9.57345
20%	-9.57347
定位	-9.57358
火箭队	-9.57441
盖	-9.57512
印	-9.57565
收到	-9.57576
习惯	-9.57597
49	-9.57657
登	-9.57821
句	-9.57861
外观	-9.57979
摩托罗拉	-9.57985
律师	-9.57986
画面	-9.58027
具	-9.5804
分享	-9.58125
先后	-9.58168
▁M	-9.58192
队的	-9.58214
身边	-9.58245
官	-9.58273
异	-9.58283
2.0	-9.58316
▁to	-9.58328
份	-9.58339
概念	-9.58426
始终	-9.58426
医院	-9.58428
延续	-9.58433
亿份	-9.58469
总是	-9.58475
三大	-9.58478
色彩	-9.58529
主流	-9.58535
一天	-9.58574
官方	-9.58649
绝	-9.58696
根本	-9.58703
卫	-9.58711
▁G	-9.58713
后者	-9.58744
计	-9.58861
蒙	-9.58866
俊	-9.58868
环保	-9.58879
爱情	-9.5888
剧组	-9.5894
警方	-9.58974
编	-9.59189
霍	-9.59311
沪深	-9.59319
追求	-9.59326
刘翔	-9.59341
战略	-9.59346
的新	-9.5937
也没有	-9.59449
历	-9.59508
上网	-9.59537
丁	-9.59687
▁P	-9.59721
叶	-9.59725
挂	-9.59744
上演	-9.59764
热门	-9.59789
签约	-9.59801
涉及	-9.59856
为什么	-9.59882
棋手	-9.59891
各大	-9.59966
我想	-9.60117
地位	-9.60144
ic	-9.60153
披露	-9.60207
Windows	-9.60208
适应	-9.6022
播放	-9.60221
流动性	-9.60225
86	-9.60233
央行	-9.60237
影像	-9.60241
高端	-9.60499
位于	-9.60513
严	-9.60577
前往	-9.60636
类似	-9.60639
自由	-9.60642
娜	-9.60648
付	-9.60651
Android	-9.60658
目的	-9.60674
露	-9.60717
很快	-9.6073
小姐	-9.60739
出手	-9.6074
特色	-9.60748
盈利	-9.60841
散	-9.60867
私	-9.60903
目	-9.60928
44	-9.61016
佩	-9.61055
毛	-9.61095
金额	-9.61116
电池	-9.61118
接下来	-9.61203
结束后	-9.61254
的朋友	-9.6133
买入	-9.61338
的基金	-9.61354
贴	-9.6138
很有	-9.61382
身份	-9.6143
女人	-9.61473
39	-9.61474
主要是	-9.61539
优惠	-9.61545
熟悉	-9.61566
▁虽然	-9.61567
幅	-9.61588
高位	-9.61589
感谢	-9.61592
多次	-9.61646
数码	-9.61739
命	-9.61933
菜	-9.61981
往往	-9.62039
做到	-9.62085
可是	-9.62101
质	-9.62287
的投资	-9.6229
创作	-9.62335
3.5	-9.62379
不得不	-9.6239
试题	-9.62444
后期	-9.62459
在今年	-9.62462
有点	-9.62466
货币	-9.62504
分别为	-9.62508
认真	-9.62521
损失	-9.62525
成员	-9.62557
反应	-9.62569
学科	-9.6262
那个	-9.6268
期货市场	-9.62744
政	-9.62785
三分	-9.62789
举	-9.62838
他表示	-9.62862
引	-9.62875
85	-9.62932
刀	-9.6294
陆续	-9.62943
赛前	-9.62943
的发展	-9.62954
助攻	-9.62968
▁a	-9.62971
归	-9.6298
扮演	-9.62993
收益率	-9.63068
男子	-9.6309
上了	-9.63229
虽	-9.63383
嘉宾	-9.634
备	-9.63431
的球队	-9.63438
操作系统	-9.63472
引发	-9.63478
就能	-9.63547
日晚	-9.636
麦	-9.63609
65	-9.63693
周期	-9.63735
踢	-9.63741
52	-9.63764
把握	-9.63833
哪	-9.63839
▁2	-9.63856
抽	-9.6386
灯	-9.63868
波动	-9.63936
硕士	-9.63959
满意	-9.64017
哥	-9.64094
版本	-9.64144
艳	-9.64327
英特尔	-9.64333
主席	-9.64373
证实	-9.64379
精选	-9.64394
一段	-9.6441
教授	-9.64412
文件	-9.64419
另一方面	-9.64423
女友	-9.64431
遭	-9.64506
最后一	-9.64513
时期	-9.64571
外界	-9.64578
仅仅	-9.64614
股东	-9.64735
募集	-9.64769
守	-9.6477
理想	-9.64785
痛	-9.64794
激烈	-9.64804
批次	-9.64831
谈到	-9.64872
▁北京	-9.64877
56	-9.64878
像素	-9.64878
重视	-9.6488
1.5	-9.64939
▁作者	-9.65021
出演	-9.6509
摆	-9.65095
顺	-9.65123
出台	-9.65148
不想	-9.65149
参数	-9.65301
的大	-9.65343
网民	-9.65382
外援	-9.6542
多少	-9.65459
尚未	-9.65585
诚	-9.65673
实际上	-9.65687
斗	-9.65695
缺乏	-9.65749
规范	-9.65754
营销	-9.65757
质疑	-9.65757
科目	-9.65769
回来	-9.65771
传球	-9.65827
超级	-9.65866
58	-9.65897
特点	-9.6605
施	-9.66116
引起	-9.66153
z	-9.66212
辛	-9.66214
走出	-9.66226
护	-9.66229
发表评论	-9.66237
武汉	-9.66428
分数线	-9.66465
反映	-9.66498
900	-9.66526
左	-9.66528
ri	-9.66535
答	-9.66541
幕	-9.66678
暂时	-9.6668
诗	-9.66695
传感器	-9.66708
签证	-9.6672
试卷	-9.66736
博客	-9.6685
50%	-9.66902
伯	-9.6698
慢	-9.67167
采访	-9.67188
这场比赛	-9.67216
Q	-9.67231
引进	-9.67308
格局	-9.67308
末	-9.67413
姐	-9.67443
全新	-9.67474
30%	-9.67481
原来	-9.6754
2.5	-9.67603
财	-9.67621
制造	-9.67661
准考证	-9.67667
阿森纳	-9.6767
世锦赛	-9.67671
▁另外	-9.6773
上证	-9.67737
▁D	-9.67904
▁F	-9.67948
探	-9.67991
所在	-9.68026
甲	-9.68033
鹏	-9.68108
遗憾	-9.68116
致	-9.68121
集体	-9.68184
会有	-9.68185
内存	-9.68229
农产品	-9.68229
赢	-9.68278
今后	-9.68289
沟通	-9.68309
攻击	-9.68447
委员会	-9.68512
镜	-9.68531
境	-9.68533
短信	-9.68597
角度	-9.68609
铝	-9.68636
瓦	-9.68643
http	-9.68643
橡胶	-9.68643
沪铜	-9.68658
一线	-9.68686
150	-9.68805
还会	-9.68889
下调	-9.68912
传出	-9.68931
大盘	-9.68941
形势	-9.68951
在于	-9.6899
健	-9.69077
高速	-9.69107
投档	-9.69111
指标	-9.69135
es	-9.69195
容	-9.69242
置	-9.69243
▁5	-9.69243
声明	-9.6925
良好的	-9.69253
危机	-9.69273
告	-9.69314
爆发	-9.69377
小幅	-9.69404
江苏	-9.69418
在美国	-9.69599
搜索	-9.69626
辉	-9.69627
at	-9.6963
检查	-9.69632
稳健	-9.69633
的优势	-9.69639
利益	-9.69707
感情	-9.6973
0%	-9.69792
▁更多	-9.6983
这里	-9.69874
藏	-9.7006
矿	-9.70095
慈善	-9.70119
英雄	-9.70126
环节	-9.70135
专门	-9.70182
就可以	-9.70205
北京市	-9.70229
有限	-9.70282
73	-9.70287
各地	-9.70346
钟	-9.70514
郑	-9.70581
出色的	-9.70586
贷款	-9.70625
房地产	-9.70627
终端	-9.70631
确保	-9.70631
她们	-9.70684
已有	-9.70687
巨大	-9.70715
57	-9.70718
寻找	-9.70811
同期	-9.70849
打算	-9.70857
周二	-9.70877
更多信息	-9.70891
注	-9.70912
示	-9.70928
演唱	-9.7094
2012	-9.70982
拟	-9.7111
邓	-9.71117
CEO	-9.71119
USB	-9.71119
程序	-9.71121
的地方	-9.71196
保险公司	-9.71208
0.1	-9.71246
取消	-9.71249
不太	-9.71342
天气	-9.71402
右	-9.71439
取得了	-9.71443
重大	-9.71566
仓	-9.71673
琳	-9.71823
劲	-9.71916
扣	-9.7194
信托	-9.71954
计算机	-9.71982
误	-9.7205
▁而	-9.7206
记者从	-9.72109
宋	-9.72113
圣	-9.72114
怎样	-9.72123
作出	-9.7213
://	-9.72134
协	-9.72178
工具	-9.72188
数码相机	-9.72189
年龄	-9.72241
播	-9.72261
放在	-9.72325
万手	-9.72369
日下午	-9.72467
购	-9.72499
都要	-9.72511
女孩	-9.72573
债券基金	-9.72624
镇	-9.72633
新浪高考频道	-9.72634
特殊	-9.72642
总裁	-9.72647
一部	-9.72698
麦蒂	-9.72717
上调	-9.72794
访问	-9.72806
隆	-9.72962
庆	-9.73017
的工作	-9.73035
51	-9.73049
移	-9.73069
厚	-9.73089
年初	-9.73114
经理	-9.7314
覆盖	-9.73142
本身	-9.73189
怕	-9.73193
新基金	-9.73203
ISO	-9.73254
馆	-9.73263
原本	-9.73323
席	-9.73338
就有	-9.73344
输	-9.73362
生源	-9.73366
制定	-9.73449
05	-9.73465
场均	-9.73496
加分	-9.73525
太阳	-9.73553
最为	-9.73626
给了	-9.73642
摄影	-9.73647
凯尔特人	-9.73653
杭州	-9.73656
规划	-9.73658
暂停	-9.73664
增加了	-9.73667
参赛	-9.73678
球队的	-9.73726
智能手机	-9.7377
选拔	-9.73828
国安	-9.7395
秋	-9.74011
不同的	-9.74013
菲	-9.74062
就像	-9.74109
融资	-9.74168
南方	-9.74174
挺	-9.74177
总结	-9.74196
:1	-9.7433
一项	-9.74417
▁目前	-9.74478
通信	-9.7449
最高的	-9.7459
十年	-9.74591
广角	-9.74689
陷入	-9.74708
一路	-9.74713
豆粕	-9.74713
▁论坛	-9.74728
命中	-9.74758
年内	-9.74814
组成	-9.74829
高考信息	-9.7493
影视	-9.74955
遇到	-9.75001
剧中	-9.75123
练习	-9.75214
▁欢迎	-9.75245
的需求	-9.75319
英超	-9.75363
有一个	-9.75371
兴趣	-9.75423
载	-9.75461
▁刘	-9.75465
配备	-9.75593
发出	-9.75612
自身	-9.75646
青年	-9.75696
推广	-9.75765
大宗商品	-9.75809
但在	-9.75951
在香港	-9.75966
主力合约	-9.75999
心情	-9.76012
遇	-9.76022
带着	-9.76089
川	-9.76211
埃	-9.76228
清华	-9.76234
不可能	-9.76244
刘德华	-9.76257
态度	-9.76259
昨晚	-9.76264
详细	-9.76264
炒作	-9.7627
董事长	-9.76279
新人	-9.76317
》(	-9.76352
赛事	-9.76478
促销	-9.76489
大赛	-9.7651
不够	-9.76573
豪	-9.76585
招办	-9.76597
周一	-9.76616
封闭式基金	-9.76755
良好	-9.76777
插	-9.76787
安东尼	-9.7679
接触	-9.76807
给予	-9.76859
配备了	-9.76948
证书	-9.76949
商务	-9.76982
不用	-9.77096
化学	-9.77127
54	-9.77185
缓	-9.77279
钢铁	-9.77299
横	-9.77305
很好的	-9.77312
观察	-9.77322
男人	-9.77322
收费	-9.77345
进步	-9.77373
无论是	-9.77393
湖	-9.77485
低调	-9.77488
一段时间	-9.77518
总决赛	-9.77548
离婚	-9.77614
网上报名	-9.77701
互	-9.77761
也可以	-9.77808
木	-9.77812
敌	-9.7783
架	-9.77849
硬盘	-9.77872
族	-9.77893
用于	-9.7792
医	-9.7793
st	-9.77943
听力	-9.77997
在一起	-9.78045
表达	-9.78124
钢材	-9.78125
股票型基金	-9.78128
本届	-9.78137
刻	-9.78179
夏	-9.78219
能源	-9.7822
话题	-9.78311
抓	-9.78319
药	-9.78347
单反	-9.78391
专辑	-9.78443
梦想	-9.78471
好的	-9.78487
周三	-9.78507
入学	-9.78526
的产品	-9.78571
现代	-9.78734
背景	-9.78797
手段	-9.78817
门将	-9.78904
坏	-9.7892
欲	-9.78927
杰克逊	-9.78934
▁□	-9.78941
承诺	-9.78941
错误	-9.7895
严格	-9.78953
62	-9.78977
规则	-9.78978
面前	-9.78978
同比	-9.79002
格式	-9.79012
拍戏	-9.79045
对象	-9.79047
关心	-9.79062
120	-9.79084
发布的	-9.79205
通胀	-9.79268
一张	-9.79326
联通	-9.79332
脑	-9.79401
将是	-9.79426
0.5	-9.79435
希	-9.7944
逾	-9.79442
草	-9.79452
违规	-9.79475
减仓	-9.7949
另	-9.79498
曼城	-9.79501
机制	-9.79513
il	-9.79551
as	-9.796
研	-9.79604
也很	-9.79613
开盘	-9.79639
率先	-9.79705
显示屏	-9.79721
分辨率	-9.79725
企	-9.79852
胶	-9.79914
勒	-9.79964
对阵	-9.79971
的比赛中	-9.79983
▁8	-9.79988
洞	-9.80021
果	-9.80022
伦敦	-9.80025
副	-9.8003
这场	-9.80032
输入	-9.80065
Sa	-9.80085
全队	-9.80111
%;	-9.80158
的生活	-9.80165
各类	-9.80183
易方达	-9.8022
效率	-9.80223
图像	-9.80229
让我	-9.80257
性感	-9.80313
大学生	-9.80395
善	-9.80409
生物	-9.80443
弗	-9.80489
冠	-9.80492
豆油	-9.80538
脱	-9.80552
烟	-9.80572
哭	-9.80573
~	-9.80575
泽	-9.80575
老公	-9.80592
的要求	-9.80904
马上	-9.80953
▁10	-9.81079
陪	-9.81083
鼓励	-9.81125
服装	-9.81153
互动	-9.81156
不如	-9.81174
校长	-9.81243
仅有	-9.81299
重量	-9.81314
国足	-9.81348
理念	-9.81351
有很多	-9.81395
上半年	-9.81443
写作	-9.8154
72	-9.81555
1.1	-9.81559
届时	-9.81625
相同	-9.81655
赫	-9.81671
反而	-9.81679
中央	-9.8168
的感觉	-9.81683
登录	-9.81689
围	-9.81709
这也	-9.81717
两天	-9.8172
2005	-9.81796
成为了	-9.81801
任务	-9.81832
89	-9.81849
认	-9.81856
才是	-9.81908
都很	-9.81983
供	-9.82015
为此	-9.82069
41	-9.82124
语文	-9.8216
街	-9.82195
连胜	-9.82282
下半场	-9.82319
名校	-9.8234
5%。	-9.82512
▁近日	-9.82526
来了	-9.82573
高兴	-9.82708
抱	-9.82726
360	-9.82754
临	-9.82757
男篮	-9.82758
起了	-9.82765
筹	-9.82777
岛	-9.82788
锌	-9.82788
广大	-9.828
赵本山	-9.82805
债基	-9.82831
尺寸	-9.8286
抗	-9.82866
比赛的	-9.82934
手术	-9.82938
87	-9.83039
于是	-9.83074
效	-9.83124
350	-9.83163
ed	-9.83163
敏	-9.83215
67	-9.83259
基于	-9.83266
阿根廷	-9.83266
惠	-9.83328
场景	-9.8335
戈	-9.83358
车队	-9.83361
君	-9.83365
嘴	-9.83366
例如	-9.83399
雅思	-9.83428
1%	-9.83439
强烈	-9.83475
了很多	-9.83496
前景	-9.835
▁H	-9.83538
82	-9.8355
一个月	-9.83562
▁2009	-9.83578
4%	-9.83588
▁由于	-9.83611
淡	-9.83634
78	-9.83659
响	-9.8371
做了	-9.83737
▁佳能	-9.83751
星期	-9.83779
休	-9.83826
推出的	-9.83857
打得	-9.83866
92	-9.83869
个股	-9.83877
▁尼康	-9.83922
腿	-9.83934
阅卷	-9.83935
印象	-9.83939
在上海	-9.83947
命题	-9.83968
是不是	-9.83969
性的	-9.84084
简	-9.84191
饰演	-9.84216
业内人士	-9.84234
ra	-9.84256
大多数	-9.84263
出售	-9.8427
意见	-9.843
缺	-9.84356
检	-9.84452
个交易日	-9.84503
550	-9.84509
医生	-9.84566
1.2	-9.8457
直到	-9.84585
的位置	-9.84643
59	-9.84661
法院	-9.8468
女性	-9.84687
PC	-9.84688
一条	-9.84717
打了	-9.84737
展示	-9.8475
篇	-9.84762
面向	-9.84789
推出了	-9.84824
地说	-9.84863
感受	-9.84877
日报	-9.8492
出版	-9.84929
此时	-9.84983
顾	-9.85002
童	-9.85018
拼	-9.85065
洗	-9.85067
雄	-9.85067
甘	-9.85081
俄罗斯	-9.85082
完善	-9.85098
运作	-9.85123
争取	-9.85168
事实上	-9.85185
NT	-9.85229
多家	-9.85261
其余	-9.85329
▁尽管	-9.85396
仅为	-9.85438
拍照	-9.85483
快乐	-9.85533
总分	-9.85587
树	-9.85631
后市	-9.85674
掘金	-9.85676
巨	-9.85718
我也	-9.8577
短期内	-9.85781
答题	-9.85794
往年	-9.85811
学费	-9.85822
商品市场	-9.85835
一部分	-9.85865
据了解	-9.85879
69	-9.85922
下载	-9.85954
年代	-9.86039
场上	-9.86041
2.8	-9.86071
划	-9.86103
马刺	-9.86189
64	-9.86204
伤病	-9.86208
饭	-9.86216
爸爸	-9.8624
个百分点	-9.86241
节奏	-9.86245
卫视	-9.86257
显	-9.8628
接到	-9.8631
的事	-9.86327
应对	-9.86356
三季度	-9.86386
中锋	-9.864
仪式	-9.86403
队伍	-9.86416
就要	-9.86445
细	-9.8649
很多人	-9.86503
季度	-9.86556
期价	-9.86633
业内	-9.86676
荷兰	-9.86713
二人	-9.86722
自考	-9.86763
的重要	-9.86773
金牌	-9.86777
各个	-9.8678
帕	-9.8678
纸	-9.86782
寸	-9.86796
卡特	-9.8682
晋级	-9.86821
▁T	-9.86918
考虑到	-9.86939
打击	-9.86945
▁6	-9.87055
到底	-9.87063
万股	-9.87166
模	-9.87185
女星	-9.872
性价比	-9.8726
账	-9.87365
妇	-9.87367
贾	-9.87411
丁俊晖	-9.87415
活跃	-9.8742
赵薇	-9.87424
据香港媒体	-9.87446
el	-9.87453
处罚	-9.87455
国际米兰	-9.8749
一直在	-9.8753
治	-9.87532
充满	-9.87535
都能	-9.87547
更有	-9.87571
测	-9.87601
180	-9.8775
块	-9.87768
也要	-9.87811
重要的	-9.87811
分配	-9.87852
他还	-9.87855
可谓	-9.87889
航	-9.87958
乔	-9.8796
考查	-9.87977
些	-9.87993
CBA	-9.88005
威胁	-9.88005
农村	-9.88018
妻子	-9.88037
他是	-9.88067
传奇	-9.88103
灵活	-9.88111
上半场	-9.88151
公布了	-9.88177
厂	-9.88191
止	-9.88209
准确	-9.88289
更好的	-9.88342
的小	-9.88343
上市公司	-9.88348
发表	-9.88351
舞台	-9.88363
中国电信	-9.88384
挑	-9.8845
身份证	-9.88469
一系列	-9.88484
年来	-9.88572
偶像	-9.88584
赞	-9.88587
地址	-9.88597
分为	-9.88598
章子怡	-9.88598
与此同时	-9.886
谢霆锋	-9.88624
运动员	-9.88632
印度	-9.88638
成交量	-9.88669
棉	-9.88708
发布会	-9.88808
一定的	-9.88824
提交	-9.88833
将继续	-9.88933
不了	-9.88937
代言	-9.88986
一边	-9.89045
欢	-9.89136
理由	-9.89193
▁陈	-9.89206
走高	-9.8921
河南	-9.89223
会员	-9.89305
人民	-9.89334
月初	-9.89353
队长	-9.89425
MB	-9.8945
当日	-9.89467
设立	-9.89482
110	-9.89493
背后	-9.89541
基金的	-9.89554
码	-9.89602
▁W	-9.89613
没能	-9.89672
半年	-9.89691
8%	-9.8971
食	-9.8972
搞	-9.89747
跃	-9.89786
战绩	-9.8981
消	-9.89876
保罗	-9.899
欢迎	-9.89909
可能是	-9.89935
大跌	-9.90101
83	-9.90113
批准	-9.90117
下半年	-9.90177
新高	-9.90197
球星	-9.90204
占据	-9.90215
似	-9.90219
地点	-9.90263
逼	-9.90267
▁昨天	-9.90291
赚	-9.90381
猛	-9.90384
演绎	-9.90408
嘉实	-9.90438
单独	-9.90476
转换	-9.90483
2.7	-9.90513
棒	-9.90518
延	-9.9053
时间为	-9.90561
丝	-9.9059
打进	-9.90594
娱乐圈	-9.90604
外语	-9.90664
很可能	-9.90689
时候	-9.90724
寻	-9.90769
亲自	-9.90788
分手	-9.90846
也能	-9.90928
莉	-9.91004
罪	-9.91014
清楚	-9.91015
考察	-9.9102
动态	-9.91033
的可能性	-9.91035
增持	-9.91035
疑	-9.91067
行政	-9.91074
梅西	-9.91081
98	-9.91083
都不	-9.91092
公司的	-9.91171
本月	-9.91193
事实	-9.91199
▁上海	-9.91207
高考成绩	-9.91283
▁索尼	-9.91292
收视	-9.91381
素	-9.91402
3%	-9.91467
执	-9.91503
糖价	-9.91507
灾	-9.91551
治疗	-9.91619
是一款	-9.91626
还可以	-9.91628
记忆	-9.91636
的状态	-9.91642
会上	-9.91679
交通	-9.91691
流行	-9.91761
白色	-9.91765
学术	-9.91788
你的	-9.91793
的目标	-9.91847
的态度	-9.91849
不错的	-9.91866
夏天	-9.9194
奇才	-9.92062
收于	-9.92112
丰富	-9.92126
绿	-9.92169
另一个	-9.92201
曹	-9.92221
资本	-9.92234
舞蹈	-9.92238
还能	-9.92245
估计	-9.92252
暂	-9.92253
不满	-9.92254
类型	-9.92288
收获	-9.92316
两名	-9.92407
0.9	-9.92422
53	-9.92548
首轮	-9.9266
个性	-9.92742
心态	-9.92767
3.0	-9.92772
th	-9.92831
都没有	-9.92831
为何	-9.92845
一个人	-9.92845
竟	-9.92851
犯	-9.92861
IXUS	-9.9287
澳洲	-9.92871
十足	-9.92902
高职	-9.92931
工业	-9.93047
研发	-9.93084
在内的	-9.93136
高层	-9.93233
明天	-9.93309
出战	-9.93429
村	-9.93478
吕	-9.93487
复杂	-9.93495
体现	-9.93498
雅虎	-9.93507
谈判	-9.93512
执教	-9.93516
到期	-9.93525
释放	-9.93531
打破	-9.93642
学生的	-9.93656
缘	-9.93693
0.7	-9.93756
忘	-9.93774
味	-9.93783
对抗	-9.93792
美分	-9.938
传言	-9.93859
债券型基金	-9.93881
9%	-9.93922
旗	-9.94019
姚	-9.94086
OU	-9.94087
大会	-9.94126
的主要	-9.94134
减产	-9.94152
信号	-9.94205
通常	-9.94217
0.8	-9.94254
意味着	-9.94285
提到	-9.94289
退出	-9.94316
夺得	-9.94348
议	-9.94386
局面	-9.9444
此事	-9.94447
思想	-9.94477
广西	-9.94515
热情	-9.94539
掌	-9.94541
考生的	-9.94543
拖	-9.94722
卢	-9.94724
贸易	-9.9474
直播	-9.94755
彻底	-9.94763
储备	-9.94765
券商	-9.94765
优先	-9.94806
销量	-9.94816
SD	-9.94818
投篮	-9.94844
07	-9.94952
2.4	-9.94959
其它	-9.94996
下去	-9.95071
凭	-9.9526
0.3	-9.95284
沃	-9.95328
兴奋	-9.9539
承担	-9.95391
桑	-9.95393
燕	-9.95393
第一个	-9.95399
选择了	-9.95461
1.6	-9.95507
建筑	-9.9555
而不是	-9.95623
每次	-9.9563
周四	-9.95648
豆	-9.95651
积	-9.95669
陆	-9.95744
谷	-9.95749
将成为	-9.95752
最新的	-9.95776
暴	-9.95776
土	-9.95889
即可	-9.95931
▁已有	-9.95931
▁and	-9.9597
合格	-9.96015
HTC	-9.96036
阿泰斯特	-9.96037
自从	-9.96046
平衡	-9.9605
爆料	-9.96054
尽快	-9.96085
小麦	-9.96093
云南	-9.9611
两大	-9.96113
近年来	-9.96119
现在的	-9.96197
-5	-9.96338
降至	-9.96427
这项	-9.96434
厅	-9.96447
较高	-9.96463
弹	-9.96522
以为	-9.96606
稍	-9.96653
晨	-9.96667
喝	-9.96672
洛杉矶	-9.96679
一本	-9.96724
手续	-9.96736
西部	-9.96751
思路	-9.96754
观看	-9.96786
高级	-9.96885
79	-9.96904
生日	-9.96959
0.6	-9.97018
创下	-9.97136
地震	-9.97211
这对	-9.97218
对比	-9.97244
肉	-9.97322
弱势	-9.97344
依据	-9.97347
上看	-9.97348
无奈	-9.9735
兄弟	-9.97354
湖人队	-9.97373
▁2.	-9.97378
腾讯	-9.97379
国王	-9.97399
及其	-9.97425
布朗	-9.975
手中	-9.97504
日上午	-9.97555
硬	-9.97555
上映	-9.97616
中期	-9.97624
述	-9.97665
一季度	-9.97719
▁中国	-9.97739
▁in	-9.9776
性格	-9.97828
小组	-9.97848
春节	-9.97885
两种	-9.97915
孔	-9.97923
2%	-9.97946
搭载了	-9.97971
我会	-9.97984
鞋	-9.97984
争议	-9.97991
欧冠	-9.97992
职业生涯	-9.97994
竟然	-9.97998
的压力	-9.98005
辅导	-9.98005
失望	-9.98015
会在	-9.98172
公募基金	-9.98232
射门	-9.98299
不但	-9.98415
整理	-9.98421
热点	-9.98432
总监	-9.98466
早已	-9.98504
冒	-9.98609
凤	-9.98638
▁中新网	-9.98642
搭载	-9.98662
域名	-9.98671
HD	-9.98675
站在	-9.98757
当地时间	-9.98777
▁f	-9.98783
转型	-9.98784
3%,	-9.98851
成龙	-9.9887
对焦	-9.98881
外线	-9.98888
他也	-9.9889
层次	-9.98901
股市场	-9.98904
ly	-9.98919
人选	-9.98944
的训练	-9.98961
情感	-9.99003
英格兰	-9.99028
环	-9.99082
多种	-9.99083
理财产品	-9.99104
捧	-9.99168
最多	-9.99178
艾	-9.99226
公益	-9.99273
粉	-9.99277
恐	-9.99296
0.4	-9.99312
公众	-9.99315
民族	-9.99321
半决赛	-9.99337
身材	-9.99346
录制	-9.9935
万桶	-9.99355
务	-9.99363
校园	-9.99393
了不少	-9.99415
盘中	-9.99444
一枚	-9.9945
的内容	-9.9945
一是	-9.99456
新品	-9.99458
保留	-9.99491
男生	-9.99493
▁听歌	-9.99506
一半	-9.99607
战术	-9.99714
ro	-9.9976
回升	-9.99784
1.8	-9.99784
之下	-9.99869
ad	-9.99872
丰	-9.99913
发布了	-9.99936
很少	-10.0002
大家都	-10.0004
触	-10.0005
恋情	-10.0013
留学生	-10.002
华夏基金	-10.0022
带来的	-10.0022
焦	-10.0023
te	-10.0024
打球	-10.0028
二是	-10.0031
键盘	-10.0033
采	-10.0039
透	-10.0039
分别是	-10.004
主演	-10.004
判	-10.0041
ut	-10.0042
让我们	-10.0049
生命	-10.0049
2%。	-10.005
真是	-10.005
摩	-10.0058
禁区	-10.006
洁	-10.0061
2004	-10.0062
74	-10.0063
婚姻	-10.0064
祝福	-10.0065
开拓者	-10.0065
尊重	-10.0066
大涨	-10.0067
2.2	-10.0083
这部	-10.0084
给他	-10.0091
现金	-10.0097
1.4	-10.0099
发放	-10.0103
朗	-10.0108
2.3	-10.0114
▁报价	-10.0114
马克	-10.0121
77	-10.0125
饰	-10.0127
郎	-10.0129
奔	-10.013
朝	-10.013
斌	-10.0131
澳门	-10.0134
修改	-10.0135
跌破	-10.0142
超越	-10.0144
一方面	-10.0145
更好	-10.0148
720	-10.0149
比分	-10.0157
很大的	-10.0162
1.3	-10.0165
小学	-10.0166
爱心	-10.0174
过来	-10.0174
秒时	-10.0177
认可	-10.0182
锋	-10.0188
耳	-10.0197
效力	-10.0197
旁	-10.0198
素质	-10.0198
凌	-10.0199
忧	-10.0199
搭档	-10.0201
韦德	-10.0202
考生可	-10.0203
促进	-10.0204
备战	-10.0206
美丽	-10.0209
推进	-10.0211
2%,	-10.0223
第二次	-10.0225
5%,	-10.0227
无疑	-10.0228
一代	-10.0228
一套	-10.023
开通	-10.023
91	-10.0231
留在	-10.0238
运用	-10.0238
本市	-10.0247
侧	-10.0247
愿	-10.025
得知	-10.025
曾在	-10.0256
上扬	-10.0258
美术	-10.0268
生涯	-10.0268
冯	-10.0268
技巧	-10.0268
教材	-10.027
考生在	-10.0271
可惜	-10.0272
改善	-10.0273
大战	-10.0275
这两	-10.0285
CCD	-10.0286
月以来	-10.0327
庄	-10.0337
低迷	-10.0343
变得	-10.035
迎来	-10.0352
▁L	-10.0352
附	-10.0357
春晚	-10.0357
84	-10.0358
71	-10.036
应该是	-10.0379
我是	-10.0385
不管	-10.0389
材	-10.0391
大小	-10.04
撞	-10.0403
骨	-10.0404
扎	-10.0405
船	-10.0405
疯狂	-10.0406
兹	-10.0406
秦	-10.0406
扩展	-10.0407
供需	-10.0407
密码	-10.0407
老鹰	-10.0408
填报志愿	-10.0408
复试	-10.0408
1.7	-10.0413
不久	-10.0417
拍卖	-10.0417
国奥	-10.0423
区间	-10.0426
小将	-10.0427
女士	-10.043
中国的	-10.0431
惠普	-10.0431
四个	-10.0434
4%,	-10.0436
▁2011	-10.0439
名为	-10.0441
▁p	-10.0444
▁9	-10.0452
适当	-10.0455
专户	-10.0464
涉	-10.0466
在此	-10.0467
几天	-10.0468
题材	-10.0469
参	-10.0472
床	-10.0476
第一时间	-10.0477
触控	-10.0477
青岛	-10.0478
尼克斯	-10.0478
尽量	-10.0485
从事	-10.0486
写真	-10.0487
的照片	-10.0488
构成	-10.0491
红色	-10.0491
大约	-10.0494
气质	-10.0496
东西	-10.0518
正面	-10.052
文字	-10.053
湖北	-10.053
累	-10.054
它的	-10.0541
油脂	-10.0542
浮	-10.0544
弄	-10.0547
骗	-10.0547
潘	-10.0547
猜测	-10.0547
考核	-10.055
纪念	-10.055
永远	-10.0551
有利于	-10.0553
学历	-10.0562
铜价	-10.0564
一事	-10.0568
is	-10.0572
美女	-10.0574
高点	-10.0579
晚会	-10.0581
▁文	-10.0587
并在	-10.0587
之所以	-10.0592
司	-10.0608
野	-10.0609
铁矿石	-10.0611
例	-10.0611
立即	-10.0612
珠	-10.0612
今	-10.0614
剑	-10.0617
乘	-10.0617
实践	-10.0618
穆里尼奥	-10.0618
宫	-10.0618
葡萄牙	-10.0618
螺纹钢	-10.0618
▁1.	-10.0618
▁12	-10.062
允许	-10.0621
所有的	-10.0624
卖出	-10.0624
注重	-10.0628
ol	-10.0629
资讯	-10.0629
一定会	-10.063
实用	-10.0635
较低	-10.064
对外	-10.0645
的作用	-10.0645
大多	-10.0647
et	-10.0648
空头	-10.0652
见面	-10.0664
各自	-10.067
年轻人	-10.0671
约为	-10.0672
lo	-10.0674
震	-10.0678
剧本	-10.0682
仔	-10.0685
甜	-10.0685
侠	-10.0687
鱼	-10.0688
珍	-10.0688
富士	-10.0688
骂	-10.0689
庆祝	-10.069
态势	-10.069
轻薄	-10.069
青少年	-10.0693
放松	-10.0695
工艺	-10.0697
红利	-10.0712
的第一	-10.0714
打开	-10.0718
的手机	-10.0719
历史上	-10.0722
乡	-10.0723
第三节	-10.0738
薪	-10.0739
隔	-10.0744
的防守	-10.0746
经历了	-10.0749
举行的	-10.0757
振	-10.0759
金融危机	-10.076
仁	-10.0761
党	-10.0761
高度	-10.0761
浩	-10.0762
塑料	-10.0762
嫁	-10.0763
不知	-10.0765
320	-10.0775
它们	-10.0776
感动	-10.0776
的关系	-10.0781
仍有	-10.0785
本报	-10.0787
益	-10.0788
诉	-10.079
说道	-10.0793
02	-10.0803
外盘	-10.0809
将来	-10.0816
▁11	-10.0819
身高	-10.0822
入选	-10.0825
同时也	-10.0827
斯科拉	-10.0827
涛	-10.0828
毒	-10.0829
弃	-10.0831
绯闻	-10.0832
吻	-10.0833
宗	-10.0834
高洪波	-10.0834
携带	-10.0835
失败	-10.0837
持仓量	-10.084
照顾	-10.0844
6000	-10.0853
较大的	-10.0858
社	-10.0876
笔试	-10.0878
仍将	-10.0879
多年	-10.0881
97	-10.0882
福建	-10.0892
篮下	-10.0894
强大的	-10.0895
3%。	-10.0896
低价	-10.0898
桶	-10.0898
丢	-10.0899
等等	-10.0903
谱	-10.0906
穆	-10.0906
彭	-10.0907
经销商	-10.0907
颜色	-10.0908
潜力	-10.0909
首席	-10.091
暴跌	-10.0912
同比增长	-10.0916
回调	-10.0918
是一种	-10.0921
ll	-10.0929
一人	-10.0931
尤其	-10.0935
编辑	-10.0942
全新的	-10.0945
我就	-10.0945
我认为	-10.0946
日常	-10.095
都将	-10.0954
籍	-10.0955
这一点	-10.0956
还没	-10.0958
松下	-10.0959
不变	-10.0959
腰	-10.0962
固	-10.0974
祖	-10.0975
肖	-10.0979
沈	-10.0979
睡	-10.098
监督	-10.098
玲	-10.098
平板电脑	-10.098
缺席	-10.0981
体检	-10.0982
考验	-10.0983
客观	-10.0987
不敢	-10.0991
深入	-10.0996
市值	-10.1002
淘宝	-10.1003
建仓	-10.1005
点评	-10.1009
但我	-10.1016
网游	-10.1019
担忧	-10.1021
的数据	-10.1022
所谓	-10.1022
物理	-10.1025
基地	-10.1031
同意	-10.1039
达成	-10.1043
下面	-10.1044
业界	-10.1046
新股	-10.1048
好好	-10.1052
团购	-10.1052
慧	-10.1053
足够	-10.1054
月中旬	-10.1054
煤炭	-10.1054
ThinkPad	-10.1054
公斤	-10.1055
8%,	-10.1055
GHz	-10.1056
也表示	-10.1056
逆转	-10.1057
临时	-10.106
理论	-10.1061
特征	-10.1062
大陆	-10.1063
亚军	-10.1065
巨大的	-10.1066
独家	-10.1069
再加上	-10.1069
模特	-10.1074
试点	-10.1075
在剧中	-10.1077
欧元	-10.1081
金价	-10.109
斯特	-10.1103
家基金公司	-10.1107
完整	-10.111
第五	-10.1115
频	-10.1117
营	-10.112
怪	-10.1121
骑士	-10.1121
枪	-10.1123
抵	-10.1125
1.9	-10.1128
喊	-10.1129
约翰逊	-10.1129
独立显卡	-10.1129
克里斯	-10.1129
案件	-10.1132
号码	-10.1133
奖项	-10.1134
多个	-10.1142
心里	-10.1144
全线	-10.1146
信任	-10.1147
营收	-10.1151
带来了	-10.1162
他认为	-10.1167
自我	-10.1167
按键	-10.1171
熟	-10.1186
截止	-10.1188
晶	-10.1189
却是	-10.119
加速	-10.1192
当晚	-10.1193
公牛	-10.12
个赛季	-10.1201
寄	-10.1203
逃	-10.1204
俩	-10.1204
据国外媒体报道	-10.1204
登陆	-10.1204
三位	-10.1205
神秘	-10.1205
产品的	-10.1206
调控	-10.1206
汇率	-10.1209
平稳	-10.1211
清华大学	-10.1212
上周五	-10.1212
罗斯	-10.1214
▁I	-10.1218
作者	-10.122
2.1	-10.1237
上午	-10.124
了自己的	-10.1241
手感	-10.1247
4.5	-10.1253
1200	-10.1255
450	-10.126
时机	-10.1265
续约	-10.1267
一只	-10.1274
仪	-10.1276
伴	-10.1276
也不会	-10.1276
鼎	-10.128
侯	-10.128
岩	-10.128
欣赏	-10.128
依靠	-10.1281
沪胶	-10.1281
儿童	-10.1282
加息	-10.1286
代理	-10.1287
整机	-10.1288
全省	-10.1303
一批	-10.1305
4%。	-10.1314
6%。	-10.1318
过后	-10.1319
▁be	-10.1328
下游	-10.1337
礼物	-10.1338
冬	-10.1348
猫	-10.1349
3.3	-10.135
软	-10.135
阳光	-10.1353
耗	-10.1355
公务员	-10.1356
审核	-10.1357
跟踪	-10.1357
iPad	-10.1358
可爱	-10.1361
第二节	-10.1364
银华	-10.1366
听到	-10.1371
鲁能	-10.1376
千万	-10.1379
的角色	-10.1395
参加了	-10.1395
颇	-10.1402
等人	-10.1402
竞	-10.1403
un	-10.1411
大连	-10.1416
LG	-10.1418
大大	-10.1419
的关键	-10.1423
▁除了	-10.1424
患	-10.1428
MP	-10.1429
酷睿	-10.1433
CMOS	-10.1433
农业	-10.1434
缓解	-10.1435
电子商务	-10.1435
惊喜	-10.1435
立刻	-10.1435
华硕	-10.1435
公共	-10.144
进展	-10.1443
算是	-10.1449
幸	-10.1454
存储	-10.146
的东西	-10.1461
画质	-10.1465
这份	-10.1471
信用	-10.1473
其次	-10.1474
96	-10.1479
一支	-10.1479
▁E	-10.1485
新秀	-10.1487
强化	-10.1489
看起来	-10.1489
肯	-10.1491
呈	-10.1492
60%	-10.1493
场面	-10.1495
时刻	-10.1496
姜	-10.1499
赌	-10.1504
实验	-10.1505
2.6	-10.1508
倍光学变焦	-10.1509
欣	-10.1509
桥	-10.151
邓华德	-10.1511
交割	-10.1512
万户	-10.1512
绿色	-10.1512
普通高中	-10.1515
1.0	-10.1515
这一次	-10.1515
诸多	-10.1516
零售	-10.152
想象	-10.1526
小孩	-10.1526
高出	-10.1527
专业的	-10.1532
随时	-10.154
的最新	-10.1542
同一	-10.1557
是为了	-10.1561
公平	-10.1563
以外	-10.1565
统考	-10.1569
给我	-10.1571
返	-10.1574
决	-10.1581
999	-10.1583
育	-10.1583
上下	-10.1584
懂	-10.1585
裙	-10.1587
袋	-10.1588
值得一提的是	-10.1589
锦标赛	-10.1589
HDMI	-10.1589
旗舰	-10.1589
芳	-10.1589
流畅	-10.159
湖南	-10.1591
▁⊙	-10.1591
减持	-10.1591
思维	-10.1594
反击	-10.1594
本土	-10.1595
艺术类	-10.1596
1500	-10.1604
保本基金	-10.1609
淘汰	-10.1613
评委	-10.1614
总数	-10.1616
备考	-10.1644
81	-10.1646
焦点	-10.165
北京时间	-10.1661
恶	-10.1662
可见	-10.1662
变成	-10.1665
锐	-10.1666
炮	-10.1667
啦	-10.1668
秘密	-10.1668
硕士研究生	-10.167
否则	-10.1671
顶级	-10.1674
联系方式	-10.1674
95	-10.1675
是什么	-10.1676
早前	-10.1689
早在	-10.1689
7%,	-10.1695
才会	-10.1696
申请人	-10.1696
来源	-10.1707
之前的	-10.1716
▁is	-10.1718
下行	-10.1725
94	-10.1727
9%,	-10.1728
的故事	-10.1735
名额	-10.1735
充	-10.174
搭	-10.1741
泪	-10.1743
寒	-10.1744
采购	-10.1748
效应	-10.1748
材质	-10.1748
检测	-10.1748
创业	-10.1751
周五	-10.1751
今晚	-10.1754
影响力	-10.1757
布局	-10.1759
变动	-10.1764
资产管理	-10.1764
在这	-10.1769
一件	-10.1775
通讯	-10.1779
涨停	-10.1782
的设计	-10.1789
的进攻	-10.1791
邮	-10.1793
开场	-10.1803
6.5	-10.1813
填	-10.1816
两队	-10.1816
沈阳	-10.1816
新疆	-10.1819
洲	-10.1822
04	-10.1823
统计显示	-10.1823
闹	-10.1824
均为	-10.1825
价位	-10.1826
怡	-10.1827
矛盾	-10.1827
怀孕	-10.1827
"	-10.1827
奖学金	-10.1827
财务	-10.1827
出版社	-10.1828
增仓	-10.1829
夫妇	-10.1829
国庆	-10.1833
总额	-10.1833
环比	-10.1834
核	-10.1843
点击	-10.1845
总冠军	-10.1848
行业的	-10.185
指定	-10.1856
从未	-10.186
回家	-10.1861
由此	-10.1864
或是	-10.1869
基本上	-10.1887
里面	-10.1888
。”(	-10.1898
ST	-10.19
并将	-10.1902
亏	-10.1906
租	-10.1907
摸	-10.1907
偷	-10.1907
7%	-10.1907
蔡	-10.1908
黑龙江	-10.1908
赛车	-10.1909
封基	-10.191
填写	-10.191
初步	-10.1911
在网上	-10.1914
带领	-10.1916
ent	-10.1916
破门	-10.1917
有没有	-10.1919
▁作为	-10.1919
63	-10.192
给出	-10.192
积分	-10.1926
世纪	-10.1934
觉	-10.1936
纳入	-10.1947
出去	-10.1952
般	-10.1953
意识	-10.1955
但由于	-10.1955
最多的	-10.1956
us	-10.1961
全文	-10.1968
穿着	-10.1976
DC	-10.1981
刊	-10.1981
se	-10.1982
腾	-10.1983
牵	-10.1983
个别	-10.1984
在国内	-10.1984
暖	-10.1984
愈	-10.1987
稿	-10.1987
辽宁	-10.1987
搬	-10.1989
j	-10.1989
糟糕	-10.1989
芯片	-10.199
优质	-10.199
官员	-10.1991
赛场	-10.1992
亚洲杯	-10.1993
▁本报记者	-10.1994
的最大	-10.1997
喜爱	-10.1998
财政	-10.2
到场	-10.2002
喜剧	-10.2002
阿尔	-10.2005
本地	-10.2006
自信	-10.2009
利空	-10.2012
如下	-10.2014
遍	-10.2017
型基金	-10.2017
的专业	-10.2022
▁新	-10.2023
相当于	-10.2023
闻	-10.2026
鸿	-10.2029
一步	-10.203
中文	-10.2033
盈	-10.2036
利好	-10.204
见到	-10.2047
最重要的	-10.2048
下了	-10.2059
出生	-10.2059
女主角	-10.2061
占比	-10.2062
有什么	-10.2062
牛市	-10.2063
朴	-10.2064
家里	-10.2066
刑	-10.2067
拜	-10.2069
魏	-10.2071
陶	-10.2071
丈夫	-10.2071
▁随着	-10.2077
获取	-10.2077
投诉	-10.2078
仍是	-10.2081
1%。	-10.2081
可以说	-10.2082
便携	-10.2083
不利	-10.2087
▁s	-10.2096
偏股型基金	-10.2098
7000	-10.21
颖	-10.2102
新版	-10.2105
走强	-10.2106
后面	-10.2113
机器	-10.2113
连败	-10.2114
前场	-10.2123
初中	-10.2128
本轮	-10.2131
中国足球	-10.2132
7%。	-10.2135
坚	-10.2139
又是	-10.214
北京大学	-10.2144
薄	-10.2145
提问	-10.2147
在这里	-10.215
粮	-10.2152
开局	-10.2153
托雷斯	-10.2154
安徽	-10.2154
里的	-10.2154
认购	-10.2154
模拟	-10.2154
高等教育	-10.2155
PTA	-10.2156
停止	-10.2157
火爆	-10.2157
必然	-10.2158
灾区	-10.2159
周末	-10.2159
临近	-10.2161
个小时	-10.2162
足以	-10.2163
me	-10.2171
93	-10.2174
最后的	-10.2176
ur	-10.2177
”(	-10.2186
SL	-10.2189
全年	-10.2191
上线	-10.2199
250	-10.2213
id	-10.2217
针	-10.222
适	-10.2221
走向	-10.2224
翼	-10.223
将球	-10.2234
0.2	-10.2235
QFII	-10.2237
阿里扎	-10.2237
补充	-10.2238
大纲	-10.2239
相似	-10.224
PVC	-10.224
的名字	-10.2243
定制	-10.2245
传播	-10.2245
返回	-10.2247
多了	-10.225
象	-10.2251
如果你	-10.2255
地产	-10.2256
型号	-10.2264
有一些	-10.2265
过于	-10.2268
发生了	-10.2275
说到	-10.2278
、1	-10.2282
私人	-10.2282
自主	-10.2286
▁日前	-10.2287
▁R	-10.2289
俗	-10.229
害	-10.2297
这类	-10.2299
▁c	-10.2301
巧	-10.2303
申	-10.2306
高分	-10.2306
磊	-10.2308
正确	-10.2315
混	-10.2316
邦	-10.2319
在场上	-10.2319
东莞	-10.2321
～	-10.2321
频频	-10.2321
沿	-10.2321
词汇	-10.2323
官网	-10.2323
异常	-10.2323
3.2	-10.2324
两个月	-10.2328
市民	-10.233
登场	-10.2333
一片	-10.2337
战争	-10.2337
山西	-10.2338
出来的	-10.234
优秀的	-10.2341
完成了	-10.2347
予以	-10.2347
预估	-10.2351
太大	-10.2352
中国联通	-10.2352
出发	-10.2353
超出	-10.236
3.1	-10.236
000	-10.2362
的电影	-10.2363
公开赛	-10.237
取胜	-10.2372
希望能	-10.2376
ter	-10.2382
5.6	-10.2387
上行	-10.2397
明白	-10.2397
进了	-10.24
沉	-10.24
鼓	-10.2404
VGA	-10.2405
多名	-10.2405
猜	-10.2405
Facebook	-10.2405
医药	-10.2406
的基础上	-10.2407
批评	-10.2408
期望	-10.2414
皮球	-10.2418
一场比赛	-10.2419
思考	-10.242
看着	-10.2423
子女	-10.2426
保本	-10.2427
也被	-10.2427
分辨率为	-10.2429
当初	-10.2429
受到了	-10.243
国米	-10.2434
念	-10.244
抛	-10.2442
长焦	-10.2443
增幅	-10.2452
现货市场	-10.2464
可以在	-10.2476
添	-10.2482
甚	-10.2483
高尔夫	-10.2484
遗	-10.2489
之内	-10.2489
吹	-10.249
毅	-10.2491
突	-10.2491
退役	-10.2492
8%。	-10.2493
幸运	-10.2494
万像素的	-10.2494
信用卡	-10.2496
戴尔	-10.2498
收报	-10.2499
每一个	-10.2501
199	-10.2507
加快	-10.2513
哈维	-10.2518
百万	-10.2518
06	-10.2524
邀	-10.2532
选项	-10.2542
在接受	-10.2542
拉开	-10.2552
坐在	-10.2554
反对	-10.2555
但这	-10.2557
相应	-10.2564
董	-10.2569
皇	-10.2572
芯	-10.2574
持平	-10.2574
▁三星	-10.2574
爵士	-10.2577
夫妻	-10.2578
粮食	-10.2578
会不会	-10.2592
.8%	-10.2595
▁2008	-10.2596
失去	-10.2599
仍在	-10.2603
较高的	-10.2604
妮	-10.2605
能在	-10.2615
旅行	-10.2618
踏	-10.2619
整合	-10.2621
输给	-10.2627
多单	-10.2638
托管	-10.2638
年以来	-10.2639
惊人	-10.2654
承	-10.2655
原油期货	-10.2657
成立的	-10.2657
交易所	-10.266
讨	-10.2661
汪	-10.2662
羽	-10.2664
办公室	-10.2664
分化	-10.2665
询问	-10.2666
摇	-10.2667
复制	-10.2669
机械	-10.267
环球	-10.2672
每月	-10.2673
130	-10.2675
小组赛	-10.2675
新专辑	-10.268
西安	-10.2683
首度	-10.2685
等级	-10.2688
势头	-10.269
真正的	-10.2692
80%	-10.2697
所高校	-10.2699
英寸的	-10.27
出任	-10.2704
股票基金	-10.2709
文学	-10.271
即便	-10.2711
够	-10.2712
老将	-10.2714
成就	-10.2719
生活中	-10.2734
签下	-10.2737
敢	-10.2738
一直是	-10.2741
键	-10.2742
新闻发布会	-10.2743
炒	-10.2749
幻	-10.2751
蒋	-10.2752
壮	-10.2752
恐怕	-10.2752
东芝	-10.2753
提示	-10.2754
功夫	-10.2754
评卷	-10.2755
赚钱	-10.2756
不敌	-10.2756
工资	-10.2757
没想到	-10.2759
中有	-10.276
我校	-10.2787
不上	-10.2794
尤	-10.2796
知识点	-10.2796
时间里	-10.2796
合并	-10.28
最快	-10.2803
缩	-10.2809
迎	-10.281
替	-10.2814
固定	-10.2816
货币政策	-10.2819
ce	-10.2819
妈	-10.2823
典	-10.2831
也让	-10.2834
▁据介绍	-10.2838
隐	-10.2838
胸	-10.2838
浓	-10.2839
肩	-10.284
氛围	-10.284
蛋	-10.284
伊能静	-10.284
陕西	-10.284
规律	-10.2841
扣篮	-10.2841
回忆	-10.2842
出炉	-10.2842
堪称	-10.2844
票房	-10.2845
裁	-10.2846
创意	-10.2846
日开始	-10.2852
卡卡	-10.2853
海南	-10.2861
遭到	-10.2868
毫无	-10.2871
得了	-10.2873
饰演的	-10.2875
的选择	-10.2878
4000	-10.2884
一身	-10.2891
的结果	-10.2893
导师	-10.2895
▁3.	-10.2897
学会	-10.2898
是否会	-10.2898
套机	-10.2904
访	-10.2912
大众	-10.2913
在这个	-10.2915
三个月	-10.2918
畅	-10.2925
ow	-10.2925
本来	-10.2927
乌	-10.2928
耀	-10.2928
辞	-10.2928
箱	-10.2928
忍	-10.2929
雯	-10.2929
Twitter	-10.293
登记	-10.293
黄蜂	-10.2931
海富通	-10.2931
打电话	-10.2931
焦炭	-10.2933
名人	-10.2933
平安	-10.2935
LCD	-10.2936
马丁	-10.2938
得很	-10.2939
降价	-10.2939
业余	-10.294
竞争力	-10.2946
失利	-10.2946
外形	-10.2949
网络游戏	-10.2953
输出	-10.2961
不俗	-10.2963
捐	-10.2971
8000	-10.2972
存款	-10.2974
英文	-10.2982
160	-10.2983
ay	-10.2984
的学习	-10.2986
第六	-10.2991
二十	-10.2992
还表示	-10.2992
五年	-10.2992
拨打	-10.3004
一向	-10.3006
始	-10.301
不低于	-10.301
中间	-10.3011
迈	-10.3016
麻	-10.3019
膜	-10.302
弗格森	-10.302
翻译	-10.302
钢厂	-10.302
便宜	-10.3021
食糖	-10.3021
唱片	-10.3021
介入	-10.3022
围绕	-10.3024
联考	-10.3024
反复	-10.3024
热身赛	-10.3028
古力	-10.3032
一波	-10.3035
较多	-10.3041
区别	-10.3043
上方	-10.3043
家中	-10.3047
重组	-10.305
摄像头	-10.3054
一举	-10.3055
已经开始	-10.3059
市场份额	-10.306
财经	-10.3066
场内	-10.3071
我希望	-10.3072
结束了	-10.3082
启	-10.3086
有过	-10.3089
原油价格	-10.3092
关注的	-10.3094
避	-10.3094
广泛	-10.3107
秘	-10.3108
呼吁	-10.3111
哈里斯	-10.3111
蕾	-10.3111
拳	-10.3111
转变	-10.3112
澄清	-10.3112
创业板	-10.3112
优异	-10.3113
师范大学	-10.3113
容量	-10.3114
强大	-10.3115
am	-10.3116
激动	-10.3116
主办	-10.3117
已经成为	-10.3119
东北	-10.3122
全市	-10.3123
相反	-10.3125
这款手机	-10.3126
派出	-10.313
在去年	-10.3134
身价	-10.3136
吸	-10.314
要想	-10.3141
▁13	-10.3142
罗马	-10.3152
昨	-10.3154
ne	-10.3154
续	-10.3156
高管	-10.3156
▁编辑	-10.3158
盛大	-10.3162
究竟	-10.317
上海市	-10.3186
付出	-10.3186
连接	-10.3188
40%	-10.3193
餐	-10.3197
币	-10.3198
汤	-10.3201
柔	-10.3201
勤	-10.3202
马来西亚	-10.3202
陈奕迅	-10.3202
一大	-10.3203
显著	-10.3203
评估	-10.3203
调剂	-10.3203
表态	-10.3204
一对多	-10.3204
全景网	-10.3205
问到	-10.3205
巨星	-10.3206
留言	-10.3209
直言	-10.3209
空调	-10.3214
教练组	-10.3214
底部	-10.3215
华安	-10.323
评级	-10.323
趋	-10.3231
实在	-10.3232
办学	-10.3234
也都	-10.3239
▁杨	-10.3246
的信息	-10.3247
4.3	-10.3253
漂亮	-10.3254
1%,	-10.3257
的风险	-10.3267
线上	-10.3271
广发	-10.3271
的行为	-10.3284
闪	-10.3285
释	-10.3288
发起	-10.329
▁美国	-10.3292
非常好	-10.3293
楠	-10.3293
展现	-10.3293
忠	-10.3293
紫	-10.3294
医疗	-10.3294
鬼	-10.3295
邱	-10.3295
频繁	-10.3295
▁证券时报记者	-10.3295
魅力	-10.3296
就此	-10.3296
道歉	-10.3296
围棋	-10.3297
净申购	-10.3297
黎明	-10.3297
放缓	-10.3298
录音	-10.3298
入围	-10.3301
表面	-10.3306
踢球	-10.3307
拨	-10.3311
中国男篮	-10.3319
期限	-10.3321
旗下的	-10.3322
有意	-10.3323
跌停	-10.3326
舒	-10.3326
私募基金	-10.3328
各国	-10.3334
先进	-10.3336
玩家	-10.3336
上篮	-10.3337
▁X	-10.3337
澳	-10.3341
利亚	-10.3342
▁HD	-10.3345
加剧	-10.3346
的特点	-10.335
国产	-10.3353
微笑	-10.3357
不一样	-10.3366
在主场	-10.3376
的想法	-10.3376
得手	-10.3378
高三	-10.3381
哲	-10.3381
博时	-10.3383
阴	-10.3387
闲	-10.3387
烧	-10.3388
皆	-10.3389
周杰伦	-10.3389
提振	-10.339
都可以	-10.3391
山猫	-10.3391
抵达	-10.3393
短短	-10.3394
对其	-10.3394
ver	-10.3404
了自己	-10.3405
林峰	-10.3406
迹象	-10.3411
伤害	-10.3413
债务	-10.3415
周年	-10.3415
全明星	-10.3417
带动	-10.3417
两周	-10.3418
的第	-10.3423
四年	-10.3431
获批	-10.3432
奖金	-10.3438
称为	-10.3449
去了	-10.345
也就	-10.3452
拿下了	-10.3452
报价为	-10.3452
art	-10.3462
650	-10.3467
钢价	-10.3467
赔	-10.3479
魔	-10.3479
栏	-10.348
感兴趣	-10.3482
霍华德	-10.3483
诉讼	-10.3483
涉嫌	-10.3483
禁止	-10.3483
筹备	-10.3484
招聘	-10.3485
衣服	-10.3485
阿娇	-10.3486
福州	-10.3488
观望	-10.3488
聊天	-10.3488
周刊	-10.3491
加油	-10.3493
吸引力	-10.3495
中证	-10.3501
这就是	-10.3502
的过程	-10.3506
液晶屏	-10.3508
学业	-10.3513
第二轮	-10.3516
攀升	-10.352
太太	-10.3523
实现了	-10.353
名称	-10.3531
▁N	-10.3532
理工	-10.3543
发行的	-10.3546
较强	-10.3554
▁考研	-10.3554
就算	-10.3559
的实力	-10.3566
况	-10.3568
心中	-10.3571
戒	-10.3576
博士	-10.3576
悬	-10.3577
旭	-10.3578
状元	-10.3578
仔细	-10.3579
积累	-10.3579
韩寒	-10.3579
签订	-10.3579
审查	-10.358
资助	-10.358
资深	-10.3583
让她	-10.3584
天胶	-10.3589
购物	-10.3594
———	-10.3595
现场确认	-10.3596
的机身	-10.3597
的经纪人	-10.3597
等方面	-10.36
又有	-10.3603
联赛中	-10.3603
的变化	-10.3605
中午	-10.361
她在	-10.3619
而已	-10.3628
享	-10.363
的能力	-10.3644
恒	-10.3651
ir	-10.3652
开出	-10.3656
未来的	-10.3657
责	-10.366
摘	-10.3665
去年同期	-10.3666
随即	-10.3667
因为他	-10.3667
醒	-10.367
楚	-10.3672
怒	-10.3674
舍	-10.3674
茨	-10.3674
远远	-10.3674
威廉姆斯	-10.3674
担保	-10.3675
拓展	-10.3677
某些	-10.3678
下挫	-10.3679
加仓	-10.3681
我和	-10.3682
失去了	-10.3684
la	-10.3684
早盘	-10.3684
姐姐	-10.3686
开设	-10.3687
也就是说	-10.3688
银河	-10.369
郑州	-10.3692
对他	-10.3695
元素	-10.3696
获胜	-10.3697
打压	-10.3699
的交易	-10.3708
为例	-10.3713
总统	-10.3715
国脚	-10.3716
年高考	-10.3718
点球	-10.373
迫	-10.3732
妙	-10.3733
1600	-10.3733
招考	-10.3744
>	-10.3756
2.9	-10.3767
and	-10.3771
冯小刚	-10.3771
加索尔	-10.3771
自动对焦	-10.3773
中小板	-10.3773
吃饭	-10.3774
净赎回	-10.3774
调研	-10.3774
录取分数线	-10.3775
伊布	-10.3776
贝尔	-10.3782
考试成绩	-10.3784
人群	-10.3789
拿出	-10.3791
理工类	-10.3791
面积	-10.3791
走了	-10.3794
高招	-10.3794
命中率	-10.3803
的说法	-10.3805
志愿填报	-10.381
依	-10.3811
旅	-10.3815
61	-10.3821
短线	-10.3835
浪	-10.3843
拒	-10.3856
孩子们	-10.3856
不愿	-10.3858
握	-10.3862
为大家	-10.3863
无限	-10.3864
卡尔	-10.3864
裸	-10.3865
虚	-10.3867
泉	-10.3867
在其	-10.3868
这个问题	-10.3868
霸	-10.3868
'	-10.3869
李世石	-10.3869
锻炼	-10.3869
&	-10.3869
麻烦	-10.3869
贤	-10.387
眼睛	-10.387
孙悦	-10.387
折价率	-10.387
怀疑	-10.387
套餐	-10.3871
献	-10.3871
引导	-10.3871
挂牌	-10.3872
审批	-10.3872
既然	-10.3874
经纪公司	-10.3874
社区	-10.3875
之旅	-10.3875
理工大学	-10.3875
携手	-10.3876
]:	-10.3879
日期	-10.3887
3.4	-10.389
不需要	-10.3894
机场	-10.3894
敏感	-10.3894
原则	-10.3898
亮点	-10.3898
抑制	-10.3899
前晚	-10.3903
她表示	-10.3909
应当	-10.3918
主任	-10.3922
少年	-10.3926
管理的	-10.393
吸引了	-10.3933
对待	-10.3944
第三季度	-10.3948
河北	-10.395
操	-10.3954
简单的	-10.3958
家族	-10.3958
储	-10.3959
翔	-10.3962
迹	-10.3966
有不少	-10.3967
黄晓明	-10.3968
*	-10.3968
希腊	-10.3968
史密斯	-10.3968
李嘉欣	-10.3968
巴塞罗那	-10.3969
女排	-10.3969
快船	-10.3971
TVB	-10.3971
价格上涨	-10.3972
名将	-10.3974
群体	-10.3974
联手	-10.3976
相继	-10.3976
无缘	-10.3976
十一	-10.3976
录像	-10.3977
首批	-10.3977
万英镑	-10.3978
流通	-10.398
缺少	-10.3981
的孩子	-10.3984
锁定	-10.3986
进军	-10.3987
通道	-10.3989
▁m	-10.3996
外观设计	-10.3996
被动	-10.3996
伊朗	-10.401
?)	-10.4011
学校的	-10.4014
2003	-10.4015
主演的	-10.402
小牛	-10.4022
鲜	-10.4033
高潮	-10.4033
就读	-10.4038
他就	-10.4039
以上的	-10.4043
宣	-10.4047
im	-10.4048
一番	-10.4048
回合	-10.4052
打印	-10.4053
定价	-10.4056
技	-10.4057
大规模	-10.4061
损	-10.4061
70%	-10.4064
尖	-10.4066
浏览	-10.4067
颁奖	-10.4067
伙	-10.4068
貌	-10.4068
罗纳尔多	-10.4068
更新	-10.4069
▁图文	-10.407
保送生	-10.4071
包含	-10.4074
联系电话	-10.4077
表现出	-10.4079
更大	-10.4079
收取	-10.4081
的预期	-10.4084
在京	-10.4084
医学	-10.4087
编剧	-10.4091
席位	-10.4093
缴费	-10.4094
传中	-10.4095
父	-10.4098
说话	-10.4098
投放	-10.41
电影节	-10.4103
招商	-10.4112
主导	-10.4117
3.7	-10.4126
球员们	-10.4131
没有任何	-10.4132
▁上周	-10.4133
上面	-10.4133
没有什么	-10.4134
版权	-10.4134
大方	-10.4134
底线	-10.4139
ry	-10.4146
▁今日	-10.4152
商业银行	-10.4156
的支持	-10.4157
圣诞	-10.4162
什	-10.4163
炫	-10.4169
困扰	-10.417
差异	-10.417
病毒	-10.4171
主办方	-10.4173
维护	-10.4173
收视率	-10.4173
增值	-10.4173
复读	-10.4174
加工	-10.4175
一同	-10.4178
获奖	-10.4179
Intel	-10.4182
发言人	-10.4187
场比赛中	-10.419
期货价格	-10.4192
射手	-10.4193
体能	-10.4194
好像	-10.4206
一级	-10.4207
相应的	-10.4207
好转	-10.4207
必要	-10.4209
他们在	-10.4213
以内	-10.4224
的对手	-10.4225
机构投资者	-10.4226
的身份	-10.4227
也没	-10.4231
分以上	-10.4234
SP	-10.4236
肯定会	-10.4237
比去年	-10.4238
哪些	-10.4246
订	-10.4252
外国	-10.4256
高峰	-10.4256
一流	-10.4257
处在	-10.4265
中小	-10.4265
品质	-10.4266
我现在	-10.4267
湾	-10.4268
司法	-10.4269
奶	-10.427
美联储	-10.4271
粗	-10.4271
巴蒂尔	-10.4271
竞技	-10.4272
看上去	-10.4273
演技	-10.4273
命运	-10.4274
财产	-10.4275
新片	-10.4275
回暖	-10.4275
耳机	-10.4277
ity	-10.4277
这让	-10.4279
新一代	-10.428
亚运会	-10.4281
出线	-10.4283
短片	-10.4283
界面	-10.4285
天后	-10.4291
是我	-10.4295
学期	-10.4296
世界冠军	-10.4297
这款产品	-10.4302
▁w	-10.4305
第四节	-10.4315
的比例	-10.4327
的关注	-10.4331
各项	-10.4333
伊朗队	-10.4333
有网友	-10.4336
的拍摄	-10.434
逐	-10.4344
挡	-10.4345
面板	-10.4349
大力	-10.4359
本场	-10.4364
让他们	-10.4366
坛	-10.4367
90%	-10.4368
跳投	-10.4369
贺	-10.4369
涂	-10.4373
发售	-10.4374
是最	-10.4374
鑫	-10.4374
惹	-10.4374
兔	-10.4375
融合	-10.4376
财富	-10.4376
群众	-10.4377
岗位	-10.4378
用了	-10.4379
告别	-10.4379
青春	-10.438
执法	-10.438
林丹	-10.4382
优化	-10.4385
境外	-10.4387
名球员	-10.439
竞赛	-10.4399
高清视频	-10.4406
看到了	-10.4407
▁第	-10.4414
坦	-10.4415
上市的	-10.4418
产能	-10.4418
......”	-10.4446
那就是	-10.4455
获利	-10.4456
▁IS	-10.4458
的标准	-10.4464
榜首	-10.4464
的同学	-10.4465
走低	-10.447
助理	-10.447
聘	-10.4474
月合约	-10.4475
情况下	-10.4476
欠	-10.4477
瓜	-10.4478
安德森	-10.4479
瘦	-10.4479
联接基金	-10.4479
除此之外	-10.4479
▁二	-10.4479
昆明	-10.4482
承受	-10.4483
DVD	-10.4483
九段	-10.4484
最后时刻	-10.4484
重返	-10.4484
那种	-10.4493
在内地	-10.4493
位居	-10.4497
IS	-10.4498
科技大学	-10.4499
挑选	-10.4499
将与	-10.4502
几年	-10.4509
篮	-10.4515
三分球	-10.4523
谈及	-10.4525
▁此前	-10.4526
想买	-10.4526
5.5	-10.4527
将有	-10.4529
仅售	-10.4532
不住	-10.4533
▁松下	-10.4534
内心	-10.4535
资本市场	-10.4537
其中包括	-10.4545
就已经	-10.455
▁其实	-10.4551
此类	-10.4555
男女	-10.4556
打入	-10.456
de	-10.4561
不出	-10.4562
投机	-10.4566
独特的	-10.4566
一把	-10.4568
豆类	-10.4571
摄	-10.4576
首个	-10.4579
触摸	-10.4579
袁	-10.4581
磨	-10.4581
症	-10.4582
扫	-10.4583
困境	-10.4584
签署	-10.4584
欧佩克	-10.4585
右侧	-10.4585
忘记	-10.4585
防止	-10.4586
分歧	-10.4587
认定	-10.4589
排行榜	-10.4589
高尔夫球	-10.4589
差不多	-10.4593
读书	-10.4597
场地	-10.4598
位列	-10.4599
判罚	-10.4603
不算	-10.461
换下	-10.4611
新鲜	-10.4613
的现象	-10.4629
在未来	-10.4634
天王	-10.4638
考前	-10.464
之处	-10.4641
合计	-10.4647
合适的	-10.466
缴	-10.4661
识	-10.4663
烈	-10.4665
净值增长率	-10.4667
拍摄的	-10.4667
股指	-10.4668
最强	-10.4668
但她	-10.4671
在过去	-10.4672
聊	-10.4679
our	-10.4687
赏	-10.4689
贝尼特斯	-10.469
柳	-10.469
谋	-10.469
原因是	-10.469
阿隆索	-10.469
危险	-10.4691
更衣室	-10.4691
投资人	-10.4691
杠杆	-10.4691
万有效像素	-10.4691
关闭	-10.4691
信贷	-10.4691
缩水	-10.4694
领取	-10.4697
的走势	-10.4697
资费	-10.4698
引入	-10.4699
加入了	-10.4701
就开始	-10.4702
罗伊	-10.4704
ha	-10.4712
单词	-10.4718
或将	-10.472
没什么	-10.472
起到	-10.4729
▁you	-10.4736
题型	-10.4736
层面	-10.474
100%	-10.4746
年级	-10.4753
传统的	-10.4756
给人	-10.4757
近几年	-10.4757
签名	-10.4762
大牌	-10.4764
何时	-10.4767
开机	-10.4767
优选	-10.477
年末	-10.4773
态	-10.4774
主频	-10.4777
路线	-10.4781
方正	-10.4782
-10	-10.4788
创出	-10.4791
玛	-10.4794
接受了	-10.4794
燃	-10.4796
祥	-10.4797
漏	-10.4797
陆毅	-10.4797
贸	-10.4797
袭	-10.4797
脉	-10.4798
崇	-10.4798
罢	-10.4798
废	-10.4798
艰难	-10.4798
郑糖	-10.48
破坏	-10.48
辛苦	-10.48
增速	-10.48
变焦	-10.4801
拆	-10.4802
现有	-10.4802
热播	-10.4803
基金净值	-10.4804
公安	-10.4809
下场	-10.481
ee	-10.4813
理性	-10.4813
已经在	-10.4815
中小盘	-10.4815
表情	-10.4816
分类	-10.4818
▁事实上	-10.4823
与其	-10.4824
体制	-10.4829
明显的	-10.4831
总量	-10.4831
出国	-10.4832
美元指数	-10.4837
满分	-10.4841
录取工作	-10.4845
受理	-10.4847
全程	-10.4849
这支	-10.4858
举办的	-10.4859
过了	-10.4869
的合同	-10.487
早就	-10.4873
花费	-10.4879
最具	-10.4886
在场	-10.4886
国债	-10.4888
来讲	-10.4888
该片	-10.4892
日讯	-10.4896
丰富的	-10.4898
高中生	-10.4899
3.6	-10.4899
网页	-10.4903
引擎	-10.4906
邵佳一	-10.4906
奥尼尔	-10.4906
洛佩斯	-10.4906
鲍	-10.4907
雷霆	-10.4907
认证	-10.4909
解析	-10.4909
代码	-10.4909
优雅	-10.4909
QQ	-10.4909
言论	-10.4911
沃尔	-10.4912
国际油价	-10.4916
前三	-10.4916
同学们	-10.4917
台北	-10.4918
净利润	-10.4918
的相关	-10.492
▁周	-10.4921
试图	-10.4922
职位	-10.4924
这意味着	-10.4924
双核	-10.494
温格	-10.4942
假期	-10.4943
长沙	-10.4948
在比赛中	-10.4955
互相	-10.4966
相互	-10.4966
有兴趣	-10.4967
跟随	-10.4972
也不是	-10.4973
拉斯	-10.4973
无数	-10.4985
半场	-10.4986
唯	-10.499
考试时间	-10.4991
目前正在	-10.4994
车手	-10.4997
必须要	-10.5005
碟	-10.5005
陷	-10.501
阻	-10.5011
途	-10.5013
娇	-10.5014
驻	-10.5014
猪	-10.5016
挤	-10.5016
悬念	-10.5017
ma	-10.5017
充足	-10.5018
左侧	-10.5018
捐款	-10.5018
活塞	-10.5019
夏普	-10.5019
网址	-10.5019
疑问	-10.502
两场	-10.5022
将对	-10.5025
解读	-10.5026
工商	-10.5028
低点	-10.503
首节	-10.5031
金融机构	-10.5034
ot	-10.5038
都市	-10.5038
▁4.	-10.5038
man	-10.5039
网吧	-10.504
大幅上涨	-10.5041
部电影	-10.5043
不愿意	-10.5047
大师	-10.5051
四大	-10.5051
一轮	-10.5052
更换	-10.5053
名字	-10.5055
团体	-10.5058
中国足协	-10.506
投资移民	-10.506
▁本报	-10.5067
国有	-10.5068
01	-10.5072
送上	-10.5073
乎	-10.5075
亚冠	-10.5076
是非常	-10.5076
最小	-10.508
剩	-10.5086
长时间	-10.5086
的平均	-10.5088
招生考试	-10.5089
之上	-10.509
招生办	-10.509
自行	-10.5091
领域的	-10.5092
AV	-10.5093
原装	-10.5094
打法	-10.5096
类别	-10.5098
我们在	-10.5099
ation	-10.5107
>>	-10.5108
妻	-10.5109
低位	-10.5111
并购	-10.5112
携	-10.5114
主体	-10.5116
昌	-10.5119
IC	-10.512
罚球	-10.512
迎战	-10.5121
作家	-10.5124
盎司	-10.5125
琦	-10.5127
有助于	-10.5128
亚锦赛	-10.5128
午	-10.5128
拜仁	-10.5128
寻求	-10.5129
168	-10.5129
贵州	-10.5131
评测	-10.5133
起诉	-10.5134
决心	-10.5135
十大	-10.5137
正确的	-10.5137
投票	-10.5138
大概	-10.5138
证据	-10.514
一颗	-10.514
抓住	-10.5141
千元	-10.5146
小巧	-10.5147
一共	-10.515
华为	-10.5153
交给	-10.5159
不佳	-10.5161
每吨	-10.5163
有一定	-10.5165
现货价格	-10.5171
▁吴	-10.5172
9%。	-10.5176
进程	-10.5178
的股票	-10.5181
铅	-10.5187
全球经济	-10.5188
第一志愿	-10.5193
诚信	-10.5194
比例为	-10.52
也就是	-10.5207
成人	-10.5212
全世界	-10.5213
ia	-10.5215
还需要	-10.5217
的局面	-10.5218
此举	-10.5218
我很	-10.5221
全力	-10.5222
好了	-10.5226
户口	-10.523
辣	-10.524
墙	-10.524
孟	-10.524
抬	-10.524
标志	-10.524
幽默	-10.524
耶	-10.524
荣誉	-10.5241
慢慢	-10.5241
济南	-10.5242
巴黎	-10.5242
视觉	-10.5242
郑智	-10.5242
四六级	-10.5242
精致	-10.5242
结算价	-10.5242
激情	-10.5243
保守	-10.5244
的合作	-10.5245
条评论	-10.5245
帕克	-10.5246
edu	-10.5247
尤文	-10.5247
水准	-10.5248
老婆	-10.5248
链接	-10.5248
乐队	-10.5249
结局	-10.5251
显示效果	-10.5253
欧美	-10.5253
机关	-10.5255
媒体报道	-10.5268
生意	-10.5271
趣	-10.5277
还未	-10.5278
时报	-10.5279
提名	-10.528
前十	-10.528
商品价格	-10.5282
已经有	-10.5288
无疑是	-10.5288
sh	-10.529
世界上	-10.5291
高开	-10.5293
220	-10.5294
的话题	-10.5296
为自己	-10.53
下赛季	-10.5301
会计	-10.5302
泰国	-10.5303
特意	-10.5308
北京奥运会	-10.5311
几次	-10.5317
的意见	-10.5319
辈	-10.532
了一些	-10.5321
不多	-10.5323
顾问	-10.5326
的日子	-10.5333
我要	-10.5333
支球队	-10.534
入场	-10.5346
CDMA	-10.5346
对话	-10.5347
6.8	-10.5349
宴	-10.5351
盗	-10.5351
默	-10.5352
徒	-10.5352
牙	-10.5353
渐	-10.5353
LTE	-10.5353
腹	-10.5353
壁	-10.5353
吓	-10.5354
雄鹿	-10.5354
追捧	-10.5355
▁发自	-10.5356
识别	-10.5356
基准	-10.5356
大戏	-10.5359
白银	-10.5364
则表示	-10.5365
先是	-10.5369
接着	-10.537
2002	-10.5372
球手	-10.5373
庞大	-10.5374
到位	-10.5379
放大	-10.538
耐	-10.5382
外汇	-10.5383
也可	-10.5383
人口	-10.5384
备受	-10.5386
天下	-10.5391
冬季	-10.5392
▁黄	-10.5394
几个月	-10.5396
有消息称	-10.5399
名单中	-10.5401
赢得了	-10.5403
提供的	-10.5404
ate	-10.5406
评选	-10.5409
听说	-10.5413
二级市场	-10.5418
硬件	-10.5424
问他	-10.5427
位置上	-10.5435
4.6	-10.5438
头球	-10.544
也对	-10.5441
IP	-10.5442
前面	-10.5444
网购	-10.5448
鉴于	-10.5453
声音	-10.5454
择	-10.5458
开幕	-10.5461
学位	-10.5461
爷	-10.5465
CPI	-10.5468
振荡	-10.5468
铭	-10.5468
傻	-10.5468
吊	-10.5468
陈冠希	-10.5468
闷	-10.5468
哈尔滨	-10.5468
职业技术学院	-10.5469
郭德纲	-10.5469
办公	-10.5469
违法	-10.5469
收储	-10.5471
约合	-10.5473
权威	-10.5474
耐心	-10.5474
▁同时	-10.5474
报到	-10.5476
SH	-10.5477
主管	-10.548
意愿	-10.5481
精力	-10.5483
激	-10.5483
新年	-10.5484
4.4	-10.5485
中国女排	-10.5486
的速度	-10.5492
基金管理公司	-10.5493
我知道	-10.5497
错过	-10.5502
▁■	-10.5503
那里	-10.5504
主角	-10.5508
各位	-10.5509
引起了	-10.5515
年薪	-10.5515
出于	-10.552
笑称	-10.5521
映	-10.5527
征集志愿	-10.5537
日凌晨	-10.5538
的球迷	-10.5541
210	-10.5547
到来	-10.555
ang	-10.555
相对较	-10.5552
纪	-10.5552
相关的	-10.5555
捷	-10.5561
货币基金	-10.5572
▁去年	-10.5572
想法	-10.5573
的决定	-10.5576
训	-10.558
媒	-10.558
鸣	-10.558
昆	-10.5581
祝	-10.5582
精彩的	-10.5583
残	-10.5584
好莱坞	-10.5584
坎	-10.5584
堵	-10.5584
更大的	-10.5585
奥林巴斯	-10.5585
爽	-10.5585
仙	-10.5585
有色金属	-10.5585
冲突	-10.5586
执导	-10.5586
探索	-10.5587
迈克尔	-10.5587
首发阵容	-10.5588
周迅	-10.559
这名	-10.5591
一句	-10.5593
黑客	-10.5593
举报	-10.5596
做多	-10.5596
竞争对手	-10.5596
富国	-10.5596
MBA	-10.5597
赠送	-10.5599
声称	-10.5601
工厂	-10.5605
规	-10.5607
更高	-10.5611
▁re	-10.5618
同步	-10.5622
选择题	-10.5631
很有可能	-10.5638
▁点击查看	-10.5639
身穿	-10.5641
480	-10.5646
巡	-10.5659
复苏	-10.5671
的整体	-10.5673
龄	-10.5675
小说	-10.5682
记者了解到	-10.5682
时间内	-10.5683
说法	-10.5684
敬	-10.5688
倾	-10.5694
2001	-10.5696
黑莓	-10.5698
闯	-10.5698
涌	-10.5699
前来	-10.57
侵	-10.57
旺	-10.5701
荒	-10.5702
恨	-10.5702
泡沫	-10.5702
锦	-10.5702
王亚伟	-10.5702
卡塔尔	-10.5702
循环	-10.5703
函	-10.5703
奖励	-10.5703
模仿	-10.5703
▁----	-10.5703
昔日	-10.5704
考生要	-10.5704
过多	-10.5705
纳什	-10.5705
紧急	-10.5705
极为	-10.5707
宝宝	-10.571
征战	-10.5712
加试	-10.5714
几十	-10.5716
江西	-10.5716
上网本	-10.5716
可在	-10.5717
缩小	-10.5717
门口	-10.572
但是在	-10.5721
一笔	-10.5726
将从	-10.573
有时	-10.5732
接收	-10.5739
多年的	-10.5745
早上	-10.5748
凌晨	-10.5749
术	-10.5751
7.5	-10.5753
期货分析师	-10.5763
抢断	-10.5764
被录取	-10.5766
之路	-10.5767
但从	-10.5768
的热情	-10.5769
际	-10.5771
新浪体育	-10.5772
很高	-10.5772
供给	-10.5772
的趋势	-10.5777
得以	-10.5782
我们将	-10.5782
仍然是	-10.5783
很高兴	-10.5784
身为	-10.5787
董事会	-10.5791
问她	-10.5804
三人	-10.5805
讲述	-10.5815
济	-10.5817
2》	-10.5818
苗	-10.582
册	-10.5821
珊	-10.5821
蔡依林	-10.5821
弥补	-10.5821
逻辑	-10.5821
铃	-10.5821
二季度	-10.5823
负担	-10.5823
自称	-10.5823
替代	-10.5823
食品	-10.5824
尾盘	-10.5827
右路	-10.583
跳水	-10.5833
难得	-10.5833
风云	-10.5837
在现场	-10.5846
给大家	-10.5846
热身	-10.5847
▁for	-10.5848
保证金	-10.5848
”,“	-10.585
东部	-10.5855
作战	-10.5857
的进球	-10.5858
潜	-10.5859
节能	-10.5864
地区的	-10.5873
基金份额	-10.5873
是由	-10.5876
不排除	-10.5876
4.9	-10.5881
的投资者	-10.5884
转向	-10.5889
也曾	-10.5889
开考	-10.5897
跟着	-10.5905
很重要	-10.5912
毫不	-10.5917
纹	-10.5919
但却	-10.5922
送出	-10.5922
曝	-10.5923
大量的	-10.5924
DV	-10.5925
总共	-10.5929
看了	-10.5929
哪个	-10.593
页	-10.5931
勇士	-10.5933
孤	-10.594
崔	-10.5941
辩	-10.5941
粒	-10.5941
容祖儿	-10.5942
颁发	-10.5942
描述	-10.5942
休斯顿	-10.5943
韩庚	-10.5943
万像素摄像头	-10.5943
毫米	-10.5943
暗示	-10.5944
借助	-10.5945
结算	-10.5945
洛瑞	-10.5945
复旦大学	-10.5947
之际	-10.5947
响应	-10.5948
他将	-10.5949
居民	-10.5949
新浪微博	-10.5952
利息	-10.5952
掀起	-10.5954
浪漫	-10.5956
安装	-10.5957
落实	-10.5957
范围内	-10.5958
套利	-10.5959
市场中	-10.596
中职	-10.5961
IF	-10.5964
被问到	-10.5966
的过程中	-10.5969
飙升	-10.597
8.5	-10.597
105	-10.5976
一体	-10.5978
提及	-10.5979
电力	-10.598
主打	-10.5981
盘面	-10.5981
最初	-10.5983
道路	-10.5986
低开	-10.599
扑	-10.5992
ve	-10.6003
到达	-10.6013
戏剧	-10.6014
带有	-10.6016
寿	-10.6019
资产配置	-10.6023
日本队	-10.6024
少数	-10.6025
会对	-10.6029
规定的	-10.6031
▁K	-10.6033
稳定的	-10.6039
.1%	-10.6041
大气	-10.6041
03	-10.6045
要看	-10.6049
链	-10.6053
募	-10.6053
等因素	-10.6056
多位	-10.6059
颜	-10.6062
中移动	-10.6063
婉	-10.6063
自学考试	-10.6064
绘	-10.6064
郭富城	-10.6064
奥巴马	-10.6064
EOS	-10.6064
伪	-10.6064
愿望	-10.6065
债市	-10.6069
要注意	-10.6069
宽带	-10.6071
惨	-10.6072
一贯	-10.6074
的复习	-10.6076
买卖	-10.6079
也非常	-10.6082
▁The	-10.6088
TV	-10.6092
首选	-10.6093
蓝色	-10.6095
出道	-10.6098
跌至	-10.61
可以看出	-10.6103
证券投资基金	-10.6107
待遇	-10.6112
依然是	-10.6113
卡片机	-10.612
万欧元	-10.6137
塑	-10.6139
遭受	-10.614
这段时间	-10.6144
伍	-10.6149
已经被	-10.615
引来	-10.6151
的感情	-10.6158
好事	-10.6163
预选赛	-10.6172
影迷	-10.6172
中招	-10.6174
漫	-10.618
策	-10.6182
阅	-10.6182
的基础	-10.6183
妹	-10.6184
染	-10.6185
割	-10.6185
防抖	-10.6186
滞	-10.6186
诊	-10.6186
1080	-10.6187
琪	-10.6187
下方	-10.6187
华谊兄弟	-10.6187
哨	-10.6187
土耳其	-10.6187
依赖	-10.6188
台上	-10.6189
可以通过	-10.6189
夸	-10.6189
栏目	-10.6189
LME	-10.619
退休	-10.619
监控	-10.619
均衡	-10.619
猛龙	-10.6191
日上午消息	-10.6192
签字	-10.6192
GRE	-10.6193
▁b	-10.6193
语音	-10.6195
有关部门	-10.6196
战斗	-10.6196
延续了	-10.6196
监	-10.6197
居然	-10.6197
世博	-10.6198
成果	-10.6201
剧情	-10.6202
的声音	-10.6204
参加高考	-10.6204
小沈阳	-10.6206
家电	-10.6207
凯文	-10.6207
排在	-10.621
更好地	-10.621
难题	-10.6217
之战	-10.6219
也不能	-10.6219
常规赛	-10.6226
他又	-10.6235
长达	-10.6239
240	-10.624
前卫	-10.6242
BC	-10.6242
显现	-10.6246
我们会	-10.6247
片中	-10.6248
不容易	-10.625
基金业	-10.625
融	-10.6251
三次	-10.6253
里奇	-10.6266
会出现	-10.6268
son	-10.6279
计划招生	-10.6279
第一批	-10.6281
但现在	-10.6303
硕	-10.6308
闭	-10.6308
柏	-10.6309
屋	-10.6311
弯	-10.6312
天然橡胶	-10.6312
制片人	-10.6312
自治区	-10.6312
舒淇	-10.6312
缝	-10.6312
棕榈油	-10.6312
副总裁	-10.6313
姚晨	-10.6313
约翰	-10.6314
短暂	-10.6316
常常	-10.6318
化工	-10.6319
考生和家长	-10.632
取代	-10.6322
事务	-10.6323
压制	-10.6324
我相信	-10.6324
的背景下	-10.6325
指责	-10.6325
管理层	-10.6325
情节	-10.6332
录取通知书	-10.6334
美好	-10.6334
道理	-10.6337
▁近期	-10.6338
上传	-10.6338
all	-10.6341
长假	-10.6341
我们认为	-10.6342
局势	-10.6345
城区	-10.6345
这段	-10.6346
4.7	-10.6351
ell	-10.6353
将其	-10.6355
唯一的	-10.6359
造成的	-10.6367
到现在	-10.6369
不超过	-10.638
北京队	-10.6383
首款	-10.6386
决赛中	-10.6387
》《	-10.6387
开学	-10.6392
大批	-10.6394
三种	-10.6407
的心理	-10.6408
一对	-10.641
▁当然	-10.6412
让你	-10.6416
情况来看	-10.6422
。[	-10.6434
润	-10.6434
已于	-10.6435
这件事	-10.6437
卓	-10.6437
薇	-10.6438
晴	-10.6438
迁	-10.6438
障碍	-10.6439
庾澄庆	-10.6439
汇添富	-10.6439
氏	-10.6439
领衔	-10.6439
赔偿	-10.6439
AMD	-10.6439
升至	-10.6439
合作伙伴	-10.644
瑞典	-10.644
夏季	-10.6441
巨头	-10.6441
金鹰	-10.6442
文史类	-10.6443
笑容	-10.6444
共计	-10.6445
消化	-10.6446
区县	-10.6447
物流	-10.6448
有很大	-10.6451
最有	-10.6452
物价	-10.6453
输球	-10.6455
399	-10.6456
大成	-10.6461
考试院	-10.6461
被人	-10.6465
反超	-10.6469
三角	-10.647
对应	-10.647
提高了	-10.6472
VS	-10.6472
101	-10.6473
这个时候	-10.6475
PE	-10.6481
极大	-10.6481
大胆	-10.6486
大门	-10.6486
不仅仅是	-10.6488
拥	-10.649
为其	-10.6498
西南	-10.65
新一轮	-10.6524
事故	-10.6527
走进	-10.6529
我都	-10.6533
▁2、	-10.6537
还透露	-10.6537
裁员	-10.6538
派对	-10.6539
ac	-10.6542
麦克	-10.6545
做得	-10.6547
1105	-10.6552
向上	-10.6552
ine	-10.6552
一球	-10.6554
一切都	-10.6557
所以我	-10.6558
4.2	-10.656
黎	-10.6561
15%	-10.6562
桌	-10.6564
胎	-10.6565
疲	-10.6565
杂	-10.6565
一年的	-10.6565
骑	-10.6566
瞬间	-10.6567
新西兰	-10.6567
酸	-10.6567
蝶	-10.6567
取决于	-10.6567
吉格斯	-10.6567
蒿俊闵	-10.6567
疲软	-10.6568
冰箱	-10.6568
抛售	-10.6569
作弊	-10.6569
智慧	-10.6569
聪明	-10.6569
侵权	-10.6569
音频	-10.6569
沪锌	-10.6569
传递	-10.6569
任意球	-10.657
视野	-10.657
被告	-10.6571
涨势	-10.6571
缺口	-10.6573
日下午消息	-10.6573
收藏	-10.6573
表示自己	-10.6573
豪门	-10.6575
科研	-10.6575
空单	-10.6577
背光	-10.6578
的业绩	-10.6581
防线	-10.6581
体现了	-10.6582
平静	-10.6585
4.0	-10.6586
南方基金	-10.6586
PS	-10.6592
碰	-10.6593
有媒体	-10.6597
大胜	-10.6599
不必	-10.6604
中国经济	-10.6606
巨人	-10.6617
全高清	-10.663
每个人都	-10.663
都没	-10.6632
帝	-10.6634
四季度	-10.6636
找到了	-10.6638
送给	-10.6639
排名第	-10.664
相关负责人	-10.6642
这两个	-10.6644
非法	-10.6645
介	-10.6646
特性	-10.6653
一道	-10.6656
华人	-10.6659
集成	-10.6664
熊市	-10.6665
的核心	-10.6667
道德	-10.6667
9.5	-10.667
人家	-10.6673
一开始	-10.6675
房子	-10.6675
那是	-10.6678
的目的	-10.668
将被	-10.6683
有个	-10.6683
那么多	-10.6686
以此	-10.6692
芬	-10.6694
悦	-10.6694
宿	-10.6695
撑	-10.6695
炎	-10.6697
舟	-10.6697
兆	-10.6697
娟	-10.6697
▁that	-10.6697
避险	-10.6697
统计数据显示	-10.6697
途径	-10.6697
托马斯	-10.6697
灰熊	-10.6697
擅长	-10.6698
密切	-10.6698
缺阵	-10.6699
痛苦	-10.67
布鲁克斯	-10.67
简直	-10.67
指数型基金	-10.6701
融入	-10.6701
卖场	-10.6702
之时	-10.6702
小心	-10.6703
回顾	-10.6704
大奖	-10.6704
欧元区	-10.6704
▁推荐	-10.6705
认同	-10.6706
房间	-10.6706
率领	-10.6709
开播	-10.671
ea	-10.6712
▁1、	-10.6714
王菲	-10.6714
这支球队	-10.6721
交手	-10.6725
Wi	-10.6729
▁对此	-10.6731
赛区	-10.6733
被迫	-10.6733
么	-10.6735
第十	-10.6738
前日	-10.6739
颇为	-10.6745
的电视剧	-10.675
今年高考	-10.6751
订单	-10.6753
不见	-10.6754
三十	-10.6755
专用	-10.6766
评分	-10.6772
第七	-10.6774
延长	-10.6774
的看法	-10.6775
最早	-10.6777
3.9	-10.6779
Ch	-10.6784
一直都	-10.6786
国内外	-10.6787
ard	-10.6787
可达	-10.6788
飞机	-10.6789
说过	-10.679
本节	-10.6795
越来越多的	-10.6797
SR	-10.6801
因而	-10.6803
的形式	-10.6806
持有人	-10.6806
颗	-10.6814
专访	-10.6814
鹏华	-10.6818
SAT	-10.6819
截	-10.682
迅	-10.6822
市场对	-10.6825
受益	-10.6826
搜	-10.6826
中关村	-10.6828
叔	-10.6828
李连杰	-10.6828
范冰冰	-10.6828
将由	-10.6828
埋	-10.6828
TFT	-10.6828
上投摩根	-10.6828
细腻	-10.6829
煤	-10.6829
授权	-10.6829
邮件	-10.6829
廷	-10.6829
辉煌	-10.6829
拖累	-10.6829
集训	-10.6829
犯罪	-10.683
有多	-10.6832
深刻	-10.6832
事宜	-10.6833
布兰	-10.6834
米勒	-10.6835
离职	-10.6835
重仓	-10.6835
取景	-10.6836
的做法	-10.6838
恋爱	-10.6839
温度	-10.6839
登上	-10.6839
发言	-10.6841
队员们	-10.6843
海洋	-10.6844
不停	-10.6844
IPO	-10.6844
干部	-10.6845
球衣	-10.6849
离场	-10.685
略有	-10.6851
快门	-10.6855
生存	-10.6856
较量	-10.6857
应届	-10.6858
志愿者	-10.6864
热线	-10.6864
近来	-10.6865
向下	-10.6867
AP	-10.687
开户	-10.6876
万多	-10.6881
正好	-10.6882
出品	-10.6883
采访时	-10.6887
超过了	-10.6889
不已	-10.6892
流量	-10.6898
创造了	-10.69
前后	-10.6901
重心	-10.6907
▁实习生	-10.6909
在微博上	-10.6909
MA	-10.691
拔	-10.6912
市场预期	-10.6914
美豆	-10.6919
不怕	-10.6922
制造业	-10.6926
动物	-10.6926
状	-10.6927
转身	-10.6934
验	-10.6935
这是一个	-10.6937
出局	-10.694
边路	-10.694
而对于	-10.6943
津	-10.6947
就被	-10.6948
投资于	-10.695
在接受采访时	-10.6951
衡	-10.6952
不懂	-10.6958
Phone	-10.6958
炼	-10.6961
茶	-10.6962
NYMEX	-10.6962
莎	-10.6962
泡	-10.6962
诱	-10.6962
省教育考试院	-10.6962
的风格	-10.6963
中信证券	-10.6963
湖南卫视	-10.6963
概率	-10.6963
从来没有	-10.6964
周围	-10.6964
关键时刻	-10.6965
稳步	-10.6966
Wind	-10.6967
保密	-10.6967
触摸屏	-10.6968
鲁尼	-10.6969
戏份	-10.6969
雅思考试	-10.6969
幕后	-10.6969
难免	-10.6972
马琳	-10.6972
会否	-10.6973
东吴	-10.6973
研究员	-10.6974
般的	-10.6974
吉林	-10.6976
流感	-10.6978
第三方	-10.6981
有更多	-10.6984
真题	-10.6985
这个角色	-10.6987
转移	-10.6991
+1	-10.6998
140	-10.6998
他会	-10.7
高价	-10.7002
日益	-10.7007
最后一个	-10.7015
更具	-10.7024
涨幅为	-10.703
环境下	-10.703
威尔	-10.7031
前天	-10.7038
很强	-10.7042
话费	-10.7046
赛场上	-10.7048
om	-10.705
▁火箭	-10.7055
迟	-10.707
ie	-10.7072
省级	-10.7072
公正	-10.7073
逢	-10.7079
两家	-10.7079
但我们	-10.708
中路	-10.7082
圈内	-10.7085
众人	-10.7086
权利	-10.7091
▁为了	-10.7094
肥	-10.7094
遥	-10.7095
牢	-10.7097
砸	-10.7097
劝	-10.7097
Verizon	-10.7097
贾静雯	-10.7098
补偿	-10.7098
革命	-10.7098
债务危机	-10.7098
浏览器	-10.7098
麦克风	-10.71
莱曼	-10.71
人文	-10.71
流程	-10.71
法庭	-10.71
人士表示	-10.7101
扩张	-10.7101
协调	-10.7101
较小	-10.7101
监管部门	-10.7101
维持在	-10.7102
SCDMA	-10.7103
申报	-10.7104
爆出	-10.7106
变成了	-10.7106
每日	-10.7106
][	-10.7108
新浪考研	-10.711
封面	-10.711
笑言	-10.7111
触及	-10.7112
西班牙队	-10.7112
笑说	-10.7115
建业	-10.7116
眼球	-10.7117
做客	-10.7118
先发	-10.7126
106	-10.7127
本科生	-10.7129
1400	-10.7132
▁然而	-10.7134
经济复苏	-10.7136
山东队	-10.7137
通话	-10.7138
开放式基金	-10.7147
内衣	-10.7147
混合型基金	-10.7153
▁3、	-10.7154
5.2	-10.7155
原创	-10.7158
考试中	-10.716
万美元的	-10.7167
研究所	-10.7167
中华	-10.7169
开拍	-10.7176
已经是	-10.7177
不起	-10.7177
对自己	-10.7185
的规定	-10.7187
等地	-10.7188
典型	-10.72
递	-10.7209
▁Q	-10.7212
基金中	-10.7215
无人	-10.7217
5.3	-10.7221
流入	-10.7224
两者	-10.7224
广东省	-10.7225
爱立信	-10.7225
复旦	-10.7228
危	-10.7229
磅	-10.723
冲刺	-10.7233
的到来	-10.7233
心目中	-10.7233
领袖	-10.7234
赖	-10.7234
呀	-10.7234
戴维斯	-10.7234
@	-10.7234
狼	-10.7234
岳	-10.7234
瓜迪奥拉	-10.7234
犹豫	-10.7234
坚决	-10.7235
婚后	-10.7235
巡演	-10.7236
促	-10.7236
浪费	-10.7237
减弱	-10.7238
酒吧	-10.7241
选购	-10.7242
目光	-10.7243
普通高校	-10.7245
交换	-10.7248
民间	-10.7249
的收益	-10.725
新疆队	-10.7252
拿到了	-10.7253
价差	-10.7253
大幅下跌	-10.7259
报收	-10.7264
同样是	-10.7266
再现	-10.7267
大片	-10.7268
的外观	-10.7268
记得	-10.7281
将比分	-10.7281
ook	-10.7286
紧密	-10.7295
所院校	-10.7297
家用	-10.7298
周边	-10.7299
官方网站	-10.73
中国证监会	-10.73
禁	-10.7313
中国学生	-10.7315
度过	-10.7315
不高	-10.7322
做题	-10.7326
已达	-10.7326
有关负责人	-10.7327
宏观经济	-10.7327
控球	-10.7339
管理费	-10.734
唱歌	-10.7342
收盘价	-10.7344
友人	-10.7355
考研论坛	-10.7359
刷	-10.7362
常见	-10.7363
在全国	-10.7365
又一次	-10.7367
柯	-10.7369
女足	-10.737
钻	-10.7372
默契	-10.7373
浅	-10.7373
勾	-10.7373
=	-10.7373
艺术类专业	-10.7373
擦	-10.7373
杰拉德	-10.7373
林志玲	-10.7373
虚拟	-10.7374
颁奖礼	-10.7374
摆脱	-10.7374
外地	-10.7375
普通高校招生	-10.7375
提前批	-10.7376
亲密	-10.7378
榨季	-10.7379
解决方案	-10.7379
布帅	-10.738
有利	-10.738
8.3	-10.7381
溢价	-10.7381
公民	-10.7383
技能	-10.7383
种种	-10.7384
王子	-10.7386
而来	-10.7391
仍旧	-10.7396
期权	-10.7401
重复	-10.7401
商品期货	-10.7404
莫雷	-10.7408
同时还	-10.7411
抢眼	-10.7414
给我们	-10.7418
下周	-10.7419
德国队	-10.7423
北京行情	-10.7426
打好	-10.7428
年全国	-10.7434
来临	-10.7436
习	-10.7437
大卫	-10.7437
MC	-10.7438
次数	-10.7439
SX	-10.7441
的主要原因	-10.7441
对决	-10.7442
国奥队	-10.7445
级别	-10.7445
否	-10.7448
也开始	-10.745
绝不	-10.7463
cm	-10.7466
未有	-10.7467
的信心	-10.7477
基金产品	-10.7486
自身的	-10.7486
网站上	-10.7487
▁联想	-10.7495
费率	-10.7495
年轻的	-10.7496
将达到	-10.7497
他人	-10.7499
相对于	-10.7501
新产品	-10.7503
誉	-10.7504
逆	-10.7505
单纯	-10.7506
奈	-10.7509
铺	-10.751
飘	-10.7511
有效像素	-10.7512
井	-10.7512
琴	-10.7513
瑞和远见	-10.7513
忌	-10.7513
坊	-10.7513
孝	-10.7513
薛	-10.7514
谭	-10.7514
晃	-10.7514
疼	-10.7514
读卡器	-10.7514
联邦	-10.7514
渝	-10.7514
监测	-10.7515
剩余	-10.7516
窗口	-10.7516
投影机	-10.7516
缴纳	-10.7516
控卫	-10.7517
规格	-10.7517
黄奕	-10.7517
验证	-10.7517
轻易	-10.7517
歌词	-10.7519
外壳	-10.7519
时装	-10.7519
坚定	-10.7519
拍拖	-10.752
创维	-10.752
懂得	-10.7524
▁徐	-10.7524
额度	-10.7525
奖杯	-10.7525
运气	-10.7526
德甲	-10.7526
活力	-10.7528
泰达	-10.7529
紧缩	-10.753
新兴市场	-10.7531
的方法	-10.7532
姜文	-10.7534
递交	-10.7535
风波	-10.7535
6.3	-10.7539
MV	-10.7541
较好	-10.7542
一直以来	-10.7543
晚报	-10.7544
角球	-10.7544
和其他	-10.7545
过剩	-10.7547
每一	-10.7552
做出了	-10.7558
外资	-10.7558
放心	-10.7562
广东队	-10.7563
宏观	-10.7563
能够在	-10.7565
一本线	-10.7571
AT	-10.7571
两个人	-10.7575
新型	-10.7575
分级基金	-10.7577
con	-10.7578
依法	-10.7579
买家	-10.7582
家乡	-10.7584
5.4	-10.7586
负责人表示	-10.7586
两场比赛	-10.759
这条	-10.7594
上学	-10.7596
研究中心	-10.7596
联赛冠军	-10.7602
委托	-10.7617
均有	-10.762
大关	-10.7625
tion	-10.7628
几位	-10.7629
age	-10.7635
一组	-10.7644
日进行	-10.7646
年中国	-10.7647
牌照	-10.7651
悲	-10.7652
饱	-10.7653
晋	-10.7654
繁	-10.7655
屈	-10.7656
周星驰	-10.7656
阿德尔曼	-10.7656
北京教育考试院	-10.7656
国务院	-10.7656
碎	-10.7656
毁	-10.7657
Lucas	-10.7657
SDHC	-10.7657
晒	-10.7657
熊黛林	-10.7657
兰德里	-10.7657
情人节	-10.7657
顺序	-10.7657
产业链	-10.7658
温暖	-10.7658
物质	-10.766
补贴	-10.7661
受访	-10.7661
绿城	-10.7662
看法	-10.7663
伤势	-10.7663
民生银行	-10.7664
托福	-10.7664
开启	-10.7664
改进	-10.7666
考官	-10.7668
火热	-10.7674
胜负	-10.7675
入门	-10.7676
无需	-10.7676
实习	-10.7679
深度	-10.768
应试	-10.768
▁姚明	-10.7683
类专业	-10.7684
住了	-10.7685
科学家	-10.7686
看过	-10.7688
长江	-10.7691
脸上	-10.7693
读者	-10.7693
外围	-10.7696
时段	-10.7697
固定收益	-10.7703
就连	-10.7705
位用户	-10.7711
▁(+	-10.7714
体力	-10.7727
7.4	-10.7728
最高分	-10.7732
省内	-10.7738
同类	-10.7747
名师	-10.775
7.6	-10.7751
介绍说	-10.7753
开放式	-10.7757
场外	-10.7757
名学生	-10.7759
追问	-10.776
推迟	-10.7765
三是	-10.7767
的表演	-10.7767
▁he	-10.7768
惜	-10.7769
著	-10.7771
分开	-10.7773
四强	-10.7774
意向	-10.7775
广播	-10.7779
万亿	-10.7791
坤	-10.7791
ca	-10.7794
绕	-10.7795
▁观望	-10.7796
统	-10.7797
国安队	-10.7797
6.6	-10.7798
纽	-10.7798
串	-10.78
狠	-10.7801
鸡	-10.7801
衍生品	-10.7801
萌	-10.7801
俐俐	-10.7802
▁新华网	-10.7802
佘诗曼	-10.7802
甜蜜	-10.7802
▁新浪教育	-10.7802
▁相关报道	-10.7802
舒服	-10.7803
绝大多数	-10.7803
指挥	-10.7803
的形象	-10.7804
此番	-10.7804
她还	-10.7805
恶意	-10.7805
复合	-10.7807
体育馆	-10.7807
专项	-10.7808
指引	-10.7808
只需	-10.7809
笔记本电脑	-10.7809
提起	-10.7809
在微博	-10.781
收紧	-10.781
回复	-10.7813
报纸	-10.7813
设定	-10.7813
使用了	-10.7815
砍下	-10.7816
合法	-10.7817
5.7	-10.7818
值得关注	-10.7819
一首	-10.782
在拍摄	-10.7822
常规	-10.7823
后再	-10.7823
商城	-10.7824
成人高考	-10.7824
放弃了	-10.7828
斯基	-10.7837
董事	-10.7839
股基	-10.7845
锋线	-10.7847
中介	-10.7851
走到	-10.7853
打工	-10.7855
候	-10.7857
期市	-10.7858
VC	-10.786
第二天	-10.7866
售价为	-10.7871
十二	-10.7875
国泰	-10.7876
名考生	-10.7883
▁本周	-10.7885
以下为	-10.7887
越来越多	-10.7892
大于	-10.7893
就没有	-10.7893
录取率	-10.7894
潜在	-10.7896
另有	-10.7901
发送	-10.7904
499	-10.7914
进入了	-10.7915
入门级	-10.7918
的胜利	-10.7922
加之	-10.7924
演艺	-10.7931
致电	-10.7935
刺	-10.794
对市场	-10.7941
说起	-10.7942
伏	-10.7944
详	-10.7944
岗	-10.7944
据统计	-10.7945
这不是	-10.7946
厦门	-10.7947
垫	-10.7947
纵	-10.7947
鹿	-10.7948
渴望	-10.7948
臂	-10.7948
手里	-10.7948
华宝兴业	-10.7948
套期保值	-10.7949
妹妹	-10.7949
灭	-10.7949
饼	-10.7949
▁每经记者	-10.7949
郭士强	-10.7949
醉	-10.7949
餐厅	-10.7949
晚宴	-10.795
男主角	-10.795
独显	-10.7951
淡季	-10.7951
诞生	-10.7951
极具	-10.7952
衡量	-10.7952
倍光学变焦镜头	-10.7953
MHz	-10.7954
自曝	-10.7956
冷静	-10.7956
大厦	-10.7956
简约	-10.7956
第四季度	-10.7957
希尔	-10.7957
账号	-10.7958
首日	-10.7958
不清楚	-10.796
良机	-10.7961
这对于	-10.7961
过渡	-10.7963
亮度	-10.7965
保级	-10.7965
卫生	-10.7967
什么时候	-10.7968
专利	-10.7969
影响到	-10.7969
演戏	-10.797
口语	-10.797
番	-10.7973
可通过	-10.7973
已是	-10.7974
单位净值	-10.7981
配置方面	-10.7982
录取线	-10.7982
我没有	-10.7986
三天	-10.7989
这将	-10.7989
同行	-10.7993
球迷们	-10.7993
迎来了	-10.7993
普及	-10.7993
新低	-10.7994
首场	-10.8002
中邮	-10.8006
而且还	-10.8009
在一定程度上	-10.8009
将近	-10.801
one	-10.8011
与其他	-10.8015
上课	-10.8017
的认可	-10.8018
辆	-10.8026
变更	-10.8026
他已经	-10.803
因为我	-10.8034
独特	-10.8036
地表示	-10.8038
攀	-10.8039
今年上半年	-10.804
ta	-10.804
中国球员	-10.8044
输了	-10.8045
但他们	-10.8046
伟大的	-10.8055
6.4	-10.8056
形成了	-10.8059
次新基金	-10.8067
把自己	-10.8067
已被	-10.8069
表现得	-10.8071
接连	-10.8075
美国队	-10.8079
高调	-10.8079
分布	-10.8081
的心态	-10.8083
希望能够	-10.8085
的发挥	-10.8089
梯	-10.8095
叹	-10.8095
伸	-10.8097
俏	-10.8097
尤文图斯	-10.8097
弧	-10.8097
枝	-10.8098
丑	-10.8098
奥多姆	-10.8098
劫	-10.8098
京东商城	-10.8098
钻石	-10.8099
探讨	-10.8099
干扰	-10.8099
5.8	-10.8099
盛典	-10.8099
盲目	-10.8099
江苏卫视	-10.8099
顶尖	-10.81
宽松	-10.81
货币市场基金	-10.8101
还是要	-10.8102
农民	-10.8103
康复	-10.8103
跌幅为	-10.8103
贸易商	-10.8103
意甲	-10.8104
东京	-10.8106
讲述了	-10.8107
营业	-10.8108
年纪	-10.8112
打响	-10.8115
MS	-10.8115
同事	-10.8116
让自己	-10.8117
万份	-10.8117
较好的	-10.812
天津队	-10.8125
经济增长	-10.8125
1109	-10.8127
这家	-10.813
体重	-10.813
熊	-10.8134
地球	-10.8139
第一场	-10.814
占到	-10.8141
感光度	-10.8142
接力	-10.8144
合适	-10.8144
要比	-10.8147
的爱情	-10.8152
可以看到	-10.8156
上证指数	-10.8158
OT	-10.8163
该产品	-10.8173
来自于	-10.8176
造成了	-10.8177
各方面	-10.8181
首位	-10.8182
倒是	-10.8183
配有	-10.8183
有时候	-10.8187
电台	-10.8194
路上	-10.8198
控股	-10.82
看重	-10.8212
全天	-10.8214
di	-10.8215
我们要	-10.8217
超值	-10.8222
的经历	-10.8225
改变了	-10.823
很容易	-10.8234
影响了	-10.8235
岸	-10.8239
昊	-10.8245
挖	-10.8248
开玩笑	-10.8249
国联安	-10.8249
躁	-10.8249
大使	-10.8249
马拉多纳	-10.8249
凉	-10.8249
纤	-10.8249
Touch	-10.8249
华尔街	-10.8249
▁北京考试报讯	-10.8249
华盛顿	-10.8249
肌肉	-10.825
市教育考试院	-10.825
1/2.3	-10.825
祝贺	-10.825
抱怨	-10.825
悲观	-10.825
蓝牙	-10.825
燃料油	-10.825
策划	-10.825
判决	-10.825
股份有限公司	-10.8252
5.0	-10.8252
灵活配置	-10.8253
仍未	-10.8257
榜单	-10.8257
GPS	-10.8257
去做	-10.8258
Pad	-10.8259
菲尔	-10.8259
逼近	-10.8259
一生	-10.8259
开发商	-10.8259
基民	-10.826
现任	-10.8262
无效	-10.8262
神奇	-10.8264
选秀	-10.8265
南非	-10.8267
世博会	-10.827
特里	-10.827
性质	-10.827
门票	-10.8271
涨价	-10.8271
单曲	-10.8271
不惜	-10.8274
公告称	-10.8274
却没有	-10.8277
便是	-10.8285
门前	-10.8286
期指	-10.8289
给自己	-10.829
拿着	-10.8299
这么多	-10.83
好评	-10.8309
每个人	-10.8311
都被	-10.8317
很不错	-10.8318
3.8	-10.8319
但对于	-10.832
带给	-10.832
一一	-10.8324
钢材期货	-10.8327
9.8	-10.8327
营业部	-10.8328
还款	-10.8329
头号	-10.833
眼下	-10.833
提出了	-10.8334
580	-10.8336
新机	-10.8339
明确表示	-10.8342
署	-10.8345
三国	-10.8345
援	-10.8347
▁U	-10.8348
强度	-10.8349
6.1	-10.835
上台	-10.8352
天空	-10.8352
好成绩	-10.8356
中卫	-10.8356
棉价	-10.8356
全能	-10.8363
地理	-10.8365
LA	-10.8371
锁	-10.8374
日正式	-10.8377
称号	-10.8379
7.2	-10.8381
娘	-10.8381
构	-10.8383
天才	-10.8387
能让	-10.8387
显示出	-10.8389
挥	-10.839
的观点	-10.839
女演员	-10.8392
事后	-10.8393
最受	-10.8395
尊	-10.8396
用户可以	-10.8397
亨	-10.84
窗	-10.8401
奏	-10.8402
泳	-10.8402
泛	-10.8402
席尔瓦	-10.8402
稀土	-10.8403
嘛	-10.8403
步伐	-10.8403
裤	-10.8403
躲	-10.8403
扇	-10.8403
玻璃	-10.8403
月下旬	-10.8403
呆	-10.8403
缠	-10.8403
...	-10.8403
甩	-10.8403
彤	-10.8403
张国立	-10.8403
伍兹	-10.8404
16:9	-10.8404
联络	-10.8404
休闲	-10.8404
平行志愿	-10.8405
郑棉	-10.8405
一句话	-10.8406
结论	-10.8406
企稳	-10.8406
导航	-10.8406
遗产	-10.8406
盗版	-10.8407
新浪财经	-10.8407
琼斯	-10.8407
孙兴	-10.8408
风暴	-10.8408
举措	-10.841
陈坤	-10.841
档案	-10.8411
传输	-10.8411
一战	-10.8412
快攻	-10.8413
索尼爱立信	-10.8413
调节	-10.8414
刷新	-10.8414
进口量	-10.8417
关口	-10.8419
诺安	-10.8419
等功能	-10.8421
想到	-10.8424
文艺	-10.8428
非常重要	-10.8433
460	-10.8435
著名的	-10.8435
老人	-10.8436
直至	-10.8444
露出	-10.8452
双重	-10.8458
在校	-10.846
均在	-10.8466
给她	-10.8467
科尔	-10.8472
的担忧	-10.8474
刻意	-10.8474
一时	-10.8477
解释说	-10.8477
金山	-10.8477
拉拉	-10.8481
体育类	-10.8481
斯坦	-10.849
转让	-10.8493
组建	-10.8494
边缘	-10.8496
od	-10.8497
从去年	-10.8502
▁09	-10.8511
各方	-10.852
年上半年	-10.8522
多元	-10.8523
充满了	-10.8528
以便	-10.853
多媒体	-10.8532
解题	-10.854
担	-10.8542
约定	-10.8544
380	-10.8547
还算	-10.8547
估	-10.8548
韦	-10.8552
朝鲜	-10.8552
壳	-10.8553
月末	-10.8555
贷	-10.8555
浙	-10.8556
轰	-10.8556
撤	-10.8557
举动	-10.8558
睿	-10.8559
颁奖典礼	-10.8559
恰恰	-10.8559
纱	-10.8559
当事人	-10.8559
彦	-10.8559
亚马逊	-10.8559
唤	-10.8559
感光元件	-10.856
文并图	-10.856
陌生	-10.856
扫描	-10.856
搜狐	-10.856
磁	-10.856
芝加哥	-10.856
诈骗	-10.856
牺牲	-10.856
外形尺寸	-10.856
忽视	-10.8561
隐私	-10.8561
卓越	-10.8561
下发	-10.8562
密集	-10.8563
相比之下	-10.8564
交锋	-10.8565
影音	-10.8566
坚强	-10.8567
质感	-10.8567
预装	-10.8568
婆婆	-10.8568
婚变	-10.8569
气息	-10.857
原料	-10.857
页面	-10.8573
交往	-10.8575
打新	-10.8576
什么样的	-10.8579
去世	-10.858
史上	-10.8583
很喜欢	-10.8584
另一位	-10.8585
行列	-10.8585
向来	-10.8587
书写	-10.8588
青海	-10.8589
即时	-10.8593
这一切	-10.8596
投资总监	-10.8599
可谓是	-10.8601
est	-10.8604
市场人士	-10.861
战中	-10.8612
当场	-10.8618
轮比赛	-10.862
重回	-10.862
4500	-10.8623
二本	-10.863
不仅是	-10.8632
为止	-10.8635
还可	-10.8638
日内	-10.8645
当选	-10.8649
1101	-10.8649
每桶	-10.865
专业学位	-10.8651
小型	-10.8655
na	-10.8657
元左右	-10.8658
动画	-10.8661
5.9	-10.8665
昨日下午	-10.8671
在明年	-10.868
都非常	-10.8681
列入	-10.8691
中端	-10.8693
上任	-10.8696
灰	-10.8697
鸟	-10.8705
中信	-10.8706
报告显示	-10.8709
准备了	-10.8713
470	-10.8715
车辆	-10.8717
夹	-10.8717
林宥嘉	-10.8717
宅	-10.8717
剪	-10.8718
莫拉蒂	-10.8718
栋	-10.8718
穷	-10.8718
谦	-10.8718
辅助	-10.8718
催	-10.8718
佐	-10.8718
侯佩岑	-10.8718
Google	-10.8718
ight	-10.8718
甘蔗	-10.8718
口碑	-10.8718
赶到	-10.8718
路易斯	-10.8718
GDP	-10.8719
混乱	-10.8719
揭晓	-10.8719
义务	-10.8719
天赋	-10.872
得好	-10.872
热刺	-10.872
乐坛	-10.8721
星爷	-10.8721
应用程序	-10.8722
分析人士认为	-10.8723
超薄	-10.8725
哥哥	-10.8725
中小企业	-10.8725
作答	-10.8725
宝贝	-10.8727
成考	-10.8727
西甲	-10.8727
本科专业	-10.8728
未必	-10.8728
助手	-10.8729
相差	-10.8729
条款	-10.8729
毕业后	-10.8732
财报	-10.8732
沙特	-10.8733
赛程	-10.8735
调查显示	-10.8738
斥	-10.8749
业内人士表示	-10.8749
成像	-10.875
透过	-10.8753
更快	-10.8757
等多种	-10.8761
排队	-10.8763
7.9	-10.8763
所有人	-10.8764
如果说	-10.8769
意思	-10.877
让大家	-10.8777
old	-10.8778
塑造	-10.8779
亚太	-10.8781
大哥	-10.8783
高手	-10.8788
征集	-10.8789
市场价格	-10.8796
首战	-10.8801
二次	-10.8803
1999	-10.8804
大赞	-10.8807
没人	-10.8809
这就	-10.881
▁文章	-10.8811
庭	-10.8811
上阵	-10.882
保持着	-10.882
mo	-10.882
初期	-10.8821
规避	-10.8822
治理	-10.8823
其实是	-10.8826
等问题	-10.8827
SE	-10.8839
的任务	-10.8843
起点	-10.8846
权益	-10.8855
The	-10.8856
回国	-10.8858
增多	-10.8859
230	-10.8859
走上	-10.8862
只好	-10.8865
可以说是	-10.8865
曾表示	-10.8874
驾	-10.8875
奎	-10.8876
近年	-10.8876
池	-10.8877
谢谢	-10.8878
奉	-10.8878
亡	-10.8878
熙	-10.8879
驰	-10.8879
勋	-10.8879
婷	-10.8879
仿	-10.8879
锅	-10.8879
滨	-10.8879
步行者	-10.8879
媛	-10.8879
拉莫斯	-10.8879
烦	-10.8879
驾驶	-10.8879
逸	-10.888
海耶斯	-10.888
外出	-10.888
报告中	-10.888
涵盖	-10.888
干旱	-10.888
上一场	-10.8881
鱼鱼	-10.8881
只新基金	-10.8881
艺术特长生	-10.8881
试训	-10.8881
勒布朗	-10.8881
试验	-10.8881
卫冕冠军	-10.8882
兼容	-10.8882
戴琳	-10.8882
绝杀	-10.8883
瑞士	-10.8884
出众	-10.8887
要知道	-10.8887
省招办	-10.8887
透明	-10.8888
看见	-10.8889
应付	-10.889
物品	-10.889
的对象	-10.889
eon	-10.8893
主场迎战	-10.8895
北美	-10.8897
投保	-10.8898
这样一个	-10.8898
服务器	-10.8899
德比	-10.89
行程	-10.8902
不久前	-10.8903
会继续	-10.8904
迎接	-10.8905
特地	-10.8907
乃至	-10.8908
背景下	-10.8909
大屏幕	-10.8911
称自己	-10.8915
卡片	-10.8917
队中	-10.8918
出国留学	-10.8918
后续	-10.8918
节目中	-10.8918
上限	-10.892
的焦点	-10.8925
告知	-10.8926
少了	-10.8926
难道	-10.8929
省份	-10.8929
不管是	-10.8929
操作上	-10.8931
框	-10.8934
参观	-10.8938
一直没有	-10.894
解答	-10.8954
玩具	-10.8955
在客场	-10.8956
最重要	-10.8958
年开始	-10.8959
证件	-10.8959
那时	-10.8959
首都	-10.8974
记者会	-10.8975
也成为	-10.8977
只会	-10.898
的意思	-10.898
下降了	-10.8983
一所	-10.8983
法国队	-10.8986
TM	-10.8988
见面会	-10.899
类型的	-10.8995
表达了	-10.8995
只不过	-10.9004
可选	-10.9004
线下	-10.9005
王刚	-10.9008
以免	-10.9009
出身	-10.9015
两市	-10.9016
顾客	-10.9024
礼服	-10.9027
球门	-10.903
故意	-10.9031
五大	-10.9033
荡	-10.9039
幼	-10.9042
斤	-10.9043
李泽楷	-10.9043
省教育厅	-10.9043
逗	-10.9043
屡	-10.9043
总计	-10.9043
亚足联	-10.9043
钱德勒	-10.9043
遮	-10.9043
酿	-10.9043
法拉利	-10.9044
暑假	-10.9044
欧盟	-10.9044
以下简称	-10.9044
阻止	-10.9044
对他的	-10.9045
富豪	-10.9046
感叹	-10.9046
体操	-10.9047
助阵	-10.9047
摄影师	-10.9048
不同的是	-10.9048
装置	-10.9048
体积	-10.9049
热议	-10.9049
哲学	-10.905
投研	-10.905
谈论	-10.9051
破解	-10.9051
姓名	-10.9052
980	-10.9052
马竞	-10.9053
随意	-10.9054
圣诞节	-10.9055
训练中	-10.9056
强队	-10.9059
清盘	-10.9061
唱片公司	-10.9061
4.8	-10.9061
真的很	-10.9064
赢球	-10.9064
升水	-10.9064
投档线	-10.9065
平常	-10.9065
资料显示	-10.9075
全体	-10.9076
相处	-10.9078
校区	-10.9078
生死	-10.908
做过	-10.908
定投	-10.9081
只想	-10.9085
边框	-10.9087
投中	-10.9089
进而	-10.9091
这笔	-10.9094
查看	-10.9097
并表示	-10.9099
CD	-10.91
发动	-10.9101
眼中	-10.9101
通用	-10.9103
8.8	-10.9104
东家	-10.9109
入市	-10.9109
ov	-10.9109
合资	-10.9111
投资者对	-10.9111
亿元人民币	-10.9112
9.7	-10.9115
那就	-10.9118
大致	-10.9118
4.1	-10.9119
5.1	-10.912
几款	-10.9121
完全可以	-10.9122
以下是	-10.9124
意识到	-10.9137
网店	-10.9138
CF	-10.9141
ant	-10.9143
考试科目	-10.9144
胆	-10.9148
不喜欢	-10.9153
希望大家	-10.9156
6.2	-10.9156
010-	-10.9162
还原	-10.9163
报道称	-10.9163
好处	-10.9167
提醒考生	-10.9168
过度	-10.917
去看	-10.9175
AF	-10.9177
作为一个	-10.9177
ack	-10.918
了许多	-10.9181
640	-10.9183
交出	-10.9186
万台	-10.919
7.7	-10.9191
原有	-10.9196
▁参考价	-10.9196
宾	-10.9197
减少了	-10.9199
违	-10.92
非常出色	-10.9203
柱	-10.9205
不应该	-10.9205
敲	-10.9207
植	-10.9208
蜜	-10.9209
瑟	-10.921
吐	-10.921
王治郅	-10.921
贝克汉姆	-10.921
严肃	-10.921
眉	-10.921
萎缩	-10.921
踩	-10.921
伊涅斯塔	-10.921
陈志云	-10.921
僵	-10.921
沙尔克	-10.921
勃	-10.921
漏洞	-10.9211
客服	-10.9211
追究	-10.9211
角逐	-10.9212
也希望	-10.9212
迈克	-10.9213
职务	-10.9213
副总经理	-10.9213
孔杰	-10.9214
▁In	-10.9214
终结	-10.9214
消失	-10.9214
打扮	-10.9216
商场	-10.9216
基金会	-10.9217
可转债	-10.9218
制造商	-10.9218
不止	-10.9218
斯托	-10.9219
答应	-10.922
陈琳	-10.9221
电源	-10.9222
阿泰	-10.9222
强悍	-10.9223
见证	-10.9225
记者采访	-10.9226
论文	-10.9227
随机	-10.9227
资产规模	-10.9229
标配	-10.9229
ion	-10.9229
长城	-10.9234
599	-10.9235
情况看	-10.9235
开支	-10.9237
21.	-10.9238
多达	-10.9239
升学	-10.924
会议上	-10.9241
股票型	-10.9241
双双	-10.9251
新书	-10.9256
国青	-10.9257
二级	-10.9259
第三次	-10.9264
四级	-10.9264
这种情况	-10.9265
几乎是	-10.9265
解放	-10.9267
数百	-10.9267
在台湾	-10.9269
上市时间	-10.9271
是一名	-10.9272
小朋友	-10.9277
的战术	-10.9277
个唱	-10.9278
8.9	-10.9279
9.9	-10.9285
的收益率	-10.9287
产生了	-10.9287
两轮	-10.9288
小布	-10.9289
得主	-10.9294
前四	-10.9299
液晶	-10.93
所得	-10.9301
每股	-10.9303
平均分	-10.9303
摄像	-10.9309
多项	-10.9311
参与了	-10.9313
更高的	-10.9313
成交价	-10.9314
分析人士	-10.9314
掉了	-10.9315
到最后	-10.9316
分钟后	-10.9318
单打	-10.9319
排名第一	-10.932
比较大	-10.9321
的射门	-10.9327
25%	-10.933
是否有	-10.933
目前国内	-10.9333
中国互联网	-10.9333
给力	-10.9338
势必	-10.9338
把球	-10.934
第二个	-10.9345
不少人	-10.9348
▁值得注意的是	-10.935
原定	-10.9352
未经	-10.9353
从今年	-10.9358
绝对是	-10.9361
单一	-10.9362
作业	-10.9363
一志愿	-10.9364
姓	-10.9369
自家	-10.9373
佛	-10.9375
妆	-10.9376
尝	-10.9377
宽屏	-10.9378
示范	-10.9378
掩	-10.9378
省市	-10.9378
押	-10.9379
尹	-10.9379
旺季	-10.9379
工银瑞信	-10.9379
竹	-10.9379
组委会	-10.9379
腐	-10.9379
创始人	-10.938
张庆鹏	-10.938
萧	-10.938
NVIDIA	-10.938
骄傲	-10.938
诱惑	-10.938
偏股基金	-10.938
疏	-10.938
严厉	-10.938
忽略	-10.938
姐妹	-10.938
侵犯	-10.938
ip	-10.938
电子邮件	-10.9382
连锁	-10.9382
感染	-10.9383
课堂	-10.9385
搞笑	-10.9385
宾得	-10.9386
夺取	-10.9387
找回	-10.9387
男士	-10.9387
同时也是	-10.9388
领跑	-10.9388
队内	-10.9388
多空	-10.9389
增至	-10.9389
平仓	-10.939
患者	-10.939
赌王	-10.939
豪华	-10.9391
罚款	-10.9391
各有	-10.9391
告诉我	-10.9393
投资机会	-10.9393
都知道	-10.9395
新兴	-10.9398
可供	-10.9406
成名	-10.9408
股票仓位	-10.941
和谐	-10.9411
其后	-10.9416
传说	-10.9417
ive	-10.942
8.7	-10.9424
格外	-10.943
不行	-10.9431
开工	-10.9434
公里	-10.9437
哪里	-10.9437
阳光私募	-10.9443
面临着	-10.9453
考题	-10.9464
生子	-10.9466
把他	-10.9468
历年	-10.9471
BD	-10.9471
并无	-10.9472
有信心	-10.9476
年下半年	-10.9476
名气	-10.9482
消息称	-10.9489
舒适	-10.9492
颇有	-10.9492
这部分	-10.9494
有一定的	-10.9494
不过他	-10.9495
拍电影	-10.9496
不会有	-10.9499
报名时间	-10.9503
看点	-10.9507
朋友们	-10.9511
帖	-10.9512
每天都	-10.9514
定期	-10.9519
基础知识	-10.9524
ED	-10.9531
少女	-10.9531
种植	-10.9534
图为	-10.9536
▁5.	-10.9539
便利	-10.9539
咏	-10.954
非常大	-10.9541
湘	-10.9541
揭	-10.9544
帽	-10.9545
宠	-10.9547
有两个	-10.9547
琼	-10.9548
仅仅是	-10.9548
卫冕	-10.955
赤	-10.955
丧	-10.955
盯	-10.955
嫌	-10.9551
扰	-10.9551
堡	-10.9551
俄	-10.9551
桃	-10.9552
的青睐	-10.9552
凶	-10.9552
渐渐	-10.9552
厉害	-10.9552
爸	-10.9552
秩序	-10.9552
西游记	-10.9552
知识产权	-10.9552
恐慌	-10.9552
洽	-10.9552
毫无疑问	-10.9552
凸显	-10.9552
朵	-10.9552
豪宅	-10.9552
扩容	-10.9552
副主任	-10.9553
中关村在线	-10.9553
残疾	-10.9553
邓肯	-10.9553
增大	-10.9555
食物	-10.9555
要做	-10.9556
参照	-10.9556
II	-10.9556
公示	-10.9556
书中	-10.9557
干净	-10.9557
毕比	-10.9557
实惠	-10.9557
制作人	-10.9558
正规	-10.9558
目录	-10.9558
劳动	-10.9559
参与股指期货	-10.9561
这时	-10.9562
黑棋	-10.9564
请求	-10.9564
作文题	-10.9566
枪手	-10.9567
▁II	-10.9567
6.7	-10.9568
LE	-10.9574
内置了	-10.9574
启用	-10.9575
长春	-10.9585
录取结果	-10.9586
一台	-10.9589
换上	-10.9591
所属	-10.9591
华商	-10.9592
性能方面	-10.9592
单反相机	-10.9595
放量	-10.9602
不失	-10.9604
持股	-10.9605
瘾	-10.9607
先行	-10.9611
称赞	-10.9613
呈现出	-10.9616
英语考试	-10.9619
做工	-10.962
给出了	-10.9621
的原则	-10.9633
所谓的	-10.9634
不受	-10.9635
最少	-10.9641
投资策略	-10.965
▁do	-10.9657
单边	-10.9658
都已经	-10.9658
per	-10.9665
9.6	-10.9665
债券市场	-10.9665
部长	-10.9671
宜	-10.9675
世界排名	-10.9677
老总	-10.9679
而现在	-10.9679
化妆	-10.968
万家	-10.9684
融通	-10.9691
心理学	-10.9693
头发	-10.9699
看待	-10.97
个专业	-10.9701
对自己的	-10.9704
9.4	-10.9707
进场	-10.9711
内外	-10.9712
512	-10.9713
115	-10.9713
新基金发行	-10.9716
觉得自己	-10.9718
役	-10.9721
兑	-10.9723
瑞和小康	-10.9727
巩俐	-10.9727
脏	-10.9727
邵	-10.9727
狮	-10.9727
有限责任公司	-10.9727
瑶	-10.9727
婧	-10.9727
仗	-10.9727
肢	-10.9727
弟弟	-10.9727
闪光灯	-10.9727
DIGIC	-10.9727
eBay	-10.9728
焦距	-10.9728
充裕	-10.9728
全日制	-10.9728
的身影	-10.9728
简洁	-10.9729
死亡	-10.9729
现状	-10.9729
营养	-10.973
协助	-10.973
快递	-10.973
RIM	-10.973
资质	-10.9731
热烈	-10.9731
降幅	-10.9732
频率	-10.9733
阻力	-10.9734
改编	-10.9734
升温	-10.9735
司机	-10.9736
左路	-10.9737
基本金属	-10.974
定义	-10.9741
RB	-10.9741
连连	-10.9742
商店	-10.9743
专题	-10.9744
差别	-10.9748
步入	-10.9749
附加	-10.975
所致	-10.9752
学者	-10.9754
合唱	-10.9755
精心	-10.9756
考频道	-10.9757
驱	-10.9763
目前已经	-10.9764
华语	-10.9765
江苏队	-10.9768
上次	-10.9774
净值增长率为	-10.9775
穿上	-10.9778
:2009	-10.9782
更改	-10.9783
信息化	-10.9784
总成绩	-10.9785
全家	-10.9791
最喜欢	-10.9791
记住	-10.9795
Mo	-10.9797
早籼稻	-10.9799
漂亮的	-10.9807
马尔	-10.9809
ey	-10.9814
be	-10.9816
▁通讯员	-10.9817
我自己	-10.9818
连得	-10.9818
移动通信	-10.9819
来看看	-10.9825
所能	-10.9828
上一次	-10.9828
第三批	-10.9828
PM	-10.9834
一篇	-10.9834
不是很	-10.9835
这三	-10.9836
期末	-10.9844
予	-10.9845
身着	-10.9852
经纪	-10.9853
得多	-10.9857
是我的	-10.9858
要把	-10.9859
受欢迎	-10.9861
的迹象	-10.9864
暴风	-10.9864
co	-10.9865
原糖	-10.9866
婆	-10.9872
人类	-10.9873
征求志愿	-10.9885
发帖	-10.989
笔记本采用	-10.9892
窄	-10.9904
译	-10.9905
仇	-10.9905
疯	-10.9905
封闭	-10.9905
孕	-10.9905
疗	-10.9905
妥	-10.9906
狗	-10.9906
俱	-10.9906
羊	-10.9906
上证综指	-10.9906
招生简章	-10.9906
乳	-10.9906
耍	-10.9906
滩	-10.9906
孙燕姿	-10.9906
陪伴	-10.9906
悟	-10.9906
叠	-10.9906
熬	-10.9906
广厦	-10.9906
诺维茨基	-10.9906
莹	-10.9906
倩	-10.9906
纺织	-10.9906
贬值	-10.9906
老鼠仓	-10.9907
游泳	-10.9907
朱骏	-10.9907
一看	-10.9907
构建	-10.9908
陆川	-10.9908
官司	-10.9908
迪拜	-10.9908
继承	-10.9909
奇迹	-10.9909
招生院校	-10.9909
部署	-10.991
运输	-10.991
足够的	-10.991
帮忙	-10.991
彩排	-10.9911
260	-10.9911
装修	-10.9914
一律	-10.9916
当下	-10.9916
后悔	-10.9917
by	-10.9917
岁月	-10.9919
深证	-10.9919
也已	-10.9922
安静	-10.9926
哈利	-10.9928
全景	-10.9929
偏出	-10.9932
着手	-10.9932
红军	-10.9938
室内	-10.994
上升到	-10.994
为期	-10.9941
除非	-10.9942
月份以来	-10.9943
击败了	-10.9947
边锋	-10.9948
力争	-10.9948
MO	-10.995
万色	-10.9951
追平	-10.9954
分差	-10.9954
书面	-10.9955
出击	-10.9957
得出	-10.9961
赛道	-10.9961
成立于	-10.9964
监管层	-10.9965
.00	-10.9969
ATI	-10.9969
中超联赛	-10.9978
上个月	-10.998
克斯	-10.9984
关注度	-10.9989
业绩表现	-10.9989
昨天下午	-10.9989
▁DDR	-10.9994
舞台上	-10.9997
仍处于	-10.9999
丹麦	-11
的一大	-11
不忘	-11.0002
采用的是	-11.0004
一杆	-11.0008
发布会上	-11.0009
随之	-11.0011
附中	-11.0012
给你	-11.0015
的第一个	-11.0023
硕士学位	-11.0024
眼镜	-11.0026
报名参加	-11.0027
▁惠普	-11.0027
专业课	-11.0028
薪水	-11.0033
十几	-11.0034
如同	-11.0036
发生在	-11.004
可靠	-11.0044
养老	-11.0047
好男人	-11.0051
驱动	-11.0051
如果没有	-11.0051
工行	-11.0052
早早	-11.0059
发力	-11.0059
旋	-11.006
形容	-11.0063
纲	-11.0067
学子	-11.0069
傅	-11.0075
蓝筹	-11.0077
例子	-11.0081
名模	-11.0082
最后一次	-11.0082
趁	-11.0084
阶	-11.0086
淘	-11.0086
巾	-11.0087
感慨	-11.0087
汗	-11.0087
暨	-11.0087
加大了	-11.0088
仅次于	-11.0088
璇	-11.0088
菁	-11.0088
彬	-11.0088
棚	-11.0088
滕	-11.0088
温馨	-11.0088
乙烯	-11.0088
博尔特	-11.0088
乖	-11.0088
史玉柱	-11.0088
无线网卡	-11.0088
纪律	-11.0088
钦	-11.0088
检验	-11.0088
靓丽	-11.0088
宾馆	-11.0089
彼此	-11.0089
韦迪	-11.0089
违反	-11.0089
乘坐	-11.009
市教育局	-11.009
境内	-11.0091
希望通过	-11.0091
轮胎	-11.0091
▁自考	-11.0091
旁边	-11.0091
饭店	-11.0092
引发了	-11.0092
案例	-11.0092
播放器	-11.0092
闪电	-11.0092
药品	-11.0093
ous	-11.0093
偶像剧	-11.0094
预料	-11.0094
国储	-11.0094
武器	-11.0094
主题曲	-11.0094
创办	-11.0094
直销	-11.0096
训练营	-11.0096
民办	-11.0097
放宽	-11.0097
公关	-11.0098
付费	-11.0098
银色	-11.0099
主义	-11.0099
原材料	-11.0101
热评	-11.0101
if	-11.0103
促使	-11.0103
审理	-11.0103
业内人士认为	-11.0105
录取分数	-11.0106
观念	-11.0108
变身	-11.0108
目前已	-11.0112
高效	-11.0113
周日	-11.0114
no	-11.0114
伤情	-11.0118
ind	-11.0121
很久	-11.0122
产区	-11.0123
重建	-11.0125
三家	-11.0126
格林	-11.0128
bo	-11.013
房产	-11.013
过关	-11.013
属性	-11.0131
民生	-11.0131
1800	-11.0133
7.3	-11.0134
高清摄像	-11.0137
视频网站	-11.0139
风情	-11.0143
场馆	-11.0145
拉升	-11.0156
为您	-11.0164
支出	-11.017
而非	-11.0174
新浪网	-11.0175
报收于	-11.0175
再一次	-11.0176
眼前	-11.0184
一次性	-11.0189
预订	-11.0201
后果	-11.0204
好朋友	-11.0209
存储卡	-11.021
也比较	-11.0218
老大	-11.022
张专辑	-11.0221
数十	-11.0221
三分命中	-11.0222
ER	-11.0228
保证了	-11.0232
7.1	-11.0235
上报	-11.0235
八一	-11.0236
剧集	-11.0239
这个赛季	-11.024
堪	-11.0243
近两年	-11.0244
杀手	-11.0248
维尔	-11.0251
并不能	-11.0258
慎	-11.0269
阿里巴巴	-11.0271
墨	-11.0271
荷	-11.0272
堆	-11.0272
姿	-11.0272
梁洛施	-11.0272
拐	-11.0273
歇	-11.0273
郑中基	-11.0273
激励	-11.0273
辨	-11.0273
国际足联	-11.0273
爬	-11.0273
科特布斯	-11.0273
设施	-11.0273
羡慕	-11.0273
ESPN	-11.0273
小语种	-11.0273
昕	-11.0273
FIA	-11.0273
碧	-11.0273
山寨	-11.0273
头衔	-11.0273
痴	-11.0273
少数民族	-11.0273
忍不住	-11.0274
片酬	-11.0274
浓厚	-11.0274
汇丰	-11.0275
乔丹	-11.0275
租借	-11.0275
惊艳	-11.0276
尽显	-11.0277
暴涨	-11.0277
参加考试	-11.0277
工商银行	-11.028
依次	-11.0281
明朗	-11.0282
转入	-11.0284
专业考试	-11.0284
奇怪	-11.0284
报考人数	-11.0285
错失	-11.0285
---	-11.0287
牵手	-11.0287
收集	-11.0287
研究院	-11.0288
趋于	-11.0291
怀特	-11.0291
投资管理	-11.0291
局限	-11.0295
排除	-11.0295
增长率	-11.0295
旨在	-11.03
网银	-11.0303
身后	-11.0304
集中在	-11.0306
FZ	-11.0307
额外	-11.0307
研究报告	-11.0307
尼克	-11.0308
拍到	-11.0308
新政	-11.0308
愤怒	-11.031
很开心	-11.0311
1998	-11.0311
年起	-11.0313
广场	-11.0314
普通高考	-11.0316
重仓股	-11.0317
考区	-11.0319
热爱	-11.0326
极其	-11.0328
280	-11.0328
这几天	-11.0329
笑着说	-11.033
独自	-11.0331
ther	-11.0333
个城市	-11.0335
ap	-11.0335
ID	-11.0335
入网	-11.0335
经济数据	-11.0337
配置上	-11.0341
作为一款	-11.0343
服从	-11.035
巴里	-11.0351
向记者	-11.0351
还是比较	-11.0354
三名	-11.0356
ish	-11.0359
做空	-11.0364
▁can	-11.0365
长盛	-11.0366
韩国队	-11.0369
上世纪	-11.0374
战胜了	-11.0378
当红	-11.0381
周六	-11.0382
每周	-11.0386
军团	-11.0387
为球队	-11.0389
万部	-11.039
公募	-11.0395
好多	-11.0395
无关	-11.0399
较少	-11.0399
只得	-11.0405
很小	-11.0405
在英国	-11.041
170	-11.0415
移民政策	-11.0417
飙	-11.0418
碰到	-11.0418
私下	-11.0436
pr	-11.0439
视角	-11.0442
权重	-11.0445
套装	-11.0445
Ro	-11.045
虹	-11.045
忆	-11.0458
蓉	-11.0458
骏	-11.0459
织	-11.0459
狱	-11.046
尘	-11.046
波士顿	-11.0461
烂	-11.0461
炸	-11.0461
未成年人	-11.0461
湿	-11.0461
嫩	-11.0461
大商所	-11.0461
市盈率	-11.0461
誓	-11.0461
殷	-11.0461
愁	-11.0461
瑞福进取	-11.0462
淑	-11.0462
杜兰特	-11.0462
李冰冰	-11.0462
许晋亨	-11.0462
何润东	-11.0462
爱尔兰	-11.0462
辰	-11.0462
臧天朔	-11.0462
瓶	-11.0462
挂钩	-11.0462
盒	-11.0462
TCL	-11.0462
璐	-11.0462
物联网	-11.0462
一季报	-11.0462
徒弟	-11.0462
拜纳姆	-11.0462
抛储	-11.0462
妍	-11.0462
膝盖	-11.0462
奶奶	-11.0463
丧失	-11.0463
图形	-11.0463
水泥	-11.0463
压缩	-11.0463
能不能	-11.0464
开工率	-11.0465
沪铝	-11.0465
聘请	-11.0465
开幕式	-11.0465
扎实	-11.0466
左脚	-11.0466
非洲	-11.0466
树立	-11.0467
停牌	-11.0467
布置	-11.0467
热闹	-11.0467
展望	-11.0468
怎么样	-11.0468
气候	-11.0469
在这一	-11.047
民众	-11.0471
因伤	-11.0471
阿伦	-11.0473
埃尔	-11.0473
way	-11.0474
街头	-11.0476
巴西队	-11.0477
眼神	-11.0478
关键词	-11.0478
那天	-11.0478
比利亚	-11.0479
ore	-11.0485
火山	-11.0486
8.4	-11.0486
热卖	-11.0486
档期	-11.0487
神经	-11.0488
我不会	-11.0489
我们必须	-11.0489
厂家	-11.049
被指	-11.0491
保持了	-11.0495
红歌	-11.0496
尽可能	-11.05
结构性	-11.05
另外一个	-11.0502
周杰	-11.0503
写道	-11.0507
抢下	-11.0508
后腰	-11.0509
被称为	-11.0509
新剧	-11.051
进度	-11.0511
一号	-11.0514
全场比赛	-11.0517
回到了	-11.0518
所有人都	-11.0523
股票市场	-11.0523
采访中	-11.0527
CO	-11.0528
第一名	-11.0531
男性	-11.0532
打动	-11.0535
所以我们	-11.0536
诸	-11.0537
地面	-11.0547
德克	-11.0548
全美	-11.0549
十字	-11.0552
8.1	-11.0552
日报道	-11.0554
在片中	-11.0557
针对性	-11.0559
南下	-11.0561
提升了	-11.0564
我们需要	-11.0568
第一轮	-11.0568
体育场	-11.0569
截至目前	-11.0572
将迎来	-11.0573
交易量	-11.0574
为了让	-11.0585
社保基金	-11.0586
第九	-11.0587
中国选手	-11.0589
二代	-11.059
好消息	-11.0595
预赛	-11.0603
主权	-11.0608
精确	-11.061
可信	-11.0611
特长	-11.0613
ost	-11.0618
庞	-11.062
第一天	-11.062
赶上	-11.0625
海外市场	-11.0626
9.3	-11.0627
塞尔	-11.0629
实地	-11.0632
是谁	-11.0638
于震	-11.0646
两只	-11.0646
噪	-11.0651
厨	-11.0653
阔	-11.0653
藤	-11.0653
骚	-11.0653
张学友	-11.0653
铲	-11.0654
调侃	-11.0654
红楼梦	-11.0654
汪小菲	-11.0654
喷	-11.0654
摔	-11.0654
彪	-11.0654
恤	-11.0654
森林狼	-11.0654
岚	-11.0654
乙	-11.0654
汉密尔顿	-11.0654
不确定性	-11.0654
玮	-11.0654
安切洛蒂	-11.0654
市教委	-11.0654
横扫	-11.0655
抄底	-11.0655
决策	-11.0655
编译	-11.0655
孙继海	-11.0655
功臣	-11.0655
监考	-11.0655
拘留	-11.0655
警察	-11.0655
疑似	-11.0655
形态	-11.0655
坚挺	-11.0656
扩招	-11.0656
专栏	-11.0656
修订	-11.0656
乐趣	-11.0657
封盖	-11.0658
首映	-11.0658
共享	-11.0658
谷物	-11.0658
双手	-11.0658
ICE	-11.0658
原始	-11.0659
盘整	-11.066
多久	-11.0661
味道	-11.0663
剩下的	-11.0665
发布公告	-11.0665
求婚	-11.0667
同比下降	-11.0669
应急	-11.067
降级	-11.067
招标	-11.0671
咨询电话	-11.0672
留意	-11.0672
开户数	-11.0673
建信	-11.0676
电子书	-11.0676
笔者认为	-11.0679
站出来	-11.0679
加强对	-11.0682
并列	-11.0686
电视节目	-11.0686
快捷	-11.069
6.0	-11.069
高盛	-11.0697
跑赢	-11.0706
这点	-11.0709
前辈	-11.0711
冲高	-11.0717
前提	-11.0718
两款	-11.0719
初三	-11.0721
已成为	-11.0724
将进一步	-11.0728
8.6	-11.0729
着急	-11.0729
ment	-11.0731
暴露	-11.0735
扩	-11.0737
国际教育	-11.0739
或者是	-11.0739
ru	-11.074
出场时间	-11.0742
负于	-11.0745
有传	-11.0749
报名点	-11.0752
我们已经	-11.0753
占据了	-11.0757
单身	-11.0767
中小学	-11.0768
序	-11.0771
商务部	-11.0776
拍摄时	-11.0778
伟大	-11.0778
越南	-11.0785
淘宝网	-11.0792
高水平	-11.0796
能量	-11.0797
上游	-11.0817
部分基金	-11.0818
尺	-11.0819
看出	-11.082
真相	-11.082
晚间	-11.082
日公布	-11.0823
券	-11.0824
古装	-11.0827
不易	-11.0827
汉语	-11.0829
入学考试	-11.0832
其实我	-11.0833
下一个	-11.0834
分级	-11.0843
泄	-11.0844
考生须	-11.0844
布鲁克	-11.0846
扭	-11.0846
弊	-11.0848
培	-11.0848
揽	-11.0849
冻	-11.0849
出席了	-11.0849
抹	-11.0849
臣	-11.085
陈慧琳	-11.085
嫂	-11.085
韵	-11.085
俞	-11.085
李宗伟	-11.085
烦恼	-11.085
奥斯卡	-11.085
斜	-11.085
日均线	-11.085
淫	-11.085
802.11	-11.085
捐赠	-11.085
撒	-11.085
茜	-11.085
篮筐	-11.085
笔记	-11.0851
完毕	-11.0851
秋季	-11.0854
自考办	-11.0854
晨报记者	-11.0854
多元化	-11.0854
江湖	-11.0855
引领	-11.0855
精英	-11.0855
本节还有	-11.0856
柯达	-11.0856
既有	-11.0856
转债	-11.0857
原理	-11.0858
先锋	-11.0858
长途	-11.0859
生态	-11.0859
亲友	-11.0859
约会	-11.0859
防范	-11.0861
线材	-11.0861
任职	-11.0862
合影	-11.0862
万元人民币	-11.0866
肯定是	-11.0868
展现出	-11.0871
红牌	-11.0871
专家建议	-11.0871
风景	-11.0872
流动	-11.0873
网易	-11.0874
准备好	-11.0874
第一季度	-11.0874
下一步	-11.0875
注意力	-11.0876
几何	-11.0877
旋转	-11.088
男孩	-11.0881
长大	-11.0882
设计师	-11.0882
第八	-11.0883
很高的	-11.0885
假如	-11.0887
水星	-11.0887
两只基金	-11.0891
一对一	-11.0893
连拍	-11.0894
感受到	-11.0895
亿吨	-11.0897
文理科	-11.0905
低估	-11.0905
演讲	-11.0907
平均每	-11.0909
来得	-11.091
基金发行	-11.091
过往	-11.0916
前者	-11.0917
赴美	-11.0917
修正	-11.0933
交易商	-11.0935
法学	-11.0939
光大	-11.0942
过高	-11.0943
报名信息	-11.0947
银行卡	-11.0948
用心	-11.0949
均可	-11.095
你要	-11.0951
确	-11.0951
可以选择	-11.0952
基金投资	-11.0953
实时	-11.0955
这首歌	-11.0956
雷诺	-11.0957
ak	-11.0957
清新	-11.096
不良	-11.0962
后台	-11.0964
激发	-11.0966
也是一个	-11.0972
排名前	-11.0972
较快	-11.0973
第二季度	-11.0974
旗下基金	-11.0974
我跟	-11.0975
级别的	-11.0976
专业志愿	-11.0983
胜出	-11.0987
多方	-11.0991
遇到了	-11.1007
在哪里	-11.1011
更强	-11.1013
金融市场	-11.1019
在赛后	-11.1026
都不会	-11.1031
天使	-11.1035
涵	-11.1043
2500	-11.1047
浦	-11.1048
府	-11.1049
筒	-11.1049
蔡康永	-11.105
督	-11.105
腔	-11.105
全运会	-11.105
°	-11.105
鼻	-11.105
蔓延	-11.105
咬	-11.105
本泽马	-11.105
窝	-11.105
卡西欧	-11.105
薪酬	-11.105
▁晨报讯	-11.105
休斯敦	-11.105
林俊杰	-11.105
姑娘	-11.1051
陈一冰	-11.1051
缓慢	-11.1052
VIP	-11.1052
阵营	-11.1052
辞职	-11.1053
巨额	-11.1053
sina	-11.1053
兼顾	-11.1053
波什	-11.1053
访谈	-11.1054
富士通	-11.1056
芯片组	-11.1057
抗跌	-11.1057
翻唱	-11.1057
果然	-11.1058
支付宝	-11.1058
潮流	-11.1058
中后卫	-11.1059
攻读	-11.106
下探	-11.1061
最受欢迎	-11.1062
主观	-11.1064
包装	-11.1065
新兴产业	-11.1065
ers	-11.1066
禁区内	-11.1066
比起	-11.1067
只产品	-11.1071
救市	-11.1073
史上最	-11.1073
行货	-11.1075
公主	-11.1075
查处	-11.1076
解约	-11.1077
定位球	-11.1078
句子	-11.1079
座位	-11.1081
宣称	-11.1081
关爱	-11.1081
增发	-11.1084
给他们	-11.1084
打出了	-11.1087
非常不错	-11.1088
重现	-11.1089
恒大	-11.1091
dv	-11.1095
到底是	-11.1095
比较好	-11.1095
场合	-11.1097
套保	-11.11
第一节	-11.1106
委员	-11.111
IE	-11.1111
低风险	-11.1114
积极性	-11.1116
前一天	-11.1116
让观众	-11.1117
投资基金	-11.1117
指控	-11.1119
一下子	-11.1119
上诉	-11.1126
适度	-11.1128
前进	-11.1129
正如	-11.113
迟到	-11.1131
这张	-11.1133
极大的	-11.1135
多年来	-11.1138
代言人	-11.1139
也无法	-11.1148
重重	-11.1151
?”“	-11.1157
经济发展	-11.1158
扮	-11.1159
也只有	-11.116
输给了	-11.1163
1/4	-11.1164
扑出	-11.1169
就曾	-11.1172
海报	-11.1173
机遇	-11.1176
分钟内	-11.1181
lin	-11.1181
峰会	-11.1202
总部	-11.1202
女孩子	-11.1202
丝毫	-11.1209
记者获悉	-11.1213
最爱	-11.1215
经济体	-11.122
很快就	-11.1223
没法	-11.1224
停留	-11.1231
涉及到	-11.1232
所需	-11.1232
反映了	-11.124
皇帝	-11.1242
径	-11.1249
外国语	-11.1251
轴	-11.1252
披	-11.1253
柴	-11.1253
郑秀文	-11.1254
滴	-11.1254
廖	-11.1254
扔	-11.1254
昏	-11.1254
衰	-11.1254
逛	-11.1254
扯	-11.1254
墨西哥	-11.1254
霞	-11.1254
甄子丹	-11.1254
TUNGSTAR	-11.1254
挖掘	-11.1254
李宇春	-11.1254
艰苦	-11.1255
追踪	-11.1255
威廉	-11.1255
吸毒	-11.1255
▁Rad	-11.1255
英特尔酷睿	-11.1256
复核	-11.1256
农民工	-11.1256
合肥	-11.1257
申办	-11.1257
发球	-11.1258
元旦	-11.1258
结束之后	-11.1259
评审	-11.1259
答卷	-11.1259
实验班	-11.1259
还剩	-11.1259
顶盖	-11.126
清淡	-11.1261
云计算	-11.1261
付款	-11.1261
减轻	-11.1262
通胀压力	-11.1262
脚步	-11.1263
协商	-11.1263
歌舞	-11.1264
结束募集	-11.1264
相关人士	-11.1264
兰州	-11.1264
三巨头	-11.1265
宁波	-11.1266
原件	-11.1267
销售额	-11.1267
实质性	-11.1267
受益于	-11.1268
折价	-11.1268
热销	-11.1269
Live	-11.127
一阵	-11.1273
自由球员	-11.1274
克服	-11.1276
门户	-11.1277
删除	-11.1277
预录取	-11.1278
中国女足	-11.1278
不堪	-11.128
还包括	-11.128
第二场	-11.1288
尽力	-11.129
户籍	-11.129
受影响	-11.1292
但随着	-11.1293
前几	-11.1294
南美	-11.1301
简称	-11.1302
博文	-11.1307
之余	-11.1308
停赛	-11.1316
阶段性	-11.1318
被对手	-11.1318
教室	-11.1322
学分	-11.1332
国内市场	-11.1343
HS	-11.1347
罗德	-11.1348
GT	-11.135
咨询会	-11.1352
混合	-11.1353
中国大学	-11.1354
尽管如此	-11.1354
不像	-11.1355
内部人士	-11.1355
根本不	-11.1359
军人	-11.1361
诸如	-11.1364
一脚	-11.1366
750	-11.1367
一方	-11.1369
后场	-11.1377
有趣	-11.1378
展示了	-11.138
有多少	-11.1386
一遍	-11.1388
背面	-11.1392
今年夏天	-11.1393
期铜	-11.1395
为主题	-11.1397
我喜欢	-11.1398
初试	-11.1398
名叫	-11.1401
海关	-11.1404
五个	-11.1408
被取消	-11.1412
地图	-11.1417
比价	-11.1421
部队	-11.1435
概	-11.1439
中东	-11.1441
成立以来	-11.1441
外部	-11.1444
还得	-11.1445
扳	-11.1449
网下	-11.1452
就是一个	-11.1453
情景	-11.1453
焦炭期货	-11.1456
力挺	-11.1459
中断	-11.1459
歉	-11.1459
怨	-11.1461
裕	-11.1461
扶	-11.1461
岭	-11.1461
挣	-11.1461
兽	-11.1462
纷	-11.1462
绍	-11.1462
布伦特	-11.1462
亩	-11.1462
博斯克	-11.1462
奥兰多	-11.1462
平方米	-11.1462
仿佛	-11.1462
•	-11.1462
斯内德	-11.1463
▁with	-11.1463
衬	-11.1463
坡	-11.1463
震撼	-11.1463
一如既往	-11.1463
迟迟	-11.1463
灌	-11.1463
早报记者	-11.1463
遵守	-11.1463
狗仔	-11.1463
抱着	-11.1463
钢琴	-11.1464
田径	-11.1464
所学校	-11.1464
搜索引擎	-11.1464
暑期	-11.1464
平板电视	-11.1464
房屋	-11.1464
南非世界杯	-11.1465
积分榜	-11.1465
布莱恩特	-11.1465
终止	-11.1465
教训	-11.1466
丰田	-11.1466
磨合	-11.1466
警告	-11.1466
肖恩	-11.1467
毒品	-11.1467
测算	-11.1467
刘烨	-11.1467
勒夫	-11.1468
鲜明	-11.1469
极端	-11.1469
苏伟	-11.1469
公园	-11.1469
RM	-11.1469
招生办公室	-11.1471
赢了	-11.1472
预算	-11.1473
转播	-11.1473
商业模式	-11.1473
划定	-11.1474
见过	-11.1474
客户端	-11.1474
几分	-11.1476
暴力	-11.1476
港口	-11.1478
立体	-11.1479
光学防抖	-11.1479
个多月	-11.1481
片方	-11.1481
新娘	-11.1482
相关部门	-11.1487
保安	-11.1487
职业学院	-11.1487
三围	-11.1488
ome	-11.1488
【	-11.1489
度假	-11.1489
选出	-11.149
RJ	-11.1494
全球最大的	-11.1497
午后	-11.1498
学员	-11.1498
os	-11.1498
排在第	-11.1502
现行	-11.1504
证明自己	-11.1505
维拉	-11.1511
小编	-11.1511
龙头	-11.1516
基金业绩	-11.1518
最高分辨率	-11.1521
风光	-11.1521
跟进	-11.1524
PK	-11.1524
’。”	-11.153
大地震	-11.1532
推高	-11.1533
上周末	-11.1534
一个赛季	-11.1537
学生们	-11.1541
安全性	-11.1542
前不久	-11.1542
国际化	-11.1543
框架	-11.1547
原文	-11.1551
还不能	-11.1551
分散	-11.1553
张照片	-11.1554
目的是	-11.1555
许可	-11.1556
票据	-11.1557
海尔	-11.1557
699	-11.1558
转会市场	-11.1558
阿里	-11.1563
但仍	-11.1572
没办法	-11.1575
黄牌	-11.1577
较去年	-11.1577
1300	-11.1577
新款	-11.1586
很想	-11.1586
海德	-11.1588
合约报	-11.159
发达	-11.1591
接受采访时	-11.1592
ess	-11.1593
这是我	-11.1595
天天	-11.16
▁we	-11.1601
不一定	-11.1602
消除	-11.1606
定向	-11.1608
各高校	-11.161
0.00	-11.1614
财年	-11.1622
昂	-11.1623
摄像机	-11.1628
比赛结束	-11.1628
不禁	-11.163
愤	-11.1632
拉里	-11.1637
低端	-11.1638
节后	-11.1641
辽宁队	-11.1641
意义上	-11.1646
偿	-11.1652
新星	-11.1656
年世界杯	-11.1661
ber	-11.1668
掘	-11.1669
奕	-11.167
忽	-11.1673
▁HS	-11.1673
剂	-11.1673
凑	-11.1674
高等学校	-11.1674
餐饮	-11.1674
虫	-11.1674
复印件	-11.1675
鼠标	-11.1675
郜林	-11.1675
疾病	-11.1675
旱	-11.1675
晖	-11.1675
冈	-11.1675
纠纷	-11.1675
驶	-11.1675
抚	-11.1675
奠	-11.1675
致力于	-11.1675
芭	-11.1675
紧随其后	-11.1675
傲	-11.1675
佛罗伦萨	-11.1675
轩	-11.1675
这句话	-11.1675
严峻	-11.1675
乐基儿	-11.1675
颠覆	-11.1675
郭晶晶	-11.1675
得益于	-11.1675
稻谷	-11.1676
模糊	-11.1676
央票	-11.1676
的前提下	-11.1676
片场	-11.1676
人性化	-11.1676
理查德森	-11.1676
消耗	-11.1677
灾害	-11.1677
害怕	-11.1677
奉献	-11.1677
今夏	-11.1677
qu	-11.1677
刊登	-11.1677
借此	-11.1677
阴影	-11.1678
扭转	-11.1678
杨昊	-11.1679
我们现在	-11.1681
永久	-11.1681
问及	-11.1681
大师赛	-11.1682
求职	-11.1684
黄磊	-11.1684
亲切	-11.1685
切换	-11.1687
花园	-11.1687
学籍	-11.1688
中国人寿	-11.1689
相结合	-11.1689
原油库存	-11.1691
露面	-11.1691
世界纪录	-11.1692
神话	-11.1694
考试大纲	-11.1694
新浪娱乐	-11.1694
武汉市	-11.1694
体育报	-11.1695
9000	-11.1695
石化	-11.1696
看似	-11.1696
自购	-11.1698
GSM	-11.1699
年轻球员	-11.17
追加	-11.1701
可能出现	-11.1703
助理教练	-11.1703
Mobile	-11.1704
记者发现	-11.1705
线条	-11.1709
加州	-11.1709
马云	-11.1718
高低	-11.1724
商量	-11.1726
外面	-11.1728
进去	-11.1731
什么都	-11.1732
一记	-11.1733
帮助球队	-11.1742
据介绍	-11.1742
接球	-11.175
都比较	-11.1751
未见	-11.1754
1201	-11.1755
节前	-11.1756
每位	-11.1757
万亿元	-11.1771
弟子	-11.1773
高性能	-11.1777
枚	-11.178
35%	-11.178
实质	-11.1785
消费类	-11.1785
888	-11.1788
基金销售	-11.1789
工程师	-11.179
商用	-11.1797
的目标是	-11.1799
基础上	-11.1805
也同样	-11.181
做什么	-11.1813
我只是	-11.1827
基金开户数	-11.1827
类产品	-11.1834
新华社	-11.1841
很简单	-11.1842
出门	-11.185
数字电视	-11.1855
转移到	-11.1856
高涨	-11.1859
∶	-11.1864
惯	-11.1865
ud	-11.1866
工信部	-11.187
辅	-11.1876
各校	-11.1877
并列第	-11.1877
这样做	-11.1879
天娱	-11.1882
7.8	-11.1883
己	-11.1886
精品	-11.1886
束	-11.1888
择校	-11.189
事业部	-11.1891
拘	-11.1891
裂	-11.1891
巢	-11.1892
陈伟霆	-11.1892
一口气	-11.1892
阿里纳斯	-11.1892
交银施罗德	-11.1892
郝	-11.1892
利比亚	-11.1892
帐	-11.1892
囊	-11.1892
姑	-11.1892
谭咏麟	-11.1893
前段时间	-11.1893
LLDPE	-11.1893
贫困	-11.1893
纳斯达克	-11.1893
满文军	-11.1893
叉	-11.1893
捕捉	-11.1893
婕	-11.1893
嫌疑	-11.1893
步骤	-11.1893
巧妙	-11.1893
谢晋	-11.1894
常昊	-11.1894
操控	-11.1895
特维斯	-11.1895
卡佩罗	-11.1895
鉴定	-11.1895
虚假	-11.1896
隔夜	-11.1896
致命	-11.1896
动荡	-11.1896
代替	-11.1896
敲定	-11.1897
便捷	-11.1897
赶紧	-11.1897
画幅	-11.1897
攻势	-11.1897
体坛	-11.1897
历史新高	-11.1898
童话	-11.1899
聚集	-11.1899
注意到	-11.1899
糖市	-11.19
团结	-11.19
曹格	-11.19
招商银行	-11.1901
东亚	-11.1901
手持	-11.1901
添利	-11.1902
周董	-11.1903
热潮	-11.1905
伴随着	-11.1905
期货合约	-11.1905
注定	-11.1905
某个	-11.1908
广电	-11.1908
统计数据	-11.1909
蓝光	-11.1911
流失	-11.1912
使其	-11.1913
前途	-11.1913
水货	-11.1913
工业大学	-11.1914
想起	-11.1915
天治	-11.1915
基站	-11.1917
本质	-11.1918
植物	-11.1919
西装	-11.1919
华丽	-11.192
智利	-11.192
▁○	-11.192
改版	-11.192
内需	-11.1923
首届	-11.1924
被曝	-11.1927
给孩子	-11.1929
落幕	-11.193
被媒体	-11.1931
所说的	-11.1931
信托公司	-11.1932
深受	-11.1934
受到影响	-11.1935
新华	-11.1935
理光	-11.1935
ES	-11.1936
荷兰队	-11.1936
李健	-11.1939
万名	-11.1941
太空	-11.1945
归来	-11.1945
留给	-11.1946
经理人	-11.1947
收购价	-11.1947
胜者	-11.1953
首尔	-11.1954
从容	-11.1954
看涨	-11.1955
美股	-11.1962
尤为	-11.1964
买进	-11.1969
也许是	-11.1975
几家	-11.1976
试用	-11.1978
大幅增加	-11.198
统招	-11.1983
一声	-11.1983
英格兰队	-11.1984
继续保持	-11.1986
太过	-11.1986
申请者	-11.1991
夕	-11.1993
卖家	-11.2
高考作文	-11.2
我不知道	-11.2002
蓝军	-11.2006
次抢断	-11.2006
盖帽	-11.2006
体现出	-11.2007
建议投资者	-11.201
体育考试	-11.2013
ong	-11.2015
首只	-11.2016
戴着	-11.2016
最终以	-11.202
CH	-11.2023
就意味着	-11.2025
是一部	-11.2028
那场	-11.2035
一夜	-11.2038
760	-11.2038
都会有	-11.2043
妮可	-11.2044
net	-11.2044
量化宽松	-11.2048
聚会	-11.2049
特定	-11.2052
偏好	-11.2064
黄金期货	-11.2065
TX	-11.2071
或许是	-11.2074
高考录取	-11.2076
给观众	-11.2081
赠	-11.2085
所在地	-11.2087
▁Mobile	-11.2088
差点	-11.209
弟	-11.2092
贯	-11.2094
绩	-11.2097
均价	-11.2097
证券投资	-11.21
胖	-11.2102
影院	-11.2103
社交	-11.2107
殊	-11.2111
感人	-11.2114
冉	-11.2114
至关重要	-11.2115
朱丽倩	-11.2115
雕	-11.2115
吞	-11.2115
福布斯	-11.2115
谎	-11.2115
落榜生	-11.2115
卡马乔	-11.2115
张靓颖	-11.2115
卸	-11.2115
瑜	-11.2115
Droid	-11.2115
饮食	-11.2115
内蒙古	-11.2115
公寓	-11.2115
赞助	-11.2115
巍	-11.2116
熊猫	-11.2116
苗菲	-11.2116
年化收益率	-11.2116
旺盛	-11.2116
垫底	-11.2117
影帝	-11.2117
伦敦奥运会	-11.2117
筹码	-11.2117
住宿	-11.2117
履行	-11.2117
老百姓	-11.2117
沉稳	-11.2117
副主席	-11.2117
主产区	-11.2118
综合素质	-11.2119
艾伦	-11.2119
夏雨	-11.212
详情	-11.212
康佳	-11.212
欢乐	-11.2122
沉重	-11.2125
华仔	-11.2125
上海期货交易所	-11.2126
首播	-11.2127
经济学	-11.2127
叶问	-11.2127
计入	-11.2128
显示器	-11.2129
演艺圈	-11.213
台词	-11.2132
白棋	-11.2133
队友们	-11.2134
大奖赛	-11.2137
推理	-11.2137
有关规定	-11.2137
阿布	-11.2139
韩红	-11.2144
开唱	-11.2145
买盘	-11.2145
技术统计	-11.2147
天堂	-11.2148
在场边	-11.2149
老牌	-11.2149
王晶	-11.215
名义	-11.2152
值得注意的是	-11.2154
是一支	-11.2156
遭到了	-11.2158
time	-11.2163
对冲	-11.2165
名牌	-11.2168
毕业于	-11.2171
比赛开始	-11.2173
主要原因	-11.2187
至此	-11.2188
3.5%	-11.219
款产品	-11.219
不理想	-11.2192
lay	-11.2193
有色	-11.2198
省外	-11.2199
小贝	-11.22
两支球队	-11.22
报告称	-11.2206
六级	-11.2207
GF	-11.2211
场胜利	-11.2213
根据自己的	-11.2218
连豆	-11.2219
元的价格	-11.2226
大幅度	-11.2228
军队	-11.2235
强力	-11.2237
手机市场	-11.2239
技术移民	-11.224
产品线	-11.224
总之	-11.2243
据记者了解	-11.2245
出行	-11.2245
不败	-11.225
时光	-11.2256
表现出色	-11.2258
一百	-11.2259
负责人介绍	-11.2261
胜率	-11.2264
第二大	-11.2268
对后市	-11.2268
▁6.	-11.227
应该说	-11.2275
当作	-11.2281
收盘报	-11.2284
两项	-11.2286
相机包	-11.2289
对口	-11.2289
富有	-11.2299
不断地	-11.2306
发票	-11.2316
事儿	-11.2318
给予了	-11.2318
四位	-11.2323
CA	-11.2325
东南	-11.2326
解除	-11.233
察	-11.2336
轨	-11.2338
聪	-11.2339
氧	-11.2341
雾	-11.2341
旋律	-11.2342
嘘	-11.2342
黄维德	-11.2342
卧	-11.2342
加内特	-11.2342
啥	-11.2342
通货膨胀	-11.2342
胡雪峰	-11.2342
萍	-11.2342
综艺节目	-11.2342
饶	-11.2342
吴宗宪	-11.2342
秘书长	-11.2342
奥沙利文	-11.2342
绑	-11.2342
费舍尔	-11.2342
18-55	-11.2342
珍惜	-11.2342
冯远征	-11.2343
本科三批	-11.2343
郭敬明	-11.2343
娃	-11.2343
▁外观方面	-11.2343
巡回演唱会	-11.2343
墨菲	-11.2343
好奇	-11.2343
疲劳	-11.2343
隐藏	-11.2344
▁OS	-11.2344
铅笔	-11.2344
今年我省	-11.2344
温柔	-11.2344
孙祥	-11.2344
追逐	-11.2344
主管部门	-11.2345
模样	-11.2345
监制	-11.2346
帕托	-11.2346
港姐	-11.2346
就业率	-11.2346
家企业	-11.2347
珠宝	-11.2347
短缺	-11.2347
净值增长	-11.2348
Jo	-11.2348
精准	-11.2348
为基础	-11.2348
知情人士	-11.2349
倾向于	-11.2349
回避	-11.2349
岁生日	-11.2349
学制	-11.2349
感冒	-11.2349
宝贵	-11.235
人才培养	-11.2351
春季	-11.2351
新作	-11.2351
极有可能	-11.2351
南勇	-11.2351
都不是	-11.2352
片段	-11.2352
找不到	-11.2352
基层	-11.2352
院系	-11.2353
险胜	-11.2354
江南	-11.2354
主播	-11.2354
备受关注	-11.2355
延期	-11.2356
公立	-11.2356
标志着	-11.2357
奥运冠军	-11.2358
显卡	-11.2358
南昌	-11.2359
天翼	-11.2359
立案	-11.236
远射	-11.2362
红牛	-11.2364
视听	-11.2364
赞成	-11.2365
候选人	-11.2365
居住	-11.2366
华富	-11.2366
已经超过	-11.237
的重要性	-11.237
法规	-11.2371
杀入	-11.2371
代价	-11.2375
拍完	-11.2375
EC	-11.2377
开发者	-11.2378
进取	-11.2378
已开始	-11.2379
放到	-11.2386
一年期	-11.2387
图案	-11.2388
国内期货市场	-11.2388
王女士	-11.239
采取了	-11.2391
时隔	-11.2394
多么	-11.2396
招行	-11.2398
有关人士	-11.2399
第三者	-11.2401
走红	-11.2402
不幸	-11.2405
总会	-11.2422
出题	-11.2423
色情	-11.2425
中国内地	-11.2429
虽然没有	-11.2432
高贵	-11.2433
脚下	-11.2438
视为	-11.2441
创新高	-11.2443
女王	-11.2449
已经结束	-11.2449
▁Mark	-11.2458
首先要	-11.2459
业内人士分析	-11.2467
统一考试	-11.2469
最后一轮	-11.2471
光圈	-11.2478
每秒	-11.2479
不准	-11.2496
经历过	-11.2498
通过网络	-11.2499
到处	-11.2505
十多	-11.2508
大增	-11.2513
ME	-11.2514
PO	-11.2519
分值	-11.2524
>>>	-11.2525
得很好	-11.2525
很棒	-11.2532
DX	-11.2535
工业品	-11.2536
vs	-11.2536
日举行	-11.2538
学习成绩	-11.2545
世界第一	-11.2547
目前来看	-11.2552
享受到	-11.2553
国际市场	-11.2554
溢	-11.2555
最长	-11.2556
2014	-11.2557
鹰	-11.2565
困	-11.257
盲	-11.2572
专升本	-11.2573
邻	-11.2574
看不到	-11.2574
LOF	-11.2574
淀	-11.2574
椅	-11.2574
摊	-11.2574
翠	-11.2574
曾志伟	-11.2575
保监会	-11.2575
鸟巢	-11.2575
陈楚生	-11.2575
安以轩	-11.2575
经济衰退	-11.2575
▁010-82	-11.2575
倍光变	-11.2575
挪威	-11.2575
太平洋	-11.2575
出租车	-11.2575
不同程度的	-11.2575
董洁	-11.2575
羽泉	-11.2576
颖颖	-11.2576
疲弱	-11.2576
细致	-11.2576
模块	-11.2576
乔治	-11.2577
婚宴	-11.2577
一支球队	-11.2577
足坛	-11.2577
稳固	-11.2578
兴业银行	-11.2578
杀毒	-11.2578
误导	-11.2579
大幅下挫	-11.2579
折扣	-11.2579
关注的焦点	-11.2579
WCDMA	-11.258
吴尊	-11.258
柏林	-11.258
首发出场	-11.2582
集结	-11.2582
厚度	-11.2582
第一财经	-11.2582
节日	-11.2584
尺度	-11.2585
多重	-11.2586
升值	-11.2587
指纹	-11.2587
实录	-11.2587
世界大赛	-11.2588
贴水	-11.2588
集合	-11.2589
正收益	-11.259
港元	-11.259
网报	-11.259
气势	-11.2591
供应商	-11.2591
刚开始	-11.2592
劳尔	-11.2592
遗憾的是	-11.2593
找出	-11.2594
Fi	-11.2594
主裁判	-11.2595
前妻	-11.2596
APS	-11.2601
步步	-11.2604
预科	-11.2604
为准	-11.2605
红包	-11.2608
眼光	-11.2611
来形容	-11.2611
负面	-11.2612
换人	-11.2615
输掉	-11.2616
结果显示	-11.2618
花钱	-11.2624
FC	-11.2625
塞尔比	-11.2625
本年度	-11.2628
通报	-11.2628
优秀学生	-11.2628
本来就	-11.263
连续第	-11.2631
七成	-11.2632
3-1	-11.2635
黄金投资	-11.2638
动感	-11.264
保存	-11.2642
连线	-11.2643
意图	-11.2645
谈起	-11.2647
TA	-11.2649
当你	-11.2652
稳定性	-11.2654
送到	-11.2654
期货交易所	-11.2661
地铁	-11.2663
sa	-11.2663
投资者可	-11.2667
PA	-11.2669
流向	-11.2669
899	-11.2669
消息人士	-11.2671
三成	-11.2675
装备	-11.2676
拉动	-11.2682
队医	-11.2684
这边	-11.2686
各家	-11.2694
0-3	-11.2696
中途	-11.2701
前夕	-11.2705
便于	-11.2707
台下	-11.2708
有何	-11.2713
新颖	-11.272
基金管理有限公司	-11.2725
可拍摄	-11.2734
副总	-11.2739
流出	-11.2742
定于	-11.2745
美棉	-11.2751
北方	-11.2752
并不会	-11.2765
to	-11.2765
气温	-11.2771
2600	-11.2778
ari	-11.278
下课	-11.2781
析	-11.2782
ab	-11.2782
即便是	-11.2785
强麦	-11.2787
几名	-11.2803
受损	-11.2803
端子	-11.2804
授	-11.2805
Hz	-11.2807
锡	-11.2808
敦	-11.2808
伴随	-11.2809
夸张	-11.2809
色调	-11.281
挽	-11.281
彻	-11.2812
靓	-11.2812
垒	-11.2812
涩	-11.2812
桂	-11.2812
兰帕德	-11.2812
祭	-11.2813
涅	-11.2813
持卡人	-11.2813
阿德里亚诺	-11.2813
贪	-11.2813
朱芳雨	-11.2813
娶	-11.2813
Chrome	-11.2813
欧债危机	-11.2813
梁朝伟	-11.2813
王力宏	-11.2813
日早间消息	-11.2813
靴	-11.2813
Kindle	-11.2813
▁信息时报讯	-11.2813
NCAA	-11.2813
帧	-11.2813
Symbian	-11.2813
埃托奥	-11.2813
蛋糕	-11.2813
每日经济新闻	-11.2813
乔布斯	-11.2813
格里芬	-11.2813
蔚	-11.2813
惩罚	-11.2813
比利时	-11.2814
汽油	-11.2814
揭幕	-11.2814
▁接口方面	-11.2814
新泽西篮网	-11.2814
匹配	-11.2814
罕见	-11.2814
微距	-11.2814
房贷	-11.2814
分类监管	-11.2815
乡村	-11.2815
在那里	-11.2815
喜悦	-11.2815
营造	-11.2815
分析人士指出	-11.2815
汪洋	-11.2816
职责	-11.2816
税务	-11.2816
end	-11.2816
光明	-11.2817
违约	-11.2817
长焦相机	-11.2817
提议	-11.2817
考生们	-11.2818
自律	-11.2818
修复	-11.2819
成交额	-11.282
麦基	-11.282
通胀预期	-11.282
酷派	-11.2821
上市以来	-11.2822
掌声	-11.2822
公布的数据显示	-11.2822
薄弱	-11.2823
著称	-11.2823
培训班	-11.2824
直击	-11.2824
阿曼	-11.2826
880	-11.2828
季军	-11.2828
这款笔记本	-11.2829
主创	-11.2829
注入	-11.2831
休斯	-11.2831
转折	-11.2831
钢铁企业	-11.2831
港台	-11.2831
ide	-11.2833
高考状元	-11.2835
八一队	-11.2835
考虑一下	-11.2836
帅气	-11.2836
不论	-11.2838
▁GeForce	-11.2838
不含	-11.2838
旧爱	-11.2839
招生单位	-11.2839
马刺队	-11.2842
稳重	-11.2843
力求	-11.2846
有一点	-11.2846
风险控制	-11.2847
五位	-11.2851
文史	-11.2853
借鉴	-11.2853
第一位	-11.2854
自杀	-11.2857
专心	-11.2859
转投	-11.286
成功率	-11.286
9.2	-11.2861
伊万	-11.2864
法语	-11.2865
解决问题	-11.2865
风声	-11.2867
视线	-11.287
原则上	-11.2872
杨千	-11.288
快报	-11.288
战平	-11.2893
证券公司	-11.2895
第二位	-11.2896
做准备	-11.2897
本科院校	-11.2914
回头	-11.2914
不方便	-11.2916
接受采访	-11.2918
春天	-11.2918
大举	-11.2921
该股	-11.2921
这使得	-11.2922
小区	-11.2923
不具备	-11.2925
穿越	-11.2927
批次录取	-11.2932
核对	-11.2937
张黄牌	-11.294
我感觉	-11.2943
EX	-11.2946
还有很多	-11.295
最新报价	-11.2958
手指	-11.2962
向媒体	-11.2968
在第四节	-11.2972
源于	-11.2974
一丝	-11.2978
表格	-11.2981
同台	-11.2982
跌势	-11.2985
8.2	-11.2988
新任	-11.2998
还有一些	-11.301
西方	-11.3025
腕	-11.3036
候选	-11.3037
只是一个	-11.3038
悍	-11.3038
距	-11.3041
报名人数	-11.3042
受邀	-11.3048
蜂	-11.3053
柜	-11.3054
匹	-11.3056
惑	-11.3056
碍	-11.3056
不予	-11.3056
弦	-11.3056
按钮	-11.3056
终场前	-11.3056
脱颖而出	-11.3057
很大程度上	-11.3057
巴洛特利	-11.3057
羞	-11.3057
冬奥会	-11.3057
Office	-11.3057
Groupon	-11.3057
刻录光驱	-11.3057
▁What	-11.3057
吼	-11.3057
王珞丹	-11.3057
削减	-11.3057
邓萃雯	-11.3057
刘嘉玲	-11.3057
昭	-11.3057
到目前为止	-11.3057
中兴通讯	-11.3057
操纵	-11.3057
引援	-11.3057
约旦	-11.3057
广阔	-11.3058
展览	-11.3058
魔鬼	-11.3058
观赏	-11.3058
应届毕业生	-11.3058
客串	-11.3058
实验室	-11.3058
即使是	-11.3059
车祸	-11.3059
顶替	-11.306
油厂	-11.306
硬汉	-11.3061
歌坛	-11.3061
供求	-11.3061
共识	-11.3061
宁夏	-11.3062
MVP	-11.3062
感兴趣的朋友可以	-11.3062
亨利	-11.3062
银幕	-11.3062
特长生	-11.3062
最大光圈	-11.3064
揭开	-11.3064
跳舞	-11.3064
本科一批	-11.3064
印尼	-11.3067
招生政策	-11.3067
女郎	-11.3067
南钢	-11.3068
翻盘	-11.3068
刑事	-11.3068
云集	-11.3068
卢克	-11.3069
个性化	-11.307
祖国	-11.307
走过	-11.307
实习记者	-11.307
猫王	-11.3073
答题卡	-11.3075
半小时	-11.3075
收录	-11.3075
致敬	-11.3077
德隆	-11.3077
贴近	-11.3077
排行	-11.3079
波段	-11.3081
细则	-11.3082
情形	-11.3082
有所下降	-11.3082
病情	-11.3082
7.0	-11.3083
农场	-11.3084
第三轮	-11.3085
大宗商品价格	-11.3086
节省	-11.3087
一个多月	-11.3089
场边	-11.3089
举例	-11.309
试行	-11.309
三本	-11.3091
985	-11.3094
流传	-11.3094
高企	-11.3097
替换	-11.3099
系列赛	-11.3099
ens	-11.31
千克	-11.3102
适时	-11.3105
推行	-11.3107
张琳	-11.3109
主要是因为	-11.311
新能源	-11.3111
银行业	-11.3112
总规模	-11.3114
报酬	-11.3118
不宜	-11.3119
逐年	-11.3121
就不会	-11.3123
光学	-11.3128
强制	-11.3132
装扮	-11.3134
总局	-11.3137
ast	-11.3139
生孩子	-11.314
各省	-11.3143
为代表的	-11.3144
长远	-11.3145
设有	-11.3153
成人高校	-11.3159
保送	-11.3162
比较高	-11.317
艺术家	-11.3171
FR	-11.3174
拍下	-11.3179
刚好	-11.318
诚意	-11.3186
踏实	-11.3186
自由人	-11.319
王先生	-11.3196
眼看	-11.32
结束前	-11.32
高画质	-11.3208
发表了	-11.3221
蓝筹股	-11.3226
除外	-11.3231
6%;	-11.3234
加里	-11.3237
款机型	-11.3239
就是这样	-11.3244
就知道	-11.3245
大前锋	-11.3248
造假	-11.3259
克尔	-11.3259
地产股	-11.3263
毫	-11.3264
分析认为	-11.3268
已经确定	-11.3272
中兴	-11.3276
起到了	-11.3279
得起	-11.3283
此款	-11.3286
EF	-11.3292
很清楚	-11.3293
EP	-11.3294
鉴	-11.3294
一改	-11.3294
国际学生	-11.3296
泥	-11.3304
从此	-11.3304
q	-11.3305
疾	-11.3305
袖	-11.3305
哄	-11.3306
辖	-11.3306
厌	-11.3306
叙	-11.3306
王雅捷	-11.3306
蓄	-11.3306
蕴	-11.3306
糊	-11.3306
葛	-11.3306
哑	-11.3306
辱	-11.3306
iPod	-11.3307
倪萍	-11.3307
宵	-11.3307
衫	-11.3307
金球奖	-11.3307
迈阿密	-11.3307
景顺长城	-11.3307
溜	-11.3307
曦	-11.3307
逛街	-11.3307
华莱士	-11.3307
瓦伦西亚	-11.3307
菲律宾	-11.3307
WIFI	-11.3307
前一交易日	-11.3307
CBOT	-11.3307
阿拉伯	-11.3307
延伸	-11.3307
上篮得手	-11.3307
睡觉	-11.3308
安慰	-11.3308
泄露	-11.3308
尼尔森	-11.3308
悉尼	-11.3308
纽约时报	-11.3308
名人堂	-11.3309
And	-11.3309
浦东	-11.3309
国际象棋	-11.3309
犹如	-11.331
缩减	-11.331
负面影响	-11.331
险些	-11.3311
极高的	-11.3311
飘红	-11.3312
创纪录	-11.3313
内维尔	-11.3314
清洗	-11.3314
影像处理器	-11.3314
红魔	-11.3314
余额	-11.3316
保健	-11.3317
▁St	-11.3317
那时候	-11.3318
无论如何	-11.3319
考务	-11.332
许多人	-11.332
募资	-11.332
主力阵容	-11.332
演练	-11.3321
相恋	-11.3321
然后再	-11.3321
非凡	-11.3321
保值	-11.3321
8:00	-11.3322
突发	-11.3322
实物	-11.3323
中考论坛	-11.3323
唐山	-11.3324
终身	-11.3325
仓单	-11.3326
女歌手	-11.3327
免考	-11.3328
自动化	-11.3329
当今	-11.3329
决战	-11.3332
健身	-11.3333
让孩子	-11.3335
对此事	-11.3336
贴心	-11.3336
调价	-11.3336
硕士生	-11.3337
灰色	-11.3339
领先优势	-11.3339
本周末	-11.334
反弹行情	-11.3341
新世纪	-11.3342
善于	-11.3347
开车	-11.335
出示	-11.335
凭借着	-11.3352
大比分	-11.3353
常用	-11.3354
重点关注	-11.3354
涨跌	-11.3355
出征	-11.3359
江苏省	-11.3362
被判	-11.3365
忙于	-11.3366
海清	-11.3367
种类	-11.337
io	-11.3373
记者们	-11.3376
转战	-11.3376
黑马	-11.338
轮换	-11.3381
切实	-11.3386
美国经济	-11.3388
左手	-11.3389
离队	-11.3389
放开	-11.3392
采访时表示	-11.3393
首部	-11.3397
要么	-11.3398
量化	-11.3399
约占	-11.3401
倒地	-11.3406
ick	-11.3407
徐国	-11.3407
新媒体	-11.3409
AX	-11.3411
基德	-11.3415
全身	-11.342
GS	-11.3424
提到了	-11.3427
更多地	-11.3429
师范	-11.3437
IM	-11.3439
条件下	-11.3439
更低	-11.344
有一天	-11.344
两度	-11.3441
永不	-11.3445
一群	-11.3445
6400	-11.3446
到货	-11.345
强硬	-11.3453
以至于	-11.3453
天价	-11.3454
动手	-11.3455
接入	-11.346
需求量	-11.3462
三场比赛	-11.3464
单场	-11.3464
完全没有	-11.3472
实在是	-11.3472
场所	-11.3478
时间安排	-11.3479
▁Li	-11.3487
用品	-11.3495
信息技术	-11.3498
还不错	-11.3502
春节前	-11.3509
有人说	-11.351
商标	-11.3512
大楼	-11.3513
乃	-11.3518
无线电	-11.3524
1700	-11.3527
很明显	-11.3528
颇具	-11.3529
成绩查询	-11.353
砍	-11.3537
日收盘	-11.3537
信用债	-11.3541
卫星	-11.3552
lie	-11.3552
澜	-11.3557
盟	-11.3557
个三分球	-11.3559
帆	-11.356
▁Mobil	-11.356
筑	-11.3562
新泽西	-11.3562
菊	-11.3562
萧敬腾	-11.3562
搏	-11.3562
爱好者	-11.3562
倪	-11.3562
婚纱	-11.3563
孙菲菲	-11.3563
仲	-11.3563
绵	-11.3563
舌	-11.3563
天相投顾	-11.3563
蛮	-11.3563
小升初	-11.3563
甄	-11.3563
张宁益	-11.3563
安德鲁	-11.3563
日晚间消息	-11.3563
虐	-11.3563
贫	-11.3563
鲨鱼	-11.3563
fps	-11.3563
每日邮报	-11.3563
张静初	-11.3563
郑嘉颖	-11.3563
狄波拉	-11.3563
舒马赫	-11.3563
摇滚	-11.3563
麟	-11.3563
屡屡	-11.3563
周海滨	-11.3563
诺维奇	-11.3563
Super	-11.3563
魔兽	-11.3563
邹	-11.3563
女婿	-11.3563
存款准备金率	-11.3563
宿舍	-11.3564
蒲式耳	-11.3564
周慧敏	-11.3564
垂直	-11.3564
林心如	-11.3564
营业厅	-11.3564
杨幂	-11.3564
未婚夫	-11.3564
港股	-11.3564
许可证	-11.3564
意味	-11.3564
恩怨	-11.3565
液晶显示屏	-11.3565
包揽	-11.3565
点击观看	-11.3565
同胞	-11.3565
损害	-11.3565
货币型基金	-11.3566
商家名称	-11.3566
携程	-11.3566
越狱	-11.3566
尖叫	-11.3566
略显	-11.3566
偶尔	-11.3566
闪存	-11.3566
器材	-11.3567
出院	-11.3567
耀眼	-11.3567
拼音	-11.3567
眼泪	-11.3568
密切关注	-11.3568
慎重	-11.3568
丢失	-11.3569
极致	-11.3569
饱受	-11.3569
历程	-11.357
季节性	-11.357
急需	-11.357
备案	-11.357
彰显	-11.3573
易立	-11.3573
游客	-11.3573
国内期市	-11.3574
停产	-11.3575
亿英镑	-11.3575
重申	-11.3575
攻防	-11.3575
国际金价	-11.3576
显得有些	-11.3576
在此之前	-11.3577
支招	-11.3578
提案	-11.3579
南宁	-11.358
托尼	-11.358
勇气	-11.3582
场次	-11.3582
买断	-11.3582
推杆	-11.3582
接待	-11.3583
推荐商家	-11.3583
充当	-11.3584
法官	-11.3584
作物	-11.3585
生效	-11.3586
只需要	-11.3588
将面临	-11.3589
指南	-11.359
下一轮	-11.3594
海信	-11.3595
增添了	-11.3595
拥抱	-11.3595
效力于	-11.3596
已经有了	-11.3597
齐全	-11.3599
心思	-11.36
踢得	-11.3601
平板	-11.3601
中饰演	-11.3601
后防线	-11.3601
起步	-11.3602
已超过	-11.3602
正处于	-11.3602
名词	-11.3603
捧场	-11.3611
建行	-11.3613
整天	-11.3613
隆多	-11.3613
点半	-11.3614
还不够	-11.3614
收盘于	-11.3617
河北省	-11.3619
变得更	-11.3626
动能	-11.3627
我不想	-11.3628
校方	-11.3629
小时候	-11.3631
远期	-11.3631
重新回到	-11.3635
CX	-11.3636
离去	-11.3636
一味	-11.3642
只股票	-11.3643
长信	-11.3644
事先	-11.3646
帖子	-11.3647
着实	-11.3648
成绩单	-11.3648
该机采用	-11.3648
那次	-11.3651
发布时间	-11.3654
究竟是	-11.3657
本期	-11.3657
途中	-11.3658
幸好	-11.3664
整整	-11.3665
低谷	-11.3668
dea	-11.3668
ist	-11.3668
制约	-11.367
准备工作	-11.3671
存在着	-11.3684
收益率为	-11.3689
最重要的是	-11.3689
cu	-11.3693
反映出	-11.3697
充电	-11.37
不计	-11.37
中秋	-11.3705
带球	-11.371
首场比赛	-11.372
换来	-11.3726
展现了	-11.3727
授予	-11.3735
生气	-11.3743
兴业	-11.3743
巴西人	-11.3746
电子盘	-11.3752
也正是	-11.3756
▁-1.	-11.3757
很正常	-11.376
日晚上	-11.3762
友情	-11.3765
重庆市	-11.3765
增量	-11.3771
接应	-11.3773
管理部门	-11.3782
英镑	-11.3788
便携性	-11.3791
RE	-11.3791
day	-11.3795
带队	-11.3798
1-2	-11.3805
余名	-11.3808
偶	-11.3818
▁De	-11.3824
谣	-11.3825
语言学	-11.3825
巴拉克	-11.3825
渤	-11.3826
惧	-11.3826
娴	-11.3826
引人注目	-11.3826
困惑	-11.3826
斯诺克	-11.3826
驳	-11.3826
漠	-11.3826
霖	-11.3826
哦	-11.3826
大郅	-11.3826
将比分追成	-11.3826
懒	-11.3826
弗莱彻	-11.3826
深交所	-11.3826
橙	-11.3826
维也纳	-11.3826
欧联杯	-11.3826
John	-11.3826
哀	-11.3826
烤	-11.3826
干散货	-11.3826
Selina	-11.3826
古天乐	-11.3826
干脆	-11.3827
监狱	-11.3827
上期所	-11.3827
巩固	-11.3827
灵魂	-11.3827
诊断	-11.3827
▁more	-11.3827
阻挡	-11.3827
护肤	-11.3827
劣势	-11.3827
同性恋	-11.3827
沙溢	-11.3827
惊叹	-11.3827
印象深刻	-11.3827
收涨	-11.3827
恶搞	-11.3828
勇敢	-11.3828
斥资	-11.3828
哈佛	-11.3828
汤姆	-11.3828
拼命	-11.3829
撰文	-11.3829
丰厚	-11.3829
哪怕	-11.3829
探望	-11.383
静态	-11.383
形象大使	-11.383
冒险	-11.383
刘炜	-11.383
冲刺阶段	-11.383
熟知	-11.383
剧烈	-11.3831
日凌晨消息	-11.3831
棋圣	-11.3831
相识	-11.3831
图书	-11.3831
考生及家长	-11.3831
联系地址	-11.3832
择校生	-11.3832
推测	-11.3833
▁are	-11.3833
这笔交易	-11.3833
进驻	-11.3834
对冲基金	-11.3834
人士透露	-11.3835
胶价	-11.3836
两岸	-11.3837
信诚	-11.3838
宝石	-11.3838
侧面	-11.384
领涨	-11.384
破产	-11.3842
点击进入	-11.3843
定存	-11.3844
cc	-11.3844
扳平	-11.3844
IPS	-11.3845
知名度	-11.3845
亚运	-11.3846
合照	-11.3846
.5×	-11.3847
小幅上涨	-11.385
订婚	-11.3853
产业发展	-11.3854
交代	-11.3854
一副	-11.3855
近距离	-11.3855
比较多	-11.3856
手机上网	-11.3858
代表性	-11.3859
部总经理	-11.3861
看完	-11.3862
增利	-11.3862
赢家	-11.3863
低廉	-11.3864
施工	-11.3869
火车	-11.387
入住	-11.3874
出资	-11.3875
对不起	-11.3875
快女	-11.3877
类似于	-11.3878
深情	-11.3879
内托	-11.3881
截止到	-11.3883
热拍	-11.3883
第二批	-11.3884
丝毫不	-11.3886
加重	-11.3894
每一次	-11.3895
本科录取	-11.3895
仍需	-11.3895
有哪些	-11.3897
即将开始	-11.3901
拿球	-11.3901
正版	-11.3903
金钱	-11.3908
FX	-11.391
看空	-11.391
实际情况	-11.3912
降到	-11.3917
谁能	-11.3918
发挥出	-11.3919
一开始就	-11.3921
导向	-11.3922
风雨	-11.3926
间接	-11.3926
歌唱	-11.3931
da	-11.3932
得不到	-11.3948
转发	-11.3949
类院校	-11.3978
不会再	-11.3981
首家	-11.3982
据知	-11.3983
完全不同	-11.3985
之情	-11.3986
个考点	-11.3989
文明	-11.3996
之初	-11.3996
0.5%	-11.4006
女队	-11.401
上海队	-11.402
考生应	-11.4021
模式下	-11.4028
头寸	-11.4034
盘点	-11.4034
990	-11.4039
八强	-11.4042
新浪科技	-11.4055
AL	-11.4062
错过了	-11.4063
生活费	-11.4069
柏芝	-11.4069
师生	-11.4074
通知书	-11.4074
球馆	-11.4074
捕	-11.4075
前一周	-11.4078
召	-11.4084
商学院	-11.4084
询	-11.4087
大面积	-11.4089
不允许	-11.409
饮	-11.4094
犹	-11.4094
还需	-11.4094
仰	-11.4094
御	-11.4094
有足够的	-11.4094
膝	-11.4095
桂纶镁	-11.4095
背诵	-11.4095
橡	-11.4096
非诚勿扰	-11.4096
雀	-11.4096
巴丁格	-11.4096
姿态	-11.4096
牧	-11.4096
Baby	-11.4096
在这种情况下	-11.4096
疫	-11.4096
稻	-11.4096
众所周知	-11.4096
新台币	-11.4097
茫	-11.4097
#	-11.4097
三季报	-11.4097
Micro	-11.4097
浴	-11.4097
胃	-11.4097
葡	-11.4097
巴恩斯	-11.4097
首席执行官	-11.4097
聂	-11.4097
▁about	-11.4097
弗兰克	-11.4097
张涵予	-11.4097
渗透	-11.4097
1366×768	-11.4097
媚	-11.4097
中华台北	-11.4097
早些时候	-11.4097
揭秘	-11.4097
1920×1080	-11.4097
富国天丰	-11.4097
甘肃	-11.4097
阿尔维斯	-11.4097
替补席上	-11.4097
冯绍峰	-11.4097
孙海平	-11.4097
羽毛球	-11.4097
丑闻	-11.4097
压榨	-11.4097
悬疑	-11.4097
基金新增开户数	-11.4097
隐患	-11.4097
日太平洋电脑网	-11.4098
印刷	-11.4098
成交均价	-11.4098
倪震	-11.4098
峡	-11.4098
普通高等学校	-11.4098
阿里汉	-11.4098
宣告	-11.4098
订购	-11.4098
抗议	-11.4099
叶童	-11.4099
震惊	-11.4099
谈恋爱	-11.41
短时间内	-11.41
佣金	-11.41
欲望	-11.41
投篮命中率	-11.41
谢赫	-11.41
献唱	-11.4101
服饰	-11.4101
答复	-11.4101
此役	-11.4102
班主任	-11.4103
较去年同期	-11.4104
为用户提供	-11.4105
地域	-11.4106
盛世	-11.4106
被问及	-11.4107
这部戏	-11.4107
走访	-11.4107
三分之一	-11.4108
求证	-11.4108
恶化	-11.4108
探班	-11.4108
风采	-11.4108
On	-11.4109
对比度	-11.411
今天上午	-11.4111
公益活动	-11.4111
跑步	-11.4111
9:00	-11.4112
适用	-11.4113
议论	-11.4113
小幅下跌	-11.4116
万人民币	-11.4117
累积	-11.4118
外籍	-11.4118
海归	-11.412
白领	-11.4121
感光度范围	-11.4121
抢先	-11.4124
自豪	-11.4124
走弱	-11.4125
冲动	-11.4125
内幕	-11.4127
迫使	-11.4129
夜店	-11.413
卷入	-11.4131
冠军杯	-11.4132
昨天上午	-11.4134
商品期货市场	-11.4134
大幅下降	-11.4136
8:30	-11.4137
里皮	-11.4139
HK	-11.4141
特有的	-11.4143
国泰基金	-11.4146
8%;	-11.4146
探底	-11.4147
破发	-11.4149
这么做	-11.4153
意志	-11.4155
长期投资	-11.4156
波特	-11.4156
可观	-11.4157
电器	-11.4158
弱点	-11.4164
出货	-11.4165
今年一季度	-11.4168
本色	-11.4168
十五	-11.417
动向	-11.4172
投资顾问	-11.4175
全国各地	-11.4177
细分	-11.4182
中国大陆	-11.4184
数据统计	-11.4184
六成	-11.4184
巡回	-11.4186
三轮	-11.4186
ose	-11.4192
这时候	-11.4194
目前该机	-11.4203
希望赛	-11.4205
一件事	-11.4206
之作	-11.4209
化解	-11.4214
冲击力	-11.4214
才华	-11.4216
安心	-11.4216
上升至	-11.4216
OL	-11.4221
960	-11.4222
还有一个	-11.4227
成长性	-11.424
ON	-11.4242
混合基金	-11.4242
其次是	-11.4243
这些都是	-11.4243
铁路	-11.4255
转会费	-11.4256
正是因为	-11.4256
ance	-11.4259
投资组合	-11.426
不足以	-11.4265
大屏	-11.4269
自如	-11.427
不能再	-11.4271
各科	-11.4271
▁-0.	-11.4272
已婚	-11.4273
光线	-11.4284
存量	-11.4287
三周	-11.4288
很多人都	-11.4289
95%	-11.429
均超过	-11.429
耐用	-11.4292
大宗商品市场	-11.4301
代表团	-11.4312
基金仓位	-11.4317
2-3	-11.4322
榨	-11.433
博时基金	-11.4332
域	-11.4339
漫游	-11.4342
维斯	-11.435
两位数	-11.4351
有必要	-11.4352
京东	-11.4362
考生报名	-11.4363
很满意	-11.4364
接拍	-11.4365
Se	-11.4366
音效	-11.437
滚	-11.437
莲	-11.4372
芝	-11.4372
斩	-11.4372
的朋友不妨	-11.4372
箭	-11.4373
液	-11.4373
凝	-11.4373
布莱克	-11.4373
碗	-11.4373
肌	-11.4373
pvc	-11.4374
恐惧	-11.4374
刮	-11.4374
艇	-11.4374
张纪中	-11.4374
殷桃	-11.4374
啸	-11.4374
肩膀	-11.4374
受此影响	-11.4374
洒	-11.4374
格莱美	-11.4374
只剩下	-11.4374
曼奇尼	-11.4374
美国农业部	-11.4374
甸	-11.4374
史蒂夫	-11.4374
唇	-11.4374
佩德罗	-11.4374
清洁套装	-11.4374
跳绳	-11.4374
公安机关	-11.4374
铮	-11.4374
国际能源署	-11.4374
富翁	-11.4374
见习记者	-11.4375
霍启刚	-11.4375
不介意	-11.4375
斑	-11.4375
work	-11.4375
倾斜	-11.4375
种植面积	-11.4375
企业年金	-11.4375
跪	-11.4375
迭戈	-11.4375
韦斯特	-11.4375
惯例	-11.4375
欠缺	-11.4375
锋芝	-11.4375
严禁	-11.4376
止损	-11.4376
精炼	-11.4376
基准利率	-11.4376
天津泰达	-11.4376
民营	-11.4376
包夹	-11.4377
珍贵	-11.4377
熟练	-11.4377
快门速度	-11.4377
赞助商	-11.4377
对我来说	-11.4377
承办	-11.4377
达成协议	-11.4377
自嘲	-11.4377
谢楠	-11.4378
东方卫视	-11.4378
附属	-11.4379
嘉伯	-11.4379
精英赛	-11.4379
何鸿	-11.4379
免试	-11.4379
ical	-11.438
桌面	-11.4382
重磅	-11.4382
斗志	-11.4382
欧洲央行	-11.4383
恰好	-11.4383
起伏	-11.4383
误差	-11.4383
辅导班	-11.4383
执黑	-11.4383
深厚	-11.4384
漫长	-11.4385
不知情	-11.4385
担当	-11.4386
伦铜	-11.4387
古代	-11.4387
名誉	-11.4387
扬州	-11.4387
校考	-11.4388
随便	-11.4391
app	-11.4391
逾期	-11.4393
乐团	-11.4393
被认为是	-11.4393
一对多产品	-11.4395
投影	-11.4396
远程	-11.4396
成品油	-11.4396
美容	-11.4397
阿帅	-11.4397
薪金	-11.4398
影星	-11.4398
zs	-11.4399
申请材料	-11.44
尼奥	-11.44
维权	-11.44
考生人数	-11.4401
被拍到	-11.4401
邀请赛	-11.4401
子弹	-11.4402
汇报	-11.4403
一脸	-11.4405
男星	-11.4405
曲线	-11.4408
所带来的	-11.4409
火花	-11.441
较弱	-11.4411
停摆	-11.4411
my	-11.4412
进入考场	-11.4413
准入	-11.4413
关机	-11.4414
▁He	-11.4414
继续上涨	-11.4414
联动	-11.4415
出席活动	-11.4416
楼市	-11.4419
事项	-11.4419
条例	-11.4425
住院	-11.4425
退市	-11.4425
收低	-11.4425
很显然	-11.4428
消费量	-11.4429
归队	-11.4429
回放	-11.4431
越位	-11.4439
高额	-11.4444
高性价比	-11.445
金色	-11.4453
最差的	-11.4456
本校	-11.4468
在接受记者采访时	-11.4469
自去年	-11.447
那位	-11.447
大厅	-11.4473
前列	-11.4475
1994	-11.4477
偏高	-11.4479
大盘蓝筹	-11.4485
风头	-11.4488
▁7.	-11.4489
FP	-11.4493
今天的比赛	-11.4494
该指数	-11.4503
德尔	-11.4504
超强	-11.4506
基金持有人	-11.4507
更重要	-11.4511
改造	-11.452
全英	-11.4524
act	-11.4526
相关信息	-11.4527
苹果公司	-11.4528
影视剧	-11.4529
一方面是	-11.453
笑着	-11.4531
半年报	-11.4531
女单	-11.4533
这批	-11.454
混合型	-11.4548
tra	-11.4551
杨光	-11.4554
有效期	-11.4557
高仓位	-11.4567
相较	-11.457
网友们	-11.4574
长盛基金	-11.4575
考生报考	-11.4584
建筑钢材	-11.4591
那场比赛	-11.4592
ust	-11.4592
让对手	-11.4595
首歌曲	-11.4597
必将	-11.4612
尼斯	-11.4616
文化部	-11.4619
投进	-11.4623
才知道	-11.4628
ies	-11.4633
季节	-11.4633
左边	-11.4636
择优录取	-11.4639
正赛	-11.4645
之势	-11.4645
五十	-11.4649
猴	-11.4658
象征	-11.4658
光学变焦	-11.4659
挪	-11.4659
蝉	-11.4659
遏制	-11.4659
迭	-11.4659
反垄断	-11.466
出人意料	-11.466
恼	-11.466
鹤	-11.466
痕	-11.466
侯耀文	-11.466
阿德巴约	-11.466
钰	-11.466
坑	-11.466
李昌镐	-11.466
梳理	-11.466
掷	-11.466
立陶宛	-11.466
煮	-11.466
拟任基金经理	-11.466
洗衣机	-11.466
定期存款	-11.466
塞萨尔	-11.466
玄	-11.466
郁闷	-11.466
厕	-11.466
国防生	-11.466
稽	-11.466
幼儿园	-11.466
埃弗顿	-11.466
大连商品交易所	-11.466
较上一交易日	-11.466
从业人员	-11.466
葬	-11.466
布拉德	-11.466
殷铁生	-11.466
磨砂	-11.466
一会儿	-11.466
号种子	-11.466
帕切科	-11.466
遣	-11.466
WiFi	-11.466
库伊特	-11.466
马布里	-11.466
监护	-11.466
国民经济	-11.4661
市公安局	-11.4661
贿	-11.4661
纠正	-11.4661
增产	-11.4662
花旦	-11.4662
连拍速度	-11.4662
搞怪	-11.4662
知情人	-11.4662
兑现	-11.4663
约合人民币	-11.4663
文书	-11.4663
巡回赛	-11.4663
东南亚	-11.4663
突击	-11.4663
复试分数线	-11.4663
紧缺	-11.4664
知情人士透露	-11.4664
▁(1)	-11.4664
缩短	-11.4665
毕业证书	-11.4665
抽签	-11.4665
参展	-11.4665
天弘	-11.4666
落泪	-11.4666
装饰	-11.4666
认知	-11.4667
目击	-11.4667
杜绝	-11.4667
模板	-11.4667
专注于	-11.4667
替补出场	-11.4667
续航时间	-11.4669
据台湾媒体报道	-11.467
复查	-11.467
镜片	-11.4671
配音	-11.4671
苏州	-11.4671
排列	-11.4671
杀青	-11.4673
富通	-11.4673
功力	-11.4673
清单	-11.4673
妇女	-11.4675
如愿	-11.4675
合格证	-11.4677
李湘	-11.4677
波兰	-11.4677
回购	-11.4678
奖牌	-11.4678
欧洲杯	-11.4679
美食	-11.468
道具	-11.468
镜面	-11.468
同庆	-11.4681
心愿	-11.4682
此项	-11.4682
CDC	-11.4682
小鸟	-11.4683
sion	-11.4683
大腕	-11.4685
米雪	-11.4685
ton	-11.4686
喜欢的朋友	-11.4688
线索	-11.4688
1.5%	-11.4688
言语	-11.4689
交投	-11.4692
清理	-11.4692
限定	-11.4692
深深	-11.4692
客场挑战	-11.4695
精美	-11.4696
达不到	-11.4698
把握住	-11.4701
智力	-11.4703
一直处于	-11.4703
靠近	-11.4703
职业教育	-11.4708
aga	-11.4708
主意	-11.471
淘汰赛	-11.4714
忙着	-11.4716
空白	-11.4717
UT	-11.4718
保费	-11.472
专户理财	-11.4722
反转	-11.4725
侧重	-11.4725
工作室	-11.4726
多彩	-11.4731
同城	-11.4733
急于	-11.4734
ba	-11.4738
任何一个	-11.4743
掌控	-11.4747
自习	-11.4747
抗通胀	-11.4752
湖北省	-11.4753
吃到	-11.4754
扣除	-11.4756
主攻	-11.4759
现阶段	-11.4761
VR	-11.4763
▁Ma	-11.4769
三段	-11.4776
之星	-11.4776
在这方面	-11.4805
被淘汰	-11.4808
上周六	-11.4814
XT	-11.4815
5230	-11.482
抛出	-11.482
养成	-11.4827
艺考	-11.4831
ks	-11.4835
不公平	-11.4835
子弟	-11.4836
易方达基金	-11.4848
这么多年	-11.4859
经济危机	-11.4865
实在太	-11.4867
有报道称	-11.4869
酬	-11.4878
NP	-11.4884
限量	-11.4884
2-0	-11.489
季末	-11.4892
留住	-11.4916
赢下	-11.4919
致使	-11.4919
无意	-11.492
建成	-11.4922
渡	-11.4924
金牛	-11.4932
钢企	-11.4937
大盘股	-11.4938
韧	-11.4946
盼	-11.4949
芒	-11.4951
稀	-11.4952
畏	-11.4954
赛季初	-11.4954
被誉为	-11.4954
吴金贵	-11.4954
癌	-11.4954
徐静蕾	-11.4954
埃文斯	-11.4954
瘫	-11.4954
迄今为止	-11.4954
LinkedIn	-11.4954
银监会	-11.4954
LUX	-11.4954
咕	-11.4954
沪基指	-11.4954
妖	-11.4954
张兆旭	-11.4954
▁University	-11.4954
詹	-11.4954
炮轰	-11.4954
一辈子	-11.4954
投篮命中	-11.4954
云天化	-11.4954
当当网	-11.4954
秽	-11.4954
征求意见稿	-11.4954
漆	-11.4954
学士学位	-11.4955
维斯特伍德	-11.4955
感兴趣的朋友不妨	-11.4955
机身尺寸为	-11.4955
奸	-11.4955
勉强	-11.4955
冤	-11.4955
跳槽	-11.4955
孙志浩	-11.4955
RAM	-11.4955
朝阳	-11.4955
拉斯维加斯	-11.4955
万像素的摄像头	-11.4955
压轴	-11.4955
缺陷	-11.4955
庆典	-11.4956
抖动	-11.4956
坚固	-11.4956
中金所	-11.4956
盛宴	-11.4956
顽强	-11.4956
已久的	-11.4956
贴膜	-11.4956
阿里巴巴集团	-11.4957
遗忘	-11.4957
这也意味着	-11.4957
奢华	-11.4957
悉数	-11.4957
储存	-11.4957
双核处理器	-11.4958
银河证券	-11.4958
更重要的是	-11.4958
在本场比赛中	-11.4958
泰勒	-11.4959
逢低	-11.4959
滑盖	-11.4959
制订	-11.496
向记者透露	-11.496
采集	-11.496
绝大部分	-11.496
英皇	-11.496
右后卫	-11.496
杨澜	-11.4961
基金资产的	-11.4961
剔除	-11.4961
航空公司	-11.4961
降息	-11.4962
复古	-11.4962
清洁	-11.4962
前瞻	-11.4962
终极	-11.4963
经济学家	-11.4963
约什	-11.4963
1/3	-11.4963
书籍	-11.4964
温州	-11.4965
获准	-11.4966
九城	-11.4966
吃惊	-11.4967
模型	-11.4967
实战	-11.4967
电容	-11.4968
讲座	-11.4968
红毯	-11.4969
补录	-11.4969
募集规模	-11.4969
甲型	-11.497
收官	-11.497
博士生	-11.4972
杰森	-11.4972
未婚	-11.4973
生产成本	-11.4973
临场	-11.4973
胡军	-11.4975
另一种	-11.4975
小牛队	-11.4977
木马	-11.4979
菜单	-11.4979
在鄂	-11.498
文凭	-11.4983
偏空	-11.4984
失业	-11.4989
世界杯预选赛	-11.4991
梅尔	-11.4992
顶部	-11.4992
秒钟	-11.4994
华南	-11.4995
英语水平	-11.4996
宣传活动	-11.4997
不利于	-11.4997
普利	-11.4997
整体来看	-11.4998
深圳市	-11.4999
班级	-11.4999
罗恩	-11.5
权益类	-11.5006
可怕	-11.5007
最后阶段	-11.5009
有所增加	-11.5011
重任	-11.5016
8.0	-11.5017
这才是	-11.5017
中国平安	-11.5018
火力	-11.502
语法	-11.502
每场	-11.5023
找工作	-11.5023
移动互联网	-11.5024
各级	-11.5025
一个新的	-11.5026
1-0	-11.503
心灵	-11.503
预定	-11.503
两年前	-11.5032
投行	-11.5035
午盘	-11.5038
首局	-11.5038
原油期货价格	-11.5039
车主	-11.5043
糖厂	-11.5046
两倍	-11.505
第一步	-11.5055
争抢	-11.5055
孙家	-11.5063
调查报告	-11.5072
经济形势	-11.5073
▁Ge	-11.5075
特价	-11.5076
伯尼	-11.5077
百亿	-11.5078
基金公司旗下	-11.5081
美国股市	-11.5091
使馆	-11.51
北京报道	-11.5103
是否能够	-11.5104
没有太大	-11.5113
9.1	-11.5122
投资收益	-11.5128
正式发布	-11.5129
架构	-11.5137
目前还没有	-11.5169
实体	-11.5173
ress	-11.5175
受限	-11.5189
高考期间	-11.5192
谐	-11.52
活泼	-11.5201
799	-11.5201
福利	-11.5202
更容易	-11.5205
德里克	-11.5211
亲身	-11.5213
每年都	-11.5215
51.	-11.5216
删	-11.5222
认出	-11.5224
泰信	-11.5224
触屏	-11.5229
han	-11.5246
去年底	-11.5247
烨	-11.5248
特别提醒	-11.5253
老布	-11.5253
汽	-11.5254
侦	-11.5256
蓓	-11.5256
周立波	-11.5256
罗比尼奥	-11.5256
慌	-11.5256
姨	-11.5257
成都商报	-11.5257
殿	-11.5257
靖	-11.5257
爵爷	-11.5257
担纲	-11.5257
李亚鹏	-11.5257
肇	-11.5257
粘	-11.5257
隋	-11.5257
博阿滕	-11.5257
欺诈	-11.5257
庸	-11.5257
梁文博	-11.5257
斯图加特	-11.5257
许志安	-11.5257
捏	-11.5257
肠	-11.5257
CFTC	-11.5257
低于标准杆	-11.5257
可见一斑	-11.5257
谦虚	-11.5257
研讨会	-11.5257
言承旭	-11.5257
坠	-11.5257
巴菲特	-11.5257
纽约商品交易所	-11.5257
吴佩慈	-11.5257
西蒙斯	-11.5257
国投瑞银	-11.5257
欣慰	-11.5257
金元比联	-11.5257
奢侈品	-11.5257
弗朗西斯	-11.5257
方力申	-11.5257
MacBook	-11.5257
龚	-11.5257
◆	-11.5257
秘诀	-11.5257
TOM	-11.5257
八卦	-11.5257
中国网通	-11.5257
兰多夫	-11.5258
贞	-11.5258
高等院校	-11.5258
开门红	-11.5258
下半时	-11.5258
茵	-11.5258
恭喜	-11.5258
博弈	-11.5258
的朋友不妨关注一下	-11.5258
与众不同	-11.5258
辽足	-11.5258
▁Home	-11.5258
皮肤	-11.5258
粤语	-11.5258
统治	-11.5258
排序	-11.5259
北师大	-11.5259
噪音	-11.5259
圆润	-11.5259
紧接着	-11.5259
记者昨日从	-11.526
净资本	-11.526
初中毕业生	-11.526
倒闭	-11.5261
立体声	-11.5261
中央电视台	-11.5261
女一号	-11.5261
现役	-11.5262
抓紧	-11.5262
劲爆	-11.5262
儿女	-11.5263
迎合	-11.5263
有趣的是	-11.5263
早餐	-11.5263
法律硕士	-11.5263
稍微	-11.5263
宠爱	-11.5264
信念	-11.5264
丁宁	-11.5265
含义	-11.5265
老东家	-11.5265
止跌	-11.5266
韩鹏	-11.5266
偏紧	-11.5267
图拔	-11.5267
WAP	-11.5268
改观	-11.5268
采用了一块	-11.5269
难怪	-11.527
从小就	-11.527
阿尔法	-11.527
体质	-11.5271
配套	-11.5272
灾难	-11.5273
艺体	-11.5275
处境	-11.5275
普涨	-11.5275
全线上涨	-11.5275
审题	-11.5276
珠海	-11.5276
四川省	-11.5277
主编	-11.5277
0909	-11.5278
意料	-11.5278
绿卡	-11.5279
另类	-11.5279
自营	-11.528
朴文	-11.528
山东省	-11.528
工银	-11.5281
必定	-11.5282
长期来看	-11.5284
官方微博	-11.5284
势力	-11.5286
张卫星	-11.5286
偿还	-11.5288
排名第二	-11.5289
背部	-11.529
尔森	-11.529
口号	-11.529
弹性	-11.529
苦战	-11.5291
原因在于	-11.5295
研究人员	-11.5295
半个月	-11.5297
胜任	-11.5297
解放军	-11.5297
比赛结束后	-11.5298
建仓期	-11.5299
将于近期	-11.5299
往事	-11.5302
拍摄模式	-11.5302
周期性	-11.5304
落选	-11.5306
亿欧元	-11.5307
这是一场	-11.5311
普遍认为	-11.5311
中国留学生	-11.5311
平局	-11.5315
不肯	-11.5315
实习生	-11.5319
作风	-11.5321
部电视剧	-11.533
等多个	-11.5339
出游	-11.5344
银行理财产品	-11.5347
归属	-11.5348
飞行	-11.5351
正式启动	-11.5354
几周	-11.5356
les	-11.5357
资金面	-11.5365
der	-11.5368
淡出	-11.537
带入	-11.5371
ana	-11.5373
5%;	-11.5379
购房	-11.5384
几年前	-11.5395
铅期货	-11.5397
冠军联赛	-11.5399
不论是	-11.5411
去年四季度	-11.5413
出具	-11.5423
ner	-11.5429
性能配置	-11.5447
在北京举行	-11.5447
能找到	-11.5454
广大考生	-11.5457
4%;	-11.5459
台湾地区	-11.547
这将是	-11.5496
广州市	-11.5497
追随	-11.5499
基金重仓股	-11.5503
要等到	-11.5521
1990	-11.5521
has	-11.5526
9.0	-11.5543
.46%	-11.5544
悔	-11.5551
址	-11.5551
分拆	-11.5553
献上	-11.5555
毕	-11.5556
一场胜利	-11.5562
诞	-11.5562
原告	-11.5563
弘	-11.5563
粤	-11.5568
荐	-11.5568
滚石	-11.5568
骤	-11.5568
棠	-11.5569
隙	-11.5569
寂	-11.5569
教科书	-11.5569
宋祖德	-11.5569
大连实德	-11.5569
齿	-11.5569
傅家俊	-11.5569
岂	-11.5569
豹	-11.5569
卡萨诺	-11.5569
钉	-11.5569
崩	-11.5569
克鲁斯	-11.5569
沾	-11.5569
赵忠祥	-11.5569
撕	-11.5569
超额收益	-11.5569
肿瘤	-11.557
Mbps	-11.557
细胞	-11.557
韬	-11.557
东道主	-11.557
iOS	-11.557
▁people	-11.557
发烧友	-11.557
银信合作	-11.557
筋	-11.557
咖啡	-11.557
市面上	-11.557
插槽	-11.557
预备队	-11.557
仕	-11.557
季前赛	-11.557
本科二批	-11.557
瓶颈	-11.557
魁	-11.557
沉默	-11.557
培育	-11.557
黎姿	-11.557
绩效	-11.557
犀利	-11.557
猎	-11.5571
▁some	-11.5571
变革	-11.5571
注意事项	-11.5571
复仇	-11.5571
抛弃	-11.5571
猴票	-11.5571
推荐免试	-11.5571
表彰	-11.5571
赔付	-11.5572
擅自	-11.5572
重挫	-11.5572
古典	-11.5572
描写	-11.5573
异议	-11.5573
发表声明	-11.5573
聚焦	-11.5573
暴扣	-11.5573
常态	-11.5573
▁外观上	-11.5573
查阅	-11.5573
悲伤	-11.5574
灵敏	-11.5574
即将到来	-11.5574
轨道	-11.5574
▁III	-11.5574
富国基金	-11.5574
社团	-11.5574
商家地址	-11.5574
宣言	-11.5575
原著	-11.5575
发达国家	-11.5575
航运	-11.5575
汇聚	-11.5575
罗宾	-11.5576
短裙	-11.5576
可怜	-11.5576
光大银行	-11.5576
救助	-11.5576
奔跑	-11.5576
在球场上	-11.5577
恒星	-11.5577
解围	-11.5577
成交金额	-11.5577
助威	-11.5578
表述	-11.5578
喜欢的朋友可以	-11.5579
封杀	-11.5579
下游需求	-11.558
倾向	-11.558
惊险	-11.558
震动	-11.5581
反响	-11.5581
任命	-11.5581
宝钢	-11.5581
美术学院	-11.5582
接受访问	-11.5582
借读	-11.5582
研究生院	-11.5583
浮动	-11.5583
荣获	-11.5583
通告	-11.5583
字母	-11.5584
相遇	-11.5584
广泛关注	-11.5584
清纯	-11.5584
指望	-11.5585
总体来看	-11.5585
水果	-11.5585
两个小时	-11.5585
贺岁	-11.5586
创建	-11.5586
年度最佳	-11.5586
公办	-11.5586
住房	-11.5586
测光	-11.5586
避开	-11.5587
甜美	-11.5588
这款相机	-11.5588
排球	-11.559
师傅	-11.5591
贴身	-11.5591
何种	-11.5592
男儿	-11.5593
起码	-11.5593
像素数	-11.5593
购入	-11.5593
房价	-11.5594
半程	-11.5594
重点高中	-11.5594
部委	-11.5596
班底	-11.5598
细心	-11.5598
确立	-11.5598
远离	-11.5601
勇士队	-11.5601
玩游戏	-11.5601
偏低	-11.5601
快男	-11.5601
主屏幕	-11.5605
不仅如此	-11.5607
角度看	-11.5608
歌声	-11.5608
完胜	-11.5609
方静	-11.5611
之争	-11.5612
满足用户	-11.5618
建设银行	-11.5619
档次	-11.562
基数	-11.5621
迪斯	-11.5626
阿根廷队	-11.5626
原先	-11.5628
泼	-11.5628
华财经	-11.5629
右边	-11.5631
跌幅超过	-11.5634
少量	-11.5635
星光	-11.5637
外套	-11.5642
空气	-11.5642
特尼	-11.5643
很好地	-11.5643
华东	-11.5643
有多大	-11.5644
养老保险	-11.5646
钢材价格	-11.5648
相当不错	-11.565
亲手	-11.5652
考生本人	-11.5653
优点	-11.5657
人寿	-11.5665
的又一	-11.5672
口头	-11.5674
初试成绩	-11.5679
1-6	-11.568
打满	-11.5683
硬件配置	-11.5699
结构调整	-11.5701
惨败	-11.5702
澳元	-11.5715
大光圈	-11.5723
这也让	-11.5729
陈真	-11.5738
武汉大学	-11.5739
曝出	-11.5739
禁令	-11.575
还剩下	-11.5751
性能表现	-11.5753
些什么	-11.5765
高位震荡	-11.5767
1997	-11.5775
化工品	-11.5783
歌星	-11.5784
权证	-11.5786
过瘾	-11.579
显得很	-11.5792
立场	-11.5801
否定	-11.5804
市招办	-11.5817
早期	-11.5817
ture	-11.5822
职场	-11.5823
3-0	-11.5837
计划招收	-11.5841
教育部门	-11.5841
财政部	-11.5852
小盘股	-11.5852
女朋友	-11.5857
高校自主招生	-11.5871
这部剧	-11.5872
芸	-11.5881
彼	-11.5884
娱	-11.5884
肚	-11.5886
努	-11.5886
此消息	-11.5887
西北	-11.5887
布莱恩	-11.5888
雇	-11.5888
kg	-11.5889
罗西基	-11.589
翰	-11.589
亨德利	-11.5891
马斯切拉诺	-11.5891
乾	-11.5891
黄秋生	-11.5891
汀	-11.5891
萱	-11.5892
迫不及待	-11.5892
社会各界	-11.5892
范佩西	-11.5892
窃	-11.5892
决胜局	-11.5892
朴廷桓	-11.5892
污	-11.5892
懈	-11.5892
皇家马德里	-11.5892
王学兵	-11.5892
马德里	-11.5892
高职高专	-11.5892
艾弗森	-11.5892
棕	-11.5892
阿尔斯通	-11.5892
晕	-11.5892
崩溃	-11.5892
于大宝	-11.5892
里弗斯	-11.5892
风向标	-11.5892
Diamond	-11.5892
提档线	-11.5892
黯	-11.5892
Research	-11.5892
李春江	-11.5892
精湛	-11.5892
头球攻门	-11.5892
号召	-11.5892
Nexus	-11.5892
保险保障基金	-11.5892
钢琴烤漆	-11.5892
专卖店	-11.5892
苏格兰	-11.5892
王仕鹏	-11.5892
|	-11.5892
华夏大盘精选	-11.5892
张艺谋	-11.5892
遂	-11.5893
潜伏	-11.5893
紧凑	-11.5893
空中网	-11.5893
广电总局	-11.5893
颓势	-11.5893
接班人	-11.5893
宪	-11.5893
在接受媒体采访时	-11.5893
上交所	-11.5893
屠	-11.5893
泰达荷银	-11.5893
皮克	-11.5893
扎堆	-11.5893
吴彦祖	-11.5893
愚	-11.5893
纠结	-11.5893
花絮	-11.5893
WIND	-11.5893
迅猛	-11.5893
奥林匹克	-11.5893
饮料	-11.5893
竞聘	-11.5893
佳绩	-11.5893
纵观	-11.5894
邮箱	-11.5894
招办主任	-11.5894
人民法院	-11.5894
防御	-11.5894
卫诗	-11.5894
减肥	-11.5894
信仰	-11.5895
数码单反	-11.5895
燃油	-11.5895
至每桶	-11.5895
卡片相机	-11.5895
武术	-11.5896
基金资产净值	-11.5896
郭涛	-11.5896
▁not	-11.5896
消费旺季	-11.5896
民营企业	-11.5896
机身背面	-11.5896
配对赛	-11.5896
休养	-11.5896
对记者表示	-11.5897
郭跃	-11.5897
络	-11.5898
寒冷	-11.5898
净买入	-11.5898
MSN	-11.5898
戒指	-11.5898
首页	-11.5899
的新闻发布会上	-11.5899
敬业	-11.5899
帅哥	-11.5899
右脚	-11.59
固然	-11.5901
善款	-11.5901
走软	-11.5901
估算	-11.5902
值得期待	-11.5902
提速	-11.5902
核电	-11.5903
逆市	-11.5903
的主要因素	-11.5903
竞价	-11.5903
涌入	-11.5903
坦克	-11.5903
论证	-11.5903
趣味	-11.5903
不少网友	-11.5903
私立	-11.5904
净资产	-11.5904
在校生	-11.5905
手续费	-11.5905
团购网站	-11.5905
艾米	-11.5905
城乡	-11.5905
添加	-11.5906
摩尔	-11.5908
圆满	-11.5908
怎么办	-11.5908
赶快	-11.5909
一览	-11.591
讲解	-11.591
的一员	-11.591
求助	-11.5911
对记者说	-11.5911
休战	-11.5911
立法	-11.5912
盛传	-11.5912
父子	-11.5913
比去年减少	-11.5914
促销活动	-11.5914
提取	-11.5915
李咏	-11.5915
白糖期货	-11.5916
战场	-11.5916
基调	-11.5916
两支	-11.5917
头脑	-11.5918
翻身	-11.5918
运转	-11.5919
高中阶段	-11.5921
高品质	-11.5922
摘得	-11.5922
脸部	-11.5922
任意	-11.5924
为首的	-11.5924
张磊	-11.5925
哈林	-11.5926
相关负责人表示	-11.5927
逢高	-11.5928
骑士队	-11.593
直传	-11.593
强攻	-11.5932
设想	-11.5934
铁矿石价格	-11.5935
面值	-11.5936
被视为	-11.5937
土地	-11.5939
中低端	-11.594
男双	-11.5941
发生变化	-11.5943
上海男篮	-11.5944
风险管理	-11.5944
助推	-11.5946
两个赛季	-11.5952
运球	-11.5955
EI	-11.5958
一般来说	-11.5961
OK	-11.5962
亿股	-11.5963
千万不要	-11.5963
异地	-11.5964
完婚	-11.5981
不会影响	-11.5989
这两天	-11.5992
关联	-11.5994
所做的	-11.6001
男单	-11.6003
围观	-11.6003
三季度末	-11.6004
13%	-11.6007
有序	-11.6009
新东方	-11.6015
比去年增加	-11.602
作为一名	-11.6027
爆仓	-11.6033
震荡上行	-11.6036
投资风格	-11.6044
布雷	-11.6044
课题	-11.6048
一辆	-11.6054
惨遭	-11.606
很多同学	-11.6073
今年年初	-11.6079
每场比赛	-11.6085
地方政府	-11.6088
吸收	-11.6097
高考分数	-11.61
政府部门	-11.6114
驾车	-11.612
恰	-11.6129
显得非常	-11.614
主要内容	-11.6142
莱利	-11.6153
天津市	-11.6156
授课	-11.6175
美观	-11.6193
不要错过	-11.6194
几场	-11.6195
律	-11.6196
China	-11.6198
回访	-11.6199
边后卫	-11.6207
篮协	-11.6213
利润率	-11.6216
比拼	-11.6217
履	-11.6221
袍	-11.6223
高晓松	-11.6224
郊	-11.6224
唐国强	-11.6224
朋	-11.6224
王仪涵	-11.6225
眠	-11.6225
梓	-11.6225
更何况	-11.6225
苍	-11.6225
悠	-11.6225
勿	-11.6225
颂	-11.6225
同等学力	-11.6225
段奕宏	-11.6225
有意思的是	-11.6225
渊	-11.6225
叛	-11.6225
砖	-11.6225
遵循	-11.6225
人力资源	-11.6225
垮	-11.6225
嘟	-11.6225
美国宇航局	-11.6225
镀	-11.6226
权益登记日	-11.6226
micro	-11.6226
浑	-11.6226
隐瞒	-11.6226
Vista	-11.6226
闫	-11.6226
WiMAX	-11.6226
香港中文大学	-11.6226
镁合金	-11.6226
李章洙	-11.6226
赛迪网	-11.6226
全力以赴	-11.6226
克劳福德	-11.6226
牢牢	-11.6226
艳照门	-11.6226
足总杯	-11.6226
爆炸	-11.6226
信达澳银	-11.6226
刘易斯	-11.6226
实名制	-11.6226
淮	-11.6226
睡眠	-11.6226
范德维奇	-11.6226
沸沸扬扬	-11.6226
股票型证券投资基金	-11.6226
南开大学	-11.6226
市招考办	-11.6226
抄袭	-11.6226
日当周	-11.6226
电池供电	-11.6226
欺骗	-11.6226
挣扎	-11.6226
一年一度的	-11.6226
韦唯	-11.6226
陵	-11.6227
美术类专业	-11.6227
简介	-11.6227
ock	-11.6227
小组出线	-11.6227
丹佛	-11.6227
老鼠	-11.6227
大个子	-11.6227
原谅	-11.6227
第三方支付	-11.6228
停滞	-11.6228
顺畅	-11.6228
宾客	-11.6228
兑换	-11.6228
核准	-11.6228
搜集	-11.6228
店铺	-11.6229
亿港元	-11.6229
漫游费	-11.6229
自主选拔录取	-11.6229
那个时候	-11.6229
广发证券	-11.6229
轻巧	-11.6229
编码	-11.623
粮油	-11.623
畅游	-11.623
解禁	-11.623
朝阳区	-11.623
争冠	-11.623
宽容	-11.623
清醒	-11.6231
遥远	-11.6231
的可能性较大	-11.6231
填补	-11.6232
宋佳	-11.6232
资格审查	-11.6232
吸取	-11.6232
社交网络	-11.6232
伤愈	-11.6232
裸体	-11.6233
时不时	-11.6233
贵金属	-11.6233
搭建	-11.6233
不可避免	-11.6233
这件事情	-11.6234
误解	-11.6235
缺失	-11.6235
商讨	-11.6235
参演	-11.6235
哈哈	-11.6236
足足	-11.6236
阅读理解	-11.6236
赶往	-11.6236
大容量	-11.6236
参赛资格	-11.6236
高尔夫俱乐部	-11.6237
丰收	-11.6237
邀约	-11.6237
胶片	-11.6237
竞选	-11.6238
直观	-11.6238
进口大豆	-11.6238
广角镜头	-11.6239
极限	-11.6239
归纳	-11.624
娘家	-11.624
干预	-11.624
等效焦距为	-11.624
光环	-11.6241
变得更加	-11.6241
重启	-11.6241
充分利用	-11.6241
网络购物	-11.6241
总比分	-11.6241
沃克	-11.6241
学历教育	-11.6243
宝座	-11.6243
绝非	-11.6243
延迟	-11.6244
深造	-11.6244
岁以下	-11.6244
是一款拥有	-11.6245
登台	-11.6246
医学院	-11.6246
▁据台湾	-11.6246
选举	-11.6246
从来不	-11.6247
端口	-11.6248
招牌	-11.6248
文化课	-11.6248
农业大学	-11.6251
创投	-11.6251
最佳状态	-11.6252
社会责任	-11.6253
粉丝们	-11.6254
丢球	-11.6254
合约跌	-11.6254
VX	-11.6254
太阳报	-11.6255
抢占	-11.6256
出彩	-11.6256
数额	-11.6258
战士	-11.6258
亚视	-11.6261
杜克	-11.6261
LX	-11.6261
指标生	-11.6264
之举	-11.6268
专访时	-11.6269
福建省	-11.627
接纳	-11.6273
UI	-11.6274
样本	-11.6274
福建队	-11.6277
适合自己的	-11.6278
库斯	-11.6278
接听	-11.6279
热门专业	-11.628
车晓	-11.628
上涨趋势	-11.628
属于自己的	-11.6283
6.9	-11.6289
深化	-11.6292
1996	-11.6296
▁Re	-11.6298
例外	-11.63
交易员	-11.6302
基金管理人	-11.6311
ah	-11.6322
挡出	-11.6322
专属	-11.6326
10000	-11.6326
败给	-11.6338
控制线	-11.6342
前三名	-11.635
只股票型基金	-11.6351
在网络上	-11.6357
▁另据	-11.6403
14.1	-11.6404
▁La	-11.6414
17%	-11.6419
成人高校招生	-11.6435
码处	-11.6436
0-0	-11.6442
历经	-11.6443
HP	-11.6449
的一个重要	-11.6457
名列第	-11.6468
专家提醒	-11.6471
健全	-11.6478
演艺界	-11.648
Mr	-11.6492
正值	-11.6511
ize	-11.6525
部分地区	-11.653
ina	-11.6544
价值观	-11.655
霆锋	-11.6557
.02%	-11.656
感应器	-11.6563
碳	-11.6566
描	-11.6567
罩	-11.6568
专注	-11.6569
劣	-11.657
兜	-11.657
孙俪	-11.657
喻	-11.657
小伙子	-11.657
妃	-11.657
玫瑰	-11.657
检察院	-11.657
咽	-11.657
凸	-11.657
丫	-11.657
潇	-11.657
随时随地	-11.657
中国概念股	-11.657
格兰杰	-11.657
RAW	-11.657
耽误	-11.657
国字号	-11.657
上海交通大学	-11.657
拦	-11.657
讽	-11.657
睹	-11.657
钓鱼	-11.657
领头羊	-11.657
奴	-11.657
衍	-11.657
张继科	-11.657
任达华	-11.657
片内统招	-11.657
整数关口	-11.657
江若琳	-11.657
潘金莲	-11.657
感恩节	-11.6571
特派记者	-11.6571
佬	-11.6571
液晶面板	-11.6571
以太网卡	-11.6571
费雷拉	-11.6571
莱昂纳多	-11.6571
IBM	-11.6571
投连险	-11.6571
大阪钢巴	-11.6571
尸	-11.6571
这样一来	-11.6571
中国男排	-11.6571
埃利斯	-11.6571
扳平比分	-11.6571
曙光	-11.6571
张国荣	-11.6571
纯债基金	-11.6571
全方位	-11.6571
枫叶	-11.6571
新课改	-11.6571
图书馆	-11.6571
李小冉	-11.6571
Apple	-11.6571
海淀区	-11.6571
滤镜	-11.6571
墨镜	-11.6571
辣妹	-11.6571
象棋	-11.6571
葛优	-11.6571
围巾	-11.6572
果岭	-11.6572
坎贝尔	-11.6572
宏观调控	-11.6572
怀念	-11.6572
探访	-11.6572
支柱	-11.6572
久违	-11.6573
契约	-11.6573
背光源	-11.6573
EXR	-11.6573
zol	-11.6573
扭伤	-11.6574
欠佳	-11.6574
ike	-11.6574
谍战	-11.6574
期盼	-11.6574
吕征	-11.6574
善良	-11.6574
周一围	-11.6574
欢呼	-11.6575
收窄	-11.6575
NEX	-11.6575
悲剧	-11.6575
股东大会	-11.6576
审计	-11.6576
佛山	-11.6576
果断	-11.6576
绝望	-11.6576
溢价率	-11.6576
十二五	-11.6577
份派	-11.6577
.264	-11.6577
无锡	-11.6578
填志愿	-11.6578
商务人士	-11.6578
造势	-11.6578
抢购	-11.6579
坚信	-11.6579
粉色	-11.6579
科技有限公司	-11.658
网上填报志愿	-11.6581
供应紧张	-11.6582
外省市	-11.6582
高职院校	-11.6582
王皓	-11.6582
降温	-11.6582
留洋	-11.6583
收费标准	-11.6583
角度来看	-11.6586
若干	-11.6588
对抗赛	-11.6588
使命	-11.6588
出庭	-11.6589
小胖	-11.6589
淡定	-11.6589
交警	-11.659
优惠政策	-11.6591
急剧	-11.6591
的重要原因	-11.6595
陈涛	-11.6595
合作协议	-11.6596
不停地	-11.6596
新榨季	-11.6596
深夜	-11.6596
最关键的	-11.6597
清算	-11.6598
剧院	-11.6599
▁To	-11.66
卡佩	-11.66
斯科拉里	-11.66
两家公司	-11.6604
主要是由于	-11.6604
口味	-11.6605
大幅反弹	-11.6605
婚事	-11.6606
笑话	-11.6608
三连胜	-11.6613
全联盟	-11.6617
积极参与	-11.6623
安然	-11.6627
这几年	-11.6628
辽宁省	-11.6633
徐克	-11.6636
卖掉	-11.6638
▁fro	-11.6644
高质量的	-11.6662
进一步扩大	-11.667
配额	-11.6674
经验丰富	-11.6675
高分考生	-11.6678
开创	-11.669
节约	-11.6697
求学	-11.672
很多东西	-11.6726
备选	-11.6732
机身设计	-11.6732
管理办法	-11.6735
大成基金	-11.6736
债券型	-11.6739
ain	-11.6746
phon	-11.6777
▁go	-11.6796
焦段	-11.6798
主打歌	-11.6821
1:30	-11.6852
的那一	-11.6854
ure	-11.6899
览	-11.6906
球技	-11.692
闸	-11.6922
踪	-11.6922
王励勤	-11.6925
开拓	-11.6926
潘德夫	-11.6926
丁锦辉	-11.6926
吵	-11.6926
魂	-11.6927
巷	-11.6927
喉	-11.6927
维迪奇	-11.6927
FIFA	-11.6927
陈凯歌	-11.6927
泊	-11.6927
国泰君安	-11.6927
阎	-11.6927
伯明翰	-11.6927
古巨基	-11.6927
潘玮柏	-11.6927
百姓	-11.6927
中国人民大学	-11.6927
沈祥福	-11.6927
摩根士丹利	-11.6927
特雷西	-11.6927
灰尘	-11.6927
拉开帷幕	-11.6927
马雅舒	-11.6927
哥伦比亚	-11.6927
道格拉斯	-11.6928
厄	-11.6928
法布雷加斯	-11.6928
那不勒斯	-11.6928
华泰柏瑞	-11.6928
殴	-11.6928
鸭	-11.6928
YouTube	-11.6928
大宗交易	-11.6928
Kelly	-11.6928
盾	-11.6928
禁止转载	-11.6928
万像素成像能力	-11.6928
图库供稿	-11.6928
照相功能	-11.6928
迈凯轮	-11.6928
国金证券	-11.6928
脖	-11.6928
节能减排	-11.6928
北京电影学院	-11.6928
朴智星	-11.6928
邱峻	-11.6928
敛	-11.6928
穆里奇	-11.6928
觅	-11.6928
交强险	-11.6928
泰伦斯	-11.6928
马洛卡	-11.6928
瞄准	-11.6928
Ella	-11.6928
不可思议	-11.6928
林青霞	-11.6928
李晓霞	-11.6928
东湖高新	-11.6928
纤薄	-11.6928
婴儿	-11.6928
挫折	-11.6928
拆迁	-11.6928
坦承	-11.6929
潜规则	-11.6929
工业和信息化部	-11.6929
序幕	-11.6929
韦弗	-11.6929
剑桥	-11.6929
袁莉	-11.6929
潜质	-11.693
孙楠	-11.693
谣言	-11.693
不好意思	-11.693
硬朗	-11.693
邻居	-11.693
考生可登录	-11.6931
典雅	-11.6931
承压	-11.6931
副校长	-11.6931
涂层	-11.6931
广州亚运会	-11.6931
汪峰	-11.6931
仪器	-11.6932
简历	-11.6932
山东鲁能	-11.6932
证券交易所	-11.6932
标识	-11.6932
常识	-11.6932
约束	-11.6932
评分标准	-11.6933
透支	-11.6933
高职专科	-11.6933
顺势	-11.6933
邮票	-11.6934
黑网吧	-11.6935
整容	-11.6935
涉案	-11.6935
争论	-11.6935
横店	-11.6936
散户	-11.6936
优良	-11.6936
深基指	-11.6936
陈蓉	-11.6936
zk	-11.6937
收缩	-11.6937
长虹	-11.6937
继续维持	-11.6937
凯塔	-11.6937
陪同下	-11.6938
衣物	-11.6938
排练	-11.6938
功底	-11.6939
曲目	-11.6939
替身	-11.6939
保卫	-11.694
配件	-11.694
帽子	-11.6941
之称的	-11.6941
本榨季	-11.6941
偏弱	-11.6942
陪同	-11.6942
字样	-11.6943
助教	-11.6944
国象	-11.6944
负债	-11.6945
底座	-11.6945
几句	-11.6946
散热	-11.6946
轻取	-11.6947
乔尔	-11.6948
获配	-11.6949
很长时间	-11.6951
面孔	-11.6952
歌迷们	-11.6953
隆重	-11.6954
作曲	-11.6954
最主要的	-11.6955
合格者	-11.6956
冬天	-11.6957
平均仓位	-11.6958
交银	-11.6958
直指	-11.6959
谈话	-11.6963
公牛队	-11.6965
皮特	-11.6966
新碟	-11.6966
招生人数	-11.6969
拉姆	-11.6969
兼报	-11.6969
罗宁	-11.6971
高薪	-11.6974
没有必要	-11.6974
陈豪	-11.6976
这已经是	-11.6979
数目	-11.6979
远远超过	-11.6988
希望他能	-11.6992
王琳	-11.7004
绝对不会	-11.7011
界人士	-11.7011
昨日上午	-11.7012
感情生活	-11.7014
相关规定	-11.7015
大幅提升	-11.7016
本周五	-11.7027
万港元	-11.7034
平均收益率	-11.7036
曾多次	-11.7053
罚球线	-11.7069
▁-2.	-11.7072
平均水平	-11.7095
列表	-11.7105
Mark	-11.7111
通讯员	-11.7116
颇受	-11.7117
捐出	-11.7119
5.5%	-11.7119
移动运营商	-11.7122
中心主任	-11.7144
编制	-11.7175
沟	-11.7178
.79%	-11.7178
.26%	-11.7204
据英国	-11.7207
郑州市	-11.7237
廉	-11.724
在接下来的	-11.7241
基本功	-11.7264
晨报	-11.7267
预告	-11.7272
教练员	-11.7279
Thi	-11.7282
续航	-11.7285
援引	-11.7285
悉	-11.7286
谍	-11.7293
赞同	-11.7295
祸	-11.7295
裔	-11.7295
安哥拉	-11.7296
阿巴特	-11.7296
厉	-11.7297
蓬	-11.7297
尿	-11.7297
王志文	-11.7297
谨	-11.7297
惩	-11.7297
温哥华	-11.7297
西多夫	-11.7297
陈耀烨	-11.7297
默默	-11.7297
闺	-11.7297
话语权	-11.7298
伊拉克	-11.7298
三分线外	-11.7298
▁新快报讯	-11.7298
扬声器	-11.7298
黎耀祥	-11.7298
顺其自然	-11.7298
中国人民银行	-11.7298
塞维利亚	-11.7298
系统性风险	-11.7298
轧	-11.7298
阿毛里	-11.7298
扛	-11.7298
李霄云	-11.7298
汶	-11.7298
泻	-11.7298
牟	-11.7298
▁whi	-11.7298
热那亚	-11.7298
娥	-11.7298
脆弱	-11.7298
铎	-11.7298
钊	-11.7298
▁have	-11.7298
逮捕	-11.7298
▁this	-11.7298
埃因霍温	-11.7298
虞	-11.7298
笼	-11.7298
银河证券基金研究中心	-11.7298
犬	-11.7298
艰辛	-11.7298
定期定额	-11.7298
轨迹	-11.7298
恶劣	-11.7298
詹宁斯	-11.7298
迪亚拉	-11.7298
姜东润	-11.7298
菱	-11.7298
背靠背	-11.7298
瓷	-11.7298
蒋兴权	-11.7298
颁布	-11.7298
卑	-11.7299
娃娃	-11.7299
王宝强	-11.7299
一分钱	-11.7299
爷爷	-11.7299
喜欢的朋友不妨	-11.7299
郭可盈	-11.7299
也不例外	-11.7299
揭示	-11.7299
曹操	-11.7299
的带领下	-11.73
委屈	-11.73
高等教育自学考试	-11.73
符合条件的	-11.73
兑人民币	-11.73
ETS	-11.73
隆重举行	-11.73
劲旅	-11.73
涉毒	-11.73
典礼	-11.73
威尔士	-11.73
威尼斯	-11.73
支援	-11.73
辩护	-11.73
激活	-11.7301
Fire	-11.7301
综合素质评价	-11.7301
呼吸	-11.7301
取景器	-11.7301
扶持	-11.7301
绯闻男友	-11.7301
索赔	-11.7302
旅程	-11.7302
补习	-11.7302
梦幻	-11.7302
盯防	-11.7302
文科状元	-11.7302
隐形	-11.7302
围甲	-11.7302
稿件	-11.7302
挽回	-11.7303
出货量	-11.7303
评判	-11.7303
喝酒	-11.7303
锐减	-11.7303
欣喜	-11.7303
测评	-11.7303
斗争	-11.7303
社会主义	-11.7304
声誉	-11.7304
深陷	-11.7304
保鲜	-11.7304
况且	-11.7305
药店	-11.7305
肚子	-11.7305
EIA	-11.7305
航空	-11.7305
药物	-11.7306
榜样	-11.7306
感兴趣的朋友	-11.7306
划算	-11.7307
激进	-11.7308
低胸	-11.7308
纯属	-11.7308
内涵	-11.7308
持稳	-11.7309
法律责任	-11.7309
限额	-11.7309
中学校长	-11.7309
的重要因素	-11.731
参考报价	-11.731
年轻队员	-11.731
▁It	-11.731
混双	-11.731
功课	-11.7311
的帮助下	-11.7311
气象	-11.7311
近乎	-11.7311
高峰期	-11.7311
水晶	-11.7311
民警	-11.7312
路透	-11.7313
照样	-11.7314
落败	-11.7315
沪指	-11.7315
看台上	-11.7316
搞定	-11.7317
的原因之一	-11.7317
朝鲜队	-11.7317
银联	-11.732
force	-11.732
平淡	-11.732
向记者表示	-11.7321
巴顿	-11.7323
购机	-11.7323
自觉	-11.7323
讲话	-11.7323
花样	-11.7324
运费	-11.7328
被捕	-11.7329
▁//	-11.7329
精度	-11.733
)--	-11.733
生产商	-11.7331
按规定	-11.7331
顺位	-11.7331
黄色	-11.7331
了解一下	-11.7332
张野	-11.7335
联想集团	-11.734
记者致电	-11.7353
鹏华基金	-11.7355
发展前景	-11.7357
ron	-11.736
咪	-11.7369
里昂	-11.7372
.03%	-11.7379
▁You	-11.7403
训练课	-11.7407
公认	-11.7417
促成	-11.7427
比赛进行到	-11.7438
套房	-11.746
保住	-11.7471
师资	-11.7482
鸿海	-11.7487
DDR	-11.7495
休息室	-11.75
举行婚礼	-11.7517
理事会	-11.7523
区间震荡	-11.7526
高感光度	-11.7534
共设	-11.7595
减压	-11.7597
跌幅最大	-11.7608
中欧基金	-11.7609
.72%	-11.7613
判定	-11.7626
谓	-11.7638
挫	-11.7649
此刻	-11.7666
嫁给	-11.7671
炜	-11.7678
发改委	-11.7679
奢	-11.7679
罕	-11.768
谅	-11.768
贝尔巴托夫	-11.7681
理查德	-11.7681
婴	-11.7681
鞍	-11.7681
滤	-11.7682
瑾	-11.7682
欺	-11.7682
艾尔顿	-11.7682
最大限度	-11.7682
在进攻端	-11.7682
澎	-11.7682
普约尔	-11.7682
肾	-11.7682
皱	-11.7682
摩根大通	-11.7682
掏	-11.7682
于文凤	-11.7682
排位赛	-11.7682
RMVB	-11.7682
望远镜	-11.7682
陈小春	-11.7682
鞭	-11.7682
肿	-11.7682
接近尾声	-11.7682
甲级联赛	-11.7682
月中下旬	-11.7682
绿衫军	-11.7682
周苏红	-11.7682
祈	-11.7682
博士学位	-11.7682
上海黄金交易所	-11.7682
耕	-11.7682
浮出水面	-11.7683
裴	-11.7683
遥遥领先	-11.7683
梁文冲	-11.7683
矢	-11.7683
大满贯	-11.7683
科特迪瓦	-11.7683
Web	-11.7683
Mydaily	-11.7683
佑	-11.7683
佛罗里达	-11.7683
联合会杯	-11.7683
拭目以待	-11.7683
阿内尔卡	-11.7683
$	-11.7683
唯物主义	-11.7683
邪	-11.7683
当代艺术	-11.7683
有期徒刑	-11.7683
渣	-11.7683
乌克兰	-11.7683
申银万国	-11.7683
▁据新华社电	-11.7683
打招呼	-11.7683
出口退税	-11.7683
李玮锋	-11.7683
黄海波	-11.7683
闵鹿蕾	-11.7683
侦探	-11.7683
做市商	-11.7683
聿	-11.7683
翁虹	-11.7683
绊	-11.7683
乐易玲	-11.7683
王家卫	-11.7683
周秀娜	-11.7683
TOP	-11.7683
叶璇	-11.7683
储蓄	-11.7683
匪	-11.7683
上海交大	-11.7683
评阅	-11.7683
不法分子	-11.7683
公积金	-11.7683
首募规模	-11.7683
郝蕾	-11.7683
包裹	-11.7683
暇	-11.7683
应届本科毕业生	-11.7683
礼仪小姐	-11.7683
Big	-11.7683
髓	-11.7683
讲究	-11.7684
ound	-11.7684
高级副总裁	-11.7684
贯彻	-11.7684
嫣	-11.7684
汤唯	-11.7684
风靡	-11.7684
召集	-11.7684
国储糖	-11.7684
惨淡	-11.7684
间谍	-11.7684
宣判	-11.7685
赞赏	-11.7685
英尺	-11.7685
漫画	-11.7685
示范高中	-11.7685
燃料	-11.7685
雇主	-11.7685
续航能力	-11.7686
午评	-11.7686
返港	-11.7686
迫切	-11.7687
▁Pro	-11.7687
依托	-11.7687
救灾	-11.7687
补篮	-11.7688
祖儿	-11.7688
芬奇	-11.7688
严宽	-11.7688
晚餐	-11.7688
出道以来	-11.7688
精细	-11.7689
紧缩政策	-11.7689
影视作品	-11.769
宝盈	-11.769
今天小编	-11.769
轰动	-11.769
彼得	-11.769
奎尔	-11.769
显存	-11.7691
吸纳	-11.7691
乌龙	-11.7691
更像是	-11.7692
脱离	-11.7692
鲜花	-11.7692
再创新高	-11.7693
各区县	-11.7693
海岸	-11.7693
预警	-11.7694
发泄	-11.7694
按摩	-11.7694
略微	-11.7694
外国语学校	-11.7694
视频直播	-11.7694
英语听力	-11.7695
闯入	-11.7695
▁pro	-11.7695
晨星	-11.7696
佳丽	-11.7696
惟一	-11.7696
刘芸	-11.7696
黑莓手机	-11.7696
适用于	-11.7697
假设	-11.7697
高三学生	-11.7697
指示	-11.7698
神勇	-11.7698
配角	-11.7699
取得胜利	-11.7699
跳楼	-11.7699
高昂	-11.77
较大幅度	-11.77
创立	-11.77
无聊	-11.7701
持股比例	-11.7702
矿业	-11.7702
产糖	-11.7702
西藏	-11.7703
十八	-11.7705
闪婚	-11.7705
主场对阵	-11.7705
机身重量	-11.7706
小皇帝	-11.7706
核实	-11.7707
交通银行	-11.7707
ATM	-11.7707
净值涨幅	-11.7708
百货	-11.7708
翻转	-11.7709
取得联系	-11.7709
七八	-11.771
汇总	-11.771
节节	-11.7712
男朋友	-11.7713
普通话	-11.7713
复赛	-11.7713
封闭式	-11.7713
新援	-11.7713
反思	-11.7713
反射	-11.7714
学生和家长	-11.7715
UV	-11.7717
毕业生就业	-11.7718
预告片	-11.7719
有线电视	-11.7724
之类的	-11.7736
全国统考	-11.7744
广播电视	-11.7749
没必要	-11.7769
恰当	-11.7781
特别注意	-11.7783
停工	-11.7787
关税	-11.7796
air	-11.7799
能源化工	-11.7808
几场比赛	-11.7817
署名	-11.7818
社保	-11.7828
ble	-11.7848
务必	-11.7848
京城	-11.785
亚冠联赛	-11.785
Sam	-11.787
点击查看	-11.7896
.01%	-11.7919
秋冬	-11.7955
寸液晶	-11.7957
我省高考	-11.7958
第一批本科	-11.7971
3-2	-11.7999
▁-3.	-11.8012
较上年	-11.8021
防抖镜头	-11.8051
动摇	-11.8066
▁so	-11.8066
仅剩	-11.807
媒体采访	-11.8071
允	-11.8072
徽	-11.808
辑	-11.808
陈道明	-11.8081
毛泽东	-11.8081
甫	-11.8081
肤	-11.8081
自主选拔	-11.8082
郁	-11.8082
滋	-11.8082
布莱切	-11.8082
壹	-11.8082
易观国际	-11.8082
姊	-11.8082
茂	-11.8082
狭	-11.8082
何韵诗	-11.8082
蒙娜丽莎	-11.8082
讽刺	-11.8082
亭	-11.8082
梁咏琪	-11.8082
舰	-11.8082
倍耐力	-11.8082
舜天	-11.8082
怎	-11.8082
可分配收益	-11.8082
榻	-11.8082
华兰生物	-11.8082
郡	-11.8082
哈达迪	-11.8082
坝	-11.8082
可圈可点	-11.8082
莫文蔚	-11.8082
预示着	-11.8082
CPU	-11.8082
吕晓明	-11.8082
愧	-11.8082
老虎伍兹	-11.8082
邓卓翔	-11.8082
溃	-11.8082
在规定时间内	-11.8082
蹭	-11.8082
本菲卡	-11.8082
施魏因斯泰格	-11.8083
含金量	-11.8083
塞尔维亚	-11.8083
蔡健雅	-11.8083
皮尔斯	-11.8083
炳	-11.8083
齐豫	-11.8083
刘莎莎	-11.8083
梅开二度	-11.8083
簿	-11.8083
中国男足	-11.8083
定向增发	-11.8083
契合	-11.8083
美联社	-11.8083
株	-11.8083
赵宝刚	-11.8083
神州数码	-11.8083
喘	-11.8083
崎	-11.8083
煎	-11.8083
霄	-11.8083
伊瓜因	-11.8083
1280×720	-11.8083
随身携带	-11.8083
斯科特	-11.8083
锣	-11.8083
拢	-11.8083
范德法特	-11.8083
三脚架	-11.8083
当之无愧	-11.8083
娜塔莎	-11.8083
轶	-11.8083
▁晚报讯	-11.8083
邓丽君	-11.8083
扑朔迷离	-11.8083
教育部考试中心	-11.8083
伤愈复出	-11.8083
关天朗	-11.8083
录取控制分数线	-11.8083
桂冠	-11.8083
脊	-11.8083
摄影爱好者	-11.8083
抒情	-11.8083
万镑	-11.8084
的扮演者	-11.8084
河南建业	-11.8084
罗德曼	-11.8084
昂贵	-11.8084
削弱	-11.8084
坐镇主场	-11.8084
百分之	-11.8084
逃避	-11.8084
主旨	-11.8084
贵宾	-11.8085
确切	-11.8085
慰问	-11.8085
厨房	-11.8085
成像质量	-11.8085
口罩	-11.8085
脑袋	-11.8085
基金份额持有人	-11.8085
宠物	-11.8085
残酷	-11.8085
失业率	-11.8085
偶然	-11.8086
锌价	-11.8086
餐馆	-11.8086
稍稍	-11.8086
背单词	-11.8086
中科大	-11.8086
莲花	-11.8086
滚动	-11.8086
战袍	-11.8086
争执	-11.8087
手柄	-11.8087
严格执行	-11.8087
胡瓜	-11.8087
续集	-11.8087
商铺	-11.8088
伊始	-11.8088
充满信心	-11.8088
师徒	-11.8088
会计师	-11.8088
附件	-11.8088
观测	-11.8088
草根	-11.8088
玉树	-11.8089
deal	-11.8089
紫色	-11.809
答谢	-11.809
模特儿	-11.809
较前一周	-11.809
吃亏	-11.809
国内首只	-11.8091
画皮	-11.8091
绝佳	-11.8092
欧阳	-11.8092
接替	-11.8093
早晨	-11.8093
练兵	-11.8093
碰面	-11.8093
自行车	-11.8094
投机资金	-11.8095
最后一节	-11.8095
天虹	-11.8096
差异化	-11.8096
飞侠	-11.8096
巨人网络	-11.8096
病房	-11.8097
外形设计	-11.8097
童星	-11.8097
新生代	-11.8099
专程	-11.8099
挥手	-11.81
协作	-11.81
谢联	-11.81
纪录片	-11.8101
高度关注	-11.8101
社交网站	-11.8101
艾尔	-11.8101
中国篮协	-11.8101
章节	-11.8102
著名导演	-11.8102
撞车	-11.8102
全球金融危机	-11.8102
换帅	-11.8102
期货日报	-11.8103
灵感	-11.8104
适马	-11.8104
划线	-11.8107
表现不佳	-11.8108
纪香	-11.8114
实体经济	-11.8116
有关负责人介绍	-11.8124
未来几年	-11.8127
这方面的	-11.813
个工作日	-11.8133
纹身	-11.8136
征求	-11.8141
没有想到	-11.8163
含税	-11.8164
0.3%	-11.8166
购置	-11.8167
据新华社	-11.818
从来都	-11.8196
枚金牌	-11.8205
确有	-11.822
对外公布	-11.826
收于每桶	-11.827
2-2	-11.832
.04%	-11.8351
维持高位	-11.8377
礼仪	-11.8389
提前批次	-11.8393
感触	-11.8421
增添	-11.8453
紧紧	-11.8455
掀	-11.8457
1.3%	-11.8464
表现抢眼	-11.8468
开庭	-11.8468
off	-11.8471
篇文章	-11.8479
漂	-11.8494
究	-11.8495
仑	-11.8495
削	-11.8496
狄仁杰	-11.8496
拾	-11.8497
弈	-11.8497
冶炼	-11.8498
国民党	-11.8498
不难看出	-11.8498
垂	-11.8498
翘	-11.8498
藻	-11.8498
余文乐	-11.8498
莫斯科	-11.8498
茅	-11.8498
西门子	-11.8499
擂	-11.8499
慕	-11.8499
费迪南德	-11.8499
灿烂	-11.8499
眼前一亮	-11.8499
四分之一	-11.8499
幽	-11.8499
迄今	-11.8499
大陪审团	-11.8499
萨尔蒙斯	-11.8499
茹	-11.8499
罗志祥	-11.8499
优比速	-11.8499
共产党	-11.8499
博列洛	-11.8499
侯耀华	-11.8499
捉	-11.8499
肺	-11.8499
捞	-11.8499
闭幕式	-11.8499
咒	-11.8499
俞觉敏	-11.8499
友谊赛	-11.8499
拉伊奥拉	-11.8499
标准普尔	-11.8499
禾	-11.8499
乐视网	-11.8499
帕金斯	-11.8499
巧克力	-11.8499
罗德里格斯	-11.8499
齐达内	-11.8499
LOGO	-11.8499
欧巡赛	-11.8499
睁	-11.8499
贾斯汀	-11.8499
拦截	-11.8499
艾薇儿	-11.8499
录取最低控制分数线	-11.8499
何雯娜	-11.8499
安德烈	-11.8499
截然不同	-11.8499
世华财讯	-11.8499
赋予	-11.8499
数码相机产品报价	-11.8499
绰	-11.8499
汤普森	-11.8499
颈	-11.8499
颤	-11.8499
▁商报讯	-11.8499
欧足联	-11.8499
阻碍	-11.8499
沉寂	-11.8499
房祖名	-11.8499
翟田田	-11.8499
Tony	-11.8499
▁版权所有	-11.8499
斯塔德迈尔	-11.8499
食品饮料	-11.85
骚扰	-11.85
董方卓	-11.85
▁One	-11.85
不容乐观	-11.85
等离子电视	-11.85
西汉姆	-11.85
特科格鲁	-11.85
投篮不中	-11.85
排名靠前	-11.85
黛	-11.85
天涯	-11.85
杨紫琼	-11.85
讨厌	-11.85
杜淳	-11.85
钧	-11.85
专业课加试	-11.85
狠狠	-11.85
拔尖	-11.85
▁相关新闻	-11.85
大手笔	-11.85
碰撞	-11.85
波波维奇	-11.85
开盘交易的	-11.85
撰写	-11.85
收拾	-11.8501
数码摄像机	-11.8501
创历史新高	-11.8501
技战术	-11.8501
失踪	-11.8501
裸奔	-11.8501
称之为	-11.8501
救援	-11.8502
繁忙	-11.8502
冻结	-11.8502
New	-11.8502
避险情绪	-11.8502
斩获	-11.8502
礼貌	-11.8502
基金管理有限公司关于	-11.8502
QVGA	-11.8502
磨练	-11.8502
证券时报	-11.8502
加仑	-11.8503
打出一波	-11.8503
一定程度的	-11.8503
防尘	-11.8503
多空双方	-11.8503
年之久	-11.8503
营业收入	-11.8503
鼓舞	-11.8504
玛丽	-11.8504
唯独	-11.8504
黄博文	-11.8504
极强的	-11.8504
公映	-11.8504
寓所	-11.8504
选秀权	-11.8504
号召力	-11.8504
统筹	-11.8504
召回	-11.8504
传统封基	-11.8505
指导意见	-11.8505
新闻发言人	-11.8505
路径	-11.8505
联邦政府	-11.8505
摩根	-11.8505
严密	-11.8506
景象	-11.8506
光学防抖功能	-11.8506
教父	-11.8506
靠谱	-11.8506
问候	-11.8506
检修	-11.8506
艾瑞	-11.8506
忠实	-11.8507
巧合	-11.8507
赌博	-11.8507
谢娜	-11.8507
现今	-11.8508
实验操作	-11.8508
畅谈	-11.8508
机身厚度	-11.8508
盛大游戏	-11.8508
理赔	-11.8508
禁赛	-11.8509
当被问及	-11.8509
公测	-11.851
每盎司	-11.851
价格的上涨	-11.851
备货	-11.851
草案	-11.851
▁sp	-11.851
那一刻	-11.851
消息人士透露	-11.8511
读研	-11.8512
精武	-11.8513
补丁	-11.8513
哲科	-11.8514
极佳	-11.8515
达拉斯	-11.8515
各省市	-11.8515
供电	-11.8515
美妙	-11.8517
劳动力	-11.8517
4:00	-11.8547
批复	-11.855
较上月	-11.8557
0.25%	-11.8561
逼真	-11.8573
长城基金	-11.8575
3-3	-11.8581
摆放	-11.8602
化妆品	-11.862
妙传	-11.8648
个半月	-11.8669
个多小时	-11.8695
次盖帽	-11.871
趋紧	-11.8752
早籼稻期货	-11.8758
引爆	-11.8762
.27%	-11.8771
0.2%	-11.8836
次罚球	-11.8861
银河期货	-11.887
▁ex	-11.888
telli	-11.8881
ood	-11.8891
护照	-11.8895
现金流	-11.8916
疆	-11.8922
进口铁矿石	-11.8922
师兄	-11.8923
怜	-11.8924
抖	-11.8928
魅	-11.893
抑	-11.8931
吴宇森	-11.8931
WTI	-11.8932
辽	-11.8932
囤积	-11.8933
贝加尔湖	-11.8933
蒂亚戈	-11.8933
主人公	-11.8933
郭焱	-11.8933
港币	-11.8933
伙伴	-11.8933
淇	-11.8933
耻	-11.8933
恰逢	-11.8933
旭日阳刚	-11.8933
林保怡	-11.8934
诺坎普	-11.8934
任贤齐	-11.8934
中等职业学校	-11.8934
笃	-11.8934
李佳薇	-11.8934
可视角度	-11.8934
倦	-11.8934
未知数	-11.8934
双胞胎	-11.8934
皮尔洛	-11.8934
德维恩	-11.8934
驴	-11.8934
巴特尔	-11.8934
监察	-11.8934
赵丹阳	-11.8934
Skype	-11.8934
告一段落	-11.8934
白岩松	-11.8934
邢	-11.8934
汉语言文学	-11.8934
Nvidia	-11.8934
国际奥委会	-11.8934
姬	-11.8934
藉	-11.8934
搁	-11.8934
朴茨茅斯	-11.8934
谜	-11.8934
运价指数	-11.8934
中规中矩	-11.8934
守门员	-11.8934
汇丰晋信	-11.8934
淼	-11.8934
理财周报记者	-11.8934
违纪	-11.8934
▁特约记者	-11.8934
卡洛斯	-11.8934
时代华纳	-11.8934
分支机构	-11.8934
PCHOME	-11.8934
谢杏芳	-11.8934
CMMB	-11.8934
泛滥	-11.8934
大中华区	-11.8934
李妮娜	-11.8934
窥	-11.8934
孟菲斯	-11.8934
CBN	-11.8934
潘霜霜	-11.8934
加西亚	-11.8934
尹志强	-11.8934
煞	-11.8934
必不可少	-11.8934
马加特	-11.8934
飚	-11.8935
多样化	-11.8935
倾诉	-11.8935
穗	-11.8935
尊敬	-11.8935
拜祭	-11.8935
单向收费	-11.8935
衔接	-11.8935
严谨	-11.8935
申赎	-11.8935
周建安	-11.8935
阴谋	-11.8935
瞎	-11.8935
兴奋剂	-11.8935
跑赢大盘	-11.8935
骨灰	-11.8935
奶粉	-11.8935
袁泉	-11.8935
最新一期	-11.8935
公平公正	-11.8936
贯穿	-11.8936
保费收入	-11.8936
的带动下	-11.8936
绿色通道	-11.8936
竞价排名	-11.8936
居民身份证	-11.8936
邮寄	-11.8936
申诉	-11.8937
寿险	-11.8937
加权平均	-11.8937
挖角	-11.8937
券商集合理财产品	-11.8937
构思	-11.8937
低碳	-11.8937
吹罚	-11.8937
坚守	-11.8938
赤字	-11.8938
撤离	-11.8938
高度重视	-11.8938
金融风暴	-11.8938
国家发改委	-11.8938
袭击	-11.8938
地理位置	-11.8938
每股收益	-11.8939
光芒	-11.8939
公安部门	-11.8939
IMF	-11.8939
盛赞	-11.8939
公益事业	-11.8939
戈登	-11.894
万港币	-11.894
师妹	-11.894
民办高校	-11.894
命中三分	-11.894
涉足	-11.894
医疗保险	-11.894
开闸	-11.894
身体素质	-11.894
启动仪式	-11.894
泉州	-11.8941
骨干	-11.8941
足协主席	-11.8941
孙莉	-11.8942
核查	-11.8942
必备	-11.8942
流浪	-11.8942
坚实	-11.8942
实验中学	-11.8942
趁机	-11.8942
音响	-11.8942
征税	-11.8942
感激	-11.8943
拼抢	-11.8943
无线宽带	-11.8943
凭证	-11.8943
佩服	-11.8944
阿玛	-11.8944
科技博客	-11.8944
推出的一款	-11.8944
主要集中在	-11.8944
画画	-11.8945
登记表	-11.8945
英冠	-11.8945
境界	-11.8945
品味	-11.8946
令人满意	-11.8946
武警	-11.8946
关怀	-11.8947
解散	-11.8947
曲折	-11.8948
减免	-11.8951
杨鸣	-11.8951
环比下降	-11.8954
不光是	-11.8965
二本线	-11.898
ave	-11.9074
▁For	-11.9098
卡槽	-11.9112
比赛还剩	-11.916
live	-11.924
丹尼	-11.9342
师大附中	-11.9352
措	-11.9367
革	-11.9381
嘲	-11.9383
谭维维	-11.9385
励	-11.9386
医科大学	-11.9386
恭	-11.9387
慈	-11.9387
卵	-11.9387
哇	-11.9388
鹅	-11.9388
玫	-11.9388
博览会	-11.9388
黄圣依	-11.9388
冕	-11.9388
坪	-11.9388
卿	-11.9388
国家体育总局	-11.9388
徐怀钰	-11.9388
绽	-11.9388
莫名其妙	-11.9388
博物馆	-11.9388
米自由泳	-11.9388
枫	-11.9388
深入人心	-11.9388
王伟忠	-11.9388
个国家和地区	-11.9388
土木工程	-11.9388
盐	-11.9388
秉承	-11.9388
引人关注	-11.9388
潭	-11.9388
米利托	-11.9388
佩鲁贾	-11.9388
灿	-11.9388
亚特兰大	-11.9388
邓丽欣	-11.9388
不锈钢	-11.9388
醇	-11.9388
唐纳德	-11.9388
波罗的海干散货运价指数	-11.9388
阿布扎比	-11.9388
格里菲斯	-11.9388
米克尔森	-11.9388
贱	-11.9388
校长实名推荐制	-11.9388
霜冻	-11.9388
倒数第二	-11.9388
网下配售	-11.9388
份基金份额派发红利	-11.9388
噩	-11.9388
斯科尔斯	-11.9388
博格特	-11.9388
助学金	-11.9388
悠悠	-11.9388
马克思主义	-11.9388
蔗	-11.9388
主权财富基金	-11.9388
OPEC	-11.9388
镁	-11.9388
桩	-11.9389
炬	-11.9389
壶	-11.9389
奔腾双核	-11.9389
祺	-11.9389
胡攀攀	-11.9389
不折不扣的	-11.9389
秦皇岛	-11.9389
赶集网	-11.9389
酒井法子	-11.9389
二级缓存	-11.9389
浮游植物	-11.9389
▁Basic	-11.9389
神舟优雅	-11.9389
SDXC	-11.9389
合法权益	-11.9389
亲朋好友	-11.9389
萨克拉门托	-11.9389
Smart	-11.9389
特鲁姆普	-11.9389
丸	-11.9389
层出不穷	-11.9389
Incredible	-11.9389
倒计时	-11.9389
概括	-11.9389
入场券	-11.9389
忽悠	-11.9389
绚丽	-11.9389
笨	-11.9389
林熙蕾	-11.9389
莫少聪	-11.9389
丁柔安	-11.9389
傍晚	-11.9389
尹俊相	-11.9389
滨崎步	-11.9389
骄	-11.9389
伞	-11.9389
今天笔者在市场上	-11.9389
樱	-11.9389
多普达	-11.9389
两罚两中	-11.9389
▁his	-11.9389
花木兰	-11.9389
证监局	-11.9389
制糖期	-11.9389
中登公司	-11.9389
煜	-11.9389
寝室	-11.9389
保镖	-11.9389
宣萱	-11.9389
搜狗	-11.9389
罗家英	-11.9389
集成显卡	-11.9389
牙买加	-11.9389
红地毯	-11.9389
嗓音	-11.9389
诺基亚西门子	-11.9389
port	-11.9389
的念头	-11.9389
19:30	-11.939
鸡蛋	-11.939
亚瑟小子	-11.939
填涂	-11.939
野兽	-11.939
血液	-11.939
一等奖	-11.939
百分之百	-11.939
沪深两市	-11.939
康熙	-11.939
危害	-11.9391
试商用	-11.9391
广州恒大	-11.9391
汉堡	-11.9391
金交所	-11.9391
裁决	-11.9391
男一号	-11.9391
决议	-11.9391
下发通知	-11.9391
菲尼克斯	-11.9392
受挫	-11.9392
启示	-11.9392
丹尼尔	-11.9392
崔真实	-11.9392
电子档案	-11.9392
数码单反相机	-11.9392
芬兰	-11.9393
上半时	-11.9393
柜台	-11.9393
模特大赛	-11.9393
违法行为	-11.9393
华裔	-11.9393
富士康	-11.9394
通知存款	-11.9394
轮番	-11.9394
噪声	-11.9394
徐帆	-11.9394
监考老师	-11.9394
孤儿	-11.9394
骨折	-11.9394
振兴	-11.9394
硬屏	-11.9395
二本院校	-11.9395
素养	-11.9395
闪亮	-11.9395
液晶屏幕	-11.9395
智能场景	-11.9395
上市首日	-11.9395
判处	-11.9395
生源质量	-11.9395
售价仅为	-11.9396
基础设施	-11.9396
整治	-11.9396
公众人物	-11.9396
小型基金公司	-11.9397
晋级决赛	-11.9397
门柱	-11.9397
袁立	-11.9398
梯度	-11.9398
独具	-11.9398
签售	-11.9399
雪藏	-11.9399
毛病	-11.9399
韧带	-11.94
杨坤	-11.94
4/3	-11.94
像素的成像能力	-11.9405
独有的	-11.9406
在进攻中	-11.9412
庭审	-11.9439
充实	-11.9471
座驾	-11.9547
一记三分	-11.9667
一定程度上	-11.9668
接受记者采访时	-11.9704
able	-11.9706
有很强的	-11.9724
.71%	-11.9761
▁Tab	-11.9776
▁know	-11.9793
皓	-11.9848
炉	-11.9856
麦考林	-11.9862
郁可唯	-11.9863
渴	-11.9863
陈浩民	-11.9863
张敬轩	-11.9863
爵	-11.9864
检察官	-11.9864
杨若兮	-11.9864
刘国梁	-11.9864
钱嘉乐	-11.9864
中国证券报记者	-11.9864
囊括	-11.9864
中孝介	-11.9864
闵	-11.9864
马化腾	-11.9864
夏令营	-11.9864
李霄鹏	-11.9864
考点设在	-11.9864
霍思燕	-11.9864
华商盛世成长	-11.9864
遵	-11.9864
桑普多利亚	-11.9864
高跟鞋	-11.9864
麦浚龙	-11.9864
长春亚泰	-11.9864
安捷伦	-11.9864
阮	-11.9864
捡	-11.9864
林嘉欣	-11.9864
福瑞克	-11.9864
胡杏儿	-11.9864
规矩	-11.9864
麦克格雷迪	-11.9864
优才计划	-11.9864
科林斯	-11.9864
孙悟空	-11.9864
海通证券	-11.9864
王功权	-11.9864
思想品德	-11.9864
高开低走	-11.9865
乌拉圭	-11.9865
匀	-11.9865
宽幅震荡	-11.9865
燃气灶	-11.9865
颠	-11.9865
林依晨	-11.9865
苏宁电器	-11.9865
中信建投	-11.9865
JPEG	-11.9865
哈灵顿	-11.9865
纠缠	-11.9865
万加币	-11.9865
竖	-11.9865
Atom	-11.9865
中邮核心优选	-11.9865
受害者	-11.9865
摩纳哥	-11.9865
去哪儿	-11.9865
情理之中	-11.9865
政协委员	-11.9865
Angelababy	-11.9865
金属拉丝	-11.9865
墓	-11.9865
Aspire	-11.9865
墨尔本	-11.9865
除息日为	-11.9865
▁should	-11.9865
丁子高	-11.9865
何超琼	-11.9865
卡西利亚斯	-11.9865
在防守端	-11.9865
ough	-11.9865
焰	-11.9865
尘埃落定	-11.9865
AVCHD	-11.9865
矮	-11.9865
埃里克	-11.9865
恩戈格	-11.9865
缀	-11.9865
扩展坞	-11.9865
瑛	-11.9865
多伦多	-11.9865
斯琴格日乐	-11.9865
王嘉影	-11.9865
涨跌互现	-11.9865
窄幅震荡	-11.9865
周华健	-11.9865
人脸识别	-11.9865
▁than	-11.9865
地下炒金	-11.9865
姐弟恋	-11.9865
Fans	-11.9865
拉齐奥	-11.9865
滋味	-11.9865
卡莱尔	-11.9865
谢亚龙	-11.9865
Palm	-11.9865
光大保德信	-11.9865
宇航员	-11.9865
残奥会	-11.9865
AAA	-11.9865
SNS	-11.9865
副院长	-11.9865
奢侈税	-11.9865
卢卡斯	-11.9865
仿真交易	-11.9865
江苏舜天	-11.9865
涨跌停板	-11.9865
拜塞克	-11.9865
感兴趣的朋友不妨关注一下	-11.9865
抵御	-11.9865
郭台铭	-11.9865
稀缺	-11.9865
希金斯	-11.9865
盼望	-11.9865
北京成招	-11.9866
丛	-11.9866
契机	-11.9866
图像感应器	-11.9866
mini	-11.9866
掩饰	-11.9866
儒	-11.9866
连日来	-11.9866
宗垒	-11.9866
产能过剩	-11.9866
说不定	-11.9866
GIGI	-11.9866
富裕	-11.9866
人民币升值	-11.9866
出厂价格	-11.9866
守候	-11.9866
挨	-11.9866
韦伯	-11.9867
环绕	-11.9867
偷偷	-11.9867
记者昨天从	-11.9867
屏蔽	-11.9867
猛烈	-11.9867
这本书	-11.9867
外国留学生	-11.9867
柴油	-11.9867
翻番	-11.9867
纽曼	-11.9867
酒井	-11.9867
精彩瞬间	-11.9867
撤销	-11.9867
做客新浪	-11.9868
承载	-11.9868
争霸	-11.9868
献礼	-11.9868
获赠	-11.9868
穆勒	-11.9868
福克斯	-11.9868
取得正收益	-11.9868
效益	-11.9868
廉价	-11.9868
布兰顿	-11.9869
苏醒	-11.9869
传授	-11.987
马上就要	-11.987
功耗	-11.987
港澳	-11.987
▁Air	-11.987
论述	-11.987
巡视	-11.9871
莫过于	-11.9871
推介	-11.9871
CDR	-11.9871
整洁	-11.9872
裸照	-11.9872
拆除	-11.9872
在外观上	-11.9879
一大亮点	-11.9888
中秋节	-11.9893
Star	-11.9896
1:00	-11.9914
裁掉	-11.992
激增	-11.9929
华侨	-11.9977
.83%	-11.9979
宽松的货币政策	-12.001
第二批本科	-12.0039
5.2%	-12.0055
要做的就是	-12.0074
视帝	-12.0095
>>>>	-12.0131
压抑	-12.0215
Love	-12.022
.87%	-12.0238
.61%	-12.0257
0-2	-12.0269
绪	-12.0345
艰	-12.036
深国投	-12.0363
黄志忠	-12.0364
李少红	-12.0364
琢磨	-12.0364
PPI	-12.0364
芹	-12.0364
换句话说	-12.0364
特鲁西埃	-12.0364
查尔顿	-12.0364
闽	-12.0364
维多利亚	-12.0364
腻	-12.0364
Alex	-12.0364
颐	-12.0364
袜	-12.0364
剪辑	-12.0364
富勒姆	-12.0364
竭	-12.0364
粗钢产量	-12.0364
乌兹别克斯坦	-12.0364
狐	-12.0364
糕	-12.0364
绮	-12.0364
卡纳瓦罗	-12.0364
沃尔科特	-12.0364
金像奖	-12.0364
Gmail	-12.0365
吴秀波	-12.0365
聚酯	-12.0365
金融海啸	-12.0365
马拉松	-12.0365
专用发票	-12.0365
何经华	-12.0365
诀	-12.0365
普罗霍洛夫	-12.0365
阐述	-12.0365
印度尼西亚	-12.0365
纽交所	-12.0365
SONY	-12.0365
中国外汇交易中心	-12.0365
北海道	-12.0365
帽子戏法	-12.0365
油脂油料	-12.0365
婷婷	-12.0365
凌潇肃	-12.0365
耻辱	-12.0365
马不停蹄	-12.0365
ExpressCard	-12.0365
呵呵	-12.0365
崔哲瀚	-12.0365
蜂巢	-12.0365
主板芯片组	-12.0365
晟	-12.0365
爱国者	-12.0365
鲍尔默	-12.0365
蒸	-12.0365
骆	-12.0365
新三板	-12.0365
不正当竞争	-12.0365
Michael	-12.0365
圭	-12.0365
摄苑网	-12.0365
李玮峰	-12.0365
王建宙	-12.0365
救赎	-12.0365
17:00	-12.0365
▁荆楚网消息	-12.0365
蓝月亮	-12.0365
4000×3000	-12.0365
慕尼黑	-12.0365
纽约商业交易所	-12.0365
阿祖布克	-12.0365
16:00	-12.0365
沃尔夫斯堡	-12.0365
淋	-12.0365
陈祖德	-12.0365
澡	-12.0365
郑州商品交易所	-12.0365
人均薪酬	-12.0365
闫妮	-12.0365
深成指	-12.0365
国家助学贷款	-12.0365
蔡卓妍	-12.0365
诸宸	-12.0365
桐	-12.0365
征求意见	-12.0365
有针对性地	-12.0365
瑶瑶	-12.0365
何超云	-12.0365
柏忌	-12.0365
布斯克茨	-12.0365
适宜	-12.0365
8-00	-12.0365
孰	-12.0365
曹敏莉	-12.0365
谢婷婷	-12.0365
拓宽	-12.0366
Hebe	-12.0366
张豪龙	-12.0366
谷某某	-12.0366
厘米	-12.0366
小灵通	-12.0366
伴娘	-12.0366
▁up	-12.0366
警署	-12.0366
拼搏	-12.0366
掩护	-12.0366
嫩模	-12.0366
皮蓬	-12.0366
燃烧	-12.0366
包抄	-12.0366
火车票	-12.0366
枢	-12.0366
咱们	-12.0367
解雇	-12.0367
在全国范围内	-12.0367
首映礼	-12.0367
婚纱照	-12.0367
法律法规	-12.0367
禁区边缘	-12.0367
直辖市	-12.0367
破裂	-12.0367
默认	-12.0367
负面新闻	-12.0367
朴素	-12.0368
二代身份证	-12.0368
司仪	-12.0368
在他看来	-12.0368
▁was	-12.0368
自主研发	-12.0368
庆幸	-12.0368
预习	-12.0368
今晨	-12.0368
稍显	-12.0369
绯闻女友	-12.037
在博客中	-12.0371
的出色表现	-12.0371
京津	-12.0375
天相统计	-12.0395
形状	-12.043
投中三分	-12.0436
偏股型	-12.0719
妈咪	-12.0789
旨	-12.0811
从高分到低分	-12.0851
寓	-12.0883
佣	-12.0885
暑	-12.0886
顽	-12.0886
临床医学	-12.0888
蛇	-12.0889
峻	-12.0889
睛	-12.089
栽	-12.089
心情大好	-12.089
冀	-12.089
资产评估有限公司	-12.089
大流通股东	-12.089
诈	-12.089
贬	-12.089
撼	-12.089
奥地利	-12.089
乍	-12.089
追溯	-12.089
克罗地亚	-12.089
症状	-12.089
豫	-12.089
糟	-12.089
博尔顿	-12.089
伯纳乌	-12.089
吴君如	-12.089
龚琳娜	-12.089
某种程度上	-12.0891
纠葛	-12.0891
浸	-12.0891
掌舵	-12.0891
谭明辉	-12.0891
William	-12.0891
孙红雷	-12.0891
黄俊杰	-12.0891
停车场	-12.0891
准备金率	-12.0891
还以颜色	-12.0891
梅内塞斯	-12.0891
金曲奖	-12.0891
跨年演唱会	-12.0891
磕	-12.0891
攒	-12.0891
不来梅	-12.0891
多梅内克	-12.0891
缉	-12.0891
枕	-12.0891
梭	-12.0891
沧桑	-12.0891
阮经天	-12.0891
金钟奖	-12.0891
不容忽视	-12.0891
副局长	-12.0891
憾	-12.0891
猪肉价格	-12.0891
里程碑	-12.0891
撇	-12.0891
竭尽全力	-12.0891
避风港	-12.0891
副会长	-12.0891
乌鲁木齐	-12.0891
律师事务所	-12.0891
慷慨	-12.0891
李彦宏	-12.0891
国人通信	-12.0891
菲尔普斯	-12.0891
专案组	-12.0891
魄	-12.0891
mAh	-12.0891
HSDPA	-12.0891
航美传媒	-12.0891
扩散器	-12.0891
晚些时候	-12.0891
躺	-12.0891
Nasdaq	-12.0891
匠	-12.0891
期货主力合约收于每吨	-12.0891
昧	-12.0891
Linux	-12.0891
刘若英	-12.0891
哒	-12.0891
巴拉圭	-12.0891
陈禹萌	-12.0891
方逸华	-12.0891
菜籽油	-12.0891
3648×2736	-12.0891
▁早报讯	-12.0891
如火如荼	-12.0891
抑郁	-12.0891
香港浸会大学	-12.0891
玛萨玛索	-12.0891
锁定胜局	-12.0891
悼	-12.0891
新湖期货	-12.0891
蕾哈娜	-12.0891
:010-82	-12.0891
中间价为	-12.0891
聂卫平	-12.0891
三冠王	-12.0891
阿尔及利亚	-12.0891
劳伦斯	-12.0891
食用油	-12.0891
David	-12.0891
沈永革	-12.0891
梨	-12.0891
噗浪	-12.0891
方大同	-12.0891
听证会	-12.0891
阿尔德里奇	-12.0891
一连串	-12.0891
学业水平考试	-12.0891
充沛	-12.0891
多特蒙德	-12.0891
阿比达尔	-12.0891
弗洛伦蒂诺	-12.0891
佩雷拉	-12.0891
转化为	-12.0891
▁who	-12.0891
双子座	-12.0891
底特律	-12.0891
灾后重建	-12.0891
萧亚轩	-12.0891
石脑油	-12.0891
癌症	-12.0892
SBS	-12.0892
李永波	-12.0892
禅师	-12.0892
叙利亚	-12.0892
雕塑	-12.0892
原装鼠标	-12.0892
弥漫	-12.0892
硅	-12.0892
蓝牙模块	-12.0892
CNNIC	-12.0892
筱	-12.0892
卜	-12.0892
得心应手	-12.0892
汪明荃	-12.0892
算得上	-12.0892
抵押	-12.0892
杰米尔	-12.0892
盗窃	-12.0892
仅限于	-12.0892
police	-12.0892
马塞洛	-12.0892
奔驰	-12.0892
常务副	-12.0892
四大天王	-12.0893
高水平运动员	-12.0893
大运会	-12.0893
饮酒	-12.0893
拥挤	-12.0893
波士顿凯尔特人	-12.0893
割肉	-12.0893
三分球命中率	-12.0893
截止日期	-12.0893
波特兰	-12.0893
唐骏	-12.0894
选秀大会	-12.0894
离不开	-12.0894
在我看来	-12.0895
不必要的	-12.0896
gue	-12.0897
Mini	-12.0903
机动车	-12.0909
为投资者提供	-12.0954
学位授予	-12.1081
亲戚	-12.1106
不在乎	-12.1117
以来的最低	-12.1129
二季度末	-12.1146
怒斥	-12.1335
.89%	-12.1344
年同期增长	-12.1405
粕	-12.1424
ope	-12.1427
惟	-12.1427
歧	-12.1428
徐子淇	-12.1443
琅	-12.1444
胀	-12.1444
史可隽	-12.1445
铺天盖地	-12.1445
黄宗泽	-12.1445
杠	-12.1445
嗓	-12.1445
荔	-12.1445
趟	-12.1445
供不应求	-12.1445
敖	-12.1445
丈	-12.1445
蒙嘉慧	-12.1445
制糖企业	-12.1446
赞不绝口	-12.1446
右上角	-12.1446
邓家佳	-12.1446
诡	-12.1446
杨昌鹏	-12.1446
铝合金	-12.1446
循	-12.1446
条形码	-12.1446
祁宏	-12.1446
戈麦斯	-12.1446
翅	-12.1446
憋	-12.1446
杰弗里斯	-12.1446
周润发	-12.1446
肖国栋	-12.1446
填空题	-12.1446
琢	-12.1446
美巡赛	-12.1446
吕良伟	-12.1446
宗润朴	-12.1446
佩莱格里尼	-12.1446
扼	-12.1446
比卢普斯	-12.1446
臻	-12.1446
蜗居	-12.1446
大唐电信	-12.1446
冶	-12.1446
蹦	-12.1446
亿万富翁	-12.1446
印小天	-12.1446
倒霉	-12.1446
一代宗师	-12.1446
市中招办	-12.1446
八一双鹿	-12.1446
有效身份证件	-12.1446
说实话	-12.1446
克里夫兰	-12.1446
示范性高中	-12.1446
▁Limited	-12.1446
加利福尼亚	-12.1446
绅	-12.1446
加利亚尼	-12.1446
不约而同	-12.1446
爱德华多	-12.1446
膨胀	-12.1446
收音机	-12.1446
滔	-12.1446
秉	-12.1446
纺	-12.1446
鞠躬	-12.1446
成都谢菲联	-12.1446
丙	-12.1446
德罗巴	-12.1446
王中磊	-12.1446
罗杰斯	-12.1446
璧	-12.1447
在职人员攻读硕士学位	-12.1447
六小龄童	-12.1447
股票周转率	-12.1447
鸽	-12.1447
剃	-12.1447
华夏复兴	-12.1447
落下帷幕	-12.1447
电子元器件	-12.1447
芙	-12.1447
舅	-12.1447
Port	-12.1447
笼罩	-12.1447
EXPEED	-12.1447
陈乔恩	-12.1447
石家庄	-12.1447
▁Education	-12.1447
▁teach	-12.1447
蚀	-12.1447
usiness	-12.1447
专业基金销售机构	-12.1447
莱德杯	-12.1447
转载请注明出处	-12.1447
陈柏霖	-12.1447
欧锦赛	-12.1447
谢安琪	-12.1447
Lady	-12.1447
high	-12.1447
寡	-12.1447
钞	-12.1447
殡	-12.1447
腥	-12.1447
韩国棋院	-12.1447
实力派演员	-12.1447
畏惧	-12.1447
折合人民币	-12.1447
阁	-12.1447
Steve	-12.1447
央企	-12.1447
忧郁	-12.1447
禄	-12.1447
菌	-12.1447
实名推荐	-12.1447
肝	-12.1447
完美时空	-12.1447
白中杰	-12.1447
巴斯滕	-12.1447
捆绑	-12.1447
俐	-12.1447
喂	-12.1447
寇	-12.1447
Chris	-12.1447
窦	-12.1447
▁Store	-12.1447
跌宕起伏	-12.1447
强有力的	-12.1447
许映皓	-12.1447
凹	-12.1447
棍	-12.1447
崖	-12.1447
哗	-12.1448
壤	-12.1448
纬	-12.1448
痒	-12.1448
拓	-12.2008
柄	-12.2029
纠	-12.2029
慰	-12.2029
抄	-12.2032
靡	-12.2032
嘱	-12.2034
刁	-12.2034
娲	-12.2034
狄	-12.2034
宛	-12.2034
燥	-12.2034
铂	-12.2034
劈	-12.2034
沸	-12.2034
烽	-12.2035
筐	-12.2035
筝	-12.2035
盆	-12.2035
晏	-12.2035
麒	-12.2035
刃	-12.2035
妄	-12.2035
剥	-12.2035
俘	-12.2035
溪	-12.2035
挠	-12.2035
琛	-12.2035
灞	-12.2035
滥	-12.2035
\	-12.2035
僧	-12.2035
噗	-12.2035
咳	-12.2035
伽	-12.2035
搅	-12.2035
塌	-12.2035
丘	-12.2035
爹	-12.2036
蒲	-12.2036
宰	-12.2036
屿	-12.2036
■	-12.2472
厦	-12.2635
赎	-12.2656
腺	-12.2658
痞	-12.2659
覆	-12.2659
诵	-12.2659
枯	-12.2659
栗	-12.2659
螺	-12.2659
屁	-12.2659
煌	-12.2659
俯	-12.2659
绣	-12.2659
怯	-12.266
醋	-12.266
宙	-12.266
μ	-12.266
巩	-12.266
炀	-12.266
怠	-12.266
蹲	-12.266
霜	-12.266
焕	-12.266
窍	-12.266
贼	-12.266
倚	-12.2661
侨	-12.3185
央	-12.3243
臭	-12.3324
瞬	-12.3324
窒	-12.3325
寥	-12.3325
裹	-12.3325
摧	-12.3325
泣	-12.3325
膀	-12.3325
鲸	-12.3326
彝	-12.3326
龟	-12.3326
遐	-12.3326
禽	-12.3326
槟	-12.3326
刹	-12.3326
屹	-12.3326
桦	-12.3326
沛	-12.3326
沂	-12.3326
饥	-12.3326
肘	-12.3326
陡	-12.3326
溶	-12.3326
咸	-12.3327
憨	-12.3327
绷	-12.3327
踹	-12.3327
伺	-12.3327
膊	-12.3327
赐	-12.3327
窘	-12.3327
镶	-12.3327
掺	-12.3327
贩	-12.3327
浚	-12.3327
熹	-12.3327
斐	-12.3327
羡	-12.3327
慑	-12.3327
芊	-12.3327
乞	-12.3327
娅	-12.3327
渔	-12.3327
椎	-12.3327
褒	-12.3327
熠	-12.3329
脂	-12.3377
旦	-12.4
兄	-12.4028
撰	-12.4033
骁	-12.4038
肃	-12.4039
弥	-12.4039
荫	-12.404
蜀	-12.404
涤	-12.404
廊	-12.404
瞧	-12.404
霏	-12.404
缅	-12.404
亟	-12.404
浆	-12.404
纶	-12.404
廓	-12.404
沽	-12.404
蜡	-12.404
厢	-12.404
囚	-12.404
捣	-12.404
苑	-12.4041
禧	-12.4041
勘	-12.4041
姗	-12.4041
佟	-12.4041
é	-12.4041
窜	-12.4041
膏	-12.4041
尧	-12.4041
穴	-12.4041
矛	-12.4041
贡	-12.4041
樊	-12.4041
钥	-12.4041
堕	-12.4041
酌	-12.4041
诛	-12.4041
锤	-12.4042
槽	-12.4495
剔	-12.4792
擅	-12.48
赋	-12.4804
咱	-12.4806
寨	-12.4807
歆	-12.4808
烛	-12.4809
嵩	-12.4809
铸	-12.4809
睦	-12.4809
钗	-12.4809
癫	-12.4809
褪	-12.4809
蔽	-12.4809
萎	-12.4809
翟	-12.481
酱	-12.481
笛	-12.481
锵	-12.481
吾	-12.481
呛	-12.481
茧	-12.481
挟	-12.481
腩	-12.481
撮	-12.481
敷	-12.481
歪	-12.481
烙	-12.481
卉	-12.481
棵	-12.481
狡	-12.481
喧	-12.481
懿	-12.481
嚣	-12.481
呕	-12.481
蟹	-12.481
豁	-12.481
稚	-12.481
弓	-12.481
癖	-12.481
埠	-12.481
渺	-12.481
珀	-12.481
萃	-12.481
凄	-12.481
巫	-12.4811
庙	-12.4811
匡	-12.4811
羁	-12.4811
戚	-12.5307
械	-12.5588
碑	-12.5641
鞠	-12.5642
霆	-12.5642
沐	-12.5642
攘	-12.5642
馨	-12.5642
卒	-12.5642
沧	-12.5642
倔	-12.5643
伐	-12.5643
喋	-12.5643
咋	-12.5643
〈	-12.5643
畔	-12.5643
汁	-12.5643
漪	-12.5643
矫	-12.5643
侍	-12.5643
哼	-12.5643
塘	-12.5643
娄	-12.5643
膳	-12.5643
喇	-12.5643
眷	-12.5643
濒	-12.5643
吆	-12.5643
呐	-12.5643
烯	-12.5643
吟	-12.5643
黏	-12.5643
堤	-12.5643
芦	-12.5643
耿	-12.5644
瞿	-12.5644
偕	-12.5644
凿	-12.5644
拽	-12.5644
厮	-12.5644
籽	-12.5644
锯	-12.5644
搡	-12.5644
碱	-12.5644
寺	-12.5644
匙	-12.5644
橱	-12.5644
瑕	-12.5645
喔	-12.5645
涝	-12.5646
勉	-12.6548
侃	-12.6549
絮	-12.655
瞄	-12.655
洼	-12.6551
缕	-12.6551
虾	-12.6551
绒	-12.6551
嘎	-12.6551
骅	-12.6552
毙	-12.6552
孵	-12.6552
锻	-12.6552
煲	-12.6552
哎	-12.6552
咀	-12.6552
恍	-12.6552
烹	-12.6552
殆	-12.6552
蛛	-12.6552
捅	-12.6552
酣	-12.6552
镍	-12.6552
恺	-12.6552
馅	-12.6552
匾	-12.6552
暮	-12.6552
忻	-12.6552
拙	-12.6552
禹	-12.6552
缪	-12.6552
叭	-12.6552
琐	-12.6552
拎	-12.6552
☆	-12.6553
霁	-12.6553
矩	-12.6553
搂	-12.6553
擒	-12.6553
漾	-12.6553
烘	-12.6553
卞	-12.6553
梧	-12.6553
疚	-12.6553
捂	-12.6553
眨	-12.6553
浇	-12.6553
叨	-12.6553
珑	-12.6553
饿	-12.6553
愣	-12.6553
轿	-12.6553
屯	-12.6553
亢	-12.6555
孩	-12.7523
澄	-12.7535
颁	-12.7544
鼠	-12.7547
胞	-12.7548
蹄	-12.7548
钩	-12.755
莓	-12.755
杭	-12.755
庚	-12.7551
鲨	-12.7551
佘	-12.7551
砂	-12.7551
屑	-12.7551
溯	-12.7551
艘	-12.7551
囤	-12.7551
焚	-12.7552
啪	-12.7552
雍	-12.7552
葱	-12.7552
躯	-12.7552
邸	-12.7552
赘	-12.7552
咔	-12.7552
趴	-12.7552
噬	-12.7552
揍	-12.7552
雁	-12.7552
蹿	-12.7552
奚	-12.7552
苯	-12.7552
愕	-12.7552
柒	-12.7552
蝇	-12.7552
晔	-12.7552
栓	-12.7552
烁	-12.7552
夷	-12.7553
澈	-12.7553
熏	-12.7553
拗	-12.7553
糙	-12.7553
烫	-12.7553
玺	-12.7553
驭	-12.7553
墟	-12.7553
辫	-12.7554
蹈	-12.7569
鄂	-12.8563
陕	-12.8661
俺	-12.8662
翁	-12.8662
咧	-12.8662
懵	-12.8663
坂	-12.8663
眩	-12.8663
抠	-12.8663
疮	-12.8663
讥	-12.8663
渗	-12.8663
〉	-12.8663
嗷	-12.8663
妒	-12.8663
靳	-12.8663
氟	-12.8663
扁	-12.8663
蕙	-12.8663
岑	-12.8663
嗣	-12.8663
铐	-12.8663
襟	-12.8663
叁	-12.8663
咎	-12.8664
揉	-12.8664
枉	-12.8664
嗅	-12.8664
骥	-12.8664
粥	-12.8664
僻	-12.8664
曰	-12.8664
栈	-12.8664
燮	-12.8664
戳	-12.8664
俭	-12.8664
芜	-12.8664
瘤	-12.8664
町	-12.8664
幢	-12.8664
籼	-12.8664
覃	-12.8665
逮	-12.8665
榴	-12.8665
阐	-12.8666
阀	-12.8669
毯	-12.9851
炭	-12.9902
イ	-12.9908
冥	-12.9908
胰	-12.9909
婿	-12.9911
霉	-12.9912
′	-12.9912
孽	-12.9912
搀	-12.9912
襄	-12.9913
阑	-12.9913
绚	-12.9913
擎	-12.9913
黔	-12.9913
α	-12.9913
茄	-12.9913
啃	-12.9913
扉	-12.9913
苹	-12.9913
湛	-12.9913
侬	-12.9913
峥	-12.9913
掐	-12.9913
陀	-12.9913
泓	-12.9913
姣	-12.9913
嬉	-12.9913
坯	-12.9913
嫉	-12.9913
讹	-12.9913
伶	-12.9913
娣	-12.9913
罐	-12.9913
楷	-12.9914
毋	-12.9914
懊	-12.9914
埔	-12.9914
帘	-12.9914
葆	-12.9914
嘶	-12.9914
秃	-12.9914
昱	-12.9914
朔	-12.9914
扒	-12.9914
吝	-12.9914
贻	-12.9914
榕	-12.9914
^	-12.9914
炽	-12.9914
撬	-12.9914
祯	-12.9914
嘻	-12.9914
彷	-12.9914
瘸	-12.9914
庶	-12.9914
锈	-12.9914
矣	-12.9914
麓	-12.9914
皎	-12.9914
痹	-12.9914
铉	-12.9914
槌	-12.9914
畜	-12.9914
掰	-12.9915
咯	-12.9915
庾	-12.9915
寅	-12.9918
○	-13.1154
钇	-13.1339
抒	-13.1339
脆	-13.134
蕊	-13.134
腊	-13.134
禅	-13.134
莞	-13.134
兮	-13.134
淳	-13.134
拣	-13.1341
裘	-13.1341
│	-13.1341
掠	-13.1341
腱	-13.1341
趾	-13.1341
嘀	-13.1341
瞒	-13.1341
溺	-13.1342
漕	-13.1342
韶	-13.1342
嵘	-13.1342
炯	-13.1342
栖	-13.1342
阚	-13.1342
翌	-13.1342
臧	-13.1342
趸	-13.1342
滢	-13.1342
苓	-13.1342
莽	-13.1342
庇	-13.1342
讪	-13.1342
珂	-13.1342
钯	-13.1342
灶	-13.1342
篷	-13.1342
辍	-13.1342
钙	-13.1342
屎	-13.1342
仨	-13.1342
<	-13.1342
呜	-13.1342
仆	-13.1342
檀	-13.1342
逞	-13.1342
斟	-13.1342
跋	-13.1342
稠	-13.1342
惰	-13.1342
瀚	-13.1342
荆	-13.1342
蒜	-13.1342
蛙	-13.1342
汛	-13.1342
帚	-13.1342
涕	-13.1342
馏	-13.1343
棘	-13.1343
唠	-13.1343
虔	-13.1343
拧	-13.1343
寰	-13.1343
溏	-13.1343
帷	-13.1343
恬	-13.1343
妓	-13.1343
瞅	-13.1343
珈	-13.1344
晰	-13.2914
彰	-13.2938
昔	-13.2983
契	-13.3
镑	-13.3001
犀	-13.3004
梳	-13.3006
沁	-13.3006
厘	-13.3007
於	-13.3007
括	-13.3007
嗯	-13.3008
晦	-13.3008
汝	-13.3008
挛	-13.3008
绳	-13.3008
亥	-13.3008
唉	-13.3008
憎	-13.3008
尉	-13.3008
拌	-13.3009
汕	-13.3009
堰	-13.3009
攥	-13.3009
拱	-13.3009
朦	-13.3009
叮	-13.3009
汐	-13.3009
妤	-13.3009
怵	-13.3009
摁	-13.3009
恪	-13.3009
惭	-13.3009
峪	-13.3009
宸	-13.301
棺	-13.301
札	-13.301
衔	-13.5002
慨	-13.5005
卦	-13.5005
蠢	-13.5006
幂	-13.5006
寝	-13.5007
镖	-13.5008
绸	-13.5008
瑰	-13.5008
颓	-13.5008
啡	-13.5009
柬	-13.5009
瞻	-13.7434
涯	-13.7449
曙	-13.7503
郜	-13.7505
躬	-13.7506
塾	-13.7506
遏	-13.7507
顷	-13.7507
钵	-13.7507
焱	-13.7508
讼	-13.7508
钮	-13.7508
坞	-13.7508
隽	-13.7508
噎	-13.7509
吁	-13.7509
甥	-13.7509
镐	-13.7509
咨	-13.7509
薰	-13.751
舜	-14.0836
祁	-14.084
岐	-14.0841
舵	-14.0841
俪	-14.0841
傍	-14.0841
硫	-14.0842
盎	-14.0842
咖	-14.0842
膨	-14.0842
慷	-14.0842
沫	-14.0843
⊙	-14.5658
陌	-14.5836
蔓	-14.5841
耽	-14.5841
竿	-14.5841
呵	-14.5842
绞	-14.5842
捆	-14.5842
萦	-14.5843
牲	-14.5843
氓	-15.5446
樟	-15.5447
柁	-15.5448
戮	-15.5449
惺	-15.545
惮	-15.5451
惘	-15.5452
咙	-15.5453
咄	-15.5454
吒	-15.5455
剌	-15.5456
丐	-15.5457
è	-15.5458
酗	-15.5459
邡	-15.546
邃	-15.5461
轲	-15.5462
蹶	-15.5463
赡	-15.5464
觎	-15.5465
觊	-15.5466
蜚	-15.5467
臃	-15.5468
肮	-15.5469
聋	-15.547
耘	-15.5471
粳	-15.5472
砺	-15.5473
瞪	-15.5474
皋	-15.5475
焊	-15.5476
溱	-15.5477
浃	-15.5478
泗	-15.5479
泌	-15.548
摒	-15.5481
掣	-15.5482
婵	-15.5483
咐	-15.5484
匣	-15.5485
鹃	-15.5486
鳌	-15.5487
骞	-15.5488
骋	-15.5489
颊	-15.549
锟	-15.5491
钛	-15.5492
鏖	-15.5493
鄙	-15.5494
迢	-15.5495
踵	-15.5496
豚	-15.5497
蜘	-15.5498
菠	-15.5499
茏	-15.55
罹	-15.5501
缤	-15.5502
纫	-15.5503
眈	-15.5504
狸	-15.5505
熔	-15.5506
灼	-15.5507
灏	-15.5508
澍	-15.5509
漳	-15.551
渥	-15.5511
殃	-15.5512
榷	-15.5513
暄	-15.5514
昙	-15.5515
忏	-15.5516
峙	-15.5517
岔	-15.5518
寐	-15.5519
奂	-15.552
圃	-15.5521
嚼	-15.5522
咆	-15.5523
鸳	-15.5524
鸯	-15.5525
锏	-15.5526
遴	-15.5527
辗	-15.5528
跆	-15.5529
豌	-15.553
蔼	-15.5531
葫	-15.5532
莠	-15.5533
舶	-15.5534
膺	-15.5535
腼	-15.5536
腆	-15.5537
缄	-15.5538
簧	-15.5539
箍	-15.554
筵	-15.5541
祚	-15.5542
祀	-15.5543
渲	-15.5544
淹	-15.5545
捺	-15.5546
惬	-15.5547
幌	-15.5548
孀	-15.5549
娩	-15.555
夯	-15.5551
圻	-15.5552
唏	-15.5553
鸦	-15.5554
铨	-15.5555
迸	-15.5556
谴	-15.5557
谤	-15.5558
诽	-15.5559
诣	-15.556
蛰	-15.5561
蛊	-15.5562
籁	-15.5563
篑	-15.5564
猝	-15.5565
湃	-15.5566
氙	-15.5567
挝	-15.5568
愫	-15.5569
忱	-15.557
弛	-15.5571
嘿	-15.5572
啼	-15.5573
哮	-15.5574
剿	-15.5575
侗	-15.5576
▲	-15.5577
鳄	-15.5578
髦	-15.5579
隧	-15.558
辄	-15.5581
谌	-15.5582
讧	-15.5583
觑	-15.5584
蝠	-15.5585
蝙	-15.5586
疵	-15.5587
璀	-15.5588
煽	-15.5589
淅	-15.559
浔	-15.5591
汲	-15.5592
咫	-15.5593
伎	-15.5594
邂	-15.5595
逅	-15.5596
诋	-15.5597
蚂	-15.5598
荟	-15.5599
苟	-15.56
祷	-15.5601
磋	-15.5602
瞑	-15.5603
昵	-15.5604
憔	-15.5605
悴	-15.5606
墉	-15.5607
咤	-15.5608
叱	-15.5609
匈	-15.561
倘	-15.5611
饺	-15.5612
谙	-15.5613
诧	-15.5614
诙	-15.5615
衅	-15.5616
舱	-15.5617
胳	-15.5618
罄	-15.5619
紊	-15.562
猾	-15.5621
牡	-15.5622
楂	-15.5623
拷	-15.5624
惋	-15.5625
坷	-15.5626
丞	-15.5627
麾	-15.5628
蹊	-15.5629
蚌	-15.563
茱	-15.5631
缚	-15.5632
篡	-15.5633
瞠	-15.5634
毓	-15.5635
歹	-15.5636
揪	-15.5637
忡	-15.5638
岙	-15.5639
嗽	-15.564
赈	-15.5641
赁	-15.5642
貂	-15.5643
譬	-15.5644
蔷	-15.5645
聆	-15.5646
笈	-15.5647
睫	-15.5648
璨	-15.5649
漓	-15.565
抨	-15.5651
匮	-15.5652
侮	-15.5653
飓	-15.5654
霾	-15.5655
陋	-15.5656
釜	-15.5657
辐	-15.5658
诟	-15.5659
砝	-15.566
猕	-15.5661
炅	-15.5662
潍	-15.5663
憬	-15.5664
憧	-15.5665
岌	-15.5666
嫔	-15.5667
娓	-15.5668
□	-15.5669
兢	-15.5669
胚	-15.567
翡	-15.5671
硝	-15.5672
暧	-15.5673
捍	-15.5674
啤	-15.5675
哽	-15.5676
侥	-15.5677
鄢	-15.5678
袱	-15.5679
蚕	-15.568
熄	-15.5681
濠	-15.5682
漩	-15.5683
晤	-15.5684
戟	-15.5685
岬	-15.5686
迥	-15.5687
蜕	-15.5688
荼	-15.5689
玟	-15.569
悚	-15.5691
庐	-15.5692
娆	-15.5693
妩	-15.5694
饽	-15.5695
饪	-15.5696
蚁	-15.5697
痪	-15.5698
淆	-15.5699
拇	-15.57
帼	-15.5701
诫	-15.5702
踊	-15.5703
跷	-15.5704
蝴	-15.5705
畴	-15.5706
沮	-15.5707
棱	-15.5708
宕	-15.5709
哉	-15.571
枭	-15.5711
帜	-15.5712
崭	-15.5713
匿	-15.5714
辜	-15.5715
缔	-15.5716
恳	-15.5717
媲	-15.5718
噱	-15.5719
邬	-15.572
炙	-15.5721
抉	-15.5722
涡	-15.5723
猩	-15.5724
敞	-15.5725
挚	-15.5726
嵌	-15.5727
俨	-15.5728
隶	-15.5729
荃	-15.573
痊	-15.5731
揣	-15.5732
翩	-15.5733
狙	-15.5734
洙	-15.5735
沦	-15.5736
苛	-15.5737
瓣	-15.5738
寞	-15.5739
硒	-15.574
汹	-15.5741
辙	-15.5742
茆	-15.5743
讳	-15.5744
戛	-15.5745
惫	-15.5746
肋	-15.5747
婶	-15.5748
睢	-15.5749
拭	-15.575
阱	-15.5751
瓒	-15.5752
栩	-15.5753
蔬	-15.5754
肆	-15.5755
佼	-15.5756
橄	-15.5757
榄	-15.5758
脾	-15.5759
筛	-15.576
喀	-15.5761
袂	-15.5762
浒	-15.5763
剖	-15.5764
酝	-15.5765
缆	-15.5766
殖	-15.5767
珞	-15.5768
桓	-15.5769
惕	-15.577
碌	-15.5771
酋	-15.5772
拯	-15.5773
姥	-15.5774
崛	-15.5775
凰	-15.5776
诠	-15.5777
怖	-15.5778
徘	-15.5779
徊	-15.578
●	-15.5781
辟	-15.5782
杏	-15.5783
巅	-15.5784
凳	-15.5785
阪	-15.5786
愉	-15.5787
逝	-15.5788
跻	-15.5789
粹	-15.579
踝	-15.5791
瞩	-15.5792
侈	-15.5793
牺	-15.5794
饲	-15.5795
宥	-15.5796
馈	-15.5797
倡	-15.5798
乓	-15.5799
锂	-15.58
舆	-15.5801
蒿	-15.5802
墅	-15.5803
讶	-15.5804
逻	-15.5805
垄	-15.5806
匆	-15.5807
榈	-15.5808
★	-15.5809
侣	-15.581
衷	-15.5811
媳	-15.5812
垃	-15.5813
圾	-15.5814
徕	-15.5815
荧	-15.5816
槛	-15.5817
悄	-15.5818
践	-15.5819
尴	-15.582
郅	-15.5821
尬	-15.5821
睐	-15.5822
萄	-15.5823
姻	-15.5824
绎	-15.5825
胁	-15.5826
浏	-15.5827
杉	-15.5828
乒	-15.5829
汰	-15.583
氛	-15.5831
妨	-15.5832
谊	-15.5833
旬	-15.5834
渠	-15.5835
乏	-15.5836
奋	-15.5837
恢	-15.5838
符	-15.5839
缭	-15.584
障	-15.584
础	-15.5841
蜗	-15.5841
羲	-15.5841
钓	-15.5841
圳	-15.5841
绯	-15.5842
秩	-15.5842
忐	-15.5842
忑	-15.5842
缇	-15.5842
鹭	-15.5842
逊	-15.5842
迄	-15.5843
璃	-15.5843
综	-15.5843
玻	-15.5844
矶	-15.5844
虑	-15.5844
酯	-15.5844
