{
  "version": "1.0",
  "truncation": null,
  "padding": null,
  "added_tokens": [
    {
      "id": 0,
      "content": "[PAD]",
      "single_word": false,
      "lstrip": false,
      "rstrip": false,
      "normalized": false,
      "special": true
    },
    {
      "id": 1,
      "content": "[UNK]",
      "single_word": false,
      "lstrip": false,
      "rstrip": false,
      "normalized": false,
      "special": true
    },
    {
      "id": 2,
      "content": "[CLS]",
      "single_word": false,
      "lstrip": false,
      "rstrip": false,
      "normalized": false,
      "special": true
    },
    {
      "id": 3,
      "content": "[SEP]",
      "single_word": false,
      "lstrip": false,
      "rstrip": false,
      "normalized": false,
      "special": true
    },
    {
      "id": 4,
      "content": "[MASK]",
      "single_word": false,
      "lstrip": false,
      "rstrip": false,
      "normalized": false,
      "special": true
    }
  ],
  "normalizer": null,
  "pre_tokenizer": {
    "type": "Whitespace"
  },
  "post_processor": {
    "type": "TemplateProcessing",
    "single": [
      {
        "SpecialToken": {
          "id": "[CLS]",
          "type_id": 0
        }
      },
      {
        "Sequence": {
          "id": "A",
          "type_id": 0
        }
      },
      {
        "SpecialToken": {
          "id": "[SEP]",
          "type_id": 0
        }
      }
    ],
    "pair": [
      {
        "SpecialToken": {
          "id": "[CLS]",
          "type_id": 0
        }
      },
      {
        "Sequence": {
          "id": "A",
          "type_id": 0
        }
      },
      {
        "SpecialToken": {
          "id": "[SEP]",
          "type_id": 0
        }
      },
      {
        "Sequence": {
          "id": "B",
          "type_id": 1
        }
      },
      {
        "SpecialToken": {
          "id": "[SEP]",
          "type_id": 1
        }
      }
    ],
    "special_tokens": {
      "[CLS]": {
        "id": "[CLS]",
        "ids": [
          2
        ],
        "tokens": [
          "[CLS]"
        ]
      },
      "[SEP]": {
        "id": "[SEP]",
        "ids": [
          3
        ],
        "tokens": [
          "[SEP]"
        ]
      }
    }
  },
  "decoder": null,
  "model": {
    "type": "BPE",
    "dropout": null,
    "unk_token": "[UNK]",
    "continuing_subword_prefix": null,
    "end_of_word_suffix": null,
    "fuse_unk": false,
    "byte_fallback": false,
    "ignore_merges": false,
    "vocab": {
      "[PAD]": 0,
      "[UNK]": 1,
      "[CLS]": 2,
      "[SEP]": 3,
      "[MASK]": 4,
      "\u001f": 5,
      "!": 6,
      "\"": 7,
      "#": 8,
      "$": 9,
      "%": 10,
      "&": 11,
      "'": 12,
      "(": 13,
      ")": 14,
      "*": 15,
      "+": 16,
      ",": 17,
      "-": 18,
      ".": 19,
      "/": 20,
      "0": 21,
      "1": 22,
      "2": 23,
      "3": 24,
      "4": 25,
      "5": 26,
      "6": 27,
      "7": 28,
      "8": 29,
      "9": 30,
      ":": 31,
      ";": 32,
      "<": 33,
      "=": 34,
      ">": 35,
      "?": 36,
      "@": 37,
      "A": 38,
      "B": 39,
      "C": 40,
      "D": 41,
      "E": 42,
      "F": 43,
      "G": 44,
      "H": 45,
      "I": 46,
      "J": 47,
      "K": 48,
      "L": 49,
      "M": 50,
      "N": 51,
      "O": 52,
      "P": 53,
      "Q": 54,
      "R": 55,
      "S": 56,
      "T": 57,
      "U": 58,
      "V": 59,
      "W": 60,
      "X": 61,
      "Y": 62,
      "Z": 63,
      "[": 64,
      "\\": 65,
      "]": 66,
      "^": 67,
      "_": 68,
      "`": 69,
      "a": 70,
      "b": 71,
      "c": 72,
      "d": 73,
      "e": 74,
      "f": 75,
      "g": 76,
      "h": 77,
      "i": 78,
      "j": 79,
      "k": 80,
      "l": 81,
      "m": 82,
      "n": 83,
      "o": 84,
      "p": 85,
      "q": 86,
      "r": 87,
      "s": 88,
      "t": 89,
      "u": 90,
      "v": 91,
      "w": 92,
      "x": 93,
      "y": 94,
      "z": 95,
      "{": 96,
      "|": 97,
      "}": 98,
      "~": 99,
      "": 100,
      "ª": 101,
      "­": 102,
      "®": 103,
      "°": 104,
      "±": 105,
      "´": 106,
      "·": 107,
      "×": 108,
      "Ø": 109,
      "à": 110,
      "ç": 111,
      "è": 112,
      "é": 113,
      "í": 114,
      "ó": 115,
      "÷": 116,
      "ǎ": 117,
      "Φ": 118,
      "Ω": 119,
      "α": 120,
      "β": 121,
      "μ": 122,
      "φ": 123,
      "ω": 124,
      "В": 125,
      "М": 126,
      "О": 127,
      "П": 128,
      "С": 129,
      "У": 130,
      "Ф": 131,
      "—": 132,
      "―": 133,
      "‖": 134,
      "‘": 135,
      "’": 136,
      "“": 137,
      "”": 138,
      "•": 139,
      "…": 140,
      "‰": 141,
      "′": 142,
      "″": 143,
      "℃": 144,
      "™": 145,
      "Ⅰ": 146,
      "Ⅱ": 147,
      "Ⅲ": 148,
      "Ⅳ": 149,
      "Ⅶ": 150,
      "↑": 151,
      "→": 152,
      "↓": 153,
      "∑": 154,
      "√": 155,
      "∩": 156,
      "∴": 157,
      "∵": 158,
      "∶": 159,
      "≠": 160,
      "≤": 161,
      "≥": 162,
      "≯": 163,
      "⊙": 164,
      "⊥": 165,
      "⋯": 166,
      "①": 167,
      "②": 168,
      "③": 169,
      "④": 170,
      "⑤": 171,
      "⑥": 172,
      "⑦": 173,
      "⑧": 174,
      "⑨": 175,
      "⑩": 176,
      "⑴": 177,
      "⑵": 178,
      "⑶": 179,
      "⑷": 180,
      "⑸": 181,
      "⒓": 182,
      "─": 183,
      "━": 184,
      "│": 185,
      "■": 186,
      "□": 187,
      "▪": 188,
      "▲": 189,
      "▶": 190,
      "◆": 191,
      "◇": 192,
      "○": 193,
      "◎": 194,
      "●": 195,
      "★": 196,
      "☆": 197,
      "、": 198,
      "。": 199,
      "〈": 200,
      "〉": 201,
      "《": 202,
      "》": 203,
      "『": 204,
      "』": 205,
      "【": 206,
      "】": 207,
      "〔": 208,
      "〕": 209,
      "〖": 210,
      "〗": 211,
      "ず": 212,
      "の": 213,
      "イ": 214,
      "プ": 215,
      "ボ": 216,
      "レ": 217,
      "・": 218,
      "ㄟ": 219,
      "一": 220,
      "丁": 221,
      "七": 222,
      "万": 223,
      "丈": 224,
      "三": 225,
      "上": 226,
      "下": 227,
      "不": 228,
      "与": 229,
      "丐": 230,
      "丑": 231,
      "专": 232,
      "且": 233,
      "丕": 234,
      "世": 235,
      "丘": 236,
      "丙": 237,
      "业": 238,
      "丛": 239,
      "东": 240,
      "丝": 241,
      "丞": 242,
      "丢": 243,
      "两": 244,
      "严": 245,
      "丧": 246,
      "个": 247,
      "丫": 248,
      "中": 249,
      "丰": 250,
      "串": 251,
      "临": 252,
      "丸": 253,
      "丹": 254,
      "为": 255,
      "主": 256,
      "丽": 257,
      "举": 258,
      "乃": 259,
      "久": 260,
      "么": 261,
      "义": 262,
      "之": 263,
      "乌": 264,
      "乍": 265,
      "乎": 266,
      "乏": 267,
      "乐": 268,
      "乒": 269,
      "乓": 270,
      "乔": 271,
      "乖": 272,
      "乘": 273,
      "乙": 274,
      "乜": 275,
      "九": 276,
      "乞": 277,
      "也": 278,
      "习": 279,
      "乡": 280,
      "书": 281,
      "买": 282,
      "乱": 283,
      "乳": 284,
      "乾": 285,
      "了": 286,
      "予": 287,
      "争": 288,
      "事": 289,
      "二": 290,
      "于": 291,
      "亏": 292,
      "云": 293,
      "互": 294,
      "五": 295,
      "井": 296,
      "亘": 297,
      "亚": 298,
      "些": 299,
      "亟": 300,
      "亡": 301,
      "亢": 302,
      "交": 303,
      "亥": 304,
      "亦": 305,
      "产": 306,
      "亨": 307,
      "亩": 308,
      "享": 309,
      "京": 310,
      "亭": 311,
      "亮": 312,
      "亲": 313,
      "亳": 314,
      "亵": 315,
      "人": 316,
      "亿": 317,
      "什": 318,
      "仁": 319,
      "仃": 320,
      "仄": 321,
      "仅": 322,
      "仆": 323,
      "仇": 324,
      "今": 325,
      "介": 326,
      "仍": 327,
      "从": 328,
      "仑": 329,
      "仓": 330,
      "仔": 331,
      "仕": 332,
      "他": 333,
      "仗": 334,
      "付": 335,
      "仙": 336,
      "仝": 337,
      "仟": 338,
      "代": 339,
      "令": 340,
      "以": 341,
      "仨": 342,
      "仪": 343,
      "们": 344,
      "仰": 345,
      "仲": 346,
      "件": 347,
      "价": 348,
      "任": 349,
      "份": 350,
      "仿": 351,
      "企": 352,
      "伉": 353,
      "伊": 354,
      "伍": 355,
      "伎": 356,
      "伏": 357,
      "伐": 358,
      "休": 359,
      "众": 360,
      "优": 361,
      "伙": 362,
      "会": 363,
      "伞": 364,
      "伟": 365,
      "传": 366,
      "伢": 367,
      "伤": 368,
      "伥": 369,
      "伦": 370,
      "伪": 371,
      "伫": 372,
      "伯": 373,
      "估": 374,
      "伴": 375,
      "伶": 376,
      "伸": 377,
      "伺": 378,
      "似": 379,
      "伽": 380,
      "但": 381,
      "位": 382,
      "低": 383,
      "住": 384,
      "佐": 385,
      "佑": 386,
      "体": 387,
      "何": 388,
      "佘": 389,
      "余": 390,
      "佚": 391,
      "佛": 392,
      "作": 393,
      "佝": 394,
      "佟": 395,
      "你": 396,
      "佣": 397,
      "佥": 398,
      "佩": 399,
      "佬": 400,
      "佯": 401,
      "佰": 402,
      "佳": 403,
      "佼": 404,
      "使": 405,
      "侃": 406,
      "侄": 407,
      "侈": 408,
      "例": 409,
      "侍": 410,
      "侑": 411,
      "侗": 412,
      "供": 413,
      "依": 414,
      "侠": 415,
      "侣": 416,
      "侥": 417,
      "侦": 418,
      "侧": 419,
      "侨": 420,
      "侩": 421,
      "侪": 422,
      "侬": 423,
      "侮": 424,
      "侯": 425,
      "侵": 426,
      "便": 427,
      "促": 428,
      "俄": 429,
      "俅": 430,
      "俊": 431,
      "俎": 432,
      "俏": 433,
      "俐": 434,
      "俑": 435,
      "俗": 436,
      "俘": 437,
      "俚": 438,
      "保": 439,
      "俞": 440,
      "俟": 441,
      "信": 442,
      "俨": 443,
      "俩": 444,
      "俪": 445,
      "俭": 446,
      "修": 447,
      "俯": 448,
      "俱": 449,
      "俺": 450,
      "俾": 451,
      "倌": 452,
      "倍": 453,
      "倏": 454,
      "倒": 455,
      "倔": 456,
      "倘": 457,
      "候": 458,
      "倚": 459,
      "倜": 460,
      "借": 461,
      "倡": 462,
      "倥": 463,
      "倦": 464,
      "倨": 465,
      "倩": 466,
      "倪": 467,
      "倬": 468,
      "倭": 469,
      "债": 470,
      "值": 471,
      "倾": 472,
      "偃": 473,
      "假": 474,
      "偈": 475,
      "偌": 476,
      "偎": 477,
      "偏": 478,
      "偕": 479,
      "做": 480,
      "停": 481,
      "健": 482,
      "偬": 483,
      "偶": 484,
      "偷": 485,
      "偻": 486,
      "偾": 487,
      "偿": 488,
      "傀": 489,
      "傅": 490,
      "傈": 491,
      "傍": 492,
      "傣": 493,
      "傥": 494,
      "储": 495,
      "催": 496,
      "傲": 497,
      "傻": 498,
      "像": 499,
      "僚": 500,
      "僧": 501,
      "僳": 502,
      "僵": 503,
      "僻": 504,
      "儋": 505,
      "儒": 506,
      "儡": 507,
      "儿": 508,
      "兀": 509,
      "允": 510,
      "元": 511,
      "兄": 512,
      "充": 513,
      "兆": 514,
      "先": 515,
      "光": 516,
      "克": 517,
      "免": 518,
      "兑": 519,
      "兔": 520,
      "兖": 521,
      "党": 522,
      "兜": 523,
      "兢": 524,
      "入": 525,
      "全": 526,
      "八": 527,
      "公": 528,
      "六": 529,
      "兮": 530,
      "兰": 531,
      "共": 532,
      "关": 533,
      "兴": 534,
      "兵": 535,
      "其": 536,
      "具": 537,
      "典": 538,
      "兹": 539,
      "养": 540,
      "兼": 541,
      "兽": 542,
      "冀": 543,
      "内": 544,
      "冈": 545,
      "冉": 546,
      "册": 547,
      "再": 548,
      "冒": 549,
      "冕": 550,
      "冗": 551,
      "写": 552,
      "军": 553,
      "农": 554,
      "冠": 555,
      "冢": 556,
      "冤": 557,
      "冥": 558,
      "冬": 559,
      "冯": 560,
      "冰": 561,
      "冲": 562,
      "决": 563,
      "况": 564,
      "冶": 565,
      "冷": 566,
      "冻": 567,
      "冼": 568,
      "冽": 569,
      "净": 570,
      "凄": 571,
      "准": 572,
      "凉": 573,
      "凋": 574,
      "凌": 575,
      "减": 576,
      "凑": 577,
      "凛": 578,
      "凝": 579,
      "几": 580,
      "凡": 581,
      "凤": 582,
      "凭": 583,
      "凯": 584,
      "凰": 585,
      "凳": 586,
      "凶": 587,
      "凸": 588,
      "凹": 589,
      "出": 590,
      "击": 591,
      "函": 592,
      "凿": 593,
      "刀": 594,
      "刁": 595,
      "刃": 596,
      "分": 597,
      "切": 598,
      "刊": 599,
      "刑": 600,
      "划": 601,
      "列": 602,
      "刘": 603,
      "则": 604,
      "刚": 605,
      "创": 606,
      "初": 607,
      "删": 608,
      "判": 609,
      "刨": 610,
      "利": 611,
      "别": 612,
      "刮": 613,
      "到": 614,
      "制": 615,
      "刷": 616,
      "券": 617,
      "刹": 618,
      "刺": 619,
      "刻": 620,
      "刿": 621,
      "剁": 622,
      "剂": 623,
      "剃": 624,
      "削": 625,
      "剌": 626,
      "前": 627,
      "剐": 628,
      "剑": 629,
      "剔": 630,
      "剖": 631,
      "剥": 632,
      "剧": 633,
      "剩": 634,
      "剪": 635,
      "副": 636,
      "割": 637,
      "剽": 638,
      "剿": 639,
      "劈": 640,
      "力": 641,
      "劝": 642,
      "办": 643,
      "功": 644,
      "加": 645,
      "务": 646,
      "劣": 647,
      "动": 648,
      "助": 649,
      "努": 650,
      "劫": 651,
      "劭": 652,
      "励": 653,
      "劲": 654,
      "劳": 655,
      "劾": 656,
      "势": 657,
      "勃": 658,
      "勇": 659,
      "勉": 660,
      "勋": 661,
      "勒": 662,
      "勘": 663,
      "募": 664,
      "勤": 665,
      "勺": 666,
      "勾": 667,
      "勿": 668,
      "匀": 669,
      "包": 670,
      "匆": 671,
      "匈": 672,
      "匕": 673,
      "化": 674,
      "北": 675,
      "匙": 676,
      "匝": 677,
      "匠": 678,
      "匡": 679,
      "匣": 680,
      "匪": 681,
      "匮": 682,
      "匹": 683,
      "区": 684,
      "医": 685,
      "匾": 686,
      "匿": 687,
      "十": 688,
      "千": 689,
      "卅": 690,
      "升": 691,
      "午": 692,
      "卉": 693,
      "半": 694,
      "华": 695,
      "协": 696,
      "卑": 697,
      "卒": 698,
      "卓": 699,
      "单": 700,
      "卖": 701,
      "南": 702,
      "博": 703,
      "卜": 704,
      "卞": 705,
      "占": 706,
      "卡": 707,
      "卢": 708,
      "卤": 709,
      "卦": 710,
      "卧": 711,
      "卫": 712,
      "卯": 713,
      "印": 714,
      "危": 715,
      "即": 716,
      "却": 717,
      "卵": 718,
      "卷": 719,
      "卸": 720,
      "卿": 721,
      "厂": 722,
      "厄": 723,
      "厅": 724,
      "历": 725,
      "厉": 726,
      "压": 727,
      "厌": 728,
      "厕": 729,
      "厘": 730,
      "厚": 731,
      "原": 732,
      "厢": 733,
      "厥": 734,
      "厦": 735,
      "厨": 736,
      "厩": 737,
      "厮": 738,
      "去": 739,
      "县": 740,
      "叁": 741,
      "参": 742,
      "又": 743,
      "叉": 744,
      "及": 745,
      "友": 746,
      "双": 747,
      "反": 748,
      "发": 749,
      "叔": 750,
      "取": 751,
      "受": 752,
      "变": 753,
      "叙": 754,
      "叛": 755,
      "叟": 756,
      "叠": 757,
      "口": 758,
      "古": 759,
      "句": 760,
      "另": 761,
      "叨": 762,
      "叩": 763,
      "只": 764,
      "叫": 765,
      "召": 766,
      "叭": 767,
      "叮": 768,
      "可": 769,
      "台": 770,
      "叱": 771,
      "史": 772,
      "右": 773,
      "叵": 774,
      "叶": 775,
      "号": 776,
      "司": 777,
      "叹": 778,
      "叻": 779,
      "叼": 780,
      "叽": 781,
      "吁": 782,
      "吃": 783,
      "各": 784,
      "吆": 785,
      "合": 786,
      "吉": 787,
      "吊": 788,
      "同": 789,
      "名": 790,
      "后": 791,
      "吏": 792,
      "吐": 793,
      "向": 794,
      "吒": 795,
      "吓": 796,
      "吕": 797,
      "吖": 798,
      "吗": 799,
      "君": 800,
      "吝": 801,
      "吞": 802,
      "吟": 803,
      "否": 804,
      "吧": 805,
      "吨": 806,
      "吩": 807,
      "含": 808,
      "听": 809,
      "吭": 810,
      "启": 811,
      "吱": 812,
      "吴": 813,
      "吵": 814,
      "吸": 815,
      "吹": 816,
      "吻": 817,
      "吼": 818,
      "吾": 819,
      "呀": 820,
      "呃": 821,
      "呆": 822,
      "呈": 823,
      "告": 824,
      "呐": 825,
      "呕": 826,
      "呖": 827,
      "呗": 828,
      "员": 829,
      "呛": 830,
      "呜": 831,
      "呢": 832,
      "呤": 833,
      "呦": 834,
      "周": 835,
      "呱": 836,
      "呲": 837,
      "味": 838,
      "呵": 839,
      "呶": 840,
      "呷": 841,
      "呸": 842,
      "呼": 843,
      "命": 844,
      "咀": 845,
      "咂": 846,
      "咄": 847,
      "咆": 848,
      "咋": 849,
      "和": 850,
      "咎": 851,
      "咏": 852,
      "咐": 853,
      "咒": 854,
      "咔": 855,
      "咕": 856,
      "咖": 857,
      "咙": 858,
      "咚": 859,
      "咛": 860,
      "咣": 861,
      "咤": 862,
      "咦": 863,
      "咧": 864,
      "咨": 865,
      "咪": 866,
      "咫": 867,
      "咬": 868,
      "咯": 869,
      "咱": 870,
      "咳": 871,
      "咸": 872,
      "咻": 873,
      "咽": 874,
      "咿": 875,
      "哀": 876,
      "品": 877,
      "哄": 878,
      "哆": 879,
      "哇": 880,
      "哈": 881,
      "哉": 882,
      "响": 883,
      "哎": 884,
      "哐": 885,
      "哑": 886,
      "哒": 887,
      "哗": 888,
      "哟": 889,
      "哥": 890,
      "哦": 891,
      "哧": 892,
      "哨": 893,
      "哩": 894,
      "哪": 895,
      "哭": 896,
      "哮": 897,
      "哲": 898,
      "哺": 899,
      "哼": 900,
      "哽": 901,
      "唁": 902,
      "唆": 903,
      "唇": 904,
      "唉": 905,
      "唏": 906,
      "唐": 907,
      "唔": 908,
      "唠": 909,
      "唤": 910,
      "唧": 911,
      "唬": 912,
      "售": 913,
      "唯": 914,
      "唰": 915,
      "唱": 916,
      "唳": 917,
      "唷": 918,
      "唾": 919,
      "啃": 920,
      "商": 921,
      "啊": 922,
      "啕": 923,
      "啖": 924,
      "啜": 925,
      "啡": 926,
      "啤": 927,
      "啥": 928,
      "啦": 929,
      "啧": 930,
      "啪": 931,
      "啬": 932,
      "啮": 933,
      "啵": 934,
      "啶": 935,
      "啷": 936,
      "啸": 937,
      "啻": 938,
      "啼": 939,
      "啾": 940,
      "喀": 941,
      "喂": 942,
      "喃": 943,
      "善": 944,
      "喇": 945,
      "喉": 946,
      "喊": 947,
      "喋": 948,
      "喏": 949,
      "喑": 950,
      "喔": 951,
      "喘": 952,
      "喙": 953,
      "喜": 954,
      "喝": 955,
      "喟": 956,
      "喧": 957,
      "喳": 958,
      "喵": 959,
      "喷": 960,
      "喻": 961,
      "喽": 962,
      "嗄": 963,
      "嗅": 964,
      "嗌": 965,
      "嗑": 966,
      "嗒": 967,
      "嗓": 968,
      "嗔": 969,
      "嗖": 970,
      "嗜": 971,
      "嗟": 972,
      "嗡": 973,
      "嗣": 974,
      "嗤": 975,
      "嗦": 976,
      "嗨": 977,
      "嗬": 978,
      "嗯": 979,
      "嗲": 980,
      "嗷": 981,
      "嗽": 982,
      "嘀": 983,
      "嘈": 984,
      "嘉": 985,
      "嘌": 986,
      "嘎": 987,
      "嘘": 988,
      "嘛": 989,
      "嘞": 990,
      "嘟": 991,
      "嘣": 992,
      "嘧": 993,
      "嘱": 994,
      "嘲": 995,
      "嘴": 996,
      "嘶": 997,
      "嘹": 998,
      "嘻": 999,
      "嘿": 1000,
      "噎": 1001,
      "噔": 1002,
      "噗": 1003,
      "噘": 1004,
      "噙": 1005,
      "噜": 1006,
      "噢": 1007,
      "噤": 1008,
      "器": 1009,
      "噩": 1010,
      "噪": 1011,
      "噬": 1012,
      "噱": 1013,
      "噶": 1014,
      "噻": 1015,
      "噼": 1016,
      "嚎": 1017,
      "嚏": 1018,
      "嚓": 1019,
      "嚣": 1020,
      "嚷": 1021,
      "嚼": 1022,
      "囊": 1023,
      "囔": 1024,
      "囚": 1025,
      "四": 1026,
      "回": 1027,
      "因": 1028,
      "囡": 1029,
      "团": 1030,
      "囤": 1031,
      "囫": 1032,
      "园": 1033,
      "困": 1034,
      "囱": 1035,
      "围": 1036,
      "囵": 1037,
      "囹": 1038,
      "固": 1039,
      "国": 1040,
      "图": 1041,
      "囿": 1042,
      "圃": 1043,
      "圄": 1044,
      "圆": 1045,
      "圈": 1046,
      "土": 1047,
      "圣": 1048,
      "在": 1049,
      "圩": 1050,
      "圭": 1051,
      "圯": 1052,
      "地": 1053,
      "圳": 1054,
      "场": 1055,
      "圻": 1056,
      "圾": 1057,
      "址": 1058,
      "坂": 1059,
      "均": 1060,
      "坊": 1061,
      "坍": 1062,
      "坎": 1063,
      "坏": 1064,
      "坐": 1065,
      "坑": 1066,
      "块": 1067,
      "坚": 1068,
      "坛": 1069,
      "坝": 1070,
      "坞": 1071,
      "坟": 1072,
      "坠": 1073,
      "坡": 1074,
      "坤": 1075,
      "坦": 1076,
      "坨": 1077,
      "坪": 1078,
      "坯": 1079,
      "坷": 1080,
      "垂": 1081,
      "垃": 1082,
      "垄": 1083,
      "型": 1084,
      "垒": 1085,
      "垠": 1086,
      "垢": 1087,
      "垣": 1088,
      "垦": 1089,
      "垫": 1090,
      "垮": 1091,
      "埂": 1092,
      "埃": 1093,
      "埋": 1094,
      "城": 1095,
      "埔": 1096,
      "域": 1097,
      "埠": 1098,
      "培": 1099,
      "基": 1100,
      "堂": 1101,
      "堆": 1102,
      "堑": 1103,
      "堕": 1104,
      "堡": 1105,
      "堤": 1106,
      "堪": 1107,
      "堰": 1108,
      "堵": 1109,
      "塌": 1110,
      "塍": 1111,
      "塑": 1112,
      "塔": 1113,
      "塘": 1114,
      "塞": 1115,
      "填": 1116,
      "塾": 1117,
      "境": 1118,
      "墅": 1119,
      "墉": 1120,
      "墒": 1121,
      "墓": 1122,
      "墙": 1123,
      "增": 1124,
      "墟": 1125,
      "墨": 1126,
      "墩": 1127,
      "壁": 1128,
      "壑": 1129,
      "壕": 1130,
      "壤": 1131,
      "士": 1132,
      "壬": 1133,
      "壮": 1134,
      "声": 1135,
      "壳": 1136,
      "壶": 1137,
      "壹": 1138,
      "处": 1139,
      "备": 1140,
      "复": 1141,
      "夏": 1142,
      "夔": 1143,
      "夕": 1144,
      "外": 1145,
      "夙": 1146,
      "多": 1147,
      "夜": 1148,
      "够": 1149,
      "大": 1150,
      "天": 1151,
      "太": 1152,
      "夫": 1153,
      "夭": 1154,
      "央": 1155,
      "夯": 1156,
      "失": 1157,
      "头": 1158,
      "夷": 1159,
      "夸": 1160,
      "夹": 1161,
      "夺": 1162,
      "奂": 1163,
      "奄": 1164,
      "奇": 1165,
      "奈": 1166,
      "奉": 1167,
      "奋": 1168,
      "奎": 1169,
      "奏": 1170,
      "契": 1171,
      "奔": 1172,
      "奕": 1173,
      "奖": 1174,
      "套": 1175,
      "奚": 1176,
      "奠": 1177,
      "奢": 1178,
      "奥": 1179,
      "女": 1180,
      "奴": 1181,
      "奶": 1182,
      "奸": 1183,
      "她": 1184,
      "好": 1185,
      "如": 1186,
      "妃": 1187,
      "妄": 1188,
      "妆": 1189,
      "妇": 1190,
      "妈": 1191,
      "妊": 1192,
      "妍": 1193,
      "妒": 1194,
      "妓": 1195,
      "妖": 1196,
      "妙": 1197,
      "妞": 1198,
      "妤": 1199,
      "妥": 1200,
      "妨": 1201,
      "妩": 1202,
      "妮": 1203,
      "妹": 1204,
      "妻": 1205,
      "妾": 1206,
      "姆": 1207,
      "姊": 1208,
      "始": 1209,
      "姐": 1210,
      "姑": 1211,
      "姓": 1212,
      "委": 1213,
      "姗": 1214,
      "姚": 1215,
      "姜": 1216,
      "姝": 1217,
      "姣": 1218,
      "姥": 1219,
      "姨": 1220,
      "姬": 1221,
      "姹": 1222,
      "姻": 1223,
      "姿": 1224,
      "威": 1225,
      "娃": 1226,
      "娄": 1227,
      "娅": 1228,
      "娆": 1229,
      "娇": 1230,
      "娈": 1231,
      "娉": 1232,
      "娑": 1233,
      "娓": 1234,
      "娘": 1235,
      "娜": 1236,
      "娟": 1237,
      "娠": 1238,
      "娣": 1239,
      "娥": 1240,
      "娩": 1241,
      "娱": 1242,
      "娲": 1243,
      "娴": 1244,
      "娶": 1245,
      "娼": 1246,
      "婀": 1247,
      "婆": 1248,
      "婉": 1249,
      "婊": 1250,
      "婕": 1251,
      "婚": 1252,
      "婢": 1253,
      "婧": 1254,
      "婪": 1255,
      "婴": 1256,
      "婵": 1257,
      "婶": 1258,
      "婷": 1259,
      "婿": 1260,
      "媒": 1261,
      "媚": 1262,
      "媛": 1263,
      "媲": 1264,
      "媳": 1265,
      "嫁": 1266,
      "嫂": 1267,
      "嫉": 1268,
      "嫌": 1269,
      "嫔": 1270,
      "嫖": 1271,
      "嫡": 1272,
      "嫣": 1273,
      "嫦": 1274,
      "嫩": 1275,
      "嬉": 1276,
      "嬗": 1277,
      "孀": 1278,
      "子": 1279,
      "孑": 1280,
      "孔": 1281,
      "孕": 1282,
      "字": 1283,
      "存": 1284,
      "孙": 1285,
      "孚": 1286,
      "孜": 1287,
      "孝": 1288,
      "孟": 1289,
      "季": 1290,
      "孤": 1291,
      "学": 1292,
      "孩": 1293,
      "孪": 1294,
      "孰": 1295,
      "孱": 1296,
      "孵": 1297,
      "孺": 1298,
      "孽": 1299,
      "宁": 1300,
      "它": 1301,
      "宅": 1302,
      "宇": 1303,
      "守": 1304,
      "安": 1305,
      "宋": 1306,
      "完": 1307,
      "宏": 1308,
      "宓": 1309,
      "宕": 1310,
      "宗": 1311,
      "官": 1312,
      "宙": 1313,
      "定": 1314,
      "宛": 1315,
      "宜": 1316,
      "宝": 1317,
      "实": 1318,
      "宠": 1319,
      "审": 1320,
      "客": 1321,
      "宣": 1322,
      "室": 1323,
      "宥": 1324,
      "宦": 1325,
      "宪": 1326,
      "宫": 1327,
      "宰": 1328,
      "害": 1329,
      "宴": 1330,
      "宵": 1331,
      "家": 1332,
      "宸": 1333,
      "容": 1334,
      "宽": 1335,
      "宾": 1336,
      "宿": 1337,
      "寂": 1338,
      "寄": 1339,
      "寅": 1340,
      "密": 1341,
      "寇": 1342,
      "富": 1343,
      "寐": 1344,
      "寒": 1345,
      "寓": 1346,
      "寝": 1347,
      "寞": 1348,
      "察": 1349,
      "寡": 1350,
      "寥": 1351,
      "寨": 1352,
      "寮": 1353,
      "寰": 1354,
      "寸": 1355,
      "对": 1356,
      "寺": 1357,
      "寻": 1358,
      "导": 1359,
      "寿": 1360,
      "封": 1361,
      "射": 1362,
      "将": 1363,
      "尉": 1364,
      "尊": 1365,
      "小": 1366,
      "少": 1367,
      "尔": 1368,
      "尖": 1369,
      "尘": 1370,
      "尚": 1371,
      "尝": 1372,
      "尤": 1373,
      "尧": 1374,
      "尬": 1375,
      "就": 1376,
      "尴": 1377,
      "尸": 1378,
      "尹": 1379,
      "尺": 1380,
      "尼": 1381,
      "尽": 1382,
      "尾": 1383,
      "尿": 1384,
      "局": 1385,
      "屁": 1386,
      "层": 1387,
      "居": 1388,
      "屈": 1389,
      "屉": 1390,
      "届": 1391,
      "屋": 1392,
      "屎": 1393,
      "屏": 1394,
      "屑": 1395,
      "展": 1396,
      "属": 1397,
      "屠": 1398,
      "屡": 1399,
      "履": 1400,
      "屯": 1401,
      "山": 1402,
      "屹": 1403,
      "屿": 1404,
      "岁": 1405,
      "岂": 1406,
      "岌": 1407,
      "岐": 1408,
      "岑": 1409,
      "岔": 1410,
      "岖": 1411,
      "岗": 1412,
      "岘": 1413,
      "岙": 1414,
      "岚": 1415,
      "岛": 1416,
      "岩": 1417,
      "岫": 1418,
      "岬": 1419,
      "岭": 1420,
      "岱": 1421,
      "岳": 1422,
      "岷": 1423,
      "岸": 1424,
      "岿": 1425,
      "峋": 1426,
      "峙": 1427,
      "峡": 1428,
      "峥": 1429,
      "峦": 1430,
      "峨": 1431,
      "峪": 1432,
      "峭": 1433,
      "峰": 1434,
      "峻": 1435,
      "崂": 1436,
      "崃": 1437,
      "崇": 1438,
      "崎": 1439,
      "崔": 1440,
      "崖": 1441,
      "崛": 1442,
      "崧": 1443,
      "崩": 1444,
      "崭": 1445,
      "崮": 1446,
      "崴": 1447,
      "崽": 1448,
      "嵌": 1449,
      "嵘": 1450,
      "嵩": 1451,
      "嵬": 1452,
      "嶙": 1453,
      "巅": 1454,
      "巍": 1455,
      "川": 1456,
      "州": 1457,
      "巡": 1458,
      "巢": 1459,
      "工": 1460,
      "左": 1461,
      "巧": 1462,
      "巨": 1463,
      "巩": 1464,
      "巫": 1465,
      "差": 1466,
      "己": 1467,
      "已": 1468,
      "巴": 1469,
      "巷": 1470,
      "巽": 1471,
      "巾": 1472,
      "币": 1473,
      "市": 1474,
      "布": 1475,
      "帅": 1476,
      "帆": 1477,
      "师": 1478,
      "希": 1479,
      "帐": 1480,
      "帕": 1481,
      "帖": 1482,
      "帘": 1483,
      "帚": 1484,
      "帛": 1485,
      "帜": 1486,
      "帝": 1487,
      "带": 1488,
      "帧": 1489,
      "席": 1490,
      "帮": 1491,
      "帷": 1492,
      "常": 1493,
      "帼": 1494,
      "帽": 1495,
      "幂": 1496,
      "幄": 1497,
      "幅": 1498,
      "幌": 1499,
      "幔": 1500,
      "幕": 1501,
      "幡": 1502,
      "幢": 1503,
      "干": 1504,
      "平": 1505,
      "年": 1506,
      "并": 1507,
      "幸": 1508,
      "幺": 1509,
      "幻": 1510,
      "幼": 1511,
      "幽": 1512,
      "广": 1513,
      "庄": 1514,
      "庆": 1515,
      "庇": 1516,
      "床": 1517,
      "序": 1518,
      "庐": 1519,
      "库": 1520,
      "应": 1521,
      "底": 1522,
      "庖": 1523,
      "店": 1524,
      "庙": 1525,
      "庚": 1526,
      "府": 1527,
      "庞": 1528,
      "废": 1529,
      "度": 1530,
      "座": 1531,
      "庭": 1532,
      "庵": 1533,
      "庶": 1534,
      "康": 1535,
      "庸": 1536,
      "庹": 1537,
      "庾": 1538,
      "廉": 1539,
      "廊": 1540,
      "廓": 1541,
      "廖": 1542,
      "延": 1543,
      "廷": 1544,
      "建": 1545,
      "廿": 1546,
      "开": 1547,
      "异": 1548,
      "弃": 1549,
      "弄": 1550,
      "弈": 1551,
      "弊": 1552,
      "弋": 1553,
      "式": 1554,
      "弑": 1555,
      "弓": 1556,
      "引": 1557,
      "弗": 1558,
      "弘": 1559,
      "弛": 1560,
      "弟": 1561,
      "张": 1562,
      "弥": 1563,
      "弦": 1564,
      "弧": 1565,
      "弩": 1566,
      "弭": 1567,
      "弯": 1568,
      "弱": 1569,
      "弹": 1570,
      "强": 1571,
      "弼": 1572,
      "彀": 1573,
      "归": 1574,
      "当": 1575,
      "录": 1576,
      "彗": 1577,
      "彝": 1578,
      "形": 1579,
      "彤": 1580,
      "彦": 1581,
      "彩": 1582,
      "彪": 1583,
      "彬": 1584,
      "彭": 1585,
      "彰": 1586,
      "影": 1587,
      "彷": 1588,
      "役": 1589,
      "彻": 1590,
      "彼": 1591,
      "往": 1592,
      "征": 1593,
      "径": 1594,
      "待": 1595,
      "徇": 1596,
      "很": 1597,
      "徉": 1598,
      "徊": 1599,
      "律": 1600,
      "後": 1601,
      "徐": 1602,
      "徒": 1603,
      "徕": 1604,
      "得": 1605,
      "徘": 1606,
      "徙": 1607,
      "徜": 1608,
      "御": 1609,
      "徨": 1610,
      "循": 1611,
      "徭": 1612,
      "微": 1613,
      "徵": 1614,
      "德": 1615,
      "徽": 1616,
      "心": 1617,
      "必": 1618,
      "忆": 1619,
      "忌": 1620,
      "忍": 1621,
      "忏": 1622,
      "忐": 1623,
      "忑": 1624,
      "忒": 1625,
      "忖": 1626,
      "志": 1627,
      "忘": 1628,
      "忙": 1629,
      "忝": 1630,
      "忠": 1631,
      "忡": 1632,
      "忤": 1633,
      "忧": 1634,
      "忪": 1635,
      "快": 1636,
      "忱": 1637,
      "念": 1638,
      "忻": 1639,
      "忽": 1640,
      "忾": 1641,
      "忿": 1642,
      "怀": 1643,
      "态": 1644,
      "怂": 1645,
      "怅": 1646,
      "怆": 1647,
      "怎": 1648,
      "怒": 1649,
      "怔": 1650,
      "怕": 1651,
      "怖": 1652,
      "怜": 1653,
      "思": 1654,
      "怠": 1655,
      "怡": 1656,
      "急": 1657,
      "怦": 1658,
      "性": 1659,
      "怨": 1660,
      "怪": 1661,
      "怫": 1662,
      "怯": 1663,
      "怵": 1664,
      "总": 1665,
      "怿": 1666,
      "恁": 1667,
      "恂": 1668,
      "恃": 1669,
      "恋": 1670,
      "恍": 1671,
      "恐": 1672,
      "恒": 1673,
      "恕": 1674,
      "恙": 1675,
      "恢": 1676,
      "恣": 1677,
      "恤": 1678,
      "恨": 1679,
      "恩": 1680,
      "恪": 1681,
      "恬": 1682,
      "恭": 1683,
      "息": 1684,
      "恰": 1685,
      "恳": 1686,
      "恶": 1687,
      "恹": 1688,
      "恺": 1689,
      "恻": 1690,
      "恼": 1691,
      "恿": 1692,
      "悄": 1693,
      "悉": 1694,
      "悌": 1695,
      "悍": 1696,
      "悔": 1697,
      "悖": 1698,
      "悚": 1699,
      "悟": 1700,
      "悠": 1701,
      "患": 1702,
      "悦": 1703,
      "您": 1704,
      "悬": 1705,
      "悯": 1706,
      "悱": 1707,
      "悲": 1708,
      "悴": 1709,
      "悸": 1710,
      "悻": 1711,
      "悼": 1712,
      "情": 1713,
      "惆": 1714,
      "惊": 1715,
      "惋": 1716,
      "惑": 1717,
      "惕": 1718,
      "惘": 1719,
      "惚": 1720,
      "惜": 1721,
      "惟": 1722,
      "惠": 1723,
      "惦": 1724,
      "惧": 1725,
      "惨": 1726,
      "惩": 1727,
      "惫": 1728,
      "惬": 1729,
      "惭": 1730,
      "惮": 1731,
      "惯": 1732,
      "惰": 1733,
      "想": 1734,
      "惴": 1735,
      "惶": 1736,
      "惹": 1737,
      "惺": 1738,
      "愁": 1739,
      "愈": 1740,
      "愉": 1741,
      "愍": 1742,
      "愎": 1743,
      "意": 1744,
      "愕": 1745,
      "愚": 1746,
      "感": 1747,
      "愠": 1748,
      "愣": 1749,
      "愤": 1750,
      "愧": 1751,
      "愫": 1752,
      "愿": 1753,
      "慈": 1754,
      "慌": 1755,
      "慎": 1756,
      "慑": 1757,
      "慕": 1758,
      "慢": 1759,
      "慧": 1760,
      "慨": 1761,
      "慰": 1762,
      "慵": 1763,
      "慷": 1764,
      "憋": 1765,
      "憎": 1766,
      "憔": 1767,
      "憧": 1768,
      "憨": 1769,
      "憩": 1770,
      "憬": 1771,
      "憾": 1772,
      "懂": 1773,
      "懈": 1774,
      "懊": 1775,
      "懋": 1776,
      "懑": 1777,
      "懒": 1778,
      "懦": 1779,
      "懵": 1780,
      "懿": 1781,
      "戈": 1782,
      "戊": 1783,
      "戌": 1784,
      "戎": 1785,
      "戏": 1786,
      "成": 1787,
      "我": 1788,
      "戒": 1789,
      "戕": 1790,
      "或": 1791,
      "戗": 1792,
      "战": 1793,
      "戚": 1794,
      "戛": 1795,
      "戟": 1796,
      "截": 1797,
      "戮": 1798,
      "戳": 1799,
      "戴": 1800,
      "户": 1801,
      "戾": 1802,
      "房": 1803,
      "所": 1804,
      "扁": 1805,
      "扇": 1806,
      "扈": 1807,
      "扉": 1808,
      "手": 1809,
      "才": 1810,
      "扎": 1811,
      "扑": 1812,
      "扒": 1813,
      "打": 1814,
      "扔": 1815,
      "托": 1816,
      "扛": 1817,
      "扣": 1818,
      "执": 1819,
      "扩": 1820,
      "扪": 1821,
      "扫": 1822,
      "扬": 1823,
      "扭": 1824,
      "扮": 1825,
      "扯": 1826,
      "扰": 1827,
      "扳": 1828,
      "扶": 1829,
      "批": 1830,
      "扼": 1831,
      "找": 1832,
      "承": 1833,
      "技": 1834,
      "抄": 1835,
      "抉": 1836,
      "把": 1837,
      "抑": 1838,
      "抒": 1839,
      "抓": 1840,
      "投": 1841,
      "抖": 1842,
      "抗": 1843,
      "折": 1844,
      "抚": 1845,
      "抛": 1846,
      "抠": 1847,
      "抡": 1848,
      "抢": 1849,
      "护": 1850,
      "报": 1851,
      "抨": 1852,
      "披": 1853,
      "抬": 1854,
      "抱": 1855,
      "抵": 1856,
      "抹": 1857,
      "押": 1858,
      "抽": 1859,
      "抿": 1860,
      "拂": 1861,
      "拄": 1862,
      "担": 1863,
      "拆": 1864,
      "拇": 1865,
      "拈": 1866,
      "拉": 1867,
      "拌": 1868,
      "拍": 1869,
      "拎": 1870,
      "拐": 1871,
      "拒": 1872,
      "拓": 1873,
      "拔": 1874,
      "拖": 1875,
      "拗": 1876,
      "拘": 1877,
      "拙": 1878,
      "拚": 1879,
      "招": 1880,
      "拜": 1881,
      "拟": 1882,
      "拢": 1883,
      "拣": 1884,
      "拥": 1885,
      "拦": 1886,
      "拧": 1887,
      "拨": 1888,
      "择": 1889,
      "括": 1890,
      "拭": 1891,
      "拮": 1892,
      "拯": 1893,
      "拱": 1894,
      "拳": 1895,
      "拴": 1896,
      "拷": 1897,
      "拼": 1898,
      "拽": 1899,
      "拾": 1900,
      "拿": 1901,
      "持": 1902,
      "挂": 1903,
      "指": 1904,
      "挈": 1905,
      "按": 1906,
      "挎": 1907,
      "挑": 1908,
      "挖": 1909,
      "挚": 1910,
      "挛": 1911,
      "挝": 1912,
      "挞": 1913,
      "挟": 1914,
      "挠": 1915,
      "挡": 1916,
      "挣": 1917,
      "挤": 1918,
      "挥": 1919,
      "挨": 1920,
      "挪": 1921,
      "挫": 1922,
      "振": 1923,
      "挹": 1924,
      "挺": 1925,
      "挽": 1926,
      "捂": 1927,
      "捅": 1928,
      "捆": 1929,
      "捉": 1930,
      "捋": 1931,
      "捍": 1932,
      "捎": 1933,
      "捏": 1934,
      "捐": 1935,
      "捕": 1936,
      "捞": 1937,
      "损": 1938,
      "捡": 1939,
      "换": 1940,
      "捣": 1941,
      "捧": 1942,
      "捩": 1943,
      "捭": 1944,
      "据": 1945,
      "捱": 1946,
      "捶": 1947,
      "捷": 1948,
      "捺": 1949,
      "捻": 1950,
      "掀": 1951,
      "掂": 1952,
      "授": 1953,
      "掉": 1954,
      "掌": 1955,
      "掎": 1956,
      "掏": 1957,
      "掐": 1958,
      "排": 1959,
      "掖": 1960,
      "掘": 1961,
      "掠": 1962,
      "探": 1963,
      "掣": 1964,
      "接": 1965,
      "控": 1966,
      "推": 1967,
      "掩": 1968,
      "措": 1969,
      "掬": 1970,
      "掮": 1971,
      "掰": 1972,
      "掳": 1973,
      "掷": 1974,
      "掸": 1975,
      "掺": 1976,
      "掼": 1977,
      "揄": 1978,
      "揆": 1979,
      "揉": 1980,
      "揍": 1981,
      "描": 1982,
      "提": 1983,
      "插": 1984,
      "揖": 1985,
      "握": 1986,
      "揣": 1987,
      "揪": 1988,
      "揭": 1989,
      "援": 1990,
      "揶": 1991,
      "揽": 1992,
      "搀": 1993,
      "搁": 1994,
      "搂": 1995,
      "搅": 1996,
      "搏": 1997,
      "搐": 1998,
      "搓": 1999,
      "搔": 2000,
      "搜": 2001,
      "搞": 2002,
      "搡": 2003,
      "搪": 2004,
      "搬": 2005,
      "搭": 2006,
      "携": 2007,
      "搽": 2008,
      "摁": 2009,
      "摄": 2010,
      "摆": 2011,
      "摇": 2012,
      "摈": 2013,
      "摊": 2014,
      "摒": 2015,
      "摔": 2016,
      "摘": 2017,
      "摞": 2018,
      "摧": 2019,
      "摩": 2020,
      "摸": 2021,
      "摹": 2022,
      "撂": 2023,
      "撅": 2024,
      "撇": 2025,
      "撑": 2026,
      "撒": 2027,
      "撕": 2028,
      "撙": 2029,
      "撞": 2030,
      "撤": 2031,
      "撩": 2032,
      "撬": 2033,
      "播": 2034,
      "撮": 2035,
      "撰": 2036,
      "撵": 2037,
      "撼": 2038,
      "擀": 2039,
      "擂": 2040,
      "擅": 2041,
      "操": 2042,
      "擎": 2043,
      "擒": 2044,
      "擘": 2045,
      "擞": 2046,
      "擢": 2047,
      "擦": 2048,
      "攀": 2049,
      "攒": 2050,
      "攘": 2051,
      "攥": 2052,
      "攫": 2053,
      "支": 2054,
      "收": 2055,
      "攸": 2056,
      "改": 2057,
      "攻": 2058,
      "放": 2059,
      "政": 2060,
      "故": 2061,
      "效": 2062,
      "敌": 2063,
      "敏": 2064,
      "救": 2065,
      "敖": 2066,
      "教": 2067,
      "敛": 2068,
      "敝": 2069,
      "敞": 2070,
      "敢": 2071,
      "散": 2072,
      "敦": 2073,
      "敬": 2074,
      "数": 2075,
      "敲": 2076,
      "整": 2077,
      "敷": 2078,
      "文": 2079,
      "斋": 2080,
      "斌": 2081,
      "斐": 2082,
      "斑": 2083,
      "斓": 2084,
      "斗": 2085,
      "料": 2086,
      "斜": 2087,
      "斟": 2088,
      "斡": 2089,
      "斤": 2090,
      "斥": 2091,
      "斧": 2092,
      "斩": 2093,
      "断": 2094,
      "斯": 2095,
      "新": 2096,
      "方": 2097,
      "於": 2098,
      "施": 2099,
      "旁": 2100,
      "旅": 2101,
      "旋": 2102,
      "旌": 2103,
      "旎": 2104,
      "族": 2105,
      "旖": 2106,
      "旗": 2107,
      "无": 2108,
      "既": 2109,
      "日": 2110,
      "旦": 2111,
      "旧": 2112,
      "旨": 2113,
      "早": 2114,
      "旬": 2115,
      "旭": 2116,
      "旱": 2117,
      "时": 2118,
      "旷": 2119,
      "旺": 2120,
      "昀": 2121,
      "昂": 2122,
      "昆": 2123,
      "昊": 2124,
      "昌": 2125,
      "明": 2126,
      "昏": 2127,
      "易": 2128,
      "昔": 2129,
      "昕": 2130,
      "昙": 2131,
      "星": 2132,
      "映": 2133,
      "春": 2134,
      "昧": 2135,
      "昨": 2136,
      "昭": 2137,
      "是": 2138,
      "昱": 2139,
      "昴": 2140,
      "昵": 2141,
      "昶": 2142,
      "昼": 2143,
      "显": 2144,
      "晁": 2145,
      "晃": 2146,
      "晋": 2147,
      "晌": 2148,
      "晏": 2149,
      "晒": 2150,
      "晓": 2151,
      "晔": 2152,
      "晕": 2153,
      "晖": 2154,
      "晗": 2155,
      "晚": 2156,
      "晟": 2157,
      "晤": 2158,
      "晦": 2159,
      "晨": 2160,
      "普": 2161,
      "景": 2162,
      "晰": 2163,
      "晴": 2164,
      "晶": 2165,
      "晷": 2166,
      "智": 2167,
      "晾": 2168,
      "暂": 2169,
      "暄": 2170,
      "暇": 2171,
      "暌": 2172,
      "暑": 2173,
      "暖": 2174,
      "暗": 2175,
      "暝": 2176,
      "暧": 2177,
      "暨": 2178,
      "暮": 2179,
      "暴": 2180,
      "曙": 2181,
      "曜": 2182,
      "曝": 2183,
      "曦": 2184,
      "曰": 2185,
      "曲": 2186,
      "曳": 2187,
      "更": 2188,
      "曹": 2189,
      "曼": 2190,
      "曾": 2191,
      "替": 2192,
      "最": 2193,
      "月": 2194,
      "有": 2195,
      "朊": 2196,
      "朋": 2197,
      "服": 2198,
      "朔": 2199,
      "朕": 2200,
      "朗": 2201,
      "望": 2202,
      "朝": 2203,
      "期": 2204,
      "朦": 2205,
      "木": 2206,
      "未": 2207,
      "末": 2208,
      "本": 2209,
      "札": 2210,
      "术": 2211,
      "朱": 2212,
      "朴": 2213,
      "朵": 2214,
      "机": 2215,
      "朽": 2216,
      "杀": 2217,
      "杂": 2218,
      "权": 2219,
      "杆": 2220,
      "杈": 2221,
      "杉": 2222,
      "李": 2223,
      "杏": 2224,
      "材": 2225,
      "村": 2226,
      "杓": 2227,
      "杖": 2228,
      "杜": 2229,
      "杞": 2230,
      "束": 2231,
      "杠": 2232,
      "条": 2233,
      "来": 2234,
      "杨": 2235,
      "杭": 2236,
      "杯": 2237,
      "杰": 2238,
      "杳": 2239,
      "杵": 2240,
      "杷": 2241,
      "杼": 2242,
      "松": 2243,
      "板": 2244,
      "极": 2245,
      "构": 2246,
      "枇": 2247,
      "枉": 2248,
      "析": 2249,
      "枕": 2250,
      "林": 2251,
      "枚": 2252,
      "果": 2253,
      "枝": 2254,
      "枢": 2255,
      "枣": 2256,
      "枥": 2257,
      "枪": 2258,
      "枫": 2259,
      "枭": 2260,
      "枯": 2261,
      "枰": 2262,
      "枳": 2263,
      "架": 2264,
      "枷": 2265,
      "柁": 2266,
      "柄": 2267,
      "柏": 2268,
      "某": 2269,
      "柒": 2270,
      "染": 2271,
      "柔": 2272,
      "柘": 2273,
      "柚": 2274,
      "柜": 2275,
      "柠": 2276,
      "柢": 2277,
      "查": 2278,
      "柩": 2279,
      "柬": 2280,
      "柯": 2281,
      "柱": 2282,
      "柳": 2283,
      "柴": 2284,
      "柿": 2285,
      "栅": 2286,
      "标": 2287,
      "栈": 2288,
      "栉": 2289,
      "栋": 2290,
      "栎": 2291,
      "栏": 2292,
      "树": 2293,
      "栓": 2294,
      "栖": 2295,
      "栗": 2296,
      "校": 2297,
      "栩": 2298,
      "株": 2299,
      "样": 2300,
      "核": 2301,
      "根": 2302,
      "格": 2303,
      "栽": 2304,
      "栾": 2305,
      "桀": 2306,
      "桂": 2307,
      "桃": 2308,
      "桅": 2309,
      "框": 2310,
      "案": 2311,
      "桉": 2312,
      "桌": 2313,
      "桎": 2314,
      "桐": 2315,
      "桑": 2316,
      "桓": 2317,
      "桔": 2318,
      "桠": 2319,
      "桡": 2320,
      "桢": 2321,
      "档": 2322,
      "桥": 2323,
      "桦": 2324,
      "桨": 2325,
      "桩": 2326,
      "桶": 2327,
      "桷": 2328,
      "梁": 2329,
      "梅": 2330,
      "梏": 2331,
      "梓": 2332,
      "梗": 2333,
      "梢": 2334,
      "梦": 2335,
      "梧": 2336,
      "梨": 2337,
      "梭": 2338,
      "梯": 2339,
      "械": 2340,
      "梳": 2341,
      "梵": 2342,
      "检": 2343,
      "棉": 2344,
      "棋": 2345,
      "棍": 2346,
      "棒": 2347,
      "棕": 2348,
      "棘": 2349,
      "棚": 2350,
      "棠": 2351,
      "棣": 2352,
      "森": 2353,
      "棱": 2354,
      "棵": 2355,
      "棹": 2356,
      "棺": 2357,
      "椅": 2358,
      "椋": 2359,
      "植": 2360,
      "椎": 2361,
      "椐": 2362,
      "椒": 2363,
      "椭": 2364,
      "椰": 2365,
      "椿": 2366,
      "楂": 2367,
      "楔": 2368,
      "楚": 2369,
      "楞": 2370,
      "楠": 2371,
      "楣": 2372,
      "楦": 2373,
      "楫": 2374,
      "楷": 2375,
      "楼": 2376,
      "榀": 2377,
      "概": 2378,
      "榄": 2379,
      "榆": 2380,
      "榈": 2381,
      "榔": 2382,
      "榕": 2383,
      "榛": 2384,
      "榜": 2385,
      "榨": 2386,
      "榭": 2387,
      "榴": 2388,
      "榷": 2389,
      "榻": 2390,
      "槁": 2391,
      "槌": 2392,
      "槎": 2393,
      "槐": 2394,
      "槛": 2395,
      "槟": 2396,
      "槽": 2397,
      "槿": 2398,
      "樊": 2399,
      "樟": 2400,
      "模": 2401,
      "樨": 2402,
      "横": 2403,
      "樯": 2404,
      "樱": 2405,
      "樵": 2406,
      "樽": 2407,
      "樾": 2408,
      "橄": 2409,
      "橇": 2410,
      "橐": 2411,
      "橘": 2412,
      "橙": 2413,
      "橡": 2414,
      "橱": 2415,
      "橹": 2416,
      "檀": 2417,
      "檄": 2418,
      "檐": 2419,
      "檬": 2420,
      "欠": 2421,
      "次": 2422,
      "欢": 2423,
      "欣": 2424,
      "欧": 2425,
      "欲": 2426,
      "欷": 2427,
      "欹": 2428,
      "欺": 2429,
      "款": 2430,
      "歆": 2431,
      "歇": 2432,
      "歉": 2433,
      "歌": 2434,
      "歙": 2435,
      "止": 2436,
      "正": 2437,
      "此": 2438,
      "步": 2439,
      "武": 2440,
      "歧": 2441,
      "歪": 2442,
      "歹": 2443,
      "死": 2444,
      "歼": 2445,
      "殃": 2446,
      "殆": 2447,
      "殇": 2448,
      "殉": 2449,
      "殊": 2450,
      "残": 2451,
      "殒": 2452,
      "殓": 2453,
      "殖": 2454,
      "殚": 2455,
      "殡": 2456,
      "殴": 2457,
      "段": 2458,
      "殷": 2459,
      "殿": 2460,
      "毁": 2461,
      "毅": 2462,
      "毋": 2463,
      "母": 2464,
      "每": 2465,
      "毒": 2466,
      "毓": 2467,
      "比": 2468,
      "毕": 2469,
      "毗": 2470,
      "毙": 2471,
      "毛": 2472,
      "毡": 2473,
      "毫": 2474,
      "毯": 2475,
      "毽": 2476,
      "氏": 2477,
      "民": 2478,
      "氓": 2479,
      "气": 2480,
      "氙": 2481,
      "氛": 2482,
      "氟": 2483,
      "氢": 2484,
      "氤": 2485,
      "氦": 2486,
      "氧": 2487,
      "氨": 2488,
      "氪": 2489,
      "氮": 2490,
      "氯": 2491,
      "氰": 2492,
      "氲": 2493,
      "水": 2494,
      "永": 2495,
      "汀": 2496,
      "汁": 2497,
      "求": 2498,
      "汇": 2499,
      "汉": 2500,
      "汐": 2501,
      "汕": 2502,
      "汗": 2503,
      "汛": 2504,
      "汝": 2505,
      "汞": 2506,
      "江": 2507,
      "池": 2508,
      "污": 2509,
      "汤": 2510,
      "汪": 2511,
      "汰": 2512,
      "汲": 2513,
      "汴": 2514,
      "汶": 2515,
      "汹": 2516,
      "汽": 2517,
      "汾": 2518,
      "沁": 2519,
      "沂": 2520,
      "沃": 2521,
      "沅": 2522,
      "沆": 2523,
      "沈": 2524,
      "沉": 2525,
      "沌": 2526,
      "沐": 2527,
      "沓": 2528,
      "沙": 2529,
      "沛": 2530,
      "沟": 2531,
      "没": 2532,
      "沣": 2533,
      "沥": 2534,
      "沦": 2535,
      "沧": 2536,
      "沩": 2537,
      "沪": 2538,
      "沫": 2539,
      "沮": 2540,
      "沱": 2541,
      "河": 2542,
      "沸": 2543,
      "油": 2544,
      "治": 2545,
      "沼": 2546,
      "沽": 2547,
      "沾": 2548,
      "沿": 2549,
      "泄": 2550,
      "泉": 2551,
      "泊": 2552,
      "泌": 2553,
      "泓": 2554,
      "法": 2555,
      "泗": 2556,
      "泛": 2557,
      "泞": 2558,
      "泡": 2559,
      "波": 2560,
      "泣": 2561,
      "泥": 2562,
      "注": 2563,
      "泪": 2564,
      "泯": 2565,
      "泰": 2566,
      "泱": 2567,
      "泳": 2568,
      "泵": 2569,
      "泷": 2570,
      "泸": 2571,
      "泻": 2572,
      "泼": 2573,
      "泽": 2574,
      "泾": 2575,
      "洁": 2576,
      "洋": 2577,
      "洒": 2578,
      "洗": 2579,
      "洙": 2580,
      "洛": 2581,
      "洞": 2582,
      "津": 2583,
      "洧": 2584,
      "洪": 2585,
      "洮": 2586,
      "洱": 2587,
      "洲": 2588,
      "洵": 2589,
      "活": 2590,
      "洼": 2591,
      "洽": 2592,
      "派": 2593,
      "流": 2594,
      "浃": 2595,
      "浅": 2596,
      "浆": 2597,
      "浇": 2598,
      "浊": 2599,
      "测": 2600,
      "济": 2601,
      "浏": 2602,
      "浑": 2603,
      "浒": 2604,
      "浓": 2605,
      "浔": 2606,
      "浙": 2607,
      "浚": 2608,
      "浜": 2609,
      "浣": 2610,
      "浦": 2611,
      "浩": 2612,
      "浪": 2613,
      "浮": 2614,
      "浴": 2615,
      "海": 2616,
      "浸": 2617,
      "涂": 2618,
      "涅": 2619,
      "消": 2620,
      "涉": 2621,
      "涌": 2622,
      "涎": 2623,
      "涓": 2624,
      "涕": 2625,
      "涛": 2626,
      "涝": 2627,
      "涟": 2628,
      "涡": 2629,
      "涣": 2630,
      "涤": 2631,
      "润": 2632,
      "涧": 2633,
      "涨": 2634,
      "涩": 2635,
      "涪": 2636,
      "涮": 2637,
      "涯": 2638,
      "液": 2639,
      "涵": 2640,
      "涸": 2641,
      "涿": 2642,
      "淀": 2643,
      "淄": 2644,
      "淅": 2645,
      "淆": 2646,
      "淇": 2647,
      "淋": 2648,
      "淌": 2649,
      "淑": 2650,
      "淖": 2651,
      "淘": 2652,
      "淙": 2653,
      "淞": 2654,
      "淡": 2655,
      "淤": 2656,
      "淦": 2657,
      "淫": 2658,
      "淬": 2659,
      "淮": 2660,
      "深": 2661,
      "淳": 2662,
      "混": 2663,
      "淹": 2664,
      "添": 2665,
      "淼": 2666,
      "清": 2667,
      "渊": 2668,
      "渍": 2669,
      "渎": 2670,
      "渐": 2671,
      "渔": 2672,
      "渗": 2673,
      "渝": 2674,
      "渠": 2675,
      "渡": 2676,
      "渣": 2677,
      "渤": 2678,
      "渥": 2679,
      "温": 2680,
      "渭": 2681,
      "港": 2682,
      "渲": 2683,
      "渴": 2684,
      "游": 2685,
      "渺": 2686,
      "湃": 2687,
      "湄": 2688,
      "湖": 2689,
      "湘": 2690,
      "湛": 2691,
      "湮": 2692,
      "湾": 2693,
      "湿": 2694,
      "溃": 2695,
      "溅": 2696,
      "溉": 2697,
      "溏": 2698,
      "源": 2699,
      "溘": 2700,
      "溜": 2701,
      "溟": 2702,
      "溢": 2703,
      "溥": 2704,
      "溪": 2705,
      "溯": 2706,
      "溱": 2707,
      "溴": 2708,
      "溶": 2709,
      "溺": 2710,
      "溽": 2711,
      "滂": 2712,
      "滇": 2713,
      "滋": 2714,
      "滑": 2715,
      "滓": 2716,
      "滔": 2717,
      "滕": 2718,
      "滚": 2719,
      "滞": 2720,
      "满": 2721,
      "滢": 2722,
      "滤": 2723,
      "滥": 2724,
      "滦": 2725,
      "滨": 2726,
      "滩": 2727,
      "滴": 2728,
      "漂": 2729,
      "漆": 2730,
      "漉": 2731,
      "漏": 2732,
      "漓": 2733,
      "演": 2734,
      "漕": 2735,
      "漠": 2736,
      "漩": 2737,
      "漪": 2738,
      "漫": 2739,
      "漯": 2740,
      "漱": 2741,
      "漳": 2742,
      "漾": 2743,
      "潇": 2744,
      "潍": 2745,
      "潘": 2746,
      "潜": 2747,
      "潞": 2748,
      "潢": 2749,
      "潦": 2750,
      "潭": 2751,
      "潮": 2752,
      "潸": 2753,
      "潺": 2754,
      "潼": 2755,
      "澄": 2756,
      "澈": 2757,
      "澍": 2758,
      "澎": 2759,
      "澜": 2760,
      "澡": 2761,
      "澳": 2762,
      "激": 2763,
      "濂": 2764,
      "濑": 2765,
      "濒": 2766,
      "濠": 2767,
      "濡": 2768,
      "濮": 2769,
      "濯": 2770,
      "瀑": 2771,
      "瀚": 2772,
      "瀛": 2773,
      "瀣": 2774,
      "灌": 2775,
      "灏": 2776,
      "灞": 2777,
      "火": 2778,
      "灭": 2779,
      "灯": 2780,
      "灰": 2781,
      "灵": 2782,
      "灶": 2783,
      "灸": 2784,
      "灼": 2785,
      "灾": 2786,
      "灿": 2787,
      "炀": 2788,
      "炅": 2789,
      "炉": 2790,
      "炊": 2791,
      "炎": 2792,
      "炒": 2793,
      "炖": 2794,
      "炙": 2795,
      "炜": 2796,
      "炫": 2797,
      "炬": 2798,
      "炭": 2799,
      "炮": 2800,
      "炯": 2801,
      "炳": 2802,
      "炷": 2803,
      "炸": 2804,
      "点": 2805,
      "炼": 2806,
      "炽": 2807,
      "烁": 2808,
      "烂": 2809,
      "烃": 2810,
      "烈": 2811,
      "烊": 2812,
      "烘": 2813,
      "烙": 2814,
      "烛": 2815,
      "烟": 2816,
      "烤": 2817,
      "烦": 2818,
      "烧": 2819,
      "烨": 2820,
      "烩": 2821,
      "烫": 2822,
      "烬": 2823,
      "热": 2824,
      "烯": 2825,
      "烷": 2826,
      "烹": 2827,
      "烽": 2828,
      "焉": 2829,
      "焊": 2830,
      "焕": 2831,
      "焚": 2832,
      "焦": 2833,
      "焯": 2834,
      "焰": 2835,
      "焱": 2836,
      "然": 2837,
      "煊": 2838,
      "煌": 2839,
      "煎": 2840,
      "煜": 2841,
      "煞": 2842,
      "煤": 2843,
      "煦": 2844,
      "照": 2845,
      "煮": 2846,
      "煲": 2847,
      "煽": 2848,
      "熄": 2849,
      "熊": 2850,
      "熏": 2851,
      "熔": 2852,
      "熙": 2853,
      "熟": 2854,
      "熠": 2855,
      "熨": 2856,
      "熬": 2857,
      "熹": 2858,
      "燃": 2859,
      "燎": 2860,
      "燕": 2861,
      "燥": 2862,
      "燧": 2863,
      "燮": 2864,
      "爆": 2865,
      "爪": 2866,
      "爬": 2867,
      "爱": 2868,
      "爵": 2869,
      "父": 2870,
      "爷": 2871,
      "爸": 2872,
      "爹": 2873,
      "爽": 2874,
      "片": 2875,
      "版": 2876,
      "牌": 2877,
      "牍": 2878,
      "牒": 2879,
      "牙": 2880,
      "牛": 2881,
      "牟": 2882,
      "牡": 2883,
      "牢": 2884,
      "牦": 2885,
      "牧": 2886,
      "物": 2887,
      "牲": 2888,
      "牵": 2889,
      "特": 2890,
      "牺": 2891,
      "犀": 2892,
      "犁": 2893,
      "犄": 2894,
      "犊": 2895,
      "犒": 2896,
      "犟": 2897,
      "犬": 2898,
      "犯": 2899,
      "状": 2900,
      "犷": 2901,
      "犹": 2902,
      "狂": 2903,
      "狄": 2904,
      "狈": 2905,
      "狐": 2906,
      "狒": 2907,
      "狗": 2908,
      "狙": 2909,
      "狞": 2910,
      "狠": 2911,
      "狡": 2912,
      "狩": 2913,
      "独": 2914,
      "狭": 2915,
      "狮": 2916,
      "狰": 2917,
      "狱": 2918,
      "狸": 2919,
      "狼": 2920,
      "猎": 2921,
      "猕": 2922,
      "猖": 2923,
      "猛": 2924,
      "猜": 2925,
      "猝": 2926,
      "猥": 2927,
      "猩": 2928,
      "猪": 2929,
      "猫": 2930,
      "猬": 2931,
      "献": 2932,
      "猴": 2933,
      "猷": 2934,
      "猾": 2935,
      "猿": 2936,
      "獐": 2937,
      "獒": 2938,
      "獗": 2939,
      "獠": 2940,
      "玄": 2941,
      "率": 2942,
      "玉": 2943,
      "王": 2944,
      "玑": 2945,
      "玖": 2946,
      "玛": 2947,
      "玟": 2948,
      "玩": 2949,
      "玫": 2950,
      "玮": 2951,
      "环": 2952,
      "现": 2953,
      "玲": 2954,
      "玷": 2955,
      "玺": 2956,
      "玻": 2957,
      "珀": 2958,
      "珂": 2959,
      "珈": 2960,
      "珉": 2961,
      "珊": 2962,
      "珍": 2963,
      "珏": 2964,
      "珑": 2965,
      "珙": 2966,
      "珞": 2967,
      "珠": 2968,
      "班": 2969,
      "珲": 2970,
      "球": 2971,
      "琅": 2972,
      "理": 2973,
      "琉": 2974,
      "琏": 2975,
      "琐": 2976,
      "琚": 2977,
      "琛": 2978,
      "琢": 2979,
      "琥": 2980,
      "琦": 2981,
      "琨": 2982,
      "琪": 2983,
      "琬": 2984,
      "琮": 2985,
      "琰": 2986,
      "琳": 2987,
      "琴": 2988,
      "琵": 2989,
      "琶": 2990,
      "琼": 2991,
      "瑕": 2992,
      "瑙": 2993,
      "瑚": 2994,
      "瑛": 2995,
      "瑜": 2996,
      "瑞": 2997,
      "瑟": 2998,
      "瑰": 2999,
      "瑶": 3000,
      "瑾": 3001,
      "璀": 3002,
      "璃": 3003,
      "璇": 3004,
      "璋": 3005,
      "璎": 3006,
      "璐": 3007,
      "璞": 3008,
      "璧": 3009,
      "璨": 3010,
      "瓒": 3011,
      "瓜": 3012,
      "瓢": 3013,
      "瓣": 3014,
      "瓦": 3015,
      "瓮": 3016,
      "瓴": 3017,
      "瓶": 3018,
      "瓷": 3019,
      "甄": 3020,
      "甘": 3021,
      "甚": 3022,
      "甜": 3023,
      "生": 3024,
      "甥": 3025,
      "用": 3026,
      "甩": 3027,
      "甫": 3028,
      "甬": 3029,
      "甭": 3030,
      "甯": 3031,
      "田": 3032,
      "由": 3033,
      "甲": 3034,
      "申": 3035,
      "电": 3036,
      "男": 3037,
      "甸": 3038,
      "町": 3039,
      "画": 3040,
      "畀": 3041,
      "畅": 3042,
      "界": 3043,
      "畏": 3044,
      "畔": 3045,
      "留": 3046,
      "畜": 3047,
      "略": 3048,
      "番": 3049,
      "畲": 3050,
      "畴": 3051,
      "畸": 3052,
      "畿": 3053,
      "疆": 3054,
      "疏": 3055,
      "疑": 3056,
      "疗": 3057,
      "疙": 3058,
      "疚": 3059,
      "疝": 3060,
      "疟": 3061,
      "疡": 3062,
      "疤": 3063,
      "疫": 3064,
      "疮": 3065,
      "疯": 3066,
      "疱": 3067,
      "疲": 3068,
      "疵": 3069,
      "疸": 3070,
      "疹": 3071,
      "疼": 3072,
      "疾": 3073,
      "病": 3074,
      "症": 3075,
      "痉": 3076,
      "痊": 3077,
      "痍": 3078,
      "痒": 3079,
      "痕": 3080,
      "痘": 3081,
      "痛": 3082,
      "痞": 3083,
      "痢": 3084,
      "痣": 3085,
      "痨": 3086,
      "痪": 3087,
      "痫": 3088,
      "痰": 3089,
      "痴": 3090,
      "痹": 3091,
      "痼": 3092,
      "瘀": 3093,
      "瘁": 3094,
      "瘅": 3095,
      "瘟": 3096,
      "瘠": 3097,
      "瘢": 3098,
      "瘤": 3099,
      "瘦": 3100,
      "瘩": 3101,
      "瘪": 3102,
      "瘫": 3103,
      "瘴": 3104,
      "瘸": 3105,
      "瘾": 3106,
      "癌": 3107,
      "癖": 3108,
      "癜": 3109,
      "癫": 3110,
      "癸": 3111,
      "登": 3112,
      "白": 3113,
      "百": 3114,
      "皂": 3115,
      "的": 3116,
      "皆": 3117,
      "皇": 3118,
      "皈": 3119,
      "皋": 3120,
      "皎": 3121,
      "皑": 3122,
      "皓": 3123,
      "皖": 3124,
      "皙": 3125,
      "皮": 3126,
      "皱": 3127,
      "皿": 3128,
      "盂": 3129,
      "盅": 3130,
      "盆": 3131,
      "盈": 3132,
      "益": 3133,
      "盎": 3134,
      "盏": 3135,
      "盐": 3136,
      "监": 3137,
      "盒": 3138,
      "盔": 3139,
      "盖": 3140,
      "盗": 3141,
      "盘": 3142,
      "盛": 3143,
      "盟": 3144,
      "目": 3145,
      "盯": 3146,
      "盲": 3147,
      "直": 3148,
      "相": 3149,
      "盹": 3150,
      "盼": 3151,
      "盾": 3152,
      "省": 3153,
      "眈": 3154,
      "眉": 3155,
      "看": 3156,
      "真": 3157,
      "眠": 3158,
      "眦": 3159,
      "眨": 3160,
      "眩": 3161,
      "眭": 3162,
      "眯": 3163,
      "眶": 3164,
      "眷": 3165,
      "眸": 3166,
      "眺": 3167,
      "眼": 3168,
      "着": 3169,
      "睁": 3170,
      "睇": 3171,
      "睐": 3172,
      "睚": 3173,
      "睛": 3174,
      "睡": 3175,
      "睢": 3176,
      "督": 3177,
      "睥": 3178,
      "睦": 3179,
      "睨": 3180,
      "睫": 3181,
      "睬": 3182,
      "睹": 3183,
      "睽": 3184,
      "睾": 3185,
      "睿": 3186,
      "瞄": 3187,
      "瞅": 3188,
      "瞌": 3189,
      "瞎": 3190,
      "瞑": 3191,
      "瞒": 3192,
      "瞟": 3193,
      "瞠": 3194,
      "瞥": 3195,
      "瞧": 3196,
      "瞩": 3197,
      "瞪": 3198,
      "瞬": 3199,
      "瞰": 3200,
      "瞳": 3201,
      "瞻": 3202,
      "瞿": 3203,
      "矍": 3204,
      "矗": 3205,
      "矛": 3206,
      "矜": 3207,
      "矢": 3208,
      "矣": 3209,
      "知": 3210,
      "矩": 3211,
      "矫": 3212,
      "矬": 3213,
      "短": 3214,
      "矮": 3215,
      "石": 3216,
      "矶": 3217,
      "矿": 3218,
      "码": 3219,
      "砂": 3220,
      "砌": 3221,
      "砍": 3222,
      "研": 3223,
      "砖": 3224,
      "砚": 3225,
      "砝": 3226,
      "砣": 3227,
      "砥": 3228,
      "砰": 3229,
      "破": 3230,
      "砸": 3231,
      "砺": 3232,
      "础": 3233,
      "硅": 3234,
      "硒": 3235,
      "硕": 3236,
      "硖": 3237,
      "硝": 3238,
      "硫": 3239,
      "硬": 3240,
      "确": 3241,
      "碌": 3242,
      "碍": 3243,
      "碎": 3244,
      "碑": 3245,
      "碗": 3246,
      "碘": 3247,
      "碚": 3248,
      "碜": 3249,
      "碟": 3250,
      "碣": 3251,
      "碧": 3252,
      "碰": 3253,
      "碱": 3254,
      "碳": 3255,
      "碴": 3256,
      "碾": 3257,
      "磁": 3258,
      "磅": 3259,
      "磊": 3260,
      "磋": 3261,
      "磐": 3262,
      "磕": 3263,
      "磨": 3264,
      "磷": 3265,
      "礁": 3266,
      "礴": 3267,
      "示": 3268,
      "礼": 3269,
      "社": 3270,
      "祀": 3271,
      "祁": 3272,
      "祈": 3273,
      "祖": 3274,
      "祚": 3275,
      "祛": 3276,
      "祝": 3277,
      "神": 3278,
      "祟": 3279,
      "祠": 3280,
      "祥": 3281,
      "票": 3282,
      "祭": 3283,
      "祯": 3284,
      "祷": 3285,
      "祸": 3286,
      "祺": 3287,
      "禀": 3288,
      "禁": 3289,
      "禄": 3290,
      "禅": 3291,
      "福": 3292,
      "禧": 3293,
      "禹": 3294,
      "禺": 3295,
      "离": 3296,
      "禽": 3297,
      "禾": 3298,
      "秀": 3299,
      "私": 3300,
      "秃": 3301,
      "秆": 3302,
      "秉": 3303,
      "秋": 3304,
      "种": 3305,
      "科": 3306,
      "秒": 3307,
      "秘": 3308,
      "租": 3309,
      "秣": 3310,
      "秤": 3311,
      "秦": 3312,
      "秧": 3313,
      "秩": 3314,
      "积": 3315,
      "称": 3316,
      "移": 3317,
      "秽": 3318,
      "稀": 3319,
      "程": 3320,
      "稍": 3321,
      "税": 3322,
      "稔": 3323,
      "稚": 3324,
      "稠": 3325,
      "稣": 3326,
      "稳": 3327,
      "稷": 3328,
      "稻": 3329,
      "稼": 3330,
      "稽": 3331,
      "稿": 3332,
      "穆": 3333,
      "穗": 3334,
      "穴": 3335,
      "究": 3336,
      "穷": 3337,
      "穹": 3338,
      "空": 3339,
      "穿": 3340,
      "突": 3341,
      "窃": 3342,
      "窄": 3343,
      "窈": 3344,
      "窍": 3345,
      "窑": 3346,
      "窒": 3347,
      "窕": 3348,
      "窖": 3349,
      "窗": 3350,
      "窘": 3351,
      "窜": 3352,
      "窝": 3353,
      "窟": 3354,
      "窠": 3355,
      "窥": 3356,
      "窦": 3357,
      "窿": 3358,
      "立": 3359,
      "竖": 3360,
      "站": 3361,
      "竞": 3362,
      "竟": 3363,
      "章": 3364,
      "竣": 3365,
      "童": 3366,
      "竭": 3367,
      "端": 3368,
      "竹": 3369,
      "竺": 3370,
      "竿": 3371,
      "笃": 3372,
      "笈": 3373,
      "笋": 3374,
      "笏": 3375,
      "笑": 3376,
      "笔": 3377,
      "笙": 3378,
      "笛": 3379,
      "笞": 3380,
      "笠": 3381,
      "笤": 3382,
      "符": 3383,
      "笨": 3384,
      "笫": 3385,
      "第": 3386,
      "笺": 3387,
      "笼": 3388,
      "筅": 3389,
      "等": 3390,
      "筋": 3391,
      "筐": 3392,
      "筑": 3393,
      "筒": 3394,
      "答": 3395,
      "策": 3396,
      "筛": 3397,
      "筝": 3398,
      "筠": 3399,
      "筱": 3400,
      "筵": 3401,
      "筷": 3402,
      "筹": 3403,
      "签": 3404,
      "简": 3405,
      "箍": 3406,
      "箐": 3407,
      "箔": 3408,
      "算": 3409,
      "管": 3410,
      "箩": 3411,
      "箫": 3412,
      "箭": 3413,
      "箱": 3414,
      "箴": 3415,
      "篆": 3416,
      "篇": 3417,
      "篑": 3418,
      "篓": 3419,
      "篙": 3420,
      "篝": 3421,
      "篡": 3422,
      "篮": 3423,
      "篱": 3424,
      "篷": 3425,
      "簇": 3426,
      "簋": 3427,
      "簧": 3428,
      "簪": 3429,
      "簸": 3430,
      "簿": 3431,
      "籁": 3432,
      "籍": 3433,
      "米": 3434,
      "类": 3435,
      "籼": 3436,
      "籽": 3437,
      "粉": 3438,
      "粒": 3439,
      "粕": 3440,
      "粗": 3441,
      "粘": 3442,
      "粟": 3443,
      "粤": 3444,
      "粥": 3445,
      "粪": 3446,
      "粮": 3447,
      "粱": 3448,
      "粲": 3449,
      "粳": 3450,
      "粹": 3451,
      "粼": 3452,
      "粽": 3453,
      "精": 3454,
      "糊": 3455,
      "糕": 3456,
      "糖": 3457,
      "糗": 3458,
      "糙": 3459,
      "糜": 3460,
      "糟": 3461,
      "糨": 3462,
      "糯": 3463,
      "系": 3464,
      "紊": 3465,
      "素": 3466,
      "索": 3467,
      "紧": 3468,
      "紫": 3469,
      "累": 3470,
      "絮": 3471,
      "綮": 3472,
      "繁": 3473,
      "纂": 3474,
      "纠": 3475,
      "红": 3476,
      "纤": 3477,
      "约": 3478,
      "级": 3479,
      "纨": 3480,
      "纪": 3481,
      "纫": 3482,
      "纬": 3483,
      "纭": 3484,
      "纯": 3485,
      "纰": 3486,
      "纱": 3487,
      "纲": 3488,
      "纳": 3489,
      "纵": 3490,
      "纶": 3491,
      "纷": 3492,
      "纸": 3493,
      "纹": 3494,
      "纺": 3495,
      "纽": 3496,
      "纾": 3497,
      "线": 3498,
      "练": 3499,
      "组": 3500,
      "绅": 3501,
      "细": 3502,
      "织": 3503,
      "终": 3504,
      "绊": 3505,
      "绌": 3506,
      "绍": 3507,
      "绎": 3508,
      "经": 3509,
      "绑": 3510,
      "绒": 3511,
      "结": 3512,
      "绔": 3513,
      "绕": 3514,
      "绘": 3515,
      "给": 3516,
      "绚": 3517,
      "绛": 3518,
      "络": 3519,
      "绝": 3520,
      "绞": 3521,
      "统": 3522,
      "绢": 3523,
      "绣": 3524,
      "绥": 3525,
      "继": 3526,
      "绩": 3527,
      "绪": 3528,
      "绫": 3529,
      "续": 3530,
      "绮": 3531,
      "绯": 3532,
      "绰": 3533,
      "绳": 3534,
      "维": 3535,
      "绵": 3536,
      "绶": 3537,
      "绷": 3538,
      "绸": 3539,
      "综": 3540,
      "绽": 3541,
      "绿": 3542,
      "缀": 3543,
      "缄": 3544,
      "缅": 3545,
      "缆": 3546,
      "缇": 3547,
      "缈": 3548,
      "缉": 3549,
      "缍": 3550,
      "缎": 3551,
      "缓": 3552,
      "缔": 3553,
      "缕": 3554,
      "编": 3555,
      "缘": 3556,
      "缙": 3557,
      "缚": 3558,
      "缛": 3559,
      "缜": 3560,
      "缝": 3561,
      "缠": 3562,
      "缢": 3563,
      "缤": 3564,
      "缥": 3565,
      "缨": 3566,
      "缩": 3567,
      "缪": 3568,
      "缭": 3569,
      "缮": 3570,
      "缰": 3571,
      "缴": 3572,
      "缸": 3573,
      "缺": 3574,
      "罂": 3575,
      "罄": 3576,
      "罅": 3577,
      "罐": 3578,
      "网": 3579,
      "罔": 3580,
      "罕": 3581,
      "罗": 3582,
      "罘": 3583,
      "罚": 3584,
      "罡": 3585,
      "罢": 3586,
      "罩": 3587,
      "罪": 3588,
      "置": 3589,
      "署": 3590,
      "罹": 3591,
      "羁": 3592,
      "羊": 3593,
      "羌": 3594,
      "美": 3595,
      "羔": 3596,
      "羚": 3597,
      "羞": 3598,
      "羟": 3599,
      "羡": 3600,
      "群": 3601,
      "羧": 3602,
      "羯": 3603,
      "羰": 3604,
      "羲": 3605,
      "羸": 3606,
      "羹": 3607,
      "羽": 3608,
      "羿": 3609,
      "翁": 3610,
      "翅": 3611,
      "翊": 3612,
      "翌": 3613,
      "翎": 3614,
      "翔": 3615,
      "翘": 3616,
      "翟": 3617,
      "翠": 3618,
      "翡": 3619,
      "翥": 3620,
      "翩": 3621,
      "翰": 3622,
      "翱": 3623,
      "翻": 3624,
      "翼": 3625,
      "耀": 3626,
      "老": 3627,
      "考": 3628,
      "耄": 3629,
      "者": 3630,
      "耆": 3631,
      "耋": 3632,
      "而": 3633,
      "耍": 3634,
      "耐": 3635,
      "耒": 3636,
      "耕": 3637,
      "耗": 3638,
      "耘": 3639,
      "耙": 3640,
      "耜": 3641,
      "耳": 3642,
      "耶": 3643,
      "耷": 3644,
      "耸": 3645,
      "耻": 3646,
      "耽": 3647,
      "耿": 3648,
      "聂": 3649,
      "聃": 3650,
      "聆": 3651,
      "聊": 3652,
      "聋": 3653,
      "职": 3654,
      "联": 3655,
      "聘": 3656,
      "聚": 3657,
      "聩": 3658,
      "聪": 3659,
      "聿": 3660,
      "肃": 3661,
      "肄": 3662,
      "肆": 3663,
      "肇": 3664,
      "肉": 3665,
      "肋": 3666,
      "肌": 3667,
      "肓": 3668,
      "肖": 3669,
      "肘": 3670,
      "肚": 3671,
      "肝": 3672,
      "肠": 3673,
      "股": 3674,
      "肢": 3675,
      "肤": 3676,
      "肥": 3677,
      "肩": 3678,
      "肪": 3679,
      "肮": 3680,
      "肯": 3681,
      "肱": 3682,
      "育": 3683,
      "肴": 3684,
      "肺": 3685,
      "肼": 3686,
      "肽": 3687,
      "肾": 3688,
      "肿": 3689,
      "胀": 3690,
      "胁": 3691,
      "胃": 3692,
      "胄": 3693,
      "胆": 3694,
      "背": 3695,
      "胍": 3696,
      "胎": 3697,
      "胖": 3698,
      "胚": 3699,
      "胜": 3700,
      "胞": 3701,
      "胡": 3702,
      "胤": 3703,
      "胥": 3704,
      "胧": 3705,
      "胪": 3706,
      "胫": 3707,
      "胭": 3708,
      "胯": 3709,
      "胰": 3710,
      "胱": 3711,
      "胳": 3712,
      "胶": 3713,
      "胸": 3714,
      "胺": 3715,
      "能": 3716,
      "脂": 3717,
      "脆": 3718,
      "脉": 3719,
      "脊": 3720,
      "脍": 3721,
      "脏": 3722,
      "脐": 3723,
      "脑": 3724,
      "脓": 3725,
      "脖": 3726,
      "脚": 3727,
      "脯": 3728,
      "脱": 3729,
      "脸": 3730,
      "脾": 3731,
      "腆": 3732,
      "腊": 3733,
      "腋": 3734,
      "腌": 3735,
      "腐": 3736,
      "腑": 3737,
      "腔": 3738,
      "腕": 3739,
      "腚": 3740,
      "腥": 3741,
      "腩": 3742,
      "腭": 3743,
      "腮": 3744,
      "腰": 3745,
      "腱": 3746,
      "腴": 3747,
      "腹": 3748,
      "腺": 3749,
      "腻": 3750,
      "腼": 3751,
      "腾": 3752,
      "腿": 3753,
      "膀": 3754,
      "膈": 3755,
      "膊": 3756,
      "膏": 3757,
      "膑": 3758,
      "膘": 3759,
      "膛": 3760,
      "膜": 3761,
      "膝": 3762,
      "膨": 3763,
      "膳": 3764,
      "膺": 3765,
      "臀": 3766,
      "臂": 3767,
      "臃": 3768,
      "臆": 3769,
      "臣": 3770,
      "臧": 3771,
      "自": 3772,
      "臭": 3773,
      "至": 3774,
      "致": 3775,
      "臻": 3776,
      "臼": 3777,
      "舀": 3778,
      "舂": 3779,
      "舅": 3780,
      "舆": 3781,
      "舌": 3782,
      "舍": 3783,
      "舐": 3784,
      "舒": 3785,
      "舔": 3786,
      "舛": 3787,
      "舜": 3788,
      "舞": 3789,
      "舟": 3790,
      "航": 3791,
      "舫": 3792,
      "般": 3793,
      "舰": 3794,
      "舱": 3795,
      "舵": 3796,
      "舶": 3797,
      "舸": 3798,
      "船": 3799,
      "艇": 3800,
      "艋": 3801,
      "艘": 3802,
      "良": 3803,
      "艰": 3804,
      "色": 3805,
      "艳": 3806,
      "艺": 3807,
      "艾": 3808,
      "节": 3809,
      "芈": 3810,
      "芊": 3811,
      "芋": 3812,
      "芒": 3813,
      "芙": 3814,
      "芜": 3815,
      "芝": 3816,
      "芟": 3817,
      "芥": 3818,
      "芦": 3819,
      "芫": 3820,
      "芬": 3821,
      "芭": 3822,
      "芮": 3823,
      "芯": 3824,
      "花": 3825,
      "芳": 3826,
      "芷": 3827,
      "芸": 3828,
      "芹": 3829,
      "芽": 3830,
      "苇": 3831,
      "苍": 3832,
      "苏": 3833,
      "苑": 3834,
      "苒": 3835,
      "苓": 3836,
      "苔": 3837,
      "苗": 3838,
      "苛": 3839,
      "苞": 3840,
      "苟": 3841,
      "若": 3842,
      "苦": 3843,
      "苯": 3844,
      "英": 3845,
      "苷": 3846,
      "苹": 3847,
      "茁": 3848,
      "茂": 3849,
      "范": 3850,
      "茄": 3851,
      "茅": 3852,
      "茆": 3853,
      "茉": 3854,
      "茎": 3855,
      "茏": 3856,
      "茗": 3857,
      "茜": 3858,
      "茧": 3859,
      "茨": 3860,
      "茫": 3861,
      "茬": 3862,
      "茱": 3863,
      "茴": 3864,
      "茵": 3865,
      "茶": 3866,
      "茸": 3867,
      "茹": 3868,
      "荀": 3869,
      "荃": 3870,
      "荆": 3871,
      "草": 3872,
      "荏": 3873,
      "荐": 3874,
      "荒": 3875,
      "荔": 3876,
      "荚": 3877,
      "荞": 3878,
      "荟": 3879,
      "荡": 3880,
      "荣": 3881,
      "荤": 3882,
      "荦": 3883,
      "荧": 3884,
      "荨": 3885,
      "荪": 3886,
      "荫": 3887,
      "荭": 3888,
      "药": 3889,
      "荷": 3890,
      "荻": 3891,
      "荼": 3892,
      "莅": 3893,
      "莆": 3894,
      "莉": 3895,
      "莎": 3896,
      "莒": 3897,
      "莓": 3898,
      "莘": 3899,
      "莜": 3900,
      "莞": 3901,
      "莠": 3902,
      "莫": 3903,
      "莱": 3904,
      "莲": 3905,
      "莳": 3906,
      "获": 3907,
      "莹": 3908,
      "莺": 3909,
      "莽": 3910,
      "菀": 3911,
      "菁": 3912,
      "菅": 3913,
      "菇": 3914,
      "菊": 3915,
      "菌": 3916,
      "菏": 3917,
      "菖": 3918,
      "菘": 3919,
      "菜": 3920,
      "菟": 3921,
      "菠": 3922,
      "菡": 3923,
      "菩": 3924,
      "菱": 3925,
      "菲": 3926,
      "萁": 3927,
      "萃": 3928,
      "萄": 3929,
      "萌": 3930,
      "萍": 3931,
      "萎": 3932,
      "萝": 3933,
      "萤": 3934,
      "营": 3935,
      "萦": 3936,
      "萧": 3937,
      "萨": 3938,
      "萱": 3939,
      "萸": 3940,
      "落": 3941,
      "葆": 3942,
      "著": 3943,
      "葛": 3944,
      "葡": 3945,
      "董": 3946,
      "葩": 3947,
      "葫": 3948,
      "葬": 3949,
      "葭": 3950,
      "葱": 3951,
      "葳": 3952,
      "葵": 3953,
      "蒂": 3954,
      "蒋": 3955,
      "蒙": 3956,
      "蒜": 3957,
      "蒲": 3958,
      "蒸": 3959,
      "蒹": 3960,
      "蒿": 3961,
      "蓄": 3962,
      "蓉": 3963,
      "蓑": 3964,
      "蓓": 3965,
      "蓝": 3966,
      "蓠": 3967,
      "蓦": 3968,
      "蓬": 3969,
      "蔑": 3970,
      "蔓": 3971,
      "蔗": 3972,
      "蔚": 3973,
      "蔡": 3974,
      "蔫": 3975,
      "蔬": 3976,
      "蔷": 3977,
      "蔺": 3978,
      "蔻": 3979,
      "蔼": 3980,
      "蔽": 3981,
      "蕉": 3982,
      "蕊": 3983,
      "蕙": 3984,
      "蕤": 3985,
      "蕲": 3986,
      "蕴": 3987,
      "蕾": 3988,
      "薄": 3989,
      "薇": 3990,
      "薏": 3991,
      "薛": 3992,
      "薜": 3993,
      "薪": 3994,
      "薯": 3995,
      "薰": 3996,
      "藁": 3997,
      "藉": 3998,
      "藏": 3999,
      "藐": 4000,
      "藕": 4001,
      "藤": 4002,
      "藩": 4003,
      "藻": 4004,
      "蘅": 4005,
      "蘑": 4006,
      "蘖": 4007,
      "蘸": 4008,
      "虎": 4009,
      "虏": 4010,
      "虐": 4011,
      "虑": 4012,
      "虔": 4013,
      "虚": 4014,
      "虞": 4015,
      "虫": 4016,
      "虬": 4017,
      "虹": 4018,
      "虻": 4019,
      "虽": 4020,
      "虾": 4021,
      "蚀": 4022,
      "蚁": 4023,
      "蚂": 4024,
      "蚊": 4025,
      "蚌": 4026,
      "蚓": 4027,
      "蚕": 4028,
      "蚜": 4029,
      "蚤": 4030,
      "蚩": 4031,
      "蚱": 4032,
      "蚵": 4033,
      "蛀": 4034,
      "蛇": 4035,
      "蛉": 4036,
      "蛊": 4037,
      "蛋": 4038,
      "蛙": 4039,
      "蛛": 4040,
      "蛟": 4041,
      "蛤": 4042,
      "蛮": 4043,
      "蛰": 4044,
      "蛹": 4045,
      "蜀": 4046,
      "蜂": 4047,
      "蜃": 4048,
      "蜇": 4049,
      "蜒": 4050,
      "蜓": 4051,
      "蜕": 4052,
      "蜗": 4053,
      "蜘": 4054,
      "蜚": 4055,
      "蜜": 4056,
      "蜡": 4057,
      "蜢": 4058,
      "蜥": 4059,
      "蜴": 4060,
      "蜷": 4061,
      "蜻": 4062,
      "蜿": 4063,
      "蝇": 4064,
      "蝉": 4065,
      "蝎": 4066,
      "蝙": 4067,
      "蝠": 4068,
      "蝴": 4069,
      "蝶": 4070,
      "螂": 4071,
      "螃": 4072,
      "融": 4073,
      "螯": 4074,
      "螳": 4075,
      "螺": 4076,
      "蟆": 4077,
      "蟒": 4078,
      "蟹": 4079,
      "蟾": 4080,
      "蠕": 4081,
      "蠡": 4082,
      "蠢": 4083,
      "蠲": 4084,
      "血": 4085,
      "衅": 4086,
      "行": 4087,
      "衍": 4088,
      "衔": 4089,
      "街": 4090,
      "衙": 4091,
      "衡": 4092,
      "衢": 4093,
      "衣": 4094,
      "补": 4095,
      "表": 4096,
      "衩": 4097,
      "衫": 4098,
      "衬": 4099,
      "衰": 4100,
      "衷": 4101,
      "衿": 4102,
      "袁": 4103,
      "袂": 4104,
      "袄": 4105,
      "袅": 4106,
      "袈": 4107,
      "袋": 4108,
      "袍": 4109,
      "袒": 4110,
      "袖": 4111,
      "袜": 4112,
      "袤": 4113,
      "被": 4114,
      "袭": 4115,
      "袱": 4116,
      "裁": 4117,
      "裂": 4118,
      "装": 4119,
      "裆": 4120,
      "裎": 4121,
      "裔": 4122,
      "裕": 4123,
      "裘": 4124,
      "裙": 4125,
      "裟": 4126,
      "裤": 4127,
      "裨": 4128,
      "裱": 4129,
      "裳": 4130,
      "裴": 4131,
      "裸": 4132,
      "裹": 4133,
      "裾": 4134,
      "褂": 4135,
      "褐": 4136,
      "褒": 4137,
      "褓": 4138,
      "褚": 4139,
      "褛": 4140,
      "褥": 4141,
      "褪": 4142,
      "褫": 4143,
      "褶": 4144,
      "襁": 4145,
      "襄": 4146,
      "襟": 4147,
      "西": 4148,
      "要": 4149,
      "覃": 4150,
      "覆": 4151,
      "见": 4152,
      "观": 4153,
      "规": 4154,
      "觅": 4155,
      "视": 4156,
      "览": 4157,
      "觉": 4158,
      "觊": 4159,
      "觎": 4160,
      "觐": 4161,
      "觑": 4162,
      "角": 4163,
      "觚": 4164,
      "解": 4165,
      "觥": 4166,
      "触": 4167,
      "言": 4168,
      "訾": 4169,
      "詹": 4170,
      "誉": 4171,
      "誊": 4172,
      "誓": 4173,
      "警": 4174,
      "譬": 4175,
      "计": 4176,
      "订": 4177,
      "讣": 4178,
      "认": 4179,
      "讥": 4180,
      "讧": 4181,
      "讨": 4182,
      "让": 4183,
      "讪": 4184,
      "讫": 4185,
      "训": 4186,
      "议": 4187,
      "讯": 4188,
      "记": 4189,
      "讲": 4190,
      "讳": 4191,
      "讴": 4192,
      "讶": 4193,
      "讷": 4194,
      "许": 4195,
      "讹": 4196,
      "论": 4197,
      "讼": 4198,
      "讽": 4199,
      "设": 4200,
      "访": 4201,
      "诀": 4202,
      "证": 4203,
      "诃": 4204,
      "评": 4205,
      "诅": 4206,
      "识": 4207,
      "诈": 4208,
      "诉": 4209,
      "诊": 4210,
      "诋": 4211,
      "词": 4212,
      "诏": 4213,
      "译": 4214,
      "试": 4215,
      "诗": 4216,
      "诘": 4217,
      "诙": 4218,
      "诚": 4219,
      "诛": 4220,
      "话": 4221,
      "诞": 4222,
      "诟": 4223,
      "诠": 4224,
      "诡": 4225,
      "询": 4226,
      "诣": 4227,
      "该": 4228,
      "详": 4229,
      "诧": 4230,
      "诨": 4231,
      "诩": 4232,
      "诫": 4233,
      "诬": 4234,
      "语": 4235,
      "误": 4236,
      "诱": 4237,
      "诲": 4238,
      "说": 4239,
      "诵": 4240,
      "诶": 4241,
      "请": 4242,
      "诸": 4243,
      "诺": 4244,
      "读": 4245,
      "诽": 4246,
      "课": 4247,
      "诿": 4248,
      "谀": 4249,
      "谁": 4250,
      "谂": 4251,
      "调": 4252,
      "谅": 4253,
      "谆": 4254,
      "谈": 4255,
      "谊": 4256,
      "谋": 4257,
      "谌": 4258,
      "谍": 4259,
      "谎": 4260,
      "谏": 4261,
      "谐": 4262,
      "谑": 4263,
      "谒": 4264,
      "谓": 4265,
      "谕": 4266,
      "谘": 4267,
      "谙": 4268,
      "谚": 4269,
      "谛": 4270,
      "谜": 4271,
      "谟": 4272,
      "谡": 4273,
      "谢": 4274,
      "谣": 4275,
      "谤": 4276,
      "谦": 4277,
      "谧": 4278,
      "谨": 4279,
      "谩": 4280,
      "谪": 4281,
      "谬": 4282,
      "谭": 4283,
      "谰": 4284,
      "谱": 4285,
      "谲": 4286,
      "谴": 4287,
      "谶": 4288,
      "谷": 4289,
      "豁": 4290,
      "豆": 4291,
      "豉": 4292,
      "豌": 4293,
      "豚": 4294,
      "象": 4295,
      "豪": 4296,
      "豫": 4297,
      "豹": 4298,
      "貂": 4299,
      "貌": 4300,
      "贝": 4301,
      "贞": 4302,
      "负": 4303,
      "贡": 4304,
      "财": 4305,
      "责": 4306,
      "贤": 4307,
      "败": 4308,
      "账": 4309,
      "货": 4310,
      "质": 4311,
      "贩": 4312,
      "贪": 4313,
      "贫": 4314,
      "贬": 4315,
      "购": 4316,
      "贮": 4317,
      "贯": 4318,
      "贰": 4319,
      "贱": 4320,
      "贲": 4321,
      "贴": 4322,
      "贵": 4323,
      "贷": 4324,
      "贸": 4325,
      "费": 4326,
      "贺": 4327,
      "贻": 4328,
      "贼": 4329,
      "贾": 4330,
      "贿": 4331,
      "赁": 4332,
      "赂": 4333,
      "赃": 4334,
      "资": 4335,
      "赅": 4336,
      "赈": 4337,
      "赊": 4338,
      "赋": 4339,
      "赌": 4340,
      "赎": 4341,
      "赏": 4342,
      "赐": 4343,
      "赓": 4344,
      "赔": 4345,
      "赖": 4346,
      "赘": 4347,
      "赚": 4348,
      "赛": 4349,
      "赜": 4350,
      "赝": 4351,
      "赞": 4352,
      "赠": 4353,
      "赡": 4354,
      "赢": 4355,
      "赣": 4356,
      "赤": 4357,
      "赦": 4358,
      "赫": 4359,
      "走": 4360,
      "赴": 4361,
      "赵": 4362,
      "赶": 4363,
      "起": 4364,
      "趁": 4365,
      "超": 4366,
      "越": 4367,
      "趋": 4368,
      "趟": 4369,
      "趣": 4370,
      "足": 4371,
      "趴": 4372,
      "趸": 4373,
      "趾": 4374,
      "跃": 4375,
      "跄": 4376,
      "跆": 4377,
      "跋": 4378,
      "跌": 4379,
      "跎": 4380,
      "跑": 4381,
      "跖": 4382,
      "跚": 4383,
      "跛": 4384,
      "距": 4385,
      "跟": 4386,
      "跤": 4387,
      "跨": 4388,
      "跪": 4389,
      "跬": 4390,
      "路": 4391,
      "跳": 4392,
      "践": 4393,
      "跷": 4394,
      "跺": 4395,
      "跻": 4396,
      "踉": 4397,
      "踊": 4398,
      "踌": 4399,
      "踏": 4400,
      "踝": 4401,
      "踞": 4402,
      "踢": 4403,
      "踩": 4404,
      "踪": 4405,
      "踮": 4406,
      "踯": 4407,
      "踱": 4408,
      "踵": 4409,
      "踹": 4410,
      "踽": 4411,
      "蹀": 4412,
      "蹂": 4413,
      "蹄": 4414,
      "蹇": 4415,
      "蹈": 4416,
      "蹉": 4417,
      "蹊": 4418,
      "蹋": 4419,
      "蹑": 4420,
      "蹒": 4421,
      "蹙": 4422,
      "蹦": 4423,
      "蹩": 4424,
      "蹬": 4425,
      "蹭": 4426,
      "蹲": 4427,
      "蹴": 4428,
      "蹶": 4429,
      "蹿": 4430,
      "躁": 4431,
      "躅": 4432,
      "躇": 4433,
      "躏": 4434,
      "躞": 4435,
      "身": 4436,
      "躬": 4437,
      "躯": 4438,
      "躲": 4439,
      "躺": 4440,
      "车": 4441,
      "轧": 4442,
      "轨": 4443,
      "轩": 4444,
      "轫": 4445,
      "转": 4446,
      "轭": 4447,
      "轮": 4448,
      "软": 4449,
      "轰": 4450,
      "轱": 4451,
      "轲": 4452,
      "轴": 4453,
      "轶": 4454,
      "轻": 4455,
      "轼": 4456,
      "载": 4457,
      "轿": 4458,
      "较": 4459,
      "辄": 4460,
      "辅": 4461,
      "辆": 4462,
      "辇": 4463,
      "辈": 4464,
      "辉": 4465,
      "辍": 4466,
      "辎": 4467,
      "辐": 4468,
      "辑": 4469,
      "输": 4470,
      "辕": 4471,
      "辖": 4472,
      "辗": 4473,
      "辘": 4474,
      "辙": 4475,
      "辛": 4476,
      "辜": 4477,
      "辞": 4478,
      "辟": 4479,
      "辣": 4480,
      "辨": 4481,
      "辩": 4482,
      "辫": 4483,
      "辰": 4484,
      "辱": 4485,
      "边": 4486,
      "辽": 4487,
      "达": 4488,
      "迁": 4489,
      "迂": 4490,
      "迄": 4491,
      "迅": 4492,
      "过": 4493,
      "迈": 4494,
      "迎": 4495,
      "运": 4496,
      "近": 4497,
      "返": 4498,
      "还": 4499,
      "这": 4500,
      "进": 4501,
      "远": 4502,
      "违": 4503,
      "连": 4504,
      "迟": 4505,
      "迢": 4506,
      "迤": 4507,
      "迥": 4508,
      "迦": 4509,
      "迩": 4510,
      "迪": 4511,
      "迫": 4512,
      "迭": 4513,
      "述": 4514,
      "迷": 4515,
      "迸": 4516,
      "迹": 4517,
      "追": 4518,
      "退": 4519,
      "送": 4520,
      "适": 4521,
      "逃": 4522,
      "逄": 4523,
      "逅": 4524,
      "逆": 4525,
      "选": 4526,
      "逊": 4527,
      "逋": 4528,
      "逍": 4529,
      "透": 4530,
      "逐": 4531,
      "递": 4532,
      "途": 4533,
      "逖": 4534,
      "逗": 4535,
      "通": 4536,
      "逛": 4537,
      "逝": 4538,
      "逞": 4539,
      "速": 4540,
      "造": 4541,
      "逢": 4542,
      "逦": 4543,
      "逮": 4544,
      "逯": 4545,
      "逵": 4546,
      "逶": 4547,
      "逸": 4548,
      "逻": 4549,
      "逼": 4550,
      "逾": 4551,
      "遁": 4552,
      "遂": 4553,
      "遇": 4554,
      "遍": 4555,
      "遏": 4556,
      "遐": 4557,
      "遑": 4558,
      "遒": 4559,
      "道": 4560,
      "遗": 4561,
      "遛": 4562,
      "遢": 4563,
      "遣": 4564,
      "遥": 4565,
      "遨": 4566,
      "遭": 4567,
      "遮": 4568,
      "遴": 4569,
      "遵": 4570,
      "遽": 4571,
      "避": 4572,
      "邀": 4573,
      "邂": 4574,
      "邃": 4575,
      "邈": 4576,
      "邋": 4577,
      "邑": 4578,
      "邓": 4579,
      "邛": 4580,
      "邝": 4581,
      "邡": 4582,
      "邢": 4583,
      "那": 4584,
      "邦": 4585,
      "邪": 4586,
      "邬": 4587,
      "邮": 4588,
      "邯": 4589,
      "邰": 4590,
      "邱": 4591,
      "邵": 4592,
      "邸": 4593,
      "邹": 4594,
      "邺": 4595,
      "邻": 4596,
      "郁": 4597,
      "郅": 4598,
      "郇": 4599,
      "郊": 4600,
      "郎": 4601,
      "郑": 4602,
      "郜": 4603,
      "郝": 4604,
      "郡": 4605,
      "郦": 4606,
      "郧": 4607,
      "部": 4608,
      "郫": 4609,
      "郭": 4610,
      "郴": 4611,
      "郸": 4612,
      "都": 4613,
      "鄂": 4614,
      "鄄": 4615,
      "鄙": 4616,
      "鄞": 4617,
      "鄢": 4618,
      "鄯": 4619,
      "酊": 4620,
      "酋": 4621,
      "酌": 4622,
      "配": 4623,
      "酒": 4624,
      "酗": 4625,
      "酝": 4626,
      "酣": 4627,
      "酥": 4628,
      "酩": 4629,
      "酪": 4630,
      "酬": 4631,
      "酮": 4632,
      "酯": 4633,
      "酰": 4634,
      "酱": 4635,
      "酵": 4636,
      "酶": 4637,
      "酷": 4638,
      "酸": 4639,
      "酿": 4640,
      "醇": 4641,
      "醉": 4642,
      "醋": 4643,
      "醒": 4644,
      "醚": 4645,
      "醛": 4646,
      "醺": 4647,
      "采": 4648,
      "釉": 4649,
      "释": 4650,
      "里": 4651,
      "重": 4652,
      "野": 4653,
      "量": 4654,
      "金": 4655,
      "釜": 4656,
      "鉴": 4657,
      "銮": 4658,
      "鏖": 4659,
      "鑫": 4660,
      "钆": 4661,
      "钇": 4662,
      "针": 4663,
      "钉": 4664,
      "钊": 4665,
      "钐": 4666,
      "钒": 4667,
      "钓": 4668,
      "钕": 4669,
      "钗": 4670,
      "钙": 4671,
      "钚": 4672,
      "钛": 4673,
      "钝": 4674,
      "钞": 4675,
      "钟": 4676,
      "钠": 4677,
      "钢": 4678,
      "钥": 4679,
      "钦": 4680,
      "钧": 4681,
      "钨": 4682,
      "钩": 4683,
      "钬": 4684,
      "钮": 4685,
      "钯": 4686,
      "钰": 4687,
      "钱": 4688,
      "钲": 4689,
      "钳": 4690,
      "钴": 4691,
      "钵": 4692,
      "钷": 4693,
      "钻": 4694,
      "钾": 4695,
      "铁": 4696,
      "铂": 4697,
      "铃": 4698,
      "铄": 4699,
      "铅": 4700,
      "铆": 4701,
      "铈": 4702,
      "铉": 4703,
      "铎": 4704,
      "铐": 4705,
      "铒": 4706,
      "铕": 4707,
      "铛": 4708,
      "铜": 4709,
      "铝": 4710,
      "铠": 4711,
      "铢": 4712,
      "铤": 4713,
      "铥": 4714,
      "铨": 4715,
      "铩": 4716,
      "铬": 4717,
      "铭": 4718,
      "铮": 4719,
      "铰": 4720,
      "铲": 4721,
      "铵": 4722,
      "银": 4723,
      "铸": 4724,
      "铺": 4725,
      "铼": 4726,
      "铽": 4727,
      "链": 4728,
      "铿": 4729,
      "销": 4730,
      "锁": 4731,
      "锂": 4732,
      "锃": 4733,
      "锄": 4734,
      "锅": 4735,
      "锆": 4736,
      "锈": 4737,
      "锉": 4738,
      "锋": 4739,
      "锌": 4740,
      "锏": 4741,
      "锐": 4742,
      "锒": 4743,
      "锗": 4744,
      "错": 4745,
      "锚": 4746,
      "锝": 4747,
      "锟": 4748,
      "锡": 4749,
      "锢": 4750,
      "锣": 4751,
      "锤": 4752,
      "锥": 4753,
      "锦": 4754,
      "锭": 4755,
      "键": 4756,
      "锯": 4757,
      "锰": 4758,
      "锲": 4759,
      "锴": 4760,
      "锵": 4761,
      "锷": 4762,
      "锹": 4763,
      "锺": 4764,
      "锻": 4765,
      "镀": 4766,
      "镁": 4767,
      "镂": 4768,
      "镇": 4769,
      "镌": 4770,
      "镍": 4771,
      "镐": 4772,
      "镑": 4773,
      "镓": 4774,
      "镖": 4775,
      "镛": 4776,
      "镜": 4777,
      "镝": 4778,
      "镣": 4779,
      "镥": 4780,
      "镧": 4781,
      "镨": 4782,
      "镭": 4783,
      "镯": 4784,
      "镰": 4785,
      "镱": 4786,
      "镳": 4787,
      "镶": 4788,
      "长": 4789,
      "门": 4790,
      "闪": 4791,
      "闫": 4792,
      "闭": 4793,
      "问": 4794,
      "闯": 4795,
      "闱": 4796,
      "闲": 4797,
      "间": 4798,
      "闵": 4799,
      "闷": 4800,
      "闸": 4801,
      "闹": 4802,
      "闺": 4803,
      "闻": 4804,
      "闽": 4805,
      "阀": 4806,
      "阁": 4807,
      "阂": 4808,
      "阄": 4809,
      "阅": 4810,
      "阈": 4811,
      "阉": 4812,
      "阋": 4813,
      "阎": 4814,
      "阐": 4815,
      "阑": 4816,
      "阔": 4817,
      "阕": 4818,
      "阖": 4819,
      "阙": 4820,
      "阚": 4821,
      "阜": 4822,
      "队": 4823,
      "阡": 4824,
      "阪": 4825,
      "阮": 4826,
      "阱": 4827,
      "防": 4828,
      "阳": 4829,
      "阴": 4830,
      "阵": 4831,
      "阶": 4832,
      "阻": 4833,
      "阿": 4834,
      "陀": 4835,
      "陂": 4836,
      "附": 4837,
      "际": 4838,
      "陆": 4839,
      "陇": 4840,
      "陈": 4841,
      "陋": 4842,
      "陌": 4843,
      "降": 4844,
      "限": 4845,
      "陕": 4846,
      "陛": 4847,
      "陡": 4848,
      "院": 4849,
      "除": 4850,
      "陨": 4851,
      "险": 4852,
      "陪": 4853,
      "陲": 4854,
      "陵": 4855,
      "陶": 4856,
      "陷": 4857,
      "隅": 4858,
      "隆": 4859,
      "隋": 4860,
      "隍": 4861,
      "随": 4862,
      "隐": 4863,
      "隔": 4864,
      "隗": 4865,
      "隘": 4866,
      "隙": 4867,
      "障": 4868,
      "隧": 4869,
      "隶": 4870,
      "隼": 4871,
      "隽": 4872,
      "难": 4873,
      "雀": 4874,
      "雁": 4875,
      "雄": 4876,
      "雅": 4877,
      "集": 4878,
      "雇": 4879,
      "雉": 4880,
      "雌": 4881,
      "雍": 4882,
      "雎": 4883,
      "雏": 4884,
      "雕": 4885,
      "雨": 4886,
      "雪": 4887,
      "雯": 4888,
      "雳": 4889,
      "零": 4890,
      "雷": 4891,
      "雹": 4892,
      "雾": 4893,
      "需": 4894,
      "霁": 4895,
      "霄": 4896,
      "霆": 4897,
      "震": 4898,
      "霈": 4899,
      "霉": 4900,
      "霍": 4901,
      "霎": 4902,
      "霏": 4903,
      "霓": 4904,
      "霖": 4905,
      "霜": 4906,
      "霞": 4907,
      "霭": 4908,
      "霰": 4909,
      "露": 4910,
      "霸": 4911,
      "霹": 4912,
      "霾": 4913,
      "青": 4914,
      "靓": 4915,
      "靖": 4916,
      "静": 4917,
      "非": 4918,
      "靠": 4919,
      "靡": 4920,
      "面": 4921,
      "靥": 4922,
      "革": 4923,
      "靳": 4924,
      "靴": 4925,
      "靶": 4926,
      "鞋": 4927,
      "鞍": 4928,
      "鞘": 4929,
      "鞠": 4930,
      "鞭": 4931,
      "韦": 4932,
      "韧": 4933,
      "韩": 4934,
      "韪": 4935,
      "韫": 4936,
      "韬": 4937,
      "音": 4938,
      "韵": 4939,
      "韶": 4940,
      "页": 4941,
      "顶": 4942,
      "顷": 4943,
      "项": 4944,
      "顺": 4945,
      "须": 4946,
      "顽": 4947,
      "顾": 4948,
      "顿": 4949,
      "颁": 4950,
      "颂": 4951,
      "预": 4952,
      "颅": 4953,
      "领": 4954,
      "颇": 4955,
      "颈": 4956,
      "颉": 4957,
      "颊": 4958,
      "颌": 4959,
      "颐": 4960,
      "频": 4961,
      "颓": 4962,
      "颖": 4963,
      "颗": 4964,
      "题": 4965,
      "颜": 4966,
      "额": 4967,
      "颠": 4968,
      "颢": 4969,
      "颤": 4970,
      "颦": 4971,
      "风": 4972,
      "飒": 4973,
      "飓": 4974,
      "飕": 4975,
      "飘": 4976,
      "飙": 4977,
      "飚": 4978,
      "飞": 4979,
      "食": 4980,
      "飨": 4981,
      "餐": 4982,
      "餮": 4983,
      "饕": 4984,
      "饥": 4985,
      "饨": 4986,
      "饪": 4987,
      "饭": 4988,
      "饮": 4989,
      "饯": 4990,
      "饰": 4991,
      "饱": 4992,
      "饲": 4993,
      "饴": 4994,
      "饵": 4995,
      "饶": 4996,
      "饺": 4997,
      "饼": 4998,
      "饽": 4999,
      "饿": 5000,
      "馁": 5001,
      "馄": 5002,
      "馅": 5003,
      "馆": 5004,
      "馈": 5005,
      "馋": 5006,
      "馏": 5007,
      "馐": 5008,
      "馑": 5009,
      "馒": 5010,
      "馔": 5011,
      "馕": 5012,
      "首": 5013,
      "馗": 5014,
      "香": 5015,
      "馥": 5016,
      "馨": 5017,
      "马": 5018,
      "驭": 5019,
      "驮": 5020,
      "驯": 5021,
      "驰": 5022,
      "驱": 5023,
      "驳": 5024,
      "驴": 5025,
      "驶": 5026,
      "驷": 5027,
      "驸": 5028,
      "驹": 5029,
      "驻": 5030,
      "驼": 5031,
      "驽": 5032,
      "驾": 5033,
      "驿": 5034,
      "骁": 5035,
      "骂": 5036,
      "骄": 5037,
      "骅": 5038,
      "骆": 5039,
      "骇": 5040,
      "骊": 5041,
      "骋": 5042,
      "验": 5043,
      "骏": 5044,
      "骐": 5045,
      "骑": 5046,
      "骗": 5047,
      "骚": 5048,
      "骛": 5049,
      "骜": 5050,
      "骞": 5051,
      "骡": 5052,
      "骤": 5053,
      "骥": 5054,
      "骨": 5055,
      "骰": 5056,
      "骷": 5057,
      "骸": 5058,
      "骼": 5059,
      "髅": 5060,
      "髋": 5061,
      "髓": 5062,
      "高": 5063,
      "髦": 5064,
      "髻": 5065,
      "鬓": 5066,
      "鬟": 5067,
      "鬼": 5068,
      "魁": 5069,
      "魂": 5070,
      "魄": 5071,
      "魅": 5072,
      "魇": 5073,
      "魉": 5074,
      "魍": 5075,
      "魏": 5076,
      "魑": 5077,
      "魔": 5078,
      "鱼": 5079,
      "鱿": 5080,
      "鲁": 5081,
      "鲅": 5082,
      "鲇": 5083,
      "鲍": 5084,
      "鲜": 5085,
      "鲠": 5086,
      "鲢": 5087,
      "鲤": 5088,
      "鲨": 5089,
      "鲫": 5090,
      "鲲": 5091,
      "鲶": 5092,
      "鲸": 5093,
      "鳃": 5094,
      "鳄": 5095,
      "鳅": 5096,
      "鳌": 5097,
      "鳖": 5098,
      "鳗": 5099,
      "鳝": 5100,
      "鳞": 5101,
      "鳟": 5102,
      "鸟": 5103,
      "鸠": 5104,
      "鸡": 5105,
      "鸢": 5106,
      "鸣": 5107,
      "鸥": 5108,
      "鸦": 5109,
      "鸨": 5110,
      "鸩": 5111,
      "鸭": 5112,
      "鸯": 5113,
      "鸳": 5114,
      "鸵": 5115,
      "鸶": 5116,
      "鸷": 5117,
      "鸹": 5118,
      "鸽": 5119,
      "鸿": 5120,
      "鹂": 5121,
      "鹃": 5122,
      "鹄": 5123,
      "鹅": 5124,
      "鹉": 5125,
      "鹊": 5126,
      "鹌": 5127,
      "鹏": 5128,
      "鹑": 5129,
      "鹜": 5130,
      "鹤": 5131,
      "鹦": 5132,
      "鹫": 5133,
      "鹭": 5134,
      "鹰": 5135,
      "鹿": 5136,
      "麒": 5137,
      "麓": 5138,
      "麝": 5139,
      "麟": 5140,
      "麦": 5141,
      "麻": 5142,
      "麽": 5143,
      "麾": 5144,
      "黄": 5145,
      "黍": 5146,
      "黎": 5147,
      "黏": 5148,
      "黑": 5149,
      "黔": 5150,
      "默": 5151,
      "黛": 5152,
      "黜": 5153,
      "黝": 5154,
      "黠": 5155,
      "黯": 5156,
      "鼎": 5157,
      "鼐": 5158,
      "鼓": 5159,
      "鼠": 5160,
      "鼹": 5161,
      "鼻": 5162,
      "鼾": 5163,
      "齐": 5164,
      "齑": 5165,
      "齿": 5166,
      "龃": 5167,
      "龄": 5168,
      "龉": 5169,
      "龊": 5170,
      "龌": 5171,
      "龙": 5172,
      "龚": 5173,
      "龟": 5174,
      "": 5175,
      "": 5176,
      "！": 5177,
      "％": 5178,
      "＆": 5179,
      "（": 5180,
      "）": 5181,
      "＊": 5182,
      "＋": 5183,
      "，": 5184,
      "－": 5185,
      "．": 5186,
      "／": 5187,
      "０": 5188,
      "１": 5189,
      "２": 5190,
      "３": 5191,
      "４": 5192,
      "５": 5193,
      "６": 5194,
      "７": 5195,
      "８": 5196,
      "９": 5197,
      "：": 5198,
      "；": 5199,
      "＜": 5200,
      "＝": 5201,
      "＞": 5202,
      "？": 5203,
      "Ａ": 5204,
      "Ｂ": 5205,
      "Ｃ": 5206,
      "Ｄ": 5207,
      "Ｅ": 5208,
      "Ｆ": 5209,
      "Ｇ": 5210,
      "Ｈ": 5211,
      "Ｉ": 5212,
      "Ｌ": 5213,
      "Ｎ": 5214,
      "Ｐ": 5215,
      "Ｑ": 5216,
      "Ｒ": 5217,
      "Ｓ": 5218,
      "Ｔ": 5219,
      "Ｕ": 5220,
      "［": 5221,
      "］": 5222,
      "＿": 5223,
      "｜": 5224,
      "～": 5225,
      "￣": 5226,
      "￥": 5227,
      "�": 5228,
      "00": 5229,
      "基金": 5230,
      "中国": 5231,
      "。”": 5232,
      "一个": 5233,
      "10": 5234,
      "市场": 5235,
      "公司": 5236,
      "我们": 5237,
      "20": 5238,
      "200": 5239,
      "自己": 5240,
      "没有": 5241,
      "投资": 5242,
      "记者": 5243,
      "考生": 5244,
      "时间": 5245,
      "可以": 5246,
      "学生": 5247,
      "表示": 5248,
      "已经": 5249,
      "11": 5250,
      "大学": 5251,
      "比赛": 5252,
      "今年": 5253,
      "进行": 5254,
      "他们": 5255,
      "专业": 5256,
      "可能": 5257,
      "目前": 5258,
      "考试": 5259,
      "：“": 5260,
      "北京": 5261,
      "价格": 5262,
      "，“": 5263,
      "就是": 5264,
      "现在": 5265,
      "方面": 5266,
      "这个": 5267,
      "问题": 5268,
      "产品": 5269,
      "工作": 5270,
      "因为": 5271,
      "12": 5272,
      "开始": 5273,
      "教育": 5274,
      "招生": 5275,
      "如果": 5276,
      "学校": 5277,
      "对于": 5278,
      "新浪": 5279,
      "第一": 5280,
      "美国": 5281,
      "信息": 5282,
      "”，": 5283,
      "美元": 5284,
      "情况": 5285,
      "高考": 5286,
      "认为": 5287,
      "还是": 5288,
      "不是": 5289,
      "管理": 5290,
      "同时": 5291,
      "录取": 5292,
      "期货": 5293,
      "这样": 5294,
      "经济": 5295,
      "一些": 5296,
      "成为": 5297,
      "研究": 5298,
      "到了": 5299,
      "”。": 5300,
      "发展": 5301,
      "的是": 5302,
      "交易": 5303,
      "但是": 5304,
      "什么": 5305,
      "通过": 5306,
      "%，": 5307,
      "选择": 5308,
      "非常": 5309,
      "银行": 5310,
      "大的": 5311,
      "国家": 5312,
      "不过": 5313,
      "30": 5314,
      "很多": 5315,
      "影响": 5316,
      "部分": 5317,
      "50": 5318,
      "出现": 5319,
      "自己的": 5320,
      "in": 5321,
      "国内": 5322,
      "19": 5323,
      "世界": 5324,
      "由于": 5325,
      "之后": 5326,
      "表现": 5327,
      "企业": 5328,
      "时候": 5329,
      "需要": 5330,
      "成绩": 5331,
      "的一": 5332,
      "国际": 5333,
      "以及": 5334,
      "主要": 5335,
      "球队": 5336,
      "其中": 5337,
      "计划": 5338,
      "这些": 5339,
      "15": 5340,
      "也是": 5341,
      "%。": 5342,
      "球员": 5343,
      "要求": 5344,
      "能力": 5345,
      "显示": 5346,
      "上海": 5347,
      "体育": 5348,
      "提供": 5349,
      "去年": 5350,
      "获得": 5351,
      "9年": 5352,
      "所以": 5353,
      "数据": 5354,
      "月2": 5355,
      "希望": 5356,
      "这一": 5357,
      "网络": 5358,
      "虽然": 5359,
      "上涨": 5360,
      "er": 5361,
      "on": 5362,
      "2010": 5363,
      "重要": 5364,
      "赛季": 5365,
      "他的": 5366,
      "手机": 5367,
      "媒体": 5368,
      "技术": 5369,
      "都是": 5370,
      "18": 5371,
      "比较": 5372,
      "16": 5373,
      "100": 5374,
      "第二": 5375,
      "好的": 5376,
      "作为": 5377,
      "不会": 5378,
      "一定": 5379,
      "的人": 5380,
      "增长": 5381,
      "一直": 5382,
      "分析": 5383,
      "行业": 5384,
      "中的": 5385,
      "。“": 5386,
      "参加": 5387,
      "机会": 5388,
      "人的": 5389,
      "还有": 5390,
      "继续": 5391,
      "经理": 5392,
      "消息": 5393,
      "14": 5394,
      "来的": 5395,
      "相关": 5396,
      "电视": 5397,
      "了一": 5398,
      "最后": 5399,
      "不能": 5400,
      "用户": 5401,
      "大家": 5402,
      "13": 5403,
      "收益": 5404,
      "了解": 5405,
      "学习": 5406,
      "2010年": 5407,
      "所有": 5408,
      "因此": 5409,
      "2009年": 5410,
      "基本": 5411,
      "志愿": 5412,
      "服务": 5413,
      "关注": 5414,
      "不同": 5415,
      "政策": 5416,
      "更多": 5417,
      "这是": 5418,
      "进入": 5419,
      "机构": 5420,
      "业务": 5421,
      "——": 5422,
      "8年": 5423,
      "上的": 5424,
      "包括": 5425,
      "其他": 5426,
      "投资者": 5427,
      "社会": 5428,
      "能够": 5429,
      "电影": 5430,
      "根据": 5431,
      "生活": 5432,
      "特别": 5433,
      "孩子": 5434,
      "股票": 5435,
      "an": 5436,
      "消费": 5437,
      "公布": 5438,
      "报名": 5439,
      "调整": 5440,
      "高校": 5441,
      "全球": 5442,
      "分钟": 5443,
      "增加": 5444,
      "季度": 5445,
      "人士": 5446,
      "应该": 5447,
      "个人": 5448,
      "学院": 5449,
      "来说": 5450,
      "指数": 5451,
      "超过": 5452,
      "80": 5453,
      "达到": 5454,
      "年的": 5455,
      "网站": 5456,
      "报道": 5457,
      "这种": 5458,
      "申请": 5459,
      "微博": 5460,
      "而且": 5461,
      "的时候": 5462,
      "水平": 5463,
      "商品": 5464,
      "方式": 5465,
      "60": 5466,
      "全国": 5467,
      "17": 5468,
      "资金": 5469,
      "之前": 5470,
      "规模": 5471,
      "知道": 5472,
      "以来": 5473,
      "风险": 5474,
      "亿元": 5475,
      "内容": 5476,
      "只有": 5477,
      "娱乐": 5478,
      "老师": 5479,
      ")，": 5480,
      "冠军": 5481,
      "两个": 5482,
      "觉得": 5483,
      "需求": 5484,
      "基金公司": 5485,
      "月份": 5486,
      "th": 5487,
      "接受": 5488,
      "部门": 5489,
      "昨日": 5490,
      "甚至": 5491,
      "今天": 5492,
      "金融": 5493,
      "支持": 5494,
      "为了": 5495,
      "场比赛": 5496,
      "那么": 5497,
      "下跌": 5498,
      "第三": 5499,
      "系统": 5500,
      "结束": 5501,
      "变化": 5502,
      "000": 5503,
      "准备": 5504,
      "并不": 5505,
      "活动": 5506,
      "中心": 5507,
      "香港": 5508,
      "合作": 5509,
      "发布": 5510,
      "2008年": 5511,
      "使用": 5512,
      "阶段": 5513,
      "人员": 5514,
      "不少": 5515,
      "25": 5516,
      "万元": 5517,
      "设计": 5518,
      "这样的": 5519,
      "原因": 5520,
      "网上": 5521,
      "2011": 5522,
      "其实": 5523,
      "出了": 5524,
      "来看": 5525,
      "不断": 5526,
      "现场": 5527,
      "最终": 5528,
      "只是": 5529,
      "毕业": 5530,
      "资产": 5531,
      "正式": 5532,
      "院校": 5533,
      "40": 5534,
      "采用": 5535,
      "透露": 5536,
      "必须": 5537,
      "证券": 5538,
      "是否": 5539,
      "拍摄": 5540,
      "发现": 5541,
      "基础": 5542,
      "分别": 5543,
      "发行": 5544,
      "合约": 5545,
      "报考": 5546,
      "re": 5547,
      "结果": 5548,
      "朋友": 5549,
      "另外": 5550,
      "本科": 5551,
      "提高": 5552,
      "过程": 5553,
      "保险": 5554,
      "新的": 5555,
      "联赛": 5556,
      "除了": 5557,
      "本报": 5558,
      "艺术": 5559,
      "一样": 5560,
      "一次": 5561,
      "有关": 5562,
      "规定": 5563,
      "上市": 5564,
      "历史": 5565,
      "拥有": 5566,
      "的大": 5567,
      "未来": 5568,
      "明显": 5569,
      "教练": 5570,
      "如何": 5571,
      "电话": 5572,
      "最高": 5573,
      "压力": 5574,
      "看到": 5575,
      "优势": 5576,
      "日本": 5577,
      "基金的": 5578,
      "一般": 5579,
      "业绩": 5580,
      "完成": 5581,
      "移动": 5582,
      "我的": 5583,
      "个月": 5584,
      "随着": 5585,
      "90": 5586,
      "直接": 5587,
      "一起": 5588,
      "负责": 5589,
      "训练": 5590,
      "黄金": 5591,
      "排名": 5592,
      "正在": 5593,
      "le": 5594,
      "考虑": 5595,
      "决定": 5596,
      "标准": 5597,
      "价值": 5598,
      "关系": 5599,
      "的情况": 5600,
      "具有": 5601,
      "左右": 5602,
      "电子": 5603,
      "得到": 5604,
      "成功": 5605,
      "科技": 5606,
      "喜欢": 5607,
      "也有": 5608,
      "存在": 5609,
      "是一": 5610,
      "当时": 5611,
      "或者": 5612,
      "功能": 5613,
      "以上": 5614,
      "项目": 5615,
      "俱乐": 5616,
      "留学": 5617,
      "英语": 5618,
      "俱乐部": 5619,
      "ar": 5620,
      "人民": 5621,
      "介绍": 5622,
      "知识": 5623,
      "大幅": 5624,
      "对手": 5625,
      "23": 5626,
      "之间": 5627,
      "实际": 5628,
      "24": 5629,
      "政府": 5630,
      "重点": 5631,
      "客户": 5632,
      "分数": 5633,
      "预期": 5634,
      "游戏": 5635,
      "en": 5636,
      "基金经理": 5637,
      "销售": 5638,
      "高中": 5639,
      "队的": 5640,
      "2011年": 5641,
      "音乐": 5642,
      "不仅": 5643,
      "普通": 5644,
      "一步": 5645,
      "or": 5646,
      "任何": 5647,
      "处理": 5648,
      "此外": 5649,
      "26": 5650,
      "昨天": 5651,
      "新浪体育": 5652,
      "发生": 5653,
      "参考": 5654,
      "建议": 5655,
      "连续": 5656,
      "保持": 5657,
      "考研": 5658,
      "也不": 5659,
      "平均": 5660,
      "研究生": 5661,
      "综合": 5662,
      "完全": 5663,
      "实现": 5664,
      "告诉": 5665,
      "取得": 5666,
      "……": 5667,
      "出的": 5668,
      "采访": 5669,
      ")、": 5670,
      "。(": 5671,
      "下降": 5672,
      "操作": 5673,
      "整体": 5674,
      "尽管": 5675,
      "持续": 5676,
      "at": 5677,
      "近期": 5678,
      "净值": 5679,
      "家长": 5680,
      "专家": 5681,
      "职业": 5682,
      "新闻": 5683,
      "ou": 5684,
      "因素": 5685,
      "文化": 5686,
      "统计": 5687,
      "竞争": 5688,
      "债券": 5689,
      "说明": 5690,
      "北京时间": 5691,
      "这次": 5692,
      "70": 5693,
      "状态": 5694,
      "地区": 5695,
      "模式": 5696,
      "市场的": 5697,
      "火箭": 5698,
      "帮助": 5699,
      "明星": 5700,
      "目标": 5701,
      "1日": 5702,
      "28": 5703,
      "配置": 5704,
      "比例": 5705,
      "观众": 5706,
      "无法": 5707,
      "环境": 5708,
      "一位": 5709,
      "产业": 5710,
      "过去": 5711,
      "相比": 5712,
      "条件": 5713,
      "资格": 5714,
      "之一": 5715,
      "联网": 5716,
      "代表": 5717,
      "注意": 5718,
      "面对": 5719,
      "推荐": 5720,
      "》，": 5721,
      "如此": 5722,
      "有些": 5723,
      "参与": 5724,
      "按照": 5725,
      "货币": 5726,
      "视频": 5727,
      "预计": 5728,
      "99": 5729,
      "网友": 5730,
      "最近": 5731,
      "it": 5732,
      "后的": 5733,
      "事情": 5734,
      "怎么": 5735,
      "依然": 5736,
      "相对": 5737,
      "联系": 5738,
      "起来": 5739,
      "新浪体育讯": 5740,
      "型基金": 5741,
      "复习": 5742,
      "来自": 5743,
      "确定": 5744,
      "7月": 5745,
      "成本": 5746,
      "是在": 5747,
      "期间": 5748,
      "英国": 5749,
      "6月": 5750,
      "一下": 5751,
      "同学": 5752,
      "同样": 5753,
      "7年": 5754,
      "此前": 5755,
      "上周": 5756,
      "再次": 5757,
      "当然": 5758,
      "感觉": 5759,
      "的考生": 5760,
      "22": 5761,
      "行情": 5762,
      "st": 5763,
      "广告": 5764,
      "受到": 5765,
      "硕士": 5766,
      "更加": 5767,
      "关键": 5768,
      "反弹": 5769,
      "成了": 5770,
      "导致": 5771,
      "比如": 5772,
      "主力": 5773,
      "短期": 5774,
      "运动": 5775,
      ")。": 5776,
      "具体": 5777,
      "将在": 5778,
      "有的": 5779,
      "集团": 5780,
      "成立": 5781,
      "收入": 5782,
      "半年": 5783,
      "计算": 5784,
      "球迷": 5785,
      "节目": 5786,
      "控制": 5787,
      "是一个": 5788,
      "成长": 5789,
      "的高": 5790,
      "al": 5791,
      "有限": 5792,
      "购买": 5793,
      "的问题": 5794,
      "足球": 5795,
      "中学": 5796,
      "减少": 5797,
      "事件": 5798,
      "互联网": 5799,
      "om": 5800,
      "涨幅": 5801,
      "带来": 5802,
      "有所": 5803,
      "自主": 5804,
      "组织": 5805,
      "3月": 5806,
      "进一步": 5807,
      "万吨": 5808,
      "9月": 5809,
      "相当": 5810,
      "截至": 5811,
      "调查": 5812,
      "500": 5813,
      "位置": 5814,
      "平台": 5815,
      "突破": 5816,
      "危机": 5817,
      "推出": 5818,
      "不要": 5819,
      "单位": 5820,
      "稳定": 5821,
      "经历": 5822,
      "演员": 5823,
      "品牌": 5824,
      "培养": 5825,
      "的话": 5826,
      "经验": 5827,
      "决赛": 5828,
      "的学生": 5829,
      "工程": 5830,
      "安排": 5831,
      "仍然": 5832,
      "大利": 5833,
      "公开": 5834,
      "理财": 5835,
      "一年": 5836,
      "300": 5837,
      "提前": 5838,
      "出来": 5839,
      "奥运": 5840,
      "II": 5841,
      "的比赛": 5842,
      "运营": 5843,
      "原油": 5844,
      "生产": 5845,
      "系列": 5846,
      "论坛": 5847,
      "全部": 5848,
      "另一": 5849,
      "报告": 5850,
      "阅读": 5851,
      "此次": 5852,
      "都有": 5853,
      "21": 5854,
      "11月": 5855,
      "解决": 5856,
      "咨询": 5857,
      "我们的": 5858,
      "不错": 5859,
      "并且": 5860,
      "来越": 5861,
      "新浪娱乐": 5862,
      "创新": 5863,
      "只要": 5864,
      "我国": 5865,
      "下的": 5866,
      "10月": 5867,
      "肯定": 5868,
      "主持": 5869,
      "越来越": 5870,
      "两人": 5871,
      "有效": 5872,
      "行为": 5873,
      "！”": 5874,
      "27": 5875,
      "35": 5876,
      "8月": 5877,
      "整个": 5878,
      "多的": 5879,
      "填报": 5880,
      "空间": 5881,
      "评论": 5882,
      "课程": 5883,
      "作用": 5884,
      "不得": 5885,
      "程度": 5886,
      "地方": 5887,
      "ad": 5888,
      "日前": 5889,
      "像素": 5890,
      "几乎": 5891,
      "份额": 5892,
      "只能": 5893,
      "材料": 5894,
      "领先": 5895,
      "积极": 5896,
      "进攻": 5897,
      "最大": 5898,
      "近日": 5899,
      "BA": 5900,
      "城市": 5901,
      "成交": 5902,
      "科学": 5903,
      "经过": 5904,
      "首次": 5905,
      "处于": 5906,
      "尤其": 5907,
      "的新": 5908,
      "不到": 5909,
      "韩国": 5910,
      "库存": 5911,
      "优秀": 5912,
      "走势": 5913,
      "45": 5914,
      "十分": 5915,
      "仓位": 5916,
      "相机": 5917,
      "举行": 5918,
      "性的": 5919,
      "is": 5920,
      "对此": 5921,
      "测试": 5922,
      "理解": 5923,
      "实力": 5924,
      "笔记": 5925,
      "指出": 5926,
      "el": 5927,
      "5月": 5928,
      "12月": 5929,
      "公布的": 5930,
      "家庭": 5931,
      "电脑": 5932,
      "防守": 5933,
      "安全": 5934,
      "范围": 5935,
      "the": 5936,
      "进球": 5937,
      "这么": 5938,
      "最大的": 5939,
      "下午": 5940,
      "保证": 5941,
      "电信": 5942,
      "年轻": 5943,
      "长期": 5944,
      "值得": 5945,
      "关于": 5946,
      "传统": 5947,
      "现货": 5948,
      "震荡": 5949,
      "利用": 5950,
      "学位": 5951,
      "身份": 5952,
      "许多": 5953,
      "ic": 5954,
      "4月": 5955,
      "方法": 5956,
      "作文": 5957,
      "产生": 5958,
      "报价": 5959,
      "的时间": 5960,
      "自然": 5961,
      "es": 5962,
      "导演": 5963,
      "趋势": 5964,
      "都会": 5965,
      "曾经": 5966,
      "第四": 5967,
      "持有": 5968,
      "新浪娱乐讯": 5969,
      "就业": 5970,
      "商业": 5971,
      "小时": 5972,
      "品种": 5973,
      "并没有": 5974,
      "改变": 5975,
      "方向": 5976,
      "多数": 5977,
      "容易": 5978,
      "才能": 5979,
      "相信": 5980,
      "办法": 5981,
      "应用": 5982,
      "在这": 5983,
      "真正": 5984,
      "一种": 5985,
      "双方": 5986,
      "中小": 5987,
      "效果": 5988,
      "努力": 5989,
      "针对": 5990,
      "--": 5991,
      "以下": 5992,
      "各种": 5993,
      "数学": 5994,
      "1月": 5995,
      "建设": 5996,
      "公司的": 5997,
      "更是": 5998,
      "ro": 5999,
      "欧洲": 6000,
      "资源": 6001,
      "全面": 6002,
      "内地": 6003,
      "米兰": 6004,
      "镜头": 6005,
      "人们": 6006,
      "无论": 6007,
      "最低": 6008,
      "随后": 6009,
      "人才": 6010,
      "亿美元": 6011,
      "宣布": 6012,
      "文章": 6013,
      "分析师": 6014,
      "角色": 6015,
      "29": 6016,
      "策略": 6017,
      "兴趣": 6018,
      "姚明": 6019,
      "华夏": 6020,
      "事实": 6021,
      "结构": 6022,
      "数据显示": 6023,
      "负责人": 6024,
      "心理": 6025,
      "简单": 6026,
      "业内": 6027,
      "他在": 6028,
      "33": 6029,
      "首先": 6030,
      "下来": 6031,
      "数量": 6032,
      "2007年": 6033,
      "方案": 6034,
      "人民币": 6035,
      "博客": 6036,
      "as": 6037,
      "吸引": 6038,
      "主场": 6039,
      "国外": 6040,
      "领域": 6041,
      "他们的": 6042,
      "然后": 6043,
      "广州": 6044,
      "面临": 6045,
      "人数": 6046,
      "提升": 6047,
      "TF": 6048,
      "今日": 6049,
      "深圳": 6050,
      "速度": 6051,
      "时尚": 6052,
      "移民": 6053,
      "ing": 6054,
      "资本": 6055,
      "上升": 6056,
      "通知": 6057,
      "会有": 6058,
      "形成": 6059,
      "发挥": 6060,
      "对方": 6061,
      "台湾": 6062,
      "而在": 6063,
      "id": 6064,
      "广东": 6065,
      "照片": 6066,
      "收购": 6067,
      "金属": 6068,
      "队员": 6069,
      "开放": 6070,
      "而是": 6071,
      "学科": 6072,
      "重新": 6073,
      "而言": 6074,
      "演唱": 6075,
      "的基金": 6076,
      "私募": 6077,
      "造成": 6078,
      "，《": 6079,
      "选手": 6080,
      "55": 6081,
      "东西": 6082,
      "语言": 6083,
      "ac": 6084,
      "使得": 6085,
      "据悉": 6086,
      "高的": 6087,
      "毕业生": 6088,
      "以后": 6089,
      "最新": 6090,
      "iP": 6091,
      "都在": 6092,
      "得分": 6093,
      "苹果": 6094,
      "产量": 6095,
      "不可": 6096,
      "5年": 6097,
      "利率": 6098,
      "先生": 6099,
      "核心": 6100,
      "然而": 6101,
      "开发": 6102,
      "中国队": 6103,
      "时代": 6104,
      "访问": 6105,
      "ed": 6106,
      "确认": 6107,
      "改革": 6108,
      "目的": 6109,
      "合同": 6110,
      "出色": 6111,
      "支撑": 6112,
      "过程中": 6113,
      "将会": 6114,
      "世界杯": 6115,
      "很难": 6116,
      "风格": 6117,
      "股市": 6118,
      "软件": 6119,
      "之外": 6120,
      "海外": 6121,
      "似乎": 6122,
      "当地": 6123,
      "责任": 6124,
      "36": 6125,
      "mm": 6126,
      "名单": 6127,
      "政治": 6128,
      "明确": 6129,
      "一点": 6130,
      "很大": 6131,
      "就会": 6132,
      "离开": 6133,
      "证明": 6134,
      "收益率": 6135,
      "利润": 6136,
      "本周": 6137,
      "支付": 6138,
      "统一": 6139,
      "46": 6140,
      "重要的": 6141,
      "消费者": 6142,
      "篮板": 6143,
      "监管": 6144,
      "one": 6145,
      "笔记本": 6146,
      "实施": 6147,
      "属于": 6148,
      "真的": 6149,
      "一家": 6150,
      "88": 6151,
      "oo": 6152,
      "明年": 6153,
      "让人": 6154,
      "还要": 6155,
      "ETF": 6156,
      "信用": 6157,
      "为主": 6158,
      "年来": 6159,
      "评价": 6160,
      "》、": 6161,
      "8日": 6162,
      "也在": 6163,
      "进口": 6164,
      "5日": 6165,
      "只基金": 6166,
      "CD": 6167,
      "故事": 6168,
      "地产": 6169,
      "天津": 6170,
      "最佳": 6171,
      "大量": 6172,
      "加上": 6173,
      "特点": 6174,
      "费用": 6175,
      "理科": 6176,
      "维持": 6177,
      "作品": 6178,
      "亚洲": 6179,
      "他说": 6180,
      "的一个": 6181,
      "每天": 6182,
      "答案": 6183,
      "6年": 6184,
      "国家队": 6185,
      "一场": 6186,
      "了一个": 6187,
      "？”": 6188,
      "三分": 6189,
      "跌幅": 6190,
      "严重": 6191,
      "山东": 6192,
      "的情况下": 6193,
      "符合": 6194,
      "英寸": 6195,
      "这位": 6196,
      "频道": 6197,
      "那些": 6198,
      "即将": 6199,
      "具备": 6200,
      "的表现": 6201,
      "女儿": 6202,
      "法律": 6203,
      "组合": 6204,
      "32": 6205,
      "48": 6206,
      "资料": 6207,
      "提供的": 6208,
      "以前": 6209,
      "2月": 6210,
      "上述": 6211,
      "结合": 6212,
      "坚持": 6213,
      "精神": 6214,
      "199": 6215,
      "、“": 6216,
      "信心": 6217,
      "形式": 6218,
      "曼联": 6219,
      "绝对": 6220,
      "进行了": 6221,
      "不足": 6222,
      "同比": 6223,
      "的影响": 6224,
      "ion": 6225,
      "两年": 6226,
      "如今": 6227,
      "有人": 6228,
      "经纪": 6229,
      "机身": 6230,
      "快速": 6231,
      "这款": 6232,
      "采取": 6233,
      "刚刚": 6234,
      "岁的": 6235,
      "总经理": 6236,
      "独立": 6237,
      "正常": 6238,
      "渠道": 6239,
      "加强": 6240,
      "挑战": 6241,
      "il": 6242,
      "确实": 6243,
      "QD": 6244,
      "清华": 6245,
      "经营": 6246,
      "背景": 6247,
      "每个": 6248,
      "会上": 6249,
      "现象": 6250,
      "分红": 6251,
      "ow": 6252,
      "后卫": 6253,
      "有可能": 6254,
      "主义": 6255,
      "看来": 6256,
      "高达": 6257,
      "QDII": 6258,
      "供应": 6259,
      "商务": 6260,
      "普遍": 6261,
      "主持人": 6262,
      "也会": 6263,
      "制度": 6264,
      "本赛季": 6265,
      "面试": 6266,
      "教育部": 6267,
      "文科": 6268,
      "意义": 6269,
      "至少": 6270,
      "集中": 6271,
      "万美元": 6272,
      "贷款": 6273,
      "教学": 6274,
      "7日": 6275,
      "出场": 6276,
      "降低": 6277,
      "第一次": 6278,
      "在中国": 6279,
      "to": 6280,
      "一名": 6281,
      "有了": 6282,
      "终于": 6283,
      "低于": 6284,
      "她的": 6285,
      "恢复": 6286,
      "至于": 6287,
      "更多的": 6288,
      "9日": 6289,
      "意味": 6290,
      "三个": 6291,
      "同期": 6292,
      "江苏": 6293,
      "表演": 6294,
      "适合": 6295,
      "37": 6296,
      "即使": 6297,
      "数字": 6298,
      "本报记者": 6299,
      "担心": 6300,
      "观点": 6301,
      "法国": 6302,
      "董事": 6303,
      "旗下": 6304,
      "34": 6305,
      "持仓": 6306,
      "找到": 6307,
      "的小": 6308,
      "6日": 6309,
      "巴萨": 6310,
      "状况": 6311,
      "较大": 6312,
      "告诉记者": 6313,
      "自主招生": 6314,
      "中考": 6315,
      "阵容": 6316,
      "保护": 6317,
      "将于": 6318,
      "质量": 6319,
      "主动": 6320,
      "都不": 6321,
      "学生的": 6322,
      "的投资": 6323,
      "38": 6324,
      "几个": 6325,
      "宣传": 6326,
      "数码": 6327,
      "1000": 6328,
      "分数线": 6329,
      "提出": 6330,
      "大豆": 6331,
      "4年": 6332,
      "大部分": 6333,
      "据了解": 6334,
      "尤其是": 6335,
      "态度": 6336,
      "多少": 6337,
      "所在": 6338,
      "当前": 6339,
      "是个": 6340,
      "面的": 6341,
      "题目": 6342,
      "紧张": 6343,
      "人物": 6344,
      "ch": 6345,
      "权威": 6346,
      "of": 6347,
      "身体": 6348,
      "德国": 6349,
      "考场": 6350,
      "令人": 6351,
      "逐渐": 6352,
      "%；": 6353,
      "我觉得": 6354,
      "角度": 6355,
      "ind": 6356,
      "ww": 6357,
      "报记者": 6358,
      "儿子": 6359,
      "75": 6360,
      "团队": 6361,
      "创造": 6362,
      "根本": 6363,
      "保障": 6364,
      "有限公司": 6365,
      "推动": 6366,
      "正是": 6367,
      "主题": 6368,
      "2000": 6369,
      "意见": 6370,
      "有一": 6371,
      "110": 6372,
      "你的": 6373,
      "制造": 6374,
      "并不是": 6375,
      "上午": 6376,
      "你们": 6377,
      "联想": 6378,
      "健康": 6379,
      "建立": 6380,
      "结婚": 6381,
      "提醒": 6382,
      "那个": 6383,
      "愿意": 6384,
      "难以": 6385,
      "内的": 6386,
      "生的": 6387,
      "会议": 6388,
      "充分": 6389,
      "纪录": 6390,
      "交易所": 6391,
      "欢迎": 6392,
      "3日": 6393,
      "为什么": 6394,
      "监会": 6395,
      "》、《": 6396,
      "实验": 6397,
      "棉花": 6398,
      "赎回": 6399,
      "的前": 6400,
      "担任": 6401,
      "助攻": 6402,
      "大盘": 6403,
      "掌握": 6404,
      "注册": 6405,
      "阿里": 6406,
      "电视剧": 6407,
      "感到": 6408,
      "我校": 6409,
      "签证": 6410,
      "hone": 6411,
      "智能": 6412,
      "难度": 6413,
      "重庆": 6414,
      "限制": 6415,
      "制作": 6416,
      "股指": 6417,
      "00元": 6418,
      "方面的": 6419,
      "lo": 6420,
      "困难": 6421,
      "斯特": 6422,
      "意味着": 6423,
      "段时间": 6424,
      "本报讯": 6425,
      "3G": 6426,
      "性能": 6427,
      "通胀": 6428,
      "3年": 6429,
      "事业": 6430,
      "每年": 6431,
      "经常": 6432,
      "当年": 6433,
      "”、“": 6434,
      "交流": 6435,
      "万像素": 6436,
      "强调": 6437,
      "流动": 6438,
      "扩大": 6439,
      "联合": 6440,
      "认识": 6441,
      "再度": 6442,
      "西班": 6443,
      "著名": 6444,
      "西班牙": 6445,
      "办公": 6446,
      "接近": 6447,
      "判断": 6448,
      "索尼": 6449,
      "高等": 6450,
      "放弃": 6451,
      "教师": 6452,
      "一定要": 6453,
      "出口": 6454,
      "命中": 6455,
      "指导": 6456,
      "大宗": 6457,
      "较为": 6458,
      "收盘": 6459,
      "的价格": 6460,
      "里的": 6461,
      "发表": 6462,
      "期待": 6463,
      "预测": 6464,
      "体系": 6465,
      "就在": 6466,
      "可能会": 6467,
      "85": 6468,
      "体现": 6469,
      "工作人员": 6470,
      "遭遇": 6471,
      "皇马": 6472,
      "66": 6473,
      "股东": 6474,
      "股份": 6475,
      "胜利": 6476,
      "自由": 6477,
      "47": 6478,
      "迅速": 6479,
      "奥运会": 6480,
      "为准": 6481,
      "满足": 6482,
      "iv": 6483,
      "主任": 6484,
      "主帅": 6485,
      "内部": 6486,
      "年度": 6487,
      "的机会": 6488,
      "一旦": 6489,
      "不再": 6490,
      "创业": 6491,
      "反映": 6492,
      "显然": 6493,
      "的不断": 6494,
      "亏损": 6495,
      "工业": 6496,
      "本人": 6497,
      "运营商": 6498,
      "半场": 6499,
      "幅度": 6500,
      "一度": 6501,
      "设备": 6502,
      "31": 6503,
      "锦赛": 6504,
      "CE": 6505,
      "ay": 6506,
      "协会": 6507,
      "无线": 6508,
      "49": 6509,
      "众多": 6510,
      "时的": 6511,
      "形象": 6512,
      "比分": 6513,
      "解释": 6514,
      "共同": 6515,
      "出席": 6516,
      "有着": 6517,
      "中国的": 6518,
      "员工": 6519,
      "屏幕": 6520,
      "引起": 6521,
      "意大利": 6522,
      "com": 6523,
      "动力": 6524,
      "作者": 6525,
      "唯一": 6526,
      "成都": 6527,
      "的事情": 6528,
      "首发": 6529,
      "真实": 6530,
      "出国": 6531,
      "后来": 6532,
      "xx": 6533,
      "下了": 6534,
      "享受": 6535,
      "免费": 6536,
      "还在": 6537,
      "把握": 6538,
      "投入": 6539,
      "湖人": 6540,
      "招生计划": 6541,
      "39": 6542,
      "nd": 6543,
      "and": 6544,
      "客场": 6545,
      "上了": 6546,
      "公告": 6547,
      "招收": 6548,
      "4日": 6549,
      "回到": 6550,
      "执行": 6551,
      "显得": 6552,
      "主要是": 6553,
      "am": 6554,
      "各方面": 6555,
      "或许": 6556,
      "的朋友": 6557,
      "业内人士": 6558,
      "承认": 6559,
      "涉及": 6560,
      "实际上": 6561,
      "理工": 6562,
      "纷纷": 6563,
      "之间的": 6564,
      "76": 6565,
      "自动": 6566,
      "专科": 6567,
      "素质": 6568,
      "举办": 6569,
      "不同的": 6570,
      "42": 6571,
      "一切": 6572,
      "回报": 6573,
      "类似": 6574,
      "编辑": 6575,
      "避免": 6576,
      "也许": 6577,
      "复试": 6578,
      "回答": 6579,
      "在北京": 6580,
      "出版": 6581,
      "往往": 6582,
      "采访时": 6583,
      "上网": 6584,
      "力量": 6585,
      "巴西": 6586,
      "投档": 6587,
      "措施": 6588,
      "液晶": 6589,
      "前期": 6590,
      "妈妈": 6591,
      "拿到": 6592,
      "新浪网": 6593,
      "上证": 6594,
      "下滑": 6595,
      "则是": 6596,
      "北大": 6597,
      "精选": 6598,
      "足协": 6599,
      "领导": 6600,
      "出现了": 6601,
      "从而": 6602,
      "还没有": 6603,
      "几年": 6604,
      "联盟": 6605,
      "科目": 6606,
      "ter": 6607,
      "姆斯": 6608,
      "的发展": 6609,
      "市场上": 6610,
      "今年的": 6611,
      "接口": 6612,
      "表达": 6613,
      "处理器": 6614,
      "自身": 6615,
      "强的": 6616,
      "意外": 6617,
      "概念": 6618,
      "正确": 6619,
      "篮网": 6620,
      "清楚": 6621,
      "但在": 6622,
      "做出": 6623,
      "合理": 6624,
      "实行": 6625,
      "校长": 6626,
      "考点": 6627,
      "一定的": 6628,
      "力的": 6629,
      "欧元": 6630,
      "战略": 6631,
      "球场": 6632,
      "队友": 6633,
      "波动": 6634,
      "世纪": 6635,
      "供参考": 6636,
      "回落": 6637,
      "敬请": 6638,
      "能源": 6639,
      "我想": 6640,
      "无疑": 6641,
      "重视": 6642,
      "大宗商品": 6643,
      "NBA": 6644,
      "三年": 6645,
      "办理": 6646,
      "周期": 6647,
      "教授": 6648,
      "利亚": 6649,
      "图片": 6650,
      "油价": 6651,
      "现实": 6652,
      "曝光": 6653,
      "事实上": 6654,
      "样的": 6655,
      "父母": 6656,
      "的外": 6657,
      "做好": 6658,
      "查询": 6659,
      "演唱会": 6660,
      "启动": 6661,
      "并非": 6662,
      "禁区": 6663,
      "回应": 6664,
      "招办": 6665,
      "不好": 6666,
      "南方": 6667,
      "感情": 6668,
      "影片": 6669,
      "很好": 6670,
      "有望": 6671,
      "仅供参考": 6672,
      "培训": 6673,
      "罗斯": 6674,
      "56": 6675,
      "Th": 6676,
      "也没有": 6677,
      "产品的": 6678,
      "估值": 6679,
      "南京": 6680,
      "该校": 6681,
      "距离": 6682,
      "毕竟": 6683,
      "突然": 6684,
      "加入": 6685,
      "中国移动": 6686,
      "前的": 6687,
      "加盟": 6688,
      "在于": 6689,
      "纽约": 6690,
      "募集": 6691,
      "展开": 6692,
      "总体": 6693,
      "的同时": 6694,
      "谷歌": 6695,
      "配合": 6696,
      "酒店": 6697,
      "中央": 6698,
      "加大": 6699,
      "思想": 6700,
      "特别是": 6701,
      "43": 6702,
      "目前的": 6703,
      "东方": 6704,
      "批次": 6705,
      "申购": 6706,
      "ht": 6707,
      "最好的": 6708,
      "点评": 6709,
      "信托": 6710,
      "400": 6711,
      "交通": 6712,
      "协议": 6713,
      "尼奥": 6714,
      "新基金": 6715,
      "的主要": 6716,
      "知名": 6717,
      "高清": 6718,
      "前锋": 6719,
      "一天": 6720,
      "呈现": 6721,
      "演的": 6722,
      "比赛中": 6723,
      "考查": 6724,
      "考试信息": 6725,
      "所提供的": 6726,
      "金额": 6727,
      "A股": 6728,
      "逐步": 6729,
      "邀请": 6730,
      "冲击": 6731,
      "原则": 6732,
      "板块": 6733,
      "设置": 6734,
      "及时": 6735,
      "延续": 6736,
      "轻松": 6737,
      "克斯": 6738,
      "存款": 6739,
      "一对": 6740,
      "主教练": 6741,
      "替补": 6742,
      "地位": 6743,
      "小组": 6744,
      "最好": 6745,
      "到底": 6746,
      "商家": 6747,
      "指标": 6748,
      "be": 6749,
      "动作": 6750,
      "老板": 6751,
      "通信": 6752,
      "电视台": 6753,
      "意识": 6754,
      "本次": 6755,
      "的可能": 6756,
      "的方式": 6757,
      "证监会": 6758,
      "10日": 6759,
      "也将": 6760,
      "委员": 6761,
      "就可以": 6762,
      "方便": 6763,
      "媒体报道": 6764,
      "的原因": 6765,
      "累计": 6766,
      "采用了": 6767,
      "当中": 6768,
      "来了": 6769,
      "给了": 6770,
      "账户": 6771,
      "大多数": 6772,
      "更为": 6773,
      "2006年": 6774,
      "成熟": 6775,
      "不知道": 6776,
      "到的": 6777,
      "转会": 6778,
      "这两": 6779,
      "丰富": 6780,
      "很快": 6781,
      "考生以": 6782,
      "听歌": 6783,
      "现在的": 6784,
      "总是": 6785,
      "情绪": 6786,
      "这也是": 6787,
      "AC": 6788,
      "总裁": 6789,
      "现代": 6790,
      "生源": 6791,
      "的重要": 6792,
      "中超": 6793,
      "爱情": 6794,
      "佳能": 6795,
      "理论": 6796,
      "精彩": 6797,
      "主席": 6798,
      "我省": 6799,
      "搜索": 6800,
      "65": 6801,
      "体验": 6802,
      "盈利": 6803,
      "程序": 6804,
      "讨论": 6805,
      "钢铁": 6806,
      "18日": 6807,
      "权威部门": 6808,
      "新增": 6809,
      "》(": 6810,
      "与变化": 6811,
      "特别说明": 6812,
      "四川": 6813,
      "当天": 6814,
      "心态": 6815,
      "信息为准": 6816,
      "ent": 6817,
      "至今": 6818,
      "赢得": 6819,
      "选拔": 6820,
      "各方面情况": 6821,
      "TA": 6822,
      "公布的正式": 6823,
      "iPhone": 6824,
      "的不断调整": 6825,
      "外国": 6826,
      "信息请": 6827,
      "由于各方面情况": 6828,
      "所有考试信息": 6829,
      "新浪网所提供的": 6830,
      "敬请考生以": 6831,
      "权威部门公布的正式": 6832,
      "的不断调整与变化": 6833,
      "由于各方面情况的不断调整与变化": 6834,
      "所有考试信息仅供参考": 6835,
      "新浪网所提供的所有考试信息仅供参考": 6836,
      "敬请考生以权威部门公布的正式": 6837,
      "敬请考生以权威部门公布的正式信息为准": 6838,
      "营销": 6839,
      "考生的": 6840,
      "我要": 6841,
      "玉米": 6842,
      "并未": 6843,
      "了解到": 6844,
      "上半年": 6845,
      "去了": 6846,
      "点击": 6847,
      "博客圈": 6848,
      "信息请访问": 6849,
      "44": 6850,
      "区域": 6851,
      "热门": 6852,
      "裁判": 6853,
      "官方": 6854,
      "是因为": 6855,
      "试题": 6856,
      "三星": 6857,
      "很有": 6858,
      "15日": 6859,
      "年代": 6860,
      "相应": 6861,
      "粉丝": 6862,
      "入学": 6863,
      "卫视": 6864,
      "失误": 6865,
      "本身": 6866,
      "澳大利": 6867,
      "能否": 6868,
      "乐观": 6869,
      "差距": 6870,
      "年龄": 6871,
      "澳大利亚": 6872,
      "MA": 6873,
      "时刻": 6874,
      "该机": 6875,
      "30日": 6876,
      "农业": 6877,
      "记录": 6878,
      "灵活": 6879,
      "今年以来": 6880,
      "习惯": 6881,
      "引发": 6882,
      "特殊": 6883,
      "顺利": 6884,
      "写作": 6885,
      "布斯": 6886,
      "贸易": 6887,
      "在线": 6888,
      "理想": 6889,
      "所谓": 6890,
      "错误": 6891,
      "50元": 6892,
      "800": 6893,
      "开心": 6894,
      "科比": 6895,
      "达到了": 6896,
      "经纪人": 6897,
      "已有": 6898,
      "第一个": 6899,
      "该基金": 6900,
      "高于": 6901,
      "高位": 6902,
      "专业的": 6903,
      "股指期货": 6904,
      "出现在": 6905,
      "型的": 6906,
      "损失": 6907,
      "证书": 6908,
      "交易日": 6909,
      "OS": 6910,
      "共有": 6911,
      "升级": 6912,
      "售价": 6913,
      "附近": 6914,
      "cn": 6915,
      "专门": 6916,
      "也就是": 6917,
      "仅仅": 6918,
      "分的": 6919,
      "文学": 6920,
      "细节": 6921,
      "央行": 6922,
      "定的": 6923,
      "经典": 6924,
      "身上": 6925,
      "来到": 6926,
      "适应": 6927,
      "log": 6928,
      "生物": 6929,
      "规划": 6930,
      "谨慎": 6931,
      "运行": 6932,
      "这里": 6933,
      "始终": 6934,
      "尔夫": 6935,
      "微软": 6936,
      "IT": 6937,
      "GB": 6938,
      "别人": 6939,
      "收费": 6940,
      "特色": 6941,
      "质疑": 6942,
      "发展的": 6943,
      "一季度": 6944,
      "上赛季": 6945,
      "加拿": 6946,
      "取消": 6947,
      "受伤": 6948,
      "率为": 6949,
      "新浪科技": 6950,
      "不管": 6951,
      "休息": 6952,
      "利益": 6953,
      "女子": 6954,
      "贡献": 6955,
      "中场": 6956,
      "就能": 6957,
      "另一方面": 6958,
      "未能": 6959,
      "环节": 6960,
      "也可以": 6961,
      "亮相": 6962,
      "凭借": 6963,
      "辅导": 6964,
      "笔者": 6965,
      "两次": 6966,
      "严格": 6967,
      "名校": 6968,
      "学术": 6969,
      "对象": 6970,
      "战胜": 6971,
      "男篮": 6972,
      "57": 6973,
      "不够": 6974,
      "分为": 6975,
      "场上": 6976,
      "有点": 6977,
      "百分": 6978,
      "艺人": 6979,
      "规范": 6980,
      "一周": 6981,
      "形势": 6982,
      "柏芝": 6983,
      "专辑": 6984,
      "切尔": 6985,
      "父亲": 6986,
      "出台": 6987,
      "尼康": 6988,
      "矛盾": 6989,
      "3000": 6990,
      "汽车": 6991,
      "石油": 6992,
      "计算机": 6993,
      "之中": 6994,
      "优惠": 6995,
      "刺激": 6996,
      "在接受": 6997,
      "摄像": 6998,
      "流动性": 6999,
      "以往": 7000,
      "格局": 7001,
      "演出": 7002,
      "特尔": 7003,
      "财经": 7004,
      "球队的": 7005,
      "坦言": 7006,
      "学费": 7007,
      "必要": 7008,
      "手段": 7009,
      "斯科": 7010,
      "那样": 7011,
      "IP": 7012,
      "买入": 7013,
      "化的": 7014,
      "熟悉": 7015,
      "运动员": 7016,
      "意思": 7017,
      "在美国": 7018,
      "20日": 7019,
      "任务": 7020,
      "公募": 7021,
      "博士": 7022,
      "局面": 7023,
      "阿尔": 7024,
      "120": 7025,
      "拒绝": 7026,
      "时期": 7027,
      "落后": 7028,
      "US": 7029,
      "宏观": 7030,
      "物浦": 7031,
      "都要": 7032,
      "利物浦": 7033,
      "就要": 7034,
      "日报": 7035,
      "增强": 7036,
      "有一个": 7037,
      "这也": 7038,
      "et": 7039,
      "平时": 7040,
      "浙江": 7041,
      "得到了": 7042,
      "钢材": 7043,
      "获得了": 7044,
      "办公室": 7045,
      "国安": 7046,
      "多次": 7047,
      "封闭": 7048,
      "总监": 7049,
      "配备": 7050,
      "可是": 7051,
      "小幅": 7052,
      "放在": 7053,
      "民族": 7054,
      "个篮板": 7055,
      "会在": 7056,
      "合格": 7057,
      "多年": 7058,
      "夺冠": 7059,
      "歌手": 7060,
      "Wind": 7061,
      "亿份": 7062,
      "代理": 7063,
      "依旧": 7064,
      "分配": 7065,
      "强势": 7066,
      "格兰": 7067,
      "52": 7068,
      "两位": 7069,
      "人生": 7070,
      "就像": 7071,
      "房地产": 7072,
      "给予": 7073,
      "规则": 7074,
      "ol": 7075,
      "有利": 7076,
      "歌曲": 7077,
      "武汉": 7078,
      "满意": 7079,
      "的球员": 7080,
      "女生": 7081,
      "学校的": 7082,
      "IS": 7083,
      "厂商": 7084,
      "旅游": 7085,
      "2012": 7086,
      "切尔西": 7087,
      "59": 7088,
      "不久": 7089,
      "联通": 7090,
      "78": 7091,
      "主角": 7092,
      "德里": 7093,
      "思路": 7094,
      "考试院": 7095,
      "HD": 7096,
      "生涯": 7097,
      "射门": 7098,
      "留学生": 7099,
      "做的": 7100,
      "幸福": 7101,
      "手续": 7102,
      "三季度": 7103,
      "券商": 7104,
      "定位": 7105,
      "律师": 7106,
      "行动": 7107,
      "不了": 7108,
      "晚上": 7109,
      "58": 7110,
      "也很": 7111,
      "以来的": 7112,
      "例如": 7113,
      "创作": 7114,
      "太阳": 7115,
      "焦点": 7116,
      "等待": 7117,
      "太多": 7118,
      "完美": 7119,
      "开展": 7120,
      "赛后": 7121,
      "很多人": 7122,
      "想到": 7123,
      "是不": 7124,
      "沟通": 7125,
      "大学的": 7126,
      "2年": 7127,
      "68": 7128,
      "万人": 7129,
      "白糖": 7130,
      "认真": 7131,
      "更好": 7132,
      "激烈": 7133,
      "看看": 7134,
      "im": 7135,
      "伦敦": 7136,
      "变得": 7137,
      "申花": 7138,
      "者的": 7139,
      "保险公司": 7140,
      "加拿大": 7141,
      "于是": 7142,
      "会计": 7143,
      "师范": 7144,
      "获悉": 7145,
      "金融危机": 7146,
      "三大": 7147,
      "各地": 7148,
      "尝试": 7149,
      "文件": 7150,
      "等等": 7151,
      "之下": 7152,
      "做到": 7153,
      "还将": 7154,
      "In": 7155,
      "回归": 7156,
      "的基础": 7157,
      "，”": 7158,
      "印象": 7159,
      "反应": 7160,
      "总结": 7161,
      "追求": 7162,
      "不多": 7163,
      "传媒": 7164,
      "力度": 7165,
      "运用": 7166,
      "Ch": 7167,
      "偏股": 7168,
      "工具": 7169,
      "固定": 7170,
      "多个": 7171,
      "多头": 7172,
      "张柏芝": 7173,
      "看好": 7174,
      "融资": 7175,
      "复旦": 7176,
      "小的": 7177,
      "收视": 7178,
      "让我": 7179,
      "us": 7180,
      "充满": 7181,
      "是什么": 7182,
      "一方面": 7183,
      "们的": 7184,
      "想法": 7185,
      "相同": 7186,
      "缺乏": 7187,
      "足够": 7188,
      "5分": 7189,
      "》。": 7190,
      "但他": 7191,
      "学历": 7192,
      "杂志": 7193,
      "表明": 7194,
      "11日": 7195,
      "1年": 7196,
      "3个": 7197,
      "争夺": 7198,
      "在此": 7199,
      "英超": 7200,
      "阿联": 7201,
      "不大": 7202,
      "光学": 7203,
      "年底": 7204,
      "很大的": 7205,
      "And": 7206,
      "打造": 7207,
      "里斯": 7208,
      "16日": 7209,
      "一线": 7210,
      "击败": 7211,
      "股权": 7212,
      "行的": 7213,
      "重仓": 7214,
      "高尔夫": 7215,
      "2009": 7216,
      "上调": 7217,
      "各个": 7218,
      "复杂": 7219,
      "橡胶": 7220,
      "的地方": 7221,
      "粮食": 7222,
      "委员会": 7223,
      "公平": 7224,
      "命题": 7225,
      "的要求": 7226,
      "%、": 7227,
      "学金": 7228,
      "实在": 7229,
      "的中国": 7230,
      "的消息": 7231,
      "期货市场": 7232,
      "AC米兰": 7233,
      "大型": 7234,
      "终端": 7235,
      "12日": 7236,
      "分别为": 7237,
      "公安": 7238,
      "尔特": 7239,
      "就有": 7240,
      "梦想": 7241,
      "世锦赛": 7242,
      "分享": 7243,
      "外观": 7244,
      "少年": 7245,
      "效率": 7246,
      "遗憾": 7247,
      "2005年": 7248,
      "41": 7249,
      "否认": 7250,
      "建筑": 7251,
      "才是": 7252,
      "舞台": 7253,
      "让他": 7254,
      "提供了": 7255,
      "刘翔": 7256,
      "央视": 7257,
      "理念": 7258,
      "的中": 7259,
      "通讯": 7260,
      "寻找": 7261,
      "影视": 7262,
      "想要": 7263,
      "新华": 7264,
      "本场比赛": 7265,
      "将是": 7266,
      "高级": 7267,
      "一款": 7268,
      "场的": 7269,
      "思维": 7270,
      "披露": 7271,
      "淘宝": 7272,
      "的工作": 7273,
      "这部": 7274,
      "先后": 7275,
      "化学": 7276,
      "后期": 7277,
      "大赛": 7278,
      "带来的": 7279,
      "播放": 7280,
      "的专业": 7281,
      "句话": 7282,
      "很好的": 7283,
      "我不": 7284,
      "剧中": 7285,
      "大学生": 7286,
      "战术": 7287,
      "新高": 7288,
      "是不是": 7289,
      "17日": 7290,
      "复苏": 7291,
      "记忆": 7292,
      "集体": 7293,
      "也要": 7294,
      "突出": 7295,
      "不得不": 7296,
      "练习": 7297,
      "美术": 7298,
      "营业": 7299,
      "都没有": 7300,
      "信用卡": 7301,
      "69": 7302,
      "几天": 7303,
      "在一起": 7304,
      "队伍": 7305,
      "roid": 7306,
      "一致": 7307,
      "从事": 7308,
      "审查": 7309,
      "热情": 7310,
      "用于": 7311,
      "说法": 7312,
      "身边": 7313,
      "阳光": 7314,
      "鼓励": 7315,
      "周一": 7316,
      "理由": 7317,
      "的市场": 7318,
      "进了": 7319,
      "遇到": 7320,
      "雅思": 7321,
      "77": 7322,
      "占据": 7323,
      "名字": 7324,
      "组成": 7325,
      "股价": 7326,
      "观察": 7327,
      "CEO": 7328,
      "犯规": 7329,
      "13日": 7330,
      "一轮": 7331,
      "农产品": 7332,
      "它的": 7333,
      "实践": 7334,
      "14日": 7335,
      "基本面": 7336,
      "兄弟": 7337,
      "应届": 7338,
      "良好的": 7339,
      "新浪科技讯": 7340,
      "600": 7341,
      "一是": 7342,
      "推广": 7343,
      "机制": 7344,
      "百度": 7345,
      "试卷": 7346,
      "量的": 7347,
      "网上报名": 7348,
      "ook": 7349,
      "一本": 7350,
      "准确": 7351,
      "拿下": 7352,
      "球的": 7353,
      "不用": 7354,
      "完善": 7355,
      "我是": 7356,
      "直到": 7357,
      "面积": 7358,
      "19日": 7359,
      "blog": 7360,
      "专户": 7361,
      "的第一": 7362,
      "89": 7363,
      "分级": 7364,
      "哪些": 7365,
      "摄影": 7366,
      "母亲": 7367,
      "的事": 7368,
      "调控": 7369,
      "辽宁": 7370,
      "做了": 7371,
      "十年": 7372,
      "声明": 7373,
      "天气": 7374,
      "我就": 7375,
      "起了": 7376,
      "基金管理": 7377,
      "分辨": 7378,
      "还会": 7379,
      "都能": 7380,
      "TC": 7381,
      "小姐": 7382,
      "平衡": 7383,
      "执教": 7384,
      "的成绩": 7385,
      "雷斯": 7386,
      "思考": 7387,
      "新生": 7388,
      "注重": 7389,
      "一个人": 7390,
      "股票型基金": 7391,
      "传播": 7392,
      "男友": 7393,
      "网民": 7394,
      "认可": 7395,
      "北京市": 7396,
      "中有": 7397,
      "女士": 7398,
      "层次": 7399,
      "热点": 7400,
      "与此": 7401,
      "实习": 7402,
      "收于": 7403,
      "长城": 7404,
      "万股": 7405,
      "各大": 7406,
      "好友": 7407,
      "对比": 7408,
      "广大": 7409,
      "投篮": 7410,
      "答题": 7411,
      "该公司": 7412,
      "高兴": 7413,
      "各类": 7414,
      "检查": 7415,
      "说的": 7416,
      "都很": 7417,
      "ers": 7418,
      "结束后": 7419,
      "以上的": 7420,
      "即便": 7421,
      "短信": 7422,
      "重大": 7423,
      "72": 7424,
      "ag": 7425,
      "ig": 7426,
      "在今年": 7427,
      "婚礼": 7428,
      "承担": 7429,
      "最为": 7430,
      "詹姆斯": 7431,
      "通常": 7432,
      "ab": 7433,
      "基于": 7434,
      "法院": 7435,
      "高职": 7436,
      "情况下": 7437,
      "下半年": 7438,
      "位于": 7439,
      "内线": 7440,
      "小麦": 7441,
      "永远": 7442,
      "混合": 7443,
      "1个": 7444,
      "3分": 7445,
      "嘉宾": 7446,
      "增加了": 7447,
      "理财产品": 7448,
      "不太": 7449,
      "地说": 7450,
      "式基金": 7451,
      "打出": 7452,
      "问题的": 7453,
      "电子商务": 7454,
      "全场": 7455,
      "医院": 7456,
      "嘉实": 7457,
      "有很多": 7458,
      "行政": 7459,
      "长的": 7460,
      "一个月": 7461,
      "他是": 7462,
      "现金": 7463,
      "签约": 7464,
      "造型": 7465,
      "可以说": 7466,
      "09": 7467,
      "54": 7468,
      "ED": 7469,
      "上场": 7470,
      "区间": 7471,
      "地址": 7472,
      "少数": 7473,
      "应对": 7474,
      "担忧": 7475,
      "更有": 7476,
      "语文": 7477,
      "允许": 7478,
      "其次": 7479,
      "最多": 7480,
      "的女": 7481,
      "的确": 7482,
      "怎样": 7483,
      "感谢": 7484,
      "打击": 7485,
      "接触": 7486,
      "服装": 7487,
      "取得了": 7488,
      "无论是": 7489,
      "64": 7490,
      "传闻": 7491,
      "外界": 7492,
      "新兴": 7493,
      "话题": 7494,
      "月28日": 7495,
      "一直在": 7496,
      "身份证": 7497,
      "62": 7498,
      "98": 7499,
      "可谓": 7500,
      "后市": 7501,
      "尤文": 7502,
      "巨大": 7503,
      "歌迷": 7504,
      "清晰": 7505,
      "物理": 7506,
      "的内容": 7507,
      "ME": 7508,
      "关心": 7509,
      "加分": 7510,
      "强劲": 7511,
      "炒作": 7512,
      "的主": 7513,
      "2日": 7514,
      "保本": 7515,
      "展示": 7516,
      "的产品": 7517,
      "一份": 7518,
      "不如": 7519,
      "在这个": 7520,
      "心情": 7521,
      "快乐": 7522,
      "曼城": 7523,
      "运作": 7524,
      "51": 7525,
      "74": 7526,
      "加坡": 7527,
      "带着": 7528,
      "沪深": 7529,
      "英特尔": 7530,
      "黑色": 7531,
      "期货公司": 7532,
      "董事长": 7533,
      "ce": 7534,
      "代言": 7535,
      "公务": 7536,
      "及其": 7537,
      "变焦": 7538,
      "湖南": 7539,
      "篮球": 7540,
      "词汇": 7541,
      "73": 7542,
      "华德": 7543,
      "博时": 7544,
      "感受": 7545,
      "的球队": 7546,
      "研发": 7547,
      "评估": 7548,
      "ity": 7549,
      "地震": 7550,
      "5000": 7551,
      "不可能": 7552,
      "俄罗斯": 7553,
      "公众": 7554,
      "奖学金": 7555,
      "暂时": 7556,
      "而不是": 7557,
      "__": 7558,
      "下游": 7559,
      "依据": 7560,
      "前景": 7561,
      "原来": 7562,
      "爆发": 7563,
      "的不": 7564,
      "ows": 7565,
      "CP": 7566,
      "TD": 7567,
      "出去": 7568,
      "矿石": 7569,
      "198": 7570,
      "为2": 7571,
      "减仓": 7572,
      "女排": 7573,
      "用的": 7574,
      "陷入": 7575,
      "艺术类": 7576,
      "我也": 7577,
      "每次": 7578,
      "马克": 7579,
      "//": 7580,
      "31日": 7581,
      "个股": 7582,
      "名的": 7583,
      "性格": 7584,
      "淘汰": 7585,
      "热火": 7586,
      "成为了": 7587,
      "他表示": 7588,
      "维奇": 7589,
      "超级": 7590,
      "上市公司": 7591,
      "Android": 7592,
      "公务员": 7593,
      "一代": 7594,
      "后者": 7595,
      "外援": 7596,
      "大连": 7597,
      "青年": 7598,
      "的可能性": 7599,
      "百分点": 7600,
      "ir": 7601,
      "为此": 7602,
      "召开": 7603,
      "国奥": 7604,
      "年初": 7605,
      "购物": 7606,
      "关注的": 7607,
      "99元": 7608,
      "为1": 7609,
      "从来": 7610,
      "多种": 7611,
      "焦炭": 7612,
      "称为": 7613,
      "稳健": 7614,
      "财政": 7615,
      "进步": 7616,
      "陆续": 7617,
      "以为": 7618,
      "听力": 7619,
      "报讯": 7620,
      "类型": 7621,
      "里面": 7622,
      "研究中心": 7623,
      "程度上": 7624,
      "95": 7625,
      "今后": 7626,
      "机型": 7627,
      "过的": 7628,
      "基本上": 7629,
      "阿森": 7630,
      "原本": 7631,
      "河南": 7632,
      "组图": 7633,
      "警方": 7634,
      "运会": 7635,
      "金牌": 7636,
      "www": 7637,
      "63": 7638,
      "个性": 7639,
      "传球": 7640,
      "大纲": 7641,
      "尚未": 7642,
      "感兴趣": 7643,
      "我在": 7644,
      "确保": 7645,
      "阿森纳": 7646,
      "不知": 7647,
      "二是": 7648,
      "克尔": 7649,
      "地点": 7650,
      "考察": 7651,
      "净值增长": 7652,
      "承诺": 7653,
      "搭载": 7654,
      "春节": 7655,
      "登录": 7656,
      "设立": 7657,
      "高分": 7658,
      "2004年": 7659,
      "tp": 7660,
      "上看": 7661,
      "复出": 7662,
      "她说": 7663,
      "季后": 7664,
      "票房": 7665,
      "优先": 7666,
      "宽松": 7667,
      "开户": 7668,
      "新加坡": 7669,
      "自我": 7670,
      "西亚": 7671,
      "详细": 7672,
      "教育考试院": 7673,
      "办学": 7674,
      "单词": 7675,
      "参赛": 7676,
      "夏天": 7677,
      "多家": 7678,
      "威胁": 7679,
      "打算": 7680,
      "收到": 7681,
      "沈阳": 7682,
      "的需求": 7683,
      "金价": 7684,
      "下调": 7685,
      "的好": 7686,
      "蓝筹": 7687,
      "门将": 7688,
      "考生在": 7689,
      "SP": 7690,
      "下载": 7691,
      "估计": 7692,
      "教材": 7693,
      "的首": 7694,
      "内置": 7695,
      "前往": 7696,
      "方达": 7697,
      "此后": 7698,
      "深入": 7699,
      "还能": 7700,
      "比赛的": 7701,
      "月25日": 7702,
      "短期内": 7703,
      "失败": 7704,
      "工商": 7705,
      "67": 7706,
      "积累": 7707,
      "较高": 7708,
      "面前": 7709,
      "http": 7710,
      "季后赛": 7711,
      "出来的": 7712,
      "导师": 7713,
      "并在": 7714,
      "支球队": 7715,
      "每日": 7716,
      "英格兰": 7717,
      "过了": 7718,
      "里尼奥": 7719,
      "最后一": 7720,
      "5个": 7721,
      "印度": 7722,
      "合适": 7723,
      "复读": 7724,
      "家的": 7725,
      "for": 7726,
      "一路": 7727,
      "乔布斯": 7728,
      "在国内": 7729,
      "扮演": 7730,
      "新疆": 7731,
      "本来": 7732,
      "特长": 7733,
      "赛事": 7734,
      "这场": 7735,
      "马上": 7736,
      "86": 7737,
      "斯的": 7738,
      "易方达": 7739,
      "星期": 7740,
      "盛大": 7741,
      "还可以": 7742,
      "行业的": 7743,
      "87": 7744,
      "ob": 7745,
      "了很多": 7746,
      "公共": 7747,
      "家人": 7748,
      "我认为": 7749,
      "提交": 7750,
      "良好": 7751,
      "不错的": 7752,
      "上演": 7753,
      "中期": 7754,
      "争议": 7755,
      "单反": 7756,
      "开盘": 7757,
      "魔术": 7758,
      "Windows": 7759,
      "上一": 7760,
      "很少": 7761,
      "第五": 7762,
      "选项": 7763,
      "我们在": 7764,
      "一对多": 7765,
      "VC": 7766,
      "月2日": 7767,
      "与此同时": 7768,
      "83": 7769,
      "出手": 7770,
      "外语": 7771,
      "自考": 7772,
      "财务": 7773,
      "铁矿石": 7774,
      "指数基金": 7775,
      "发布会": 7776,
      "op": 7777,
      "主流": 7778,
      "发放": 7779,
      "她们": 7780,
      "比0": 7781,
      "男人": 7782,
      "约翰": 7783,
      "可能是": 7784,
      "货币政策": 7785,
      "TV": 7786,
      "ul": 7787,
      "另一个": 7788,
      "攻击": 7789,
      "电池": 7790,
      "谈判": 7791,
      "铜价": 7792,
      "选择了": 7793,
      "这一点": 7794,
      "150": 7795,
      "变动": 7796,
      "基亚": 7797,
      "成人": 7798,
      "知识点": 7799,
      "填报志愿": 7800,
      "为何": 7801,
      "债务": 7802,
      "单独": 7803,
      "对阵": 7804,
      "截止": 7805,
      "搭配": 7806,
      "有机会": 7807,
      "观看": 7808,
      "迎来": 7809,
      "工作的": 7810,
      "二级": 7811,
      "大陆": 7812,
      "布朗": 7813,
      "新赛季": 7814,
      "此时": 7815,
      "男子": 7816,
      "队在": 7817,
      "2012年": 7818,
      "PE": 7819,
      "制定": 7820,
      "团购": 7821,
      "对外": 7822,
      "模拟": 7823,
      "沪铜": 7824,
      "中国电信": 7825,
      "信贷": 7826,
      "医学": 7827,
      "在上海": 7828,
      "技巧": 7829,
      "活跃": 7830,
      "看法": 7831,
      "考虑到": 7832,
      "主力合约": 7833,
      "se": 7834,
      "偶像": 7835,
      "剧组": 7836,
      "校园": 7837,
      "PTA": 7838,
      "中文": 7839,
      "反而": 7840,
      "接到": 7841,
      "收获": 7842,
      "改善": 7843,
      "未来的": 7844,
      "考证": 7845,
      "月23日": 7846,
      "79": 7847,
      "ap": 7848,
      "ut": 7849,
      "下去": 7850,
      "出售": 7851,
      "到期": 7852,
      "战绩": 7853,
      "推进": 7854,
      "爸爸": 7855,
      "线上": 7856,
      "英雄": 7857,
      "违规": 7858,
      "霆锋": 7859,
      "争取": 7860,
      "成员": 7861,
      "更好的": 7862,
      "泰达": 7863,
      "版本": 7864,
      "证实": 7865,
      "谈到": 7866,
      "财富": 7867,
      "面向": 7868,
      "所有的": 7869,
      "一段时间": 7870,
      "兴奋": 7871,
      "千万": 7872,
      "同一": 7873,
      "它们": 7874,
      "看出": 7875,
      "CO": 7876,
      "农村": 7877,
      "平板": 7878,
      "文字": 7879,
      "杭州": 7880,
      "覆盖": 7881,
      "AT": 7882,
      "C罗": 7883,
      "储备": 7884,
      "往年": 7885,
      "接下来": 7886,
      "适当": 7887,
      "首席": 7888,
      ">>": 7889,
      "可见": 7890,
      "尼尔": 7891,
      "新人": 7892,
      "诺基亚": 7893,
      "月22日": 7894,
      "智能手机": 7895,
      "82": 7896,
      "减产": 7897,
      "初中": 7898,
      "月27日": 7899,
      "债券基金": 7900,
      "中小盘": 7901,
      "The": 7902,
      "eb": 7903,
      "他还": 7904,
      "度的": 7905,
      "是有": 7906,
      "湖北": 7907,
      "牛市": 7908,
      "究竟": 7909,
      "月21日": 7910,
      "保送": 7911,
      "变成": 7912,
      "考核": 7913,
      "53": 7914,
      "尔顿": 7915,
      "我会": 7916,
      "比去年": 7917,
      "操作系统": 7918,
      "CDMA": 7919,
      "也就": 7920,
      "回来": 7921,
      "大多": 7922,
      "女友": 7923,
      "客观": 7924,
      "想象": 7925,
      "根廷": 7926,
      "生命": 7927,
      "站在": 7928,
      "银河": 7929,
      "阿根廷": 7930,
      "08": 7931,
      "一部": 7932,
      "作出": 7933,
      "广泛": 7934,
      "强烈": 7935,
      "我和": 7936,
      "批准": 7937,
      "没能": 7938,
      "://": 7939,
      "位的": 7940,
      "促进": 7941,
      "元的": 7942,
      "大会": 7943,
      "尺寸": 7944,
      "展现": 7945,
      "当日": 7946,
      "影像": 7947,
      "收藏": 7948,
      "的东西": 7949,
      "色彩": 7950,
      "题材": 7951,
      "国际米兰": 7952,
      "一批": 7953,
      "低调": 7954,
      "整理": 7955,
      "期价": 7956,
      "近年来": 7957,
      "顾问": 7958,
      "价格的": 7959,
      "1分": 7960,
      "世博": 7961,
      "也能": 7962,
      "巨大的": 7963,
      "昨晚": 7964,
      "邮件": 7965,
      "考试的": 7966,
      "ev": 7967,
      "一边": 7968,
      "否则": 7969,
      "国米": 7970,
      "对焦": 7971,
      "引进": 7972,
      "高端": 7973,
      "可以在": 7974,
      "应该是": 7975,
      "SD": 7976,
      "产能": 7977,
      "准考证": 7978,
      "医生": 7979,
      "同意": 7980,
      "天的": 7981,
      "彻底": 7982,
      "摩托": 7983,
      "的两": 7984,
      "穆里尼奥": 7985,
      "背后": 7986,
      "荷兰": 7987,
      "超越": 7988,
      "发布的": 7989,
      "un": 7990,
      "主管": 7991,
      "性和": 7992,
      "本山": 7993,
      "统考": 7994,
      "网游": 7995,
      "转型": 7996,
      "97": 7997,
      "子的": 7998,
      "态势": 7999,
      "特征": 8000,
      "环保": 8001,
      "直播": 8002,
      "高三": 8003,
      "企业的": 8004,
      "一张": 8005,
      "债基": 8006,
      "监督": 8007,
      "规律": 8008,
      "题的": 8009,
      "月29日": 8010,
      "月26日": 8011,
      "92": 8012,
      "。《": 8013,
      "上去": 8014,
      "号码": 8015,
      "四个": 8016,
      "来源": 8017,
      "现身": 8018,
      "疯狂": 8019,
      "远远": 8020,
      "高考成绩": 8021,
      "背景下": 8022,
      "ly": 8023,
      "中旬": 8024,
      "修改": 8025,
      "声音": 8026,
      "摩根": 8027,
      "暂停": 8028,
      "贴吧": 8029,
      "转换": 8030,
      "这对": 8031,
      "av": 8032,
      "各自": 8033,
      "差异": 8034,
      "来讲": 8035,
      "构成": 8036,
      "等级": 8037,
      "给他": 8038,
      "给我": 8039,
      "颁奖": 8040,
      "即可": 8041,
      "就读": 8042,
      "尴尬": 8043,
      "推出的": 8044,
      "特的": 8045,
      "这类": 8046,
      "高层": 8047,
      "万手": 8048,
      "数的": 8049,
      "春晚": 8050,
      "杰克": 8051,
      "洪波": 8052,
      "糖价": 8053,
      "营收": 8054,
      "该剧": 8055,
      "过于": 8056,
      "陕西": 8057,
      "如果你": 8058,
      "为止": 8059,
      "之所以": 8060,
      "互动": 8061,
      "其它": 8062,
      "排行": 8063,
      "播出": 8064,
      "银华": 8065,
      "投资的": 8066,
      "94": 8067,
      "PC": 8068,
      "”(": 8069,
      "不上": 8070,
      "做法": 8071,
      "周刊": 8072,
      "大约": 8073,
      "尽量": 8074,
      "弱势": 8075,
      "有什么": 8076,
      "白银": 8077,
      "算是": 8078,
      "豆油": 8079,
      "这就是": 8080,
      "是一种": 8081,
      "不想": 8082,
      "他也": 8083,
      "尼亚": 8084,
      "届时": 8085,
      "打破": 8086,
      "排在": 8087,
      "日子": 8088,
      "由此": 8089,
      "这场比赛": 8090,
      "———": 8091,
      "同比增长": 8092,
      "一段": 8093,
      "不但": 8094,
      "人都": 8095,
      "优质": 8096,
      "传奇": 8097,
      "体检": 8098,
      "名为": 8099,
      "西安": 8100,
      "71": 8101,
      "兴业": 8102,
      "别的": 8103,
      "场均": 8104,
      "大概": 8105,
      "次助攻": 8106,
      "螺纹": 8107,
      "最高的": 8108,
      "不在": 8109,
      "学业": 8110,
      "有没有": 8111,
      "漂亮": 8112,
      "率先": 8113,
      "红利": 8114,
      "见面": 8115,
      "赛前": 8116,
      "门槛": 8117,
      "ation": 8118,
      "仅为": 8119,
      "信任": 8120,
      "基地": 8121,
      "填写": 8122,
      "将继续": 8123,
      "效应": 8124,
      "无奈": 8125,
      "是对": 8126,
      "登记": 8127,
      "节奏": 8128,
      "我要评论": 8129,
      "84": 8130,
      "会员": 8131,
      "剧本": 8132,
      "名额": 8133,
      "女人": 8134,
      "带领": 8135,
      "慈善": 8136,
      "曾在": 8137,
      "流通": 8138,
      "的位置": 8139,
      "离婚": 8140,
      "采购": 8141,
      "成交量": 8142,
      "中间": 8143,
      "审核": 8144,
      "拍戏": 8145,
      "状元": 8146,
      "过来": 8147,
      "沪深300": 8148,
      "不妨": 8149,
      "出演": 8150,
      "大大": 8151,
      "对抗": 8152,
      "式的": 8153,
      "省级": 8154,
      "获取": 8155,
      "调剂": 8156,
      "两种": 8157,
      "他认为": 8158,
      "其余": 8159,
      "到来": 8160,
      "回调": 8161,
      "将来": 8162,
      "带动": 8163,
      "应当": 8164,
      "浏览": 8165,
      "生日": 8166,
      "迹象": 8167,
      "相关的": 8168,
      "4个": 8169,
      "优选": 8170,
      "发出": 8171,
      "家里": 8172,
      "心里": 8173,
      "放松": 8174,
      "英镑": 8175,
      "液晶电视": 8176,
      "上下": 8177,
      "回忆": 8178,
      "国足": 8179,
      "密码": 8180,
      "总决赛": 8181,
      "早已": 8182,
      "流行": 8183,
      "分别是": 8184,
      "清华大学": 8185,
      "数码相机": 8186,
      "有利于": 8187,
      "96": 8188,
      "伊朗": 8189,
      "实名": 8190,
      "招商": 8191,
      "机械": 8192,
      "留下": 8193,
      "的关系": 8194,
      "美丽": 8195,
      "较大的": 8196,
      "随时": 8197,
      "证券投资": 8198,
      "ct": 8199,
      "也不会": 8200,
      "发言": 8201,
      "富通": 8202,
      "广发": 8203,
      "必然": 8204,
      "深刻": 8205,
      "腾讯": 8206,
      "观望": 8207,
      "重组": 8208,
      "促销": 8209,
      "唱片": 8210,
      "回升": 8211,
      "圣诞": 8212,
      "德华": 8213,
      "美分": 8214,
      "食品": 8215,
      "饰演": 8216,
      "30分": 8217,
      "人气": 8218,
      "加工": 8219,
      "多了": 8220,
      "季报": 8221,
      "提到": 8222,
      "权益": 8223,
      "留在": 8224,
      "的目标": 8225,
      "竟然": 8226,
      "结算": 8227,
      "青睐": 8228,
      "鲁能": 8229,
      "10年": 8230,
      "分析人士": 8231,
      "在这里": 8232,
      "ot": 8233,
      "主办": 8234,
      "以外": 8235,
      "完整": 8236,
      "工资": 8237,
      "排除": 8238,
      "易建": 8239,
      "盘中": 8240,
      "谢霆锋": 8241,
      "走出": 8242,
      "走向": 8243,
      "重量": 8244,
      "中华": 8245,
      "也没": 8246,
      "名称": 8247,
      "向记者": 8248,
      "尊重": 8249,
      "开拓": 8250,
      "论文": 8251,
      "低迷": 8252,
      "处罚": 8253,
      "富国": 8254,
      "小学": 8255,
      "的生活": 8256,
      "考验": 8257,
      "让我们": 8258,
      "那种": 8259,
      "180": 8260,
      "娱乐圈": 8261,
      "易建联": 8262,
      "St": 8263,
      "ex": 8264,
      "公益": 8265,
      "夺得": 8266,
      "热身": 8267,
      "赚钱": 8268,
      "郑州": 8269,
      "题型": 8270,
      "2008": 8271,
      "sh": 8272,
      "依靠": 8273,
      "备考": 8274,
      "妻子": 8275,
      "打开": 8276,
      "欧冠": 8277,
      "笔试": 8278,
      "青少年": 8279,
      "09年": 8280,
      "不住": 8281,
      "供需": 8282,
      "引导": 8283,
      "整合": 8284,
      "达成": 8285,
      "连胜": 8286,
      "高开": 8287,
      "记者从": 8288,
      "硕士学位": 8289,
      ")；": 8290,
      "却是": 8291,
      "总分": 8292,
      "类的": 8293,
      "解读": 8294,
      "----": 8295,
      "传出": 8296,
      "加息": 8297,
      "可在": 8298,
      "地理": 8299,
      "尔的": 8300,
      "尽快": 8301,
      "建仓": 8302,
      "成就": 8303,
      "打了": 8304,
      "打得": 8305,
      "版权": 8306,
      "级的": 8307,
      "罗拉": 8308,
      "能在": 8309,
      "北京大学": 8310,
      "2分": 8311,
      "人在": 8312,
      "伤病": 8313,
      "华谊": 8314,
      "场景": 8315,
      "布局": 8316,
      "情感": 8317,
      "爱的": 8318,
      "科研": 8319,
      "还没": 8320,
      "高度": 8321,
      "高点": 8322,
      "经济学": 8323,
      "our": 8324,
      "iPad": 8325,
      "光学变焦": 8326,
      "仪式": 8327,
      "常规": 8328,
      "强化": 8329,
      "心的": 8330,
      "舞蹈": 8331,
      "赵本山": 8332,
      "逻辑": 8333,
      "阿泰": 8334,
      "高速": 8335,
      "重要的是": 8336,
      "两个月": 8337,
      "61": 8338,
      "一条": 8339,
      "二季度": 8340,
      "周杰": 8341,
      "在内的": 8342,
      "学分": 8343,
      "画面": 8344,
      "维斯": 8345,
      "走高": 8346,
      "高出": 8347,
      "00万": 8348,
      "参考价格": 8349,
      "摄像头": 8350,
      "pe": 8351,
      "ur": 8352,
      "为例": 8353,
      "仅有": 8354,
      "惠普": 8355,
      "福建": 8356,
      "高校招生": 8357,
      "硕士研究生": 8358,
      "LED": 8359,
      "云南": 8360,
      "任意": 8361,
      "信号": 8362,
      "凌晨": 8363,
      "多元": 8364,
      "女性": 8365,
      "婚姻": 8366,
      "开幕": 8367,
      "投机": 8368,
      "拍卖": 8369,
      "西部": 8370,
      "大家都": 8371,
      "更多信息请访问": 8372,
      "2个": 8373,
      "PS": 8374,
      "农民": 8375,
      "占比": 8376,
      "回家": 8377,
      "增持": 8378,
      "环比": 8379,
      "他们在": 8380,
      "孩子的": 8381,
      "资产管理": 8382,
      "货币基金": 8383,
      "不及": 8384,
      "子女": 8385,
      "安德": 8386,
      "打进": 8387,
      "明白": 8388,
      "积分": 8389,
      "违法": 8390,
      "银行的": 8391,
      "月24日": 8392,
      "周三": 8393,
      "我很": 8394,
      "棋手": 8395,
      "比亚": 8396,
      "男生": 8397,
      "退出": 8398,
      "释放": 8399,
      "ina": 8400,
      "火箭队": 8401,
      "大跌": 8402,
      "弗格": 8403,
      "当初": 8404,
      "效力": 8405,
      "葡萄": 8406,
      "新浪高考": 8407,
      "期货价格": 8408,
      "弗格森": 8409,
      "Hz": 8410,
      "em": 8411,
      "上映": 8412,
      "中等": 8413,
      "区别": 8414,
      "听到": 8415,
      "更大": 8416,
      "本土": 8417,
      "相互": 8418,
      "英文": 8419,
      "真正的": 8420,
      "QDII基金": 8421,
      "05": 8422,
      "品质": 8423,
      "的风险": 8424,
      "补充": 8425,
      "贝尔": 8426,
      "阅卷": 8427,
      "队长": 8428,
      "4分": 8429,
      "中信": 8430,
      "仍有": 8431,
      "总额": 8432,
      "每个人": 8433,
      "第六": 8434,
      "000元": 8435,
      "新浪高考频道": 8436,
      "91": 8437,
      "下半场": 8438,
      "医疗": 8439,
      "华商": 8440,
      "市值": 8441,
      "本届": 8442,
      "梅西": 8443,
      "相反": 8444,
      "股的": 8445,
      "规定的": 8446,
      "明显的": 8447,
      "师范大学": 8448,
      "CBA": 8449,
      "动态": 8450,
      "受益": 8451,
      "感动": 8452,
      "我希望": 8453,
      "是最": 8454,
      "的老": 8455,
      "的能力": 8456,
      "豆粕": 8457,
      "较低": 8458,
      "高洪波": 8459,
      "命中率": 8460,
      "CPI": 8461,
      "一开始": 8462,
      "反复": 8463,
      "大成": 8464,
      "女孩": 8465,
      "富士": 8466,
      "平稳": 8467,
      "机器": 8468,
      "杠杆": 8469,
      "芯片": 8470,
      "雅虎": 8471,
      "时间内": 8472,
      "螺纹钢": 8473,
      "体制": 8474,
      "好了": 8475,
      "提示": 8476,
      "本月": 8477,
      "球星": 8478,
      "的学校": 8479,
      "的态度": 8480,
      "自信": 8481,
      "资讯": 8482,
      "马丁": 8483,
      "历史上": 8484,
      "93": 8485,
      "全新": 8486,
      "分化": 8487,
      "医药": 8488,
      "早在": 8489,
      "明天": 8490,
      "本轮": 8491,
      "河北": 8492,
      "治疗": 8493,
      "秘密": 8494,
      "试点": 8495,
      "公布了": 8496,
      "的比赛中": 8497,
      "不满": 8498,
      "光大": 8499,
      "免试": 8500,
      "华人": 8501,
      "哲学": 8502,
      "四季度": 8503,
      "在香港": 8504,
      "多名": 8505,
      "布拉": 8506,
      "布鲁": 8507,
      "暴跌": 8508,
      "汇率": 8509,
      "知情": 8510,
      "自行": 8511,
      "解析": 8512,
      "豪门": 8513,
      "考试成绩": 8514,
      "04": 8515,
      "传中": 8516,
      "保留": 8517,
      "可惜": 8518,
      "图像": 8519,
      "坐在": 8520,
      "外盘": 8521,
      "太大": 8522,
      "就不": 8523,
      "平安": 8524,
      "折价": 8525,
      "接收": 8526,
      "最新的": 8527,
      "有时": 8528,
      "此事": 8529,
      "毫不": 8530,
      "获利": 8531,
      "要有": 8532,
      "调研": 8533,
      "20分": 8534,
      "相当于": 8535,
      "摩托罗拉": 8536,
      "两天": 8537,
      "件事": 8538,
      "出发": 8539,
      "增速": 8540,
      "存储": 8541,
      "安东": 8542,
      "开通": 8543,
      "旗下的": 8544,
      "高考论坛": 8545,
      "高考博客圈": 8546,
      "高考信息请访问": 8547,
      "高考贴吧": 8548,
      "参加了": 8549,
      "更多高考信息请访问": 8550,
      "80元": 8551,
      "注意的是": 8552,
      "经历了": 8553,
      "编辑点评": 8554,
      "两大": 8555,
      "个别": 8556,
      "凯尔特": 8557,
      "头球": 8558,
      "威廉": 8559,
      "得很": 8560,
      "有色": 8561,
      "松下": 8562,
      "标志": 8563,
      "相似": 8564,
      "硬盘": 8565,
      "聊天": 8566,
      "机构的": 8567,
      "业务的": 8568,
      "出色的": 8569,
      "封闭式基金": 8570,
      "临时": 8571,
      "传言": 8572,
      "再加上": 8573,
      "加速": 8574,
      "华安": 8575,
      "手术": 8576,
      "照顾": 8577,
      "缩水": 8578,
      "输入": 8579,
      "那里": 8580,
      "马刺": 8581,
      "骑士": 8582,
      "地区的": 8583,
      "成立的": 8584,
      "ge": 8585,
      "od": 8586,
      "下来的": 8587,
      "全年": 8588,
      "内存": 8589,
      "区的": 8590,
      "委托": 8591,
      "将有": 8592,
      "推出了": 8593,
      "机关": 8594,
      "看着": 8595,
      "讲述": 8596,
      "都可以": 8597,
      "问到": 8598,
      "一定会": 8599,
      "全球经济": 8600,
      "高等教育": 8601,
      "GA": 8602,
      "价比": 8603,
      "分校": 8604,
      "十大": 8605,
      "反对": 8606,
      "奇才": 8607,
      "好好": 8608,
      "感光": 8609,
      "约为": 8610,
      "零售": 8611,
      "第二次": 8612,
      "art": 8613,
      "职业生涯": 8614,
      "公募基金": 8615,
      "两名": 8616,
      "也被": 8617,
      "人口": 8618,
      "定期": 8619,
      "扩展": 8620,
      "查看": 8621,
      "竞赛": 8622,
      "线的": 8623,
      "诸多": 8624,
      "转移": 8625,
      "时间为": 8626,
      "这个问题": 8627,
      "场比赛中": 8628,
      "发生了": 8629,
      "ill": 8630,
      "杰克逊": 8631,
      "Tw": 8632,
      "UN": 8633,
      "ak": 8634,
      "上行": 8635,
      "下面": 8636,
      "不利": 8637,
      "不起": 8638,
      "五年": 8639,
      "亲自": 8640,
      "助理": 8641,
      "围绕": 8642,
      "对其": 8643,
      "巴巴": 8644,
      "显卡": 8645,
      "晋级": 8646,
      "海富通": 8647,
      "演绎": 8648,
      "物质": 8649,
      "禁止": 8650,
      "考生可": 8651,
      "显示屏": 8652,
      "传感": 8653,
      "国泰": 8654,
      "有过": 8655,
      "立刻": 8656,
      "自从": 8657,
      "销量": 8658,
      "锦标": 8659,
      "同学们": 8660,
      "会的": 8661,
      "但我": 8662,
      "又是": 8663,
      "广西": 8664,
      "德纲": 8665,
      "接着": 8666,
      "有多": 8667,
      "氛围": 8668,
      "油脂": 8669,
      "澳洲": 8670,
      "的三": 8671,
      "的结果": 8672,
      "皮球": 8673,
      "立即": 8674,
      "读书": 8675,
      "已经在": 8676,
      "带来了": 8677,
      "也就是说": 8678,
      "斯科拉": 8679,
      ")：": 8680,
      "不变": 8681,
      "分类": 8682,
      "卡特": 8683,
      "如下": 8684,
      "将球": 8685,
      "平行": 8686,
      "或是": 8687,
      "战争": 8688,
      "缓解": 8689,
      "郭德纲": 8690,
      "价格上涨": 8691,
      "ink": 8692,
      "这一次": 8693,
      "360": 8694,
      "81": 8695,
      "一人": 8696,
      "上半场": 8697,
      "业界": 8698,
      "从未": 8699,
      "入选": 8700,
      "卖出": 8701,
      "反击": 8702,
      "和家长": 8703,
      "学会": 8704,
      "托雷斯": 8705,
      "有一些": 8706,
      "某些": 8707,
      "的信息": 8708,
      "的数据": 8709,
      "转变": 8710,
      "锻炼": 8711,
      "阿德": 8712,
      "10分": 8713,
      "保值": 8714,
      "刘德华": 8715,
      "加快": 8716,
      "口语": 8717,
      "国务": 8718,
      "塞尔": 8719,
      "将成为": 8720,
      "征集": 8721,
      "拉开": 8722,
      "搭档": 8723,
      "时机": 8724,
      "晓明": 8725,
      "社交": 8726,
      "群体": 8727,
      "之前的": 8728,
      "第三方": 8729,
      "分辨率": 8730,
      "07": 8731,
      "也表示": 8732,
      "全文": 8733,
      "周二": 8734,
      "得知": 8735,
      "投放": 8736,
      "本市": 8737,
      "要想": 8738,
      "第一志愿": 8739,
      "外国语": 8740,
      "锦标赛": 8741,
      "人大": 8742,
      "前三": 8743,
      "化工": 8744,
      "备受": 8745,
      "引擎": 8746,
      "成龙": 8747,
      "的选择": 8748,
      "这项": 8749,
      "ore": 8750,
      "仍在": 8751,
      "仔细": 8752,
      "大师": 8753,
      "差不多": 8754,
      "强大的": 8755,
      "承受": 8756,
      "最多的": 8757,
      "杉矶": 8758,
      "案件": 8759,
      "洛杉矶": 8760,
      "的过程": 8761,
      "融合": 8762,
      "美国的": 8763,
      "从业": 8764,
      "手中": 8765,
      "拉斯": 8766,
      "的公司": 8767,
      "认定": 8768,
      "身高": 8769,
      "统计显示": 8770,
      "举行的": 8771,
      "持仓量": 8772,
      "’，": 8773,
      "六级": 8774,
      "劳动": 8775,
      "各国": 8776,
      "广播": 8777,
      "提问": 8778,
      "流量": 8779,
      "用了": 8780,
      "真是": 8781,
      "第十": 8782,
      "翻译": 8783,
      "MS": 8784,
      "多单": 8785,
      "广角": 8786,
      "掘金": 8787,
      "是我": 8788,
      "每月": 8789,
      "的感觉": 8790,
      "的关键": 8791,
      "看起来": 8792,
      "罗马": 8793,
      "要在": 8794,
      "退役": 8795,
      "上海市": 8796,
      "发行的": 8797,
      "简单的": 8798,
      "排行榜": 8799,
      "MI": 8800,
      "Pad": 8801,
      "一系列": 8802,
      "但这": 8803,
      "出战": 8804,
      "名人": 8805,
      "很可能": 8806,
      "性价比": 8807,
      "老公": 8808,
      "管理的": 8809,
      "国务院": 8810,
      "010": 8811,
      "也不是": 8812,
      "停止": 8813,
      "参数": 8814,
      "家基金公司": 8815,
      "尼克斯": 8816,
      "征求": 8817,
      "携带": 8818,
      "既然": 8819,
      "期望": 8820,
      "气氛": 8821,
      "潜力": 8822,
      "环球": 8823,
      "看到了": 8824,
      "纪念": 8825,
      "美联": 8826,
      "已经开始": 8827,
      "球员的": 8828,
      "减持": 8829,
      "同等": 8830,
      "在网上": 8831,
      "子怡": 8832,
      "官员": 8833,
      "对待": 8834,
      "描述": 8835,
      "日常": 8836,
      "最重要的": 8837,
      "破门": 8838,
      "简称": 8839,
      "绯闻": 8840,
      "edu": 8841,
      "02": 8842,
      "不一样": 8843,
      "商城": 8844,
      "密切": 8845,
      "才会": 8846,
      "拍照": 8847,
      "港元": 8848,
      "爆料": 8849,
      "空头": 8850,
      "类专业": 8851,
      "说了": 8852,
      "面上": 8853,
      "的基础上": 8854,
      "01": 8855,
      "决策": 8856,
      "十足": 8857,
      "哪里": 8858,
      "失去": 8859,
      "独家": 8860,
      "登陆": 8861,
      "道路": 8862,
      "麦克": 8863,
      "去年同期": 8864,
      "ome": 8865,
      "创业板": 8866,
      "传感器": 8867,
      "★★": 8868,
      "万桶": 8869,
      "全队": 8870,
      "她在": 8871,
      "美女": 8872,
      "考前": 8873,
      "跌破": 8874,
      "发表评论": 8875,
      "QQ": 8876,
      "予以": 8877,
      "增值": 8878,
      "大战": 8879,
      "对我": 8880,
      "的交易": 8881,
      "的作用": 8882,
      "保证金": 8883,
      "ive": 8884,
      "USB": 8885,
      "之内": 8886,
      "会不会": 8887,
      "全线": 8888,
      "冲刺": 8889,
      "分手": 8890,
      "均为": 8891,
      "对话": 8892,
      "将比分": 8893,
      "巴黎": 8894,
      "打电话": 8895,
      "是非常": 8896,
      "生意": 8897,
      "的手机": 8898,
      "的比例": 8899,
      "真题": 8900,
      "签订": 8901,
      "而不": 8902,
      "通道": 8903,
      "的一种": 8904,
      "商品市场": 8905,
      "不仅仅": 8906,
      "7分": 8907,
      "MV": 8908,
      "are": 8909,
      "三个月": 8910,
      "下挫": 8911,
      "便宜": 8912,
      "周末": 8913,
      "每一个": 8914,
      "煤炭": 8915,
      "的就是": 8916,
      "的预期": 8917,
      "职位": 8918,
      "跌停": 8919,
      "转债": 8920,
      "青岛": 8921,
      "最后的": 8922,
      "优秀的": 8923,
      "AA": 8924,
      "东北": 8925,
      "中介": 8926,
      "交割": 8927,
      "亮点": 8928,
      "伙伴": 8929,
      "增仓": 8930,
      "失望": 8931,
      "恐怕": 8932,
      "是为了": 8933,
      "绿色": 8934,
      "记得": 8935,
      "车队": 8936,
      "超过了": 8937,
      "私募基金": 8938,
      "阿里巴巴": 8939,
      "ne": 8940,
      "了自己的": 8941,
      "二人": 8942,
      "休斯": 8943,
      "八一": 8944,
      "慢慢": 8945,
      "据香港": 8946,
      "没想到": 8947,
      "爱好": 8948,
      "精力": 8949,
      "网吧": 8950,
      "诉讼": 8951,
      "那就是": 8952,
      "降至": 8953,
      "韦德": 8954,
      "录取的": 8955,
      "不停": 8956,
      "了不少": 8957,
      "先进": 8958,
      "分布": 8959,
      "同类": 8960,
      "年内": 8961,
      "招考": 8962,
      "李晓": 8963,
      "民生": 8964,
      "的经济": 8965,
      "认购": 8966,
      "资深": 8967,
      "这就": 8968,
      "都将": 8969,
      "10万": 8970,
      "科技大学": 8971,
      "年轻人": 8972,
      "MB": 8973,
      "图书": 8974,
      "大众": 8975,
      "家公司": 8976,
      "投诉": 8977,
      "模特": 8978,
      "的状态": 8979,
      "章子怡": 8980,
      "顶级": 8981,
      "麦蒂": 8982,
      "龙江": 8983,
      "自己在": 8984,
      "9元": 8985,
      "一提": 8986,
      "中新": 8987,
      "亚军": 8988,
      "保费": 8989,
      "入了": 8990,
      "全力": 8991,
      "初步": 8992,
      "原理": 8993,
      "场面": 8994,
      "大涨": 8995,
      "委会": 8996,
      "定价": 8997,
      "小孩": 8998,
      "开设": 8999,
      "形容": 9000,
      "打球": 9001,
      "流程": 9002,
      "的变化": 9003,
      "红色": 9004,
      "足联": 9005,
      "过后": 9006,
      "高管": 9007,
      "that": 9008,
      "上周五": 9009,
      "高等学校": 9010,
      "理工大学": 9011,
      "3D": 9012,
      "IA": 9013,
      "IF": 9014,
      "ss": 9015,
      "一块": 9016,
      "倍光学变焦": 9017,
      "创下": 9018,
      "发的": 9019,
      "命运": 9020,
      "好像": 9021,
      "幸运": 9022,
      "日期": 9023,
      "联考": 9024,
      "评级": 9025,
      "逆转": 9026,
      "第一时间": 9027,
      "社会主义": 9028,
      "股票型": 9029,
      "不出": 9030,
      "与其": 9031,
      "为3": 9032,
      "创意": 9033,
      "半决赛": 9034,
      "发达": 9035,
      "犯罪": 9036,
      "而已": 9037,
      "较高的": 9038,
      "频繁": 9039,
      "进行的": 9040,
      "准备金": 9041,
      "债券型基金": 9042,
      "葡萄牙": 9043,
      "安东尼": 9044,
      "ile": 9045,
      "上课": 9046,
      "包含": 9047,
      "南都": 9048,
      "哪个": 9049,
      "夫妇": 9050,
      "或将": 9051,
      "比1": 9052,
      "演艺": 9053,
      "自学": 9054,
      "说到": 9055,
      "联赛中": 9056,
      "ISO": 9057,
      "6分": 9058,
      "700": 9059,
      "DV": 9060,
      "ia": 9061,
      "一支": 9062,
      "一级": 9063,
      "低开": 9064,
      "吃饭": 9065,
      "各项": 9066,
      "就开始": 9067,
      "抓住": 9068,
      "据介绍": 9069,
      "掉了": 9070,
      "斯塔": 9071,
      "显著": 9072,
      "理性": 9073,
      "还不": 9074,
      "长春": 9075,
      "长时间": 9076,
      "革命": 9077,
      "中国人": 9078,
      "教育的": 9079,
      "网站上": 9080,
      "复旦大学": 9081,
      "03": 9082,
      "全省": 9083,
      "又有": 9084,
      "后面": 9085,
      "在前": 9086,
      "开场": 9087,
      "异常": 9088,
      "批评": 9089,
      "猜测": 9090,
      "纳斯": 9091,
      "被动": 9092,
      "说话": 9093,
      "已经是": 9094,
      "能力的": 9095,
      "媒体的": 9096,
      "这是一个": 9097,
      "实现了": 9098,
      "平板电脑": 9099,
      "you": 9100,
      "一事": 9101,
      "上方": 9102,
      "他对": 9103,
      "保罗": 9104,
      "卡卡": 9105,
      "境外": 9106,
      "备战": 9107,
      "套利": 9108,
      "封基": 9109,
      "怀疑": 9110,
      "榨季": 9111,
      "礼物": 9112,
      "祝福": 9113,
      "神秘": 9114,
      "赛中": 9115,
      "酷睿": 9116,
      "附中": 9117,
      "研究员": 9118,
      "6个": 9119,
      "ff": 9120,
      "上扬": 9121,
      "利好": 9122,
      "处在": 9123,
      "大力": 9124,
      "对他": 9125,
      "工艺": 9126,
      "师大": 9127,
      "权利": 9128,
      "的学习": 9129,
      "锁定": 9130,
      "2003年": 9131,
      "世界上": 9132,
      "9月份": 9133,
      "”，“": 9134,
      "但由于": 9135,
      "市民": 9136,
      "性感": 9137,
      "放缓": 9138,
      "敏感": 9139,
      "时报": 9140,
      "明的": 9141,
      "的优势": 9142,
      "盎司": 9143,
      "短短": 9144,
      "维护": 9145,
      "重的": 9146,
      "ard": 9147,
      "……”": 9148,
      "产业链": 9149,
      "itter": 9150,
      "出国留学": 9151,
      "亚运会": 9152,
      "受到了": 9153,
      "四大": 9154,
      "尼特": 9155,
      "开工": 9156,
      "持平": 9157,
      "收取": 9158,
      "欣赏": 9159,
      "火爆": 9160,
      "见到": 9161,
      "试图": 9162,
      "邓华德": 9163,
      "记者在": 9164,
      "第二个": 9165,
      "发布了": 9166,
      "不佳": 9167,
      "二十": 9168,
      "外汇": 9169,
      "巨头": 9170,
      "毫无": 9171,
      "白色": 9172,
      "的相关": 9173,
      "跟踪": 9174,
      "一直是": 9175,
      "完成了": 9176,
      "三分球": 9177,
      "正确的": 9178,
      "ST": 9179,
      "ri": 9180,
      "下一": 9181,
      "公牛": 9182,
      "国王": 9183,
      "多人": 9184,
      "择校": 9185,
      "授权": 9186,
      "景顺": 9187,
      "百万": 9188,
      "穿着": 9189,
      "糟糕": 9190,
      "艰难": 9191,
      "虚拟": 9192,
      "见的": 9193,
      "销商": 9194,
      "频频": 9195,
      "颜色": 9196,
      "IX": 9197,
      "wh": 9198,
      "不超过": 9199,
      "专访": 9200,
      "仍是": 9201,
      "儿童": 9202,
      "公立": 9203,
      "合并": 9204,
      "名师": 9205,
      "在他": 9206,
      "攻读": 9207,
      "是指": 9208,
      "男女": 9209,
      "的压力": 9210,
      "紧缩": 9211,
      "高峰": 9212,
      "学生在": 9213,
      "现货市场": 9214,
      "出版社": 9215,
      "06": 9216,
      "代码": 9217,
      "倾向": 9218,
      "公斤": 9219,
      "夫妻": 9220,
      "录音": 9221,
      "惊喜": 9222,
      "投保": 9223,
      "拓展": 9224,
      "旅行": 9225,
      "硬件": 9226,
      "触摸": 9227,
      "超出": 9228,
      "进展": 9229,
      "首轮": 9230,
      "黑龙江": 9231,
      "已经成为": 9232,
      "竞争力": 9233,
      "值得一提": 9234,
      "相应的": 9235,
      "任意球": 9236,
      "AP": 9237,
      "IC": 9238,
      "IM": 9239,
      "丁俊": 9240,
      "主演": 9241,
      "互相": 9242,
      "句子": 9243,
      "基准": 9244,
      "大奖": 9245,
      "总局": 9246,
      "戴尔": 9247,
      "无人": 9248,
      "早就": 9249,
      "档案": 9250,
      "是一款": 9251,
      "偏股型基金": 9252,
      "平行志愿": 9253,
      "丁俊晖": 9254,
      "5万": 9255,
      "Un": 9256,
      "一片": 9257,
      "上面": 9258,
      "下行": 9259,
      "之处": 9260,
      "也让": 9261,
      "介入": 9262,
      "在了": 9263,
      "持股": 9264,
      "期限": 9265,
      "燃料": 9266,
      "遭到": 9267,
      "我们会": 9268,
      "网络游戏": 9269,
      "通知书": 9270,
      "凯尔特人": 9271,
      "中锋": 9272,
      "临近": 9273,
      "合法": 9274,
      "在外": 9275,
      "垃圾": 9276,
      "大使": 9277,
      "奖项": 9278,
      "女星": 9279,
      "年前": 9280,
      "恋情": 9281,
      "攀升": 9282,
      "本地": 9283,
      "评选": 9284,
      "途径": 9285,
      "键盘": 9286,
      "基金研究中心": 9287,
      "制造业": 9288,
      "xxxx": 9289,
      "4月份": 9290,
      "8月份": 9291,
      "de": 9292,
      "事务": 9293,
      "加仓": 9294,
      "各位": 9295,
      "国民": 9296,
      "在过去": 9297,
      "大小": 9298,
      "庆祝": 9299,
      "技能": 9300,
      "缺少": 9301,
      "询问": 9302,
      "道德": 9303,
      "用户的": 9304,
      "申请人": 9305,
      "出线": 9306,
      "到现在": 9307,
      "大于": 9308,
      "小将": 9309,
      "开局": 9310,
      "更大的": 9311,
      "的那": 9312,
      "的企业": 9313,
      "种植": 9314,
      "续约": 9315,
      "走了": 9316,
      "Fac": 9317,
      "MBA": 9318,
      "Sh": 9319,
      "全新的": 9320,
      "冰冰": 9321,
      "制片": 9322,
      "南非": 9323,
      "周四": 9324,
      "定向": 9325,
      "所高校": 9326,
      "生存": 9327,
      "莱坞": 9328,
      "衍生": 9329,
      "身材": 9330,
      "原因是": 9331,
      "毕业后": 9332,
      "all": 9333,
      "越来越多": 9334,
      "传统的": 9335,
      "重仓股": 9336,
      "BM": 9337,
      "一半": 9338,
      "一部分": 9339,
      "中午": 9340,
      "他和": 9341,
      "但从": 9342,
      "助于": 9343,
      "华为": 9344,
      "听说": 9345,
      "在去年": 9346,
      "失去了": 9347,
      "学期": 9348,
      "小牛": 9349,
      "得手": 9350,
      "最初": 9351,
      "的用户": 9352,
      "直言": 9353,
      "静雯": 9354,
      "范围内": 9355,
      "Twitter": 9356,
      "美联储": 9357,
      "5元": 9358,
      "DP": 9359,
      "PVC": 9360,
      "他就": 9361,
      "元素": 9362,
      "就此": 9363,
      "居民": 9364,
      "性质": 9365,
      "成果": 9366,
      "检测": 9367,
      "足以": 9368,
      "都市": 9369,
      "欢迎发表评论": 9370,
      "值得一提的是": 9371,
      "低价": 9372,
      "副总裁": 9373,
      "卡片": 9374,
      "取胜": 9375,
      "得以": 9376,
      "户口": 9377,
      "自治": 9378,
      "贝尼特": 9379,
      "预估": 9380,
      "第一批": 9381,
      "普通高中": 9382,
      "3月份": 9383,
      "Wi": 9384,
      "一年的": 9385,
      "买卖": 9386,
      "二本": 9387,
      "亚冠": 9388,
      "作家": 9389,
      "净利润": 9390,
      "初试": 9391,
      "功夫": 9392,
      "史上": 9393,
      "对中国": 9394,
      "房子": 9395,
      "无限": 9396,
      "格斯": 9397,
      "气质": 9398,
      "点球": 9399,
      "的训练": 9400,
      "眼睛": 9401,
      "等方面": 9402,
      "老鹰": 9403,
      "表态": 9404,
      "负面": 9405,
      "赛场": 9406,
      "赵薇": 9407,
      "同时也": 9408,
      "的话题": 9409,
      "A股市场": 9410,
      "F1": 9411,
      "ie": 9412,
      "一套": 9413,
      "制的": 9414,
      "均衡": 9415,
      "实体": 9416,
      "山西": 9417,
      "并将": 9418,
      "探索": 9419,
      "溢价": 9420,
      "的同学": 9421,
      "短线": 9422,
      "这份": 9423,
      "进程": 9424,
      "10月份": 9425,
      "出现的": 9426,
      "卡塔": 9427,
      "周五": 9428,
      "国债": 9429,
      "增幅": 9430,
      "对冲": 9431,
      "担保": 9432,
      "激动": 9433,
      "的电影": 9434,
      "私人": 9435,
      "赛的": 9436,
      "顺序": 9437,
      "麻烦": 9438,
      "投资人": 9439,
      "已经有": 9440,
      "08年": 9441,
      "加剧": 9442,
      "国庆": 9443,
      "容量": 9444,
      "巨星": 9445,
      "很高": 9446,
      "戏剧": 9447,
      "更高": 9448,
      "画质": 9449,
      "的考试": 9450,
      "身价": 9451,
      "选秀": 9452,
      "除此": 9453,
      "国家的": 9454,
      "结束了": 9455,
      "现场确认": 9456,
      "1元": 9457,
      "CB": 9458,
      "MP": 9459,
      "RE": 9460,
      "Sa": 9461,
      "一波": 9462,
      "伤害": 9463,
      "其后": 9464,
      "审批": 9465,
      "布莱": 9466,
      "常常": 9467,
      "找到了": 9468,
      "罗德": 9469,
      "被录取": 9470,
      "输给": 9471,
      "迎战": 9472,
      "都没": 9473,
      "难题": 9474,
      "华夏基金": 9475,
      "ebook": 9476,
      "一只": 9477,
      "仍将": 9478,
      "利空": 9479,
      "华硕": 9480,
      "台北": 9481,
      "地球": 9482,
      "强大": 9483,
      "我现在": 9484,
      "抢断": 9485,
      "江西": 9486,
      "现状": 9487,
      "罚球": 9488,
      "经济的": 9489,
      "集中在": 9490,
      "IPO": 9491,
      "威廉姆斯": 9492,
      "130": 9493,
      "Mob": 9494,
      "一向": 9495,
      "佣金": 9496,
      "供给": 9497,
      "利的": 9498,
      "势头": 9499,
      "国有": 9500,
      "均线": 9501,
      "招聘": 9502,
      "缺席": 9503,
      "获奖": 9504,
      "贾静雯": 9505,
      "还需要": 9506,
      "部的": 9507,
      "长盛": 9508,
      "防抖": 9509,
      "。”(": 9510,
      "没有任何": 9511,
      "第四季度": 9512,
      "FII": 9513,
      "QFII": 9514,
      "一项": 9515,
      "丈夫": 9516,
      "主导": 9517,
      "之路": 9518,
      "人家": 9519,
      "做得": 9520,
      "利息": 9521,
      "前后": 9522,
      "在全国": 9523,
      "外资": 9524,
      "市的": 9525,
      "底线": 9526,
      "拜仁": 9527,
      "支出": 9528,
      "最早": 9529,
      "格式": 9530,
      "正面": 9531,
      "海南": 9532,
      "澳门": 9533,
      "爱心": 9534,
      "约合": 9535,
      "说道": 9536,
      "财产": 9537,
      "转向": 9538,
      "避险": 9539,
      "郑糖": 9540,
      "高招": 9541,
      "专业课": 9542,
      "开户数": 9543,
      "保送生": 9544,
      "720": 9545,
      "CM": 9546,
      "TO": 9547,
      "ov": 9548,
      "一流": 9549,
      "不愿": 9550,
      "交所": 9551,
      "从中": 9552,
      "佩克": 9553,
      "域名": 9554,
      "忽视": 9555,
      "总统": 9556,
      "意愿": 9557,
      "是很": 9558,
      "格里": 9559,
      "添富": 9560,
      "相继": 9561,
      "破坏": 9562,
      "风暴": 9563,
      "交易的": 9564,
      "联系方式": 9565,
      "Facebook": 9566,
      "con": 9567,
      "tel": 9568,
      "一大": 9569,
      "不敢": 9570,
      "几个月": 9571,
      "在场": 9572,
      "实质": 9573,
      "得了": 9574,
      "循环": 9575,
      "早盘": 9576,
      "有个": 9577,
      "泡沫": 9578,
      "的资金": 9579,
      "的规定": 9580,
      "监控": 9581,
      "群众": 9582,
      "这意味着": 9583,
      "防线": 9584,
      "..": 9585,
      "uc": 9586,
      "不确定": 9587,
      "为4": 9588,
      "位列": 9589,
      "做题": 9590,
      "全世界": 9591,
      "冲突": 9592,
      "喜剧": 9593,
      "意甲": 9594,
      "授予": 9595,
      "痛苦": 9596,
      "第七": 9597,
      "纳入": 9598,
      "表情": 9599,
      "让他们": 9600,
      "边缘": 9601,
      "青春": 9602,
      "ate": 9603,
      "阿泰斯特": 9604,
      "8分": 9605,
      "依赖": 9606,
      "垄断": 9607,
      "奥巴": 9608,
      "奥林": 9609,
      "就被": 9610,
      "打工": 9611,
      "提出了": 9612,
      "每吨": 9613,
      "涉嫌": 9614,
      "王亚": 9615,
      "经销商": 9616,
      "进取": 9617,
      "我们认为": 9618,
      "消息称": 9619,
      "投资者的": 9620,
      "商业银行": 9621,
      "ivers": 9622,
      "中关": 9623,
      "京东": 9624,
      "人类": 9625,
      "作战": 9626,
      "决心": 9627,
      "回国": 9628,
      "在其": 9629,
      "恒大": 9630,
      "打印": 9631,
      "控股": 9632,
      "涨停": 9633,
      "的全": 9634,
      "缩小": 9635,
      "谢谢": 9636,
      "道歉": 9637,
      "钢厂": 9638,
      "风云": 9639,
      "500元": 9640,
      "ist": 9641,
      "万户": 9642,
      "他人": 9643,
      "位居": 9644,
      "便携": 9645,
      "入场": 9646,
      "单纯": 9647,
      "发自": 9648,
      "天下": 9649,
      "是中国": 9650,
      "有时候": 9651,
      "概率": 9652,
      "玩家": 9653,
      "花费": 9654,
      "获胜": 9655,
      "评委": 9656,
      "门口": 9657,
      "防止": 9658,
      "招生办公室": 9659,
      "选择题": 9660,
      "竞争对手": 9661,
      "有效像素": 9662,
      "证券投资基金": 9663,
      "开拓者": 9664,
      "7月份": 9665,
      "人和": 9666,
      "优异": 9667,
      "例子": 9668,
      "入围": 9669,
      "右路": 9670,
      "回复": 9671,
      "在校": 9672,
      "天然": 9673,
      "好莱坞": 9674,
      "就算": 9675,
      "忘记": 9676,
      "竞技": 9677,
      "荣誉": 9678,
      "衣服": 9679,
      "识别": 9680,
      "说是": 9681,
      "返回": 9682,
      "鲁尼": 9683,
      "鹏华": 9684,
      "黄牌": 9685,
      "基金在": 9686,
      "录取分数线": 9687,
      "货币市场": 9688,
      "万像素的": 9689,
      "上线": 9690,
      "了几": 9691,
      "出于": 9692,
      "出生": 9693,
      "前一": 9694,
      "大规模": 9695,
      "奖励": 9696,
      "将对": 9697,
      "就已经": 9698,
      "挑选": 9699,
      "是以": 9700,
      "最有": 9701,
      "沪胶": 9702,
      "疑问": 9703,
      "的他": 9704,
      "的心": 9705,
      "科尔": 9706,
      "跟着": 9707,
      "钢价": 9708,
      "：《": 9709,
      "ant": 9710,
      "万元的": 9711,
      "当地时间": 9712,
      "引起了": 9713,
      "约翰逊": 9714,
      "中关村": 9715,
      "1200": 9716,
      "不懂": 9717,
      "不低于": 9718,
      "之旅": 9719,
      "嘉欣": 9720,
      "威尔": 9721,
      "新西": 9722,
      "汇添富": 9723,
      "的孩子": 9724,
      "节能": 9725,
      "走强": 9726,
      "这两个": 9727,
      "预备": 9728,
      "市场对": 9729,
      "这样一个": 9730,
      "亚洲杯": 9731,
      "9合约": 9732,
      "前场": 9733,
      "受欢迎": 9734,
      "和中国": 9735,
      "岗位": 9736,
      "当晚": 9737,
      "斯坦": 9738,
      "欧佩克": 9739,
      "片中": 9740,
      "百姓": 9741,
      "第2": 9742,
      "等人": 9743,
      "读者": 9744,
      "进军": 9745,
      "美元的": 9746,
      "美元指数": 9747,
      "综合素质": 9748,
      "贝尼特斯": 9749,
      "GS": 9750,
      "up": 9751,
      "从小": 9752,
      "多年的": 9753,
      "好转": 9754,
      "定了": 9755,
      "对应": 9756,
      "巨人": 9757,
      "并购": 9758,
      "日的": 9759,
      "是他": 9760,
      "物价": 9761,
      "美的": 9762,
      "视野": 9763,
      "走进": 9764,
      "起到": 9765,
      "2001年": 9766,
      "人士透露": 9767,
      "ther": 9768,
      "值得注意的是": 9769,
      "第四节": 9770,
      "2000年": 9771,
      "景顺长城": 9772,
      "3个月": 9773,
      "3英寸": 9774,
      "550": 9775,
      "上投": 9776,
      "两周": 9777,
      "今晚": 9778,
      "其他的": 9779,
      "在与": 9780,
      "塑料": 9781,
      "复印": 9782,
      "安徽": 9783,
      "左路": 9784,
      "席位": 9785,
      "录制": 9786,
      "恋爱": 9787,
      "扩张": 9788,
      "比2": 9789,
      "融通": 9790,
      "让她": 9791,
      "过剩": 9792,
      "道理": 9793,
      "的一次": 9794,
      "160": 9795,
      "志愿填报": 9796,
      "人士表示": 9797,
      "接受了": 9798,
      "自治区": 9799,
      "上有": 9800,
      "个百分点": 9801,
      "了一些": 9802,
      "公正": 9803,
      "出炉": 9804,
      "十一": 9805,
      "十二": 9806,
      "大S": 9807,
      "太太": 9808,
      "奖金": 9809,
      "小说": 9810,
      "就没有": 9811,
      "显现": 9812,
      "澄清": 9813,
      "物流": 9814,
      "的一些": 9815,
      "的照片": 9816,
      "网址": 9817,
      "视为": 9818,
      "门前": 9819,
      "20年": 9820,
      "基金公司的": 9821,
      "阿里扎": 9822,
      "准备金率": 9823,
      "王亚伟": 9824,
      "IBM": 9825,
      "业余": 9826,
      "书店": 9827,
      "得多": 9828,
      "我说": 9829,
      "日益": 9830,
      "是要": 9831,
      "晚会": 9832,
      "社区": 9833,
      "等到": 9834,
      "级别": 9835,
      "预选": 9836,
      "首歌": 9837,
      "希望能": 9838,
      "造成的": 9839,
      "大量的": 9840,
      "新华社": 9841,
      "据香港媒体报道": 9842,
      "也都": 9843,
      "人群": 9844,
      "价位": 9845,
      "充足": 9846,
      "危险": 9847,
      "团体": 9848,
      "困境": 9849,
      "将为": 9850,
      "机场": 9851,
      "玩笑": 9852,
      "的标准": 9853,
      "种种": 9854,
      "秒时": 9855,
      "航空": 9856,
      "西南": 9857,
      "负担": 9858,
      "连败": 9859,
      "中国足球": 9860,
      "一定程度上": 9861,
      "股票基金": 9862,
      "第三季度": 9863,
      "上证指数": 9864,
      "下旬": 9865,
      "低位": 9866,
      "保守": 9867,
      "全景": 9868,
      "创始": 9869,
      "回顾": 9870,
      "在一个": 9871,
      "将其": 9872,
      "形成了": 9873,
      "托管": 9874,
      "提振": 9875,
      "新鲜": 9876,
      "某种": 9877,
      "激情": 9878,
      "灾区": 9879,
      "省市": 9880,
      "瞬间": 9881,
      "给我们": 9882,
      "踢球": 9883,
      "陈冠": 9884,
      "难得": 9885,
      "魅力": 9886,
      "ine": 9887,
      "本科生": 9888,
      "奥巴马": 9889,
      "1合约": 9890,
      "AM": 9891,
      "man": 9892,
      "ry": 9893,
      "上学": 9894,
      "上篮": 9895,
      "了对": 9896,
      "抵达": 9897,
      "文史": 9898,
      "有意": 9899,
      "比重": 9900,
      "海洋": 9901,
      "点的": 9902,
      "的增长": 9903,
      "联接": 9904,
      "落实": 9905,
      "走低": 9906,
      "较好": 9907,
      "隐私": 9908,
      "首批": 9909,
      "但是在": 9910,
      "吸引力": 9911,
      "董事会": 9912,
      "实习生": 9913,
      "IXUS": 9914,
      "ust": 9915,
      "住了": 9916,
      "做多": 9917,
      "合计": 9918,
      "和其他": 9919,
      "地的": 9920,
      "射手": 9921,
      "底部": 9922,
      "据国外": 9923,
      "没什么": 9924,
      "的复习": 9925,
      "示范": 9926,
      "纳尔": 9927,
      "评卷": 9928,
      "诚信": 9929,
      "之后的": 9930,
      "负责人表示": 9931,
      "采访时表示": 9932,
      "丰富的": 9933,
      "净值增长率": 9934,
      "除此之外": 9935,
      "iversity": 9936,
      "专利": 9937,
      "业的": 9938,
      "举报": 9939,
      "也不能": 9940,
      "以内": 9941,
      "克里斯": 9942,
      "出任": 9943,
      "卫冕": 9944,
      "在这种": 9945,
      "小心": 9946,
      "山猫": 9947,
      "总共": 9948,
      "投票": 9949,
      "放大": 9950,
      "模仿": 9951,
      "赛车": 9952,
      "这支": 9953,
      "国内外": 9954,
      "去年的": 9955,
      "微博上": 9956,
      "金融机构": 9957,
      "当时的": 9958,
      "新西兰": 9959,
      "陈冠希": 9960,
      "伊布": 9961,
      "传递": 9962,
      "关口": 9963,
      "则表示": 9964,
      "呼吁": 9965,
      "是由": 9966,
      "案例": 9967,
      "策划": 9968,
      "而对于": 9969,
      "豆类": 9970,
      "较多": 9971,
      "较好的": 9972,
      "里奇": 9973,
      "非法": 9974,
      "高水平": 9975,
      "一样的": 9976,
      "特长生": 9977,
      "ID": 9978,
      "pl": 9979,
      "一中": 9980,
      "三种": 9981,
      "云计算": 9982,
      "剩余": 9983,
      "双核": 9984,
      "同事": 9985,
      "周围": 9986,
      "在我": 9987,
      "失利": 9988,
      "将与": 9989,
      "引入": 9990,
      "拿出": 9991,
      "时报记者": 9992,
      "海归": 9993,
      "病毒": 9994,
      "的设计": 9995,
      "的过程中": 9996,
      "第3": 9997,
      "赔偿": 9998,
      "那是": 9999,
      "食糖": 10000,
      "基金份额": 10001,
      "生活中": 10002,
      "成功的": 10003,
      "ark": 10004,
      "肯定会": 10005,
      "有效的": 10006,
      "燃料油": 10007,
      "勇士": 10008,
      "华泰": 10009,
      "国防": 10010,
      "多月": 10011,
      "对记者": 10012,
      "尔斯": 10013,
      "干部": 10014,
      "流畅": 10015,
      "深度": 10016,
      "电力": 10017,
      "的合作": 10018,
      "的局面": 10019,
      "省份": 10020,
      "较小": 10021,
      "辛苦": 10022,
      "招生办": 10023,
      "197": 10024,
      "第二轮": 10025,
      "的人员": 10026,
      "生活的": 10027,
      "今天的": 10028,
      "上网本": 10029,
      "配备了": 10030,
      "专项": 10031,
      "付出": 10032,
      "分歧": 10033,
      "剩下": 10034,
      "发起": 10035,
      "尔德": 10036,
      "开了": 10037,
      "总冠军": 10038,
      "我对": 10039,
      "我知道": 10040,
      "所得": 10041,
      "早上": 10042,
      "最快": 10043,
      "林丹": 10044,
      "浪漫": 10045,
      "的故事": 10046,
      "许可": 10047,
      "院长": 10048,
      "随即": 10049,
      "可以通过": 10050,
      "研究所": 10051,
      "研究院": 10052,
      "第二天": 10053,
      "原油期货": 10054,
      "更好地": 10055,
      "ee": 10056,
      "前面": 10057,
      "卫生": 10058,
      "取决": 10059,
      "在2008年": 10060,
      "堪称": 10061,
      "外形": 10062,
      "校区": 10063,
      "每桶": 10064,
      "汉姆": 10065,
      "特意": 10066,
      "瑞和": 10067,
      "简章": 10068,
      "而这": 10069,
      "长焦": 10070,
      "我们要": 10071,
      "作为一个": 10072,
      "网站的": 10073,
      "来自于": 10074,
      "辅导班": 10075,
      "UNT": 10076,
      "6月份": 10077,
      "_CO": 10078,
      "主体": 10079,
      "也对": 10080,
      "产权": 10081,
      "关闭": 10082,
      "净赎回": 10083,
      "回合": 10084,
      "小刚": 10085,
      "居然": 10086,
      "情人": 10087,
      "抑制": 10088,
      "新股": 10089,
      "暑期": 10090,
      "棕榈": 10091,
      "歌词": 10092,
      "爵士": 10093,
      "的后": 10094,
      "的她": 10095,
      "的历史": 10096,
      "的最大": 10097,
      "的现象": 10098,
      "结论": 10099,
      "评分": 10100,
      "错过": 10101,
      "的人才": 10102,
      "是否会": 10103,
      "提前批": 10104,
      "已有_CO": 10105,
      "中新网": 10106,
      "取决于": 10107,
      "UNT_": 10108,
      "已有_COUNT_": 10109,
      "4000": 10110,
      "CCD": 10111,
      "一举": 10112,
      "一所": 10113,
      "两家": 10114,
      "之战": 10115,
      "人选": 10116,
      "公民": 10117,
      "协调": 10118,
      "变成了": 10119,
      "国产": 10120,
      "将被": 10121,
      "弥补": 10122,
      "手感": 10123,
      "打压": 10124,
      "此类": 10125,
      "洛特": 10126,
      "派出": 10127,
      "登场": 10128,
      "的水平": 10129,
      "监测": 10130,
      "精英": 10131,
      "编剧": 10132,
      "缺口": 10133,
      "设施": 10134,
      "起诉": 10135,
      "这让": 10136,
      "追捧": 10137,
      "飞机": 10138,
      "政策的": 10139,
      "能够在": 10140,
      "孩子们": 10141,
      "80后": 10142,
      "发布会上": 10143,
      "中小板": 10144,
      "交通大学": 10145,
      "350": 10146,
      "LG": 10147,
      "iz": 10148,
      "”“": 10149,
      "人心": 10150,
      "国储": 10151,
      "大牌": 10152,
      "套期": 10153,
      "寻求": 10154,
      "成的": 10155,
      "换下": 10156,
      "接下来的": 10157,
      "整机": 10158,
      "正好": 10159,
      "游泳": 10160,
      "紧密": 10161,
      "绿城": 10162,
      "身心": 10163,
      "量化": 10164,
      "鉴于": 10165,
      "第三节": 10166,
      "推荐免试": 10167,
      "所谓的": 10168,
      "套期保值": 10169,
      "一篇": 10170,
      "共计": 10171,
      "加索": 10172,
      "升至": 10173,
      "受理": 10174,
      "多位": 10175,
      "平静": 10176,
      "是我们": 10177,
      "本节": 10178,
      "温格": 10179,
      "目光": 10180,
      "看上去": 10181,
      "等于": 10182,
      "给自己": 10183,
      "网页": 10184,
      "间的": 10185,
      "降价": 10186,
      "中国经济": 10187,
      "管理层": 10188,
      "俱乐部的": 10189,
      "资本市场": 10190,
      "sp": 10191,
      "上半": 10192,
      "亚锦赛": 10193,
      "产区": 10194,
      "假期": 10195,
      "四年": 10196,
      "外的": 10197,
      "巴斯": 10198,
      "应试": 10199,
      "当代": 10200,
      "方的": 10201,
      "本质": 10202,
      "条款": 10203,
      "水准": 10204,
      "浪费": 10205,
      "的有": 10206,
      "相对于": 10207,
      "立信": 10208,
      "签字": 10209,
      "篮下": 10210,
      "舒淇": 10211,
      "路线": 10212,
      "长江": 10213,
      "投资总监": 10214,
      "北京奥运会": 10215,
      "技术学院": 10216,
      "商品交易所": 10217,
      "实验室": 10218,
      "折价率": 10219,
      "5月份": 10220,
      "HTC": 10221,
      "ain": 10222,
      "um": 10223,
      "”；": 10224,
      "一件": 10225,
      "两队": 10226,
      "中兴": 10227,
      "借助": 10228,
      "剧情": 10229,
      "女足": 10230,
      "家中": 10231,
      "工厂": 10232,
      "待遇": 10233,
      "新秀": 10234,
      "日内": 10235,
      "旺季": 10236,
      "期的": 10237,
      "次数": 10238,
      "现有": 10239,
      "的行为": 10240,
      "盘面": 10241,
      "相差": 10242,
      "联邦": 10243,
      "身为": 10244,
      "重返": 10245,
      "链接": 10246,
      "额度": 10247,
      "饰演的": 10248,
      "没有什么": 10249,
      "记者了解到": 10250,
      "电影节": 10251,
      "高校的": 10252,
      "必须要": 10253,
      "有色金属": 10254,
      "320": 10255,
      "gle": 10256,
      "不需要": 10257,
      "体能": 10258,
      "何时": 10259,
      "出道": 10260,
      "加油": 10261,
      "升值": 10262,
      "哈尔": 10263,
      "困扰": 10264,
      "提名": 10265,
      "新版": 10266,
      "榜首": 10267,
      "看了": 10268,
      "类别": 10269,
      "获批": 10270,
      "还款": 10271,
      "还是要": 10272,
      "观众的": 10273,
      "ell": 10274,
      "现货价格": 10275,
      "收视率": 10276,
      "9分": 10277,
      "900": 10278,
      "上月": 10279,
      "以3": 10280,
      "但她": 10281,
      "入门": 10282,
      "全日": 10283,
      "双汇": 10284,
      "并列": 10285,
      "德勒": 10286,
      "意料": 10287,
      "打入": 10288,
      "欧美": 10289,
      "疲软": 10290,
      "的部分": 10291,
      "的基本": 10292,
      "的特点": 10293,
      "网的": 10294,
      "联手": 10295,
      "触控": 10296,
      "还表示": 10297,
      "阿娇": 10298,
      "2007": 10299,
      "资金的": 10300,
      "有关部门": 10301,
      "独立显卡": 10302,
      "的朋友不妨": 10303,
      "发言人": 10304,
      "FO": 10305,
      "ld": 10306,
      "te": 10307,
      "》《": 10308,
      "三位": 10309,
      "不俗": 10310,
      "中路": 10311,
      "为自己": 10312,
      "亚马": 10313,
      "全市": 10314,
      "只不过": 10315,
      "喜爱": 10316,
      "国脚": 10317,
      "坚决": 10318,
      "奥拉": 10319,
      "奥尼尔": 10320,
      "定义": 10321,
      "将从": 10322,
      "我相信": 10323,
      "报纸": 10324,
      "择优": 10325,
      "拿到了": 10326,
      "按键": 10327,
      "无数": 10328,
      "替代": 10329,
      "爱立信": 10330,
      "申报": 10331,
      "给出": 10332,
      "证据": 10333,
      "语种": 10334,
      "赞助": 10335,
      "轻薄": 10336,
      "霍华德": 10337,
      "专业学位": 10338,
      "参加高考": 10339,
      "ang": 10340,
      "怎么样": 10341,
      "持有人": 10342,
      "B2": 10343,
      "CN": 10344,
      "ud": 10345,
      "东莞": 10346,
      "中证": 10347,
      "之上": 10348,
      "也开始": 10349,
      "事物": 10350,
      "优化": 10351,
      "作弊": 10352,
      "养老": 10353,
      "到位": 10354,
      "副总经理": 10355,
      "厚的": 10356,
      "周边": 10357,
      "带有": 10358,
      "怎样的": 10359,
      "投研": 10360,
      "收报": 10361,
      "机遇": 10362,
      "极为": 10363,
      "留言": 10364,
      "盲目": 10365,
      "让你": 10366,
      "问及": 10367,
      "时间里": 10368,
      "期货交易所": 10369,
      "操作上": 10370,
      "University": 10371,
      "亚马逊": 10372,
      ")(": 10373,
      "EX": 10374,
      "VGA": 10375,
      "ail": 10376,
      "不敌": 10377,
      "东京": 10378,
      "为0": 10379,
      "主演的": 10380,
      "之时": 10381,
      "之际": 10382,
      "交往": 10383,
      "冬季": 10384,
      "动物": 10385,
      "却在": 10386,
      "压制": 10387,
      "向上": 10388,
      "四级": 10389,
      "在比赛": 10390,
      "基民": 10391,
      "很容易": 10392,
      "报到": 10393,
      "携手": 10394,
      "潜在": 10395,
      "的1": 10396,
      "的教育": 10397,
      "的网络": 10398,
      "盛世": 10399,
      "边路": 10400,
      "运气": 10401,
      "首度": 10402,
      "10个": 10403,
      "2002年": 10404,
      "影响力": 10405,
      "第二节": 10406,
      "大幅上涨": 10407,
      "ess": 10408,
      "吸引了": 10409,
      "经纪公司": 10410,
      "也可": 10411,
      "价的": 10412,
      "公示": 10413,
      "内心": 10414,
      "几次": 10415,
      "到场": 10416,
      "司法": 10417,
      "名将": 10418,
      "周年": 10419,
      "回暖": 10420,
      "多空": 10421,
      "天王": 10422,
      "巡回": 10423,
      "愿望": 10424,
      "指挥": 10425,
      "文艺": 10426,
      "更新": 10427,
      "熊市": 10428,
      "的投资者": 10429,
      "的环境": 10430,
      "盗版": 10431,
      "表面": 10432,
      "订单": 10433,
      "这部分": 10434,
      "阿隆": 10435,
      "马斯": 10436,
      "黑莓": 10437,
      "中国联通": 10438,
      "的一年": 10439,
      "其中包括": 10440,
      "手机的": 10441,
      "进入了": 10442,
      "资产配置": 10443,
      "原油价格": 10444,
      "体现了": 10445,
      "一共": 10446,
      "三角": 10447,
      "以此": 10448,
      "债市": 10449,
      "右侧": 10450,
      "和他": 10451,
      "哈维": 10452,
      "在京": 10453,
      "大片": 10454,
      "左侧": 10455,
      "微笑": 10456,
      "悬念": 10457,
      "接力": 10458,
      "无缘": 10459,
      "早前": 10460,
      "期市": 10461,
      "看重": 10462,
      "而出": 10463,
      "跟随": 10464,
      "遭受": 10465,
      "重复": 10466,
      "陈楚": 10467,
      "中国男篮": 10468,
      "学校长": 10469,
      "什么时候": 10470,
      "国家队的": 10471,
      "提高了": 10472,
      "统计数据显示": 10473,
      "ight": 10474,
      "复印件": 10475,
      "7个": 10476,
      "LME": 10477,
      "do": 10478,
      "wor": 10479,
      "三是": 10480,
      "两者": 10481,
      "乃至": 10482,
      "了自己": 10483,
      "他会": 10484,
      "你会": 10485,
      "依法": 10486,
      "冷静": 10487,
      "单一": 10488,
      "在新": 10489,
      "套餐": 10490,
      "实用": 10491,
      "对自己": 10492,
      "层面": 10493,
      "当事": 10494,
      "抛售": 10495,
      "次新基金": 10496,
      "消化": 10497,
      "特里": 10498,
      "的趋势": 10499,
      "的角色": 10500,
      "筹备": 10501,
      "给人": 10502,
      "老鼠": 10503,
      "语法": 10504,
      "还未": 10505,
      "长假": 10506,
      "马拉": 10507,
      "公开赛": 10508,
      "ack": 10509,
      "维持在": 10510,
      "宏观经济": 10511,
      "创始人": 10512,
      "。[": 10513,
      "下赛季": 10514,
      "不高": 10515,
      "交银": 10516,
      "但现在": 10517,
      "低点": 10518,
      "唯物": 10519,
      "塞罗": 10520,
      "工银": 10521,
      "希腊": 10522,
      "总量": 10523,
      "房间": 10524,
      "摆脱": 10525,
      "旗舰": 10526,
      "沃尔": 10527,
      "的头": 10528,
      "的大学": 10529,
      "的最新": 10530,
      "给大家": 10531,
      "绝大多数": 10532,
      "罗纳尔": 10533,
      "观念": 10534,
      "这名": 10535,
      "这家": 10536,
      "我们可以": 10537,
      "已经被": 10538,
      "什么样的": 10539,
      "能力和": 10540,
      "老师的": 10541,
      "高中生": 10542,
      "理工类": 10543,
      "同等学": 10544,
      "4万": 10545,
      "ire": 10546,
      "一分": 10547,
      "交大": 10548,
      "几十": 10549,
      "加试": 10550,
      "姐姐": 10551,
      "定制": 10552,
      "已是": 10553,
      "年级": 10554,
      "幽默": 10555,
      "振荡": 10556,
      "民办": 10557,
      "的平均": 10558,
      "给你": 10559,
      "缺阵": 10560,
      "老将": 10561,
      "认证": 10562,
      "这段": 10563,
      "这笔": 10564,
      "障碍": 10565,
      "集合": 10566,
      "预科": 10567,
      "马尔": 10568,
      "out": 10569,
      "马克思": 10570,
      "卡塔尔": 10571,
      "8个": 10572,
      "Goo": 10573,
      "上世纪": 10574,
      "亚泰": 10575,
      "优雅": 10576,
      "写真": 10577,
      "变更": 10578,
      "好在": 10579,
      "密集": 10580,
      "成像": 10581,
      "房贷": 10582,
      "指定": 10583,
      "是从": 10584,
      "未必": 10585,
      "热播": 10586,
      "的最": 10587,
      "看待": 10588,
      "空中": 10589,
      "签署": 10590,
      "网购": 10591,
      "言论": 10592,
      "认同": 10593,
      "这条": 10594,
      "领取": 10595,
      "可能性": 10596,
      "高考作文": 10597,
      "1500": 10598,
      "了一场": 10599,
      "越来越多的": 10600,
      "固定收益": 10601,
      "GDP": 10602,
      "下半": 10603,
      "做客": 10604,
      "在2009年": 10605,
      "在未来": 10606,
      "场地": 10607,
      "女主角": 10608,
      "实地": 10609,
      "干旱": 10610,
      "智慧": 10611,
      "标的": 10612,
      "正如": 10613,
      "每股": 10614,
      "法规": 10615,
      "的机身": 10616,
      "看过": 10617,
      "第4": 10618,
      "能不能": 10619,
      "连接": 10620,
      "验证": 10621,
      "一个是": 10622,
      "市场份额": 10623,
      "经济新闻": 10624,
      "院校的": 10625,
      "产生了": 10626,
      "Think": 10627,
      "据国外媒体报道": 10628,
      "SL": 10629,
      "不良": 10630,
      "两人的": 10631,
      "但如果": 10632,
      "厦门": 10633,
      "台上": 10634,
      "复制": 10635,
      "大批": 10636,
      "宽带": 10637,
      "巴塞罗": 10638,
      "录像": 10639,
      "形态": 10640,
      "情节": 10641,
      "抱怨": 10642,
      "持卡": 10643,
      "消失": 10644,
      "用来": 10645,
      "的技术": 10646,
      "等因素": 10647,
      "纺织": 10648,
      "致电": 10649,
      "被人": 10650,
      "说过": 10651,
      "资助": 10652,
      "跌至": 10653,
      "输出": 10654,
      "陈琳": 10655,
      "基金业": 10656,
      "考试时间": 10657,
      "管理费": 10658,
      "期货分析师": 10659,
      "合作伙伴": 10660,
      "…………": 10661,
      "ice": 10662,
      "贸易商": 10663,
      "____": 10664,
      "感光度": 10665,
      "同等学力": 10666,
      "ik": 10667,
      "一身": 10668,
      "也非常": 10669,
      "全程": 10670,
      "内外": 10671,
      "取景": 10672,
      "可转债": 10673,
      "告别": 10674,
      "哪儿": 10675,
      "因而": 10676,
      "套机": 10677,
      "张国": 10678,
      "当年的": 10679,
      "样子": 10680,
      "沪锌": 10681,
      "演戏": 10682,
      "的名": 10683,
      "的空间": 10684,
      "的形式": 10685,
      "解放": 10686,
      "谈及": 10687,
      "起点": 10688,
      "那时": 10689,
      "都不会": 10690,
      "长沙": 10691,
      "没有人": 10692,
      "影响到": 10693,
      "最后一个": 10694,
      "左右的": 10695,
      "或者是": 10696,
      "衍生品": 10697,
      "上投摩根": 10698,
      "巴塞罗那": 10699,
      "3次": 10700,
      "ue": 10701,
      "一号": 10702,
      "为其": 10703,
      "交给": 10704,
      "创出": 10705,
      "前来": 10706,
      "千元": 10707,
      "口碑": 10708,
      "吉林": 10709,
      "吉格斯": 10710,
      "大致": 10711,
      "安装": 10712,
      "怀孕": 10713,
      "恰恰": 10714,
      "我没有": 10715,
      "新品": 10716,
      "普及": 10717,
      "民间": 10718,
      "的支持": 10719,
      "简直": 10720,
      "籼稻": 10721,
      "西甲": 10722,
      "贝克": 10723,
      "我们就": 10724,
      "基础上": 10725,
      "电子书": 10726,
      "资格审查": 10727,
      "创造了": 10728,
      "分级基金": 10729,
      "每日经济新闻": 10730,
      "主管部门": 10731,
      "BC": 10732,
      "一同": 10733,
      "个人的": 10734,
      "中最": 10735,
      "为他": 10736,
      "为大家": 10737,
      "事故": 10738,
      "他将": 10739,
      "到达": 10740,
      "化妆": 10741,
      "发了": 10742,
      "可爱": 10743,
      "周迅": 10744,
      "四六级": 10745,
      "在大": 10746,
      "抛储": 10747,
      "提及": 10748,
      "更换": 10749,
      "的王": 10750,
      "的政策": 10751,
      "的方法": 10752,
      "的观点": 10753,
      "耐心": 10754,
      "较量": 10755,
      "邮票": 10756,
      "集训": 10757,
      "105": 10758,
      "这个角色": 10759,
      "国内的": 10760,
      "的一切": 10761,
      "心理学": 10762,
      "举办的": 10763,
      "周杰伦": 10764,
      "CMOS": 10765,
      "棕榈油": 10766,
      "DC": 10767,
      "ND": 10768,
      "中邮": 10769,
      "以便": 10770,
      "侵权": 10771,
      "全明星": 10772,
      "前十": 10773,
      "卡佩": 10774,
      "原料": 10775,
      "好事": 10776,
      "季节": 10777,
      "实的": 10778,
      "富城": 10779,
      "总数": 10780,
      "持有的": 10781,
      "斯基": 10782,
      "有一定": 10783,
      "渴望": 10784,
      "空单": 10785,
      "莫拉": 10786,
      "课堂": 10787,
      "跑赢": 10788,
      "过渡": 10789,
      "郭富城": 10790,
      "都被": 10791,
      "金鹰": 10792,
      "黑客": 10793,
      "考生和家长": 10794,
      "经济复苏": 10795,
      "国际油价": 10796,
      "其中的": 10797,
      "联赛的": 10798,
      "程度的": 10799,
      "湖人队": 10800,
      "尼康D": 10801,
      "征集志愿": 10802,
      "Mobile": 10803,
      "1月份": 10804,
      "8000": 10805,
      "一一": 10806,
      "不论": 10807,
      "东部": 10808,
      "为6": 10809,
      "义务": 10810,
      "价差": 10811,
      "候选": 10812,
      "分成": 10813,
      "刚才": 10814,
      "区县": 10815,
      "和谐": 10816,
      "图文": 10817,
      "在2010年": 10818,
      "均价": 10819,
      "官网": 10820,
      "巴蒂": 10821,
      "拉德": 10822,
      "挂牌": 10823,
      "暗示": 10824,
      "更衣": 10825,
      "材质": 10826,
      "栏目": 10827,
      "泰国": 10828,
      "涨势": 10829,
      "犹豫": 10830,
      "的风": 10831,
      "的股票": 10832,
      "的业绩": 10833,
      "目录": 10834,
      "看得": 10835,
      "结局": 10836,
      "补贴": 10837,
      "视觉": 10838,
      "触及": 10839,
      "辉煌": 10840,
      "难免": 10841,
      "马来": 10842,
      "教练组": 10843,
      "意识到": 10844,
      "基金管理公司": 10845,
      "分辨率为": 10846,
      "安德森": 10847,
      "LL": 10848,
      "pro": 10849,
      "不愿意": 10850,
      "两只": 10851,
      "为人": 10852,
      "也曾": 10853,
      "事项": 10854,
      "人文": 10855,
      "取代": 10856,
      "哈里斯": 10857,
      "复合": 10858,
      "学士": 10859,
      "学者": 10860,
      "实德": 10861,
      "尼斯": 10862,
      "差别": 10863,
      "开出": 10864,
      "我自己": 10865,
      "手的": 10866,
      "拿着": 10867,
      "指引": 10868,
      "暑假": 10869,
      "服从": 10870,
      "演技": 10871,
      "的海": 10872,
      "的拍摄": 10873,
      "虚假": 10874,
      "要注意": 10875,
      "角球": 10876,
      "贬值": 10877,
      "路上": 10878,
      "跳水": 10879,
      "长达": 10880,
      "随之": 10881,
      "颇为": 10882,
      "中国人民": 10883,
      "可以看出": 10884,
      "考试中": 10885,
      "新浪教育": 10886,
      "资产的": 10887,
      "广东省": 10888,
      "预选赛": 10889,
      "更衣室": 10890,
      "250": 10891,
      "一球": 10892,
      "两场": 10893,
      "主观": 10894,
      "做出了": 10895,
      "冯小刚": 10896,
      "减弱": 10897,
      "判罚": 10898,
      "加斯": 10899,
      "发售": 10900,
      "好处": 10901,
      "将近": 10902,
      "年纪": 10903,
      "拉涅": 10904,
      "指责": 10905,
      "探讨": 10906,
      "收紧": 10907,
      "是谁": 10908,
      "率领": 10909,
      "的研究": 10910,
      "的身份": 10911,
      "缴纳": 10912,
      "要看": 10913,
      "该片": 10914,
      "较强": 10915,
      "近几年": 10916,
      "这件事": 10917,
      "造成了": 10918,
      "如果说": 10919,
      "经济增长": 10920,
      "的一位": 10921,
      "学习的": 10922,
      "机构投资者": 10923,
      "拍摄的": 10924,
      "仍然是": 10925,
      "的朋友可以": 10926,
      "ThinkPad": 10927,
      "450": 10928,
      "Jo": 10929,
      "TE": 10930,
      "三次": 10931,
      "不容": 10932,
      "不必": 10933,
      "东南": 10934,
      "为5": 10935,
      "交锋": 10936,
      "他又": 10937,
      "几位": 10938,
      "华尔": 10939,
      "同步": 10940,
      "已被": 10941,
      "年末": 10942,
      "暴露": 10943,
      "极大": 10944,
      "汇丰": 10945,
      "济南": 10946,
      "的天": 10947,
      "的说法": 10948,
      "紧急": 10949,
      "组建": 10950,
      "综艺": 10951,
      "缴费": 10952,
      "而被": 10953,
      "解题": 10954,
      "诞生": 10955,
      "过多": 10956,
      "迈克尔": 10957,
      "重建": 10958,
      "投资于": 10959,
      "招生考试": 10960,
      "第一季度": 10961,
      "非常好": 10962,
      "技术的": 10963,
      "支付宝": 10964,
      "HDMI": 10965,
      "加索尔": 10966,
      "6000": 10967,
      "7000": 10968,
      "EA": 10969,
      "NY": 10970,
      "can": 10971,
      "下方": 10972,
      "不算": 10973,
      "专用": 10974,
      "主打": 10975,
      "体会": 10976,
      "兰克": 10977,
      "兰德里": 10978,
      "和专业": 10979,
      "声称": 10980,
      "完了": 10981,
      "局势": 10982,
      "福州": 10983,
      "离职": 10984,
      "职务": 10985,
      "色情": 10986,
      "近年": 10987,
      "基金中": 10988,
      "最后时刻": 10989,
      "联系电话": 10990,
      "比如说": 10991,
      "稳定的": 10992,
      "酷睿i": 10993,
      "Google": 10994,
      "by": 10995,
      "if": 10996,
      "上传": 10997,
      "中学校长": 10998,
      "会对": 10999,
      "但却": 11000,
      "供求": 11001,
      "发送": 11002,
      "在全球": 11003,
      "型号": 11004,
      "外线": 11005,
      "尔曼": 11006,
      "年薪": 11007,
      "延长": 11008,
      "我还": 11009,
      "李小": 11010,
      "每经": 11011,
      "疾病": 11012,
      "的2": 11013,
      "的超": 11014,
      "短暂": 11015,
      "等多": 11016,
      "聪明": 11017,
      "膨胀": 11018,
      "莫雷": 11019,
      "被告": 11020,
      "首个": 11021,
      "1080": 11022,
      "市场中": 11023,
      "招生简章": 11024,
      "如果没有": 11025,
      "表现出": 11026,
      "分钟后": 11027,
      "学院的": 11028,
      "基础知识": 11029,
      "控制分数线": 11030,
      "哈尔滨": 11031,
      "马来西亚": 11032,
      "la": 11033,
      "三人": 11034,
      "下一个": 11035,
      "不难": 11036,
      "专注": 11037,
      "伊能": 11038,
      "保级": 11039,
      "克拉": 11040,
      "其在": 11041,
      "华东": 11042,
      "史密": 11043,
      "姑娘": 11044,
      "就连": 11045,
      "平仓": 11046,
      "年化": 11047,
      "很有可能": 11048,
      "悲观": 11049,
      "成年": 11050,
      "战斗": 11051,
      "扣篮": 11052,
      "投中": 11053,
      "挂钩": 11054,
      "教室": 11055,
      "无需": 11056,
      "昆明": 11057,
      "有助于": 11058,
      "此举": 11059,
      "法庭": 11060,
      "独特的": 11061,
      "的3": 11062,
      "的速度": 11063,
      "科特": 11064,
      "考题": 11065,
      "衡量": 11066,
      "西方": 11067,
      "贵州": 11068,
      "退休": 11069,
      "市场预期": 11070,
      "200元": 11071,
      "因为他": 11072,
      "15分": 11073,
      "那么多": 11074,
      "伊能静": 11075,
      "LA": 11076,
      "LO": 11077,
      "中外": 11078,
      "你要": 11079,
      "前晚": 11080,
      "原文": 11081,
      "后续": 11082,
      "围棋": 11083,
      "家族": 11084,
      "平常": 11085,
      "开启": 11086,
      "感慨": 11087,
      "房产": 11088,
      "接连": 11089,
      "某个": 11090,
      "每一": 11091,
      "温度": 11092,
      "物联网": 11093,
      "略有": 11094,
      "的多": 11095,
      "的防守": 11096,
      "自称": 11097,
      "规避": 11098,
      "迄今": 11099,
      "钻石": 11100,
      "黄晓明": 11101,
      "我们也": 11102,
      "录取工作": 11103,
      "计划招生": 11104,
      "比较大": 11105,
      "140": 11106,
      "亿元的": 11107,
      "大幅下跌": 11108,
      "ort": 11109,
      "职业技术学院": 11110,
      "资格的": 11111,
      "著名的": 11112,
      "保本基金": 11113,
      "湖南卫视": 11114,
      "TVB": 11115,
      "开幕式": 11116,
      "2元": 11117,
      "Wh": 11118,
      "we": 11119,
      "上来": 11120,
      "东吴": 11121,
      "主权": 11122,
      "买家": 11123,
      "交换": 11124,
      "休闲": 11125,
      "先是": 11126,
      "净申购": 11127,
      "别墅": 11128,
      "前卫": 11129,
      "参观": 11130,
      "又一次": 11131,
      "各方": 11132,
      "奇迹": 11133,
      "恐怖": 11134,
      "找不到": 11135,
      "拿下了": 11136,
      "据统计": 11137,
      "最具": 11138,
      "步伐": 11139,
      "汉语": 11140,
      "流入": 11141,
      "的关注": 11142,
      "直至": 11143,
      "种子": 11144,
      "第1": 11145,
      "要比": 11146,
      "调节": 11147,
[...]
